
#include "tensorflow_model_cnn_quant.h"

// This is a TensorFlow Lite model file that has been converted into a C data
// array using the tensorflow.lite.util.convert_bytes_to_c_source() function.
// This form is useful for compiling into a binary for devices that don't have a
// file system.


// We need to keep the data array aligned on some architectures.
#ifdef __has_attribute
#define HAVE_ATTRIBUTE(x) __has_attribute(x)
#else
#define HAVE_ATTRIBUTE(x) 0
#endif
#if HAVE_ATTRIBUTE(aligned) || (defined(__GNUC__) && !defined(__clang__))
#define DATA_ALIGN_ATTRIBUTE __attribute__((aligned(4)))
#else
#define DATA_ALIGN_ATTRIBUTE
#endif

const unsigned char tensorflow_model_cnn_quant[] DATA_ALIGN_ATTRIBUTE = {
    0x20, 0x00, 0x00, 0x00, 0x54, 0x46, 0x4c, 0x33, 0x00, 0x00, 0x00, 0x00, 0x14,
    0x00, 0x20, 0x00, 0x04, 0x00, 0x08, 0x00, 0x0c, 0x00, 0x10, 0x00, 0x14, 0x00,
    0x00, 0x00, 0x18, 0x00, 0x1c, 0x00, 0x14, 0x00, 0x00, 0x00, 0x03, 0x00, 0x00,
    0x00, 0x18, 0x00, 0x00, 0x00, 0x34, 0x00, 0x00, 0x00, 0xf0, 0x00, 0x00, 0x00,
    0x34, 0x00, 0x00, 0x00, 0x98, 0x00, 0x00, 0x00, 0x90, 0x00, 0x00, 0x00, 0x07,
    0x00, 0x00, 0x00, 0xf8, 0x09, 0x00, 0x00, 0xb0, 0x08, 0x00, 0x00, 0x80, 0x06,
    0x00, 0x00, 0x94, 0x05, 0x00, 0x00, 0xac, 0x04, 0x00, 0x00, 0x4c, 0x02, 0x00,
    0x00, 0xc4, 0x01, 0x00, 0x00, 0x01, 0x00, 0x00, 0x00, 0xe0, 0x00, 0x00, 0x00,
    0x18, 0x00, 0x00, 0x00, 0x40, 0x3b, 0x00, 0x00, 0x3c, 0x3b, 0x00, 0x00, 0x60,
    0x3a, 0x00, 0x00, 0x18, 0x39, 0x00, 0x00, 0x1c, 0x38, 0x00, 0x00, 0x4c, 0x36,
    0x00, 0x00, 0x4c, 0x35, 0x00, 0x00, 0xdc, 0x16, 0x00, 0x00, 0x50, 0x15, 0x00,
    0x00, 0xd8, 0x0c, 0x00, 0x00, 0xd0, 0x0b, 0x00, 0x00, 0xd8, 0x0a, 0x00, 0x00,
    0x40, 0x0a, 0x00, 0x00, 0x0c, 0x3b, 0x00, 0x00, 0x08, 0x3b, 0x00, 0x00, 0x04,
    0x3b, 0x00, 0x00, 0x00, 0x3b, 0x00, 0x00, 0xfc, 0x3a, 0x00, 0x00, 0xf8, 0x3a,
    0x00, 0x00, 0xf4, 0x3a, 0x00, 0x00, 0xf0, 0x3a, 0x00, 0x00, 0xec, 0x3a, 0x00,
    0x00, 0xe8, 0x3a, 0x00, 0x00, 0x3c, 0x00, 0x00, 0x00, 0x00, 0x00, 0x00, 0x00,
    0x01, 0x00, 0x00, 0x00, 0x0c, 0x00, 0x00, 0x00, 0x08, 0x00, 0x0c, 0x00, 0x04,
    0x00, 0x08, 0x00, 0x08, 0x00, 0x00, 0x00, 0x08, 0x00, 0x00, 0x00, 0x17, 0x00,
    0x00, 0x00, 0x13, 0x00, 0x00, 0x00, 0x6d, 0x69, 0x6e, 0x5f, 0x72, 0x75, 0x6e,
    0x74, 0x69, 0x6d, 0x65, 0x5f, 0x76, 0x65, 0x72, 0x73, 0x69, 0x6f, 0x6e, 0x00,
    0x36, 0xc6, 0xff, 0xff, 0x04, 0x00, 0x00, 0x00, 0x10, 0x00, 0x00, 0x00, 0x31,
    0x2e, 0x31, 0x34, 0x2e, 0x30, 0x00, 0x00, 0x00, 0x00, 0x00, 0x00, 0x00, 0x00,
    0x00, 0x00, 0x0f, 0x00, 0x00, 0x00, 0x4d, 0x4c, 0x49, 0x52, 0x20, 0x43, 0x6f,
    0x6e, 0x76, 0x65, 0x72, 0x74, 0x65, 0x64, 0x2e, 0x00, 0x00, 0x00, 0x0e, 0x00,
    0x18, 0x00, 0x04, 0x00, 0x08, 0x00, 0x0c, 0x00, 0x10, 0x00, 0x14, 0x00, 0x0e,
    0x00, 0x00, 0x00, 0x14, 0x00, 0x00, 0x00, 0x6c, 0x00, 0x00, 0x00, 0x70, 0x00,
    0x00, 0x00, 0x74, 0x00, 0x00, 0x00, 0x9c, 0x00, 0x00, 0x00, 0x16, 0x00, 0x00,
    0x00, 0xf0, 0x39, 0x00, 0x00, 0x94, 0x39, 0x00, 0x00, 0x94, 0x38, 0x00, 0x00,
    0x58, 0x37, 0x00, 0x00, 0x68, 0x36, 0x00, 0x00, 0x88, 0x34, 0x00, 0x00, 0xf8,
    0x33, 0x00, 0x00, 0x6c, 0x15, 0x00, 0x00, 0xf4, 0x13, 0x00, 0x00, 0x6c, 0x0b,
    0x00, 0x00, 0x74, 0x0a, 0x00, 0x00, 0x6c, 0x09, 0x00, 0x00, 0xd0, 0x08, 0x00,
    0x00, 0x74, 0x07, 0x00, 0x00, 0x14, 0x06, 0x00, 0x00, 0x40, 0x05, 0x00, 0x00,
    0x54, 0x04, 0x00, 0x00, 0x6c, 0x03, 0x00, 0x00, 0x70, 0x02, 0x00, 0x00, 0xa4,
    0x01, 0x00, 0x00, 0x04, 0x01, 0x00, 0x00, 0x7c, 0x00, 0x00, 0x00, 0x01, 0x00,
    0x00, 0x00, 0x00, 0x00, 0x00, 0x00, 0x01, 0x00, 0x00, 0x00, 0x15, 0x00, 0x00,
    0x00, 0x0a, 0x00, 0x00, 0x00, 0x48, 0x08, 0x00, 0x00, 0xdc, 0x06, 0x00, 0x00,
    0x98, 0x05, 0x00, 0x00, 0xa4, 0x04, 0x00, 0x00, 0xe4, 0x03, 0x00, 0x00, 0xe0,
    0x02, 0x00, 0x00, 0xfc, 0x01, 0x00, 0x00, 0x34, 0x01, 0x00, 0x00, 0x88, 0x00,
    0x00, 0x00, 0x10, 0x00, 0x00, 0x00, 0x04, 0x00, 0x00, 0x00, 0x6d, 0x61, 0x69,
    0x6e, 0x00, 0x00, 0x00, 0x00, 0x4a, 0xfc, 0xff, 0xff, 0x06, 0x00, 0x00, 0x00,
    0x10, 0x00, 0x00, 0x00, 0x04, 0x00, 0x00, 0x00, 0x01, 0x00, 0x00, 0x00, 0x15,
    0x00, 0x00, 0x00, 0x01, 0x00, 0x00, 0x00, 0x14, 0x00, 0x00, 0x00, 0xf0, 0xf7,
    0xff, 0xff, 0x06, 0x00, 0x00, 0x00, 0x00, 0x00, 0x00, 0x06, 0x02, 0x00, 0x00,
    0x00, 0xf4, 0xc6, 0xff, 0xff, 0x14, 0x00, 0x00, 0x00, 0x16, 0x00, 0x00, 0x00,
    0x24, 0x00, 0x00, 0x00, 0x30, 0x00, 0x00, 0x00, 0x10, 0x00, 0x00, 0x00, 0x02,
    0x00, 0x00, 0x00, 0x01, 0x00, 0x00, 0x00, 0x04, 0x00, 0x00, 0x00, 0x02, 0x00,
    0x00, 0x00, 0xff, 0xff, 0xff, 0xff, 0x04, 0x00, 0x00, 0x00, 0x08, 0x00, 0x00,
    0x00, 0x49, 0x64, 0x65, 0x6e, 0x74, 0x69, 0x74, 0x79, 0x00, 0x00, 0x00, 0x00,
    0xc8, 0xc6, 0xff, 0xff, 0xd6, 0xf9, 0xff, 0xff, 0x00, 0x00, 0x00, 0x09, 0x05,
    0x00, 0x00, 0x00, 0x1c, 0x00, 0x00, 0x00, 0x10, 0x00, 0x00, 0x00, 0x04, 0x00,
    0x00, 0x00, 0xbe, 0xc7, 0xff, 0xff, 0x00, 0x00, 0x80, 0x3f, 0x01, 0x00, 0x00,
    0x00, 0x14, 0x00, 0x00, 0x00, 0x01, 0x00, 0x00, 0x00, 0x13, 0x00, 0x00, 0x00,
    0x74, 0xf8, 0xff, 0xff, 0x19, 0x00, 0x00, 0x00, 0x00, 0x00, 0x00, 0x19, 0x02,
    0x00, 0x00, 0x00, 0x68, 0xf8, 0xff, 0xff, 0x00, 0x00, 0x00, 0x09, 0x14, 0x00,
    0x00, 0x00, 0x15, 0x00, 0x00, 0x00, 0x24, 0x00, 0x00, 0x00, 0x30, 0x00, 0x00,
    0x00, 0x10, 0x00, 0x00, 0x00, 0x02, 0x00, 0x00, 0x00, 0x01, 0x00, 0x00, 0x00,
    0x04, 0x00, 0x00, 0x00, 0x02, 0x00, 0x00, 0x00, 0xff, 0xff, 0xff, 0xff, 0x04,
    0x00, 0x00, 0x00, 0x09, 0x00, 0x00, 0x00, 0x49, 0x64, 0x65, 0x6e, 0x74, 0x69,
    0x74, 0x79, 0x31, 0x00, 0x00, 0x00, 0xb0, 0xc8, 0xff, 0xff, 0x08, 0x00, 0x00,
    0x00, 0x0c, 0x00, 0x00, 0x00, 0x01, 0x00, 0x00, 0x00, 0x00, 0x00, 0x80, 0x3b,
    0x01, 0x00, 0x00, 0x00, 0x80, 0xff, 0xff, 0xff, 0xff, 0xff, 0xff, 0xff, 0x00,
    0x00, 0x00, 0x00, 0x7e, 0xfa, 0xff, 0xff, 0x00, 0x00, 0x00, 0x08, 0x04, 0x00,
    0x00, 0x00, 0x18, 0x00, 0x00, 0x00, 0x0c, 0x00, 0x00, 0x00, 0x04, 0x00, 0x00,
    0x00, 0x8c, 0xc7, 0xff, 0xff, 0x01, 0x00, 0x00, 0x00, 0x13, 0x00, 0x00, 0x00,
    0x03, 0x00, 0x00, 0x00, 0x12, 0x00, 0x00, 0x00, 0x0a, 0x00, 0x00, 0x00, 0x0b,
    0x00, 0x00, 0x00, 0x04, 0xf9, 0xff, 0xff, 0x00, 0x00, 0x00, 0x09, 0x14, 0x00,
    0x00, 0x00, 0x14, 0x00, 0x00, 0x00, 0x24, 0x00, 0x00, 0x00, 0x5c, 0x00, 0x00,
    0x00, 0x10, 0x00, 0x00, 0x00, 0x02, 0x00, 0x00, 0x00, 0x01, 0x00, 0x00, 0x00,
    0x04, 0x00, 0x00, 0x00, 0x02, 0x00, 0x00, 0x00, 0xff, 0xff, 0xff, 0xff, 0x04,
    0x00, 0x00, 0x00, 0x34, 0x00, 0x00, 0x00, 0x73, 0x65, 0x71, 0x75, 0x65, 0x6e,
    0x74, 0x69, 0x61, 0x6c, 0x2f, 0x64, 0x65, 0x6e, 0x73, 0x65, 0x5f, 0x32, 0x2f,
    0x4d, 0x61, 0x74, 0x4d, 0x75, 0x6c, 0x3b, 0x73, 0x65, 0x71, 0x75, 0x65, 0x6e,
    0x74, 0x69, 0x61, 0x6c, 0x2f, 0x64, 0x65, 0x6e, 0x73, 0x65, 0x5f, 0x32, 0x2f,
    0x42, 0x69, 0x61, 0x73, 0x41, 0x64, 0x64, 0x00, 0x00, 0x00, 0x00, 0x78, 0xc9,
    0xff, 0xff, 0x08, 0x00, 0x00, 0x00, 0x0c, 0x00, 0x00, 0x00, 0x01, 0x00, 0x00,
    0x00, 0x81, 0xcc, 0x2b, 0x3e, 0x01, 0x00, 0x00, 0x00, 0x48, 0x00, 0x00, 0x00,
    0x00, 0x00, 0x00, 0x00, 0x42, 0xfb, 0xff, 0xff, 0x00, 0x00, 0x00, 0x08, 0x04,
    0x00, 0x00, 0x00, 0x1c, 0x00, 0x00, 0x00, 0x10, 0x00, 0x00, 0x00, 0x04, 0x00,
    0x00, 0x00, 0x1e, 0xff, 0xff, 0xff, 0x00, 0x00, 0x00, 0x01, 0x01, 0x00, 0x00,
    0x00, 0x12, 0x00, 0x00, 0x00, 0x03, 0x00, 0x00, 0x00, 0x11, 0x00, 0x00, 0x00,
    0x08, 0x00, 0x00, 0x00, 0x09, 0x00, 0x00, 0x00, 0xcc, 0xf9, 0xff, 0xff, 0x00,
    0x00, 0x00, 0x09, 0x14, 0x00, 0x00, 0x00, 0x13, 0x00, 0x00, 0x00, 0x24, 0x00,
    0x00, 0x00, 0x74, 0x00, 0x00, 0x00, 0x10, 0x00, 0x00, 0x00, 0x02, 0x00, 0x00,
    0x00, 0x01, 0x00, 0x00, 0x00, 0x20, 0x00, 0x00, 0x00, 0x02, 0x00, 0x00, 0x00,
    0xff, 0xff, 0xff, 0xff, 0x20, 0x00, 0x00, 0x00, 0x4c, 0x00, 0x00, 0x00, 0x73,
    0x65, 0x71, 0x75, 0x65, 0x6e, 0x74, 0x69, 0x61, 0x6c, 0x2f, 0x64, 0x65, 0x6e,
    0x73, 0x65, 0x5f, 0x31, 0x2f, 0x4d, 0x61, 0x74, 0x4d, 0x75, 0x6c, 0x3b, 0x73,
    0x65, 0x71, 0x75, 0x65, 0x6e, 0x74, 0x69, 0x61, 0x6c, 0x2f, 0x64, 0x65, 0x6e,
    0x73, 0x65, 0x5f, 0x31, 0x2f, 0x52, 0x65, 0x6c, 0x75, 0x3b, 0x73, 0x65, 0x71,
    0x75, 0x65, 0x6e, 0x74, 0x69, 0x61, 0x6c, 0x2f, 0x64, 0x65, 0x6e, 0x73, 0x65,
    0x5f, 0x31, 0x2f, 0x42, 0x69, 0x61, 0x73, 0x41, 0x64, 0x64, 0x00, 0x00, 0x00,
    0x00, 0x58, 0xca, 0xff, 0xff, 0x08, 0x00, 0x00, 0x00, 0x0c, 0x00, 0x00, 0x00,
    0x01, 0x00, 0x00, 0x00, 0xec, 0xe5, 0xa8, 0x3c, 0x01, 0x00, 0x00, 0x00, 0x80,
    0xff, 0xff, 0xff, 0xff, 0xff, 0xff, 0xff, 0x52, 0xfe, 0xff, 0xff, 0x00, 0x00,
    0x00, 0x08, 0x04, 0x00, 0x00, 0x00, 0x24, 0x00, 0x00, 0x00, 0x18, 0x00, 0x00,
    0x00, 0x0c, 0x00, 0x00, 0x00, 0x00, 0x00, 0x06, 0x00, 0x08, 0x00, 0x07, 0x00,
    0x06, 0x00, 0x00, 0x00, 0x00, 0x00, 0x00, 0x01, 0x01, 0x00, 0x00, 0x00, 0x11,
    0x00, 0x00, 0x00, 0x03, 0x00, 0x00, 0x00, 0x10, 0x00, 0x00, 0x00, 0x06, 0x00,
    0x00, 0x00, 0x07, 0x00, 0x00, 0x00, 0xd0, 0xfa, 0xff, 0xff, 0x09, 0x00, 0x00,
    0x00, 0x00, 0x00, 0x00, 0x09, 0x04, 0x00, 0x00, 0x00, 0xc4, 0xfa, 0xff, 0xff,
    0x00, 0x00, 0x00, 0x09, 0x14, 0x00, 0x00, 0x00, 0x12, 0x00, 0x00, 0x00, 0x24,
    0x00, 0x00, 0x00, 0x6c, 0x00, 0x00, 0x00, 0x10, 0x00, 0x00, 0x00, 0x02, 0x00,
    0x00, 0x00, 0x01, 0x00, 0x00, 0x00, 0x40, 0x00, 0x00, 0x00, 0x02, 0x00, 0x00,
    0x00, 0xff, 0xff, 0xff, 0xff, 0x40, 0x00, 0x00, 0x00, 0x46, 0x00, 0x00, 0x00,
    0x73, 0x65, 0x71, 0x75, 0x65, 0x6e, 0x74, 0x69, 0x61, 0x6c, 0x2f, 0x64, 0x65,
    0x6e, 0x73, 0x65, 0x2f, 0x4d, 0x61, 0x74, 0x4d, 0x75, 0x6c, 0x3b, 0x73, 0x65,
    0x71, 0x75, 0x65, 0x6e, 0x74, 0x69, 0x61, 0x6c, 0x2f, 0x64, 0x65, 0x6e, 0x73,
    0x65, 0x2f, 0x52, 0x65, 0x6c, 0x75, 0x3b, 0x73, 0x65, 0x71, 0x75, 0x65, 0x6e,
    0x74, 0x69, 0x61, 0x6c, 0x2f, 0x64, 0x65, 0x6e, 0x73, 0x65, 0x2f, 0x42, 0x69,
    0x61, 0x73, 0x41, 0x64, 0x64, 0x00, 0x00, 0x48, 0xcb, 0xff, 0xff, 0x08, 0x00,
    0x00, 0x00, 0x0c, 0x00, 0x00, 0x00, 0x01, 0x00, 0x00, 0x00, 0x9f, 0x6e, 0x12,
    0x3c, 0x01, 0x00, 0x00, 0x00, 0x80, 0xff, 0xff, 0xff, 0xff, 0xff, 0xff, 0xff,
    0x00, 0x00, 0x00, 0x00, 0x00, 0x00, 0x0a, 0x00, 0x10, 0x00, 0x04, 0x00, 0x08,
    0x00, 0x0c, 0x00, 0x0a, 0x00, 0x00, 0x00, 0x03, 0x00, 0x00, 0x00, 0x10, 0x00,
    0x00, 0x00, 0x04, 0x00, 0x00, 0x00, 0x01, 0x00, 0x00, 0x00, 0x10, 0x00, 0x00,
    0x00, 0x02, 0x00, 0x00, 0x00, 0x0f, 0x00, 0x00, 0x00, 0x01, 0x00, 0x00, 0x00,
    0xb4, 0xfb, 0xff, 0xff, 0x16, 0x00, 0x00, 0x00, 0x00, 0x00, 0x00, 0x16, 0x01,
    0x00, 0x00, 0x00, 0xa8, 0xfb, 0xff, 0xff, 0x00, 0x00, 0x00, 0x09, 0x14, 0x00,
    0x00, 0x00, 0x11, 0x00, 0x00, 0x00, 0x24, 0x00, 0x00, 0x00, 0x40, 0x00, 0x00,
    0x00, 0x10, 0x00, 0x00, 0x00, 0x02, 0x00, 0x00, 0x00, 0x01, 0x00, 0x00, 0x00,
    0x78, 0x00, 0x00, 0x00, 0x02, 0x00, 0x00, 0x00, 0xff, 0xff, 0xff, 0xff, 0x78,
    0x00, 0x00, 0x00, 0x1a, 0x00, 0x00, 0x00, 0x73, 0x65, 0x71, 0x75, 0x65, 0x6e,
    0x74, 0x69, 0x61, 0x6c, 0x2f, 0x66, 0x6c, 0x61, 0x74, 0x74, 0x65, 0x6e, 0x2f,
    0x52, 0x65, 0x73, 0x68, 0x61, 0x70, 0x65, 0x00, 0x00, 0x00, 0xcc, 0xff, 0xff,
    0x08, 0x00, 0x00, 0x00, 0x0c, 0x00, 0x00, 0x00, 0x01, 0x00, 0x00, 0x00, 0x53,
    0xc2, 0xb5, 0x3b, 0x01, 0x00, 0x00, 0x00, 0x80, 0xff, 0xff, 0xff, 0xff, 0xff,
    0xff, 0xff, 0x00, 0x00, 0x00, 0x00, 0x00, 0x00, 0x0e, 0x00, 0x1a, 0x00, 0x08,
    0x00, 0x0c, 0x00, 0x10, 0x00, 0x07, 0x00, 0x14, 0x00, 0x0e, 0x00, 0x00, 0x00,
    0x00, 0x00, 0x00, 0x05, 0x02, 0x00, 0x00, 0x00, 0x3c, 0x00, 0x00, 0x00, 0x30,
    0x00, 0x00, 0x00, 0x14, 0x00, 0x00, 0x00, 0x00, 0x00, 0x0e, 0x00, 0x18, 0x00,
    0x17, 0x00, 0x10, 0x00, 0x0c, 0x00, 0x08, 0x00, 0x04, 0x00, 0x0e, 0x00, 0x00,
    0x00, 0x08, 0x00, 0x00, 0x00, 0x01, 0x00, 0x00, 0x00, 0x08, 0x00, 0x00, 0x00,
    0x01, 0x00, 0x00, 0x00, 0x00, 0x00, 0x00, 0x01, 0x01, 0x00, 0x00, 0x00, 0x0f,
    0x00, 0x00, 0x00, 0x01, 0x00, 0x00, 0x00, 0x0e, 0x00, 0x00, 0x00, 0x9c, 0xfc,
    0xff, 0xff, 0x11, 0x00, 0x00, 0x00, 0x00, 0x00, 0x00, 0x11, 0x02, 0x00, 0x00,
    0x00, 0x90, 0xfc, 0xff, 0xff, 0x00, 0x00, 0x00, 0x09, 0x14, 0x00, 0x00, 0x00,
    0x10, 0x00, 0x00, 0x00, 0x34, 0x00, 0x00, 0x00, 0x58, 0x00, 0x00, 0x00, 0x18,
    0x00, 0x00, 0x00, 0x04, 0x00, 0x00, 0x00, 0x01, 0x00, 0x00, 0x00, 0x0f, 0x00,
    0x00, 0x00, 0x01, 0x00, 0x00, 0x00, 0x08, 0x00, 0x00, 0x00, 0x04, 0x00, 0x00,
    0x00, 0xff, 0xff, 0xff, 0xff, 0x0f, 0x00, 0x00, 0x00, 0x01, 0x00, 0x00, 0x00,
    0x08, 0x00, 0x00, 0x00, 0x20, 0x00, 0x00, 0x00, 0x73, 0x65, 0x71, 0x75, 0x65,
    0x6e, 0x74, 0x69, 0x61, 0x6c, 0x2f, 0x6d, 0x61, 0x78, 0x5f, 0x70, 0x6f, 0x6f,
    0x6c, 0x69, 0x6e, 0x67, 0x32, 0x64, 0x2f, 0x4d, 0x61, 0x78, 0x50, 0x6f, 0x6f,
    0x6c, 0x00, 0x00, 0x00, 0x00, 0x00, 0xcd, 0xff, 0xff, 0x08, 0x00, 0x00, 0x00,
    0x0c, 0x00, 0x00, 0x00, 0x01, 0x00, 0x00, 0x00, 0x53, 0xc2, 0xb5, 0x3b, 0x01,
    0x00, 0x00, 0x00, 0x80, 0xff, 0xff, 0xff, 0xff, 0xff, 0xff, 0xff, 0x00, 0x00,
    0x00, 0x00, 0xce, 0xfe, 0xff, 0xff, 0x00, 0x00, 0x00, 0x01, 0x01, 0x00, 0x00,
    0x00, 0x24, 0x00, 0x00, 0x00, 0x18, 0x00, 0x00, 0x00, 0x04, 0x00, 0x00, 0x00,
    0xc0, 0xfe, 0xff, 0xff, 0x01, 0x00, 0x00, 0x00, 0x01, 0x00, 0x00, 0x00, 0x00,
    0x00, 0x01, 0x01, 0x01, 0x00, 0x00, 0x00, 0x0e, 0x00, 0x00, 0x00, 0x03, 0x00,
    0x00, 0x00, 0x0d, 0x00, 0x00, 0x00, 0x04, 0x00, 0x00, 0x00, 0x05, 0x00, 0x00,
    0x00, 0x60, 0xfd, 0xff, 0xff, 0x00, 0x00, 0x00, 0x09, 0x14, 0x00, 0x00, 0x00,
    0x0f, 0x00, 0x00, 0x00, 0x34, 0x00, 0x00, 0x00, 0xb8, 0x00, 0x00, 0x00, 0x18,
    0x00, 0x00, 0x00, 0x04, 0x00, 0x00, 0x00, 0x01, 0x00, 0x00, 0x00, 0x7a, 0x00,
    0x00, 0x00, 0x01, 0x00, 0x00, 0x00, 0x08, 0x00, 0x00, 0x00, 0x04, 0x00, 0x00,
    0x00, 0xff, 0xff, 0xff, 0xff, 0x7a, 0x00, 0x00, 0x00, 0x01, 0x00, 0x00, 0x00,
    0x08, 0x00, 0x00, 0x00, 0x83, 0x00, 0x00, 0x00, 0x73, 0x65, 0x71, 0x75, 0x65,
    0x6e, 0x74, 0x69, 0x61, 0x6c, 0x2f, 0x63, 0x6f, 0x6e, 0x76, 0x32, 0x64, 0x5f,
    0x31, 0x2f, 0x52, 0x65, 0x6c, 0x75, 0x3b, 0x73, 0x65, 0x71, 0x75, 0x65, 0x6e,
    0x74, 0x69, 0x61, 0x6c, 0x2f, 0x63, 0x6f, 0x6e, 0x76, 0x32, 0x64, 0x5f, 0x31,
    0x2f, 0x42, 0x69, 0x61, 0x73, 0x41, 0x64, 0x64, 0x3b, 0x73, 0x65, 0x71, 0x75,
    0x65, 0x6e, 0x74, 0x69, 0x61, 0x6c, 0x2f, 0x63, 0x6f, 0x6e, 0x76, 0x32, 0x64,
    0x5f, 0x31, 0x2f, 0x43, 0x6f, 0x6e, 0x76, 0x32, 0x44, 0x3b, 0x73, 0x65, 0x71,
    0x75, 0x65, 0x6e, 0x74, 0x69, 0x61, 0x6c, 0x2f, 0x63, 0x6f, 0x6e, 0x76, 0x32,
    0x64, 0x5f, 0x31, 0x2f, 0x42, 0x69, 0x61, 0x73, 0x41, 0x64, 0x64, 0x2f, 0x52,
    0x65, 0x61, 0x64, 0x56, 0x61, 0x72, 0x69, 0x61, 0x62, 0x6c, 0x65, 0x4f, 0x70,
    0x2f, 0x72, 0x65, 0x73, 0x6f, 0x75, 0x72, 0x63, 0x65, 0x00, 0x30, 0xce, 0xff,
    0xff, 0x08, 0x00, 0x00, 0x00, 0x0c, 0x00, 0x00, 0x00, 0x01, 0x00, 0x00, 0x00,
    0x53, 0xc2, 0xb5, 0x3b, 0x01, 0x00, 0x00, 0x00, 0x80, 0xff, 0xff, 0xff, 0xff,
    0xff, 0xff, 0xff, 0x00, 0x00, 0x00, 0x00, 0x00, 0x00, 0x0e, 0x00, 0x18, 0x00,
    0x08, 0x00, 0x0c, 0x00, 0x10, 0x00, 0x07, 0x00, 0x14, 0x00, 0x0e, 0x00, 0x00,
    0x00, 0x00, 0x00, 0x00, 0x01, 0x01, 0x00, 0x00, 0x00, 0x30, 0x00, 0x00, 0x00,
    0x24, 0x00, 0x00, 0x00, 0x10, 0x00, 0x00, 0x00, 0x0c, 0x00, 0x10, 0x00, 0x0e,
    0x00, 0x04, 0x00, 0x08, 0x00, 0x0f, 0x00, 0x0c, 0x00, 0x00, 0x00, 0x01, 0x00,
    0x00, 0x00, 0x01, 0x00, 0x00, 0x00, 0x00, 0x00, 0x01, 0x01, 0x01, 0x00, 0x00,
    0x00, 0x0d, 0x00, 0x00, 0x00, 0x03, 0x00, 0x00, 0x00, 0x0c, 0x00, 0x00, 0x00,
    0x02, 0x00, 0x00, 0x00, 0x03, 0x00, 0x00, 0x00, 0xc8, 0xfe, 0xff, 0xff, 0x03,
    0x00, 0x00, 0x00, 0x00, 0x00, 0x00, 0x03, 0x03, 0x00, 0x00, 0x00, 0xbc, 0xfe,
    0xff, 0xff, 0x00, 0x00, 0x00, 0x09, 0x14, 0x00, 0x00, 0x00, 0x0e, 0x00, 0x00,
    0x00, 0x34, 0x00, 0x00, 0x00, 0xcc, 0x00, 0x00, 0x00, 0x18, 0x00, 0x00, 0x00,
    0x04, 0x00, 0x00, 0x00, 0x01, 0x00, 0x00, 0x00, 0x7d, 0x00, 0x00, 0x00, 0x01,
    0x00, 0x00, 0x00, 0x08, 0x00, 0x00, 0x00, 0x04, 0x00, 0x00, 0x00, 0xff, 0xff,
    0xff, 0xff, 0x7d, 0x00, 0x00, 0x00, 0x01, 0x00, 0x00, 0x00, 0x08, 0x00, 0x00,
    0x00, 0x96, 0x00, 0x00, 0x00, 0x73, 0x65, 0x71, 0x75, 0x65, 0x6e, 0x74, 0x69,
    0x61, 0x6c, 0x2f, 0x63, 0x6f, 0x6e, 0x76, 0x32, 0x64, 0x2f, 0x52, 0x65, 0x6c,
    0x75, 0x3b, 0x73, 0x65, 0x71, 0x75, 0x65, 0x6e, 0x74, 0x69, 0x61, 0x6c, 0x2f,
    0x63, 0x6f, 0x6e, 0x76, 0x32, 0x64, 0x2f, 0x42, 0x69, 0x61, 0x73, 0x41, 0x64,
    0x64, 0x3b, 0x73, 0x65, 0x71, 0x75, 0x65, 0x6e, 0x74, 0x69, 0x61, 0x6c, 0x2f,
    0x63, 0x6f, 0x6e, 0x76, 0x32, 0x64, 0x5f, 0x31, 0x2f, 0x43, 0x6f, 0x6e, 0x76,
    0x32, 0x44, 0x3b, 0x73, 0x65, 0x71, 0x75, 0x65, 0x6e, 0x74, 0x69, 0x61, 0x6c,
    0x2f, 0x63, 0x6f, 0x6e, 0x76, 0x32, 0x64, 0x2f, 0x43, 0x6f, 0x6e, 0x76, 0x32,
    0x44, 0x3b, 0x73, 0x65, 0x71, 0x75, 0x65, 0x6e, 0x74, 0x69, 0x61, 0x6c, 0x2f,
    0x63, 0x6f, 0x6e, 0x76, 0x32, 0x64, 0x2f, 0x42, 0x69, 0x61, 0x73, 0x41, 0x64,
    0x64, 0x2f, 0x52, 0x65, 0x61, 0x64, 0x56, 0x61, 0x72, 0x69, 0x61, 0x62, 0x6c,
    0x65, 0x4f, 0x70, 0x2f, 0x72, 0x65, 0x73, 0x6f, 0x75, 0x72, 0x63, 0x65, 0x00,
    0x00, 0xa0, 0xcf, 0xff, 0xff, 0x08, 0x00, 0x00, 0x00, 0x0c, 0x00, 0x00, 0x00,
    0x01, 0x00, 0x00, 0x00, 0x2c, 0x2b, 0xd4, 0x3b, 0x01, 0x00, 0x00, 0x00, 0x80,
    0xff, 0xff, 0xff, 0xff, 0xff, 0xff, 0xff, 0x00, 0x00, 0x0a, 0x00, 0x0c, 0x00,
    0x00, 0x00, 0x04, 0x00, 0x08, 0x00, 0x0a, 0x00, 0x00, 0x00, 0x10, 0x00, 0x00,
    0x00, 0x04, 0x00, 0x00, 0x00, 0x01, 0x00, 0x00, 0x00, 0x0c, 0x00, 0x00, 0x00,
    0x01, 0x00, 0x00, 0x00, 0x00, 0x00, 0x00, 0x00, 0x0c, 0x00, 0x10, 0x00, 0x0b,
    0x00, 0x00, 0x00, 0x0c, 0x00, 0x04, 0x00, 0x0c, 0x00, 0x00, 0x00, 0x72, 0x00,
    0x00, 0x00, 0x00, 0x00, 0x00, 0x72, 0x01, 0x00, 0x00, 0x00, 0x14, 0x00, 0x1c,
    0x00, 0x08, 0x00, 0x07, 0x00, 0x0c, 0x00, 0x10, 0x00, 0x14, 0x00, 0x00, 0x00,
    0x00, 0x00, 0x18, 0x00, 0x14, 0x00, 0x00, 0x00, 0x00, 0x00, 0x00, 0x09, 0x14,
    0x00, 0x00, 0x00, 0x0d, 0x00, 0x00, 0x00, 0x34, 0x00, 0x00, 0x00, 0x44, 0x00,
    0x00, 0x00, 0x18, 0x00, 0x00, 0x00, 0x04, 0x00, 0x00, 0x00, 0x01, 0x00, 0x00,
    0x00, 0x80, 0x00, 0x00, 0x00, 0x01, 0x00, 0x00, 0x00, 0x03, 0x00, 0x00, 0x00,
    0x04, 0x00, 0x00, 0x00, 0xff, 0xff, 0xff, 0xff, 0x80, 0x00, 0x00, 0x00, 0x01,
    0x00, 0x00, 0x00, 0x03, 0x00, 0x00, 0x00, 0x0c, 0x00, 0x00, 0x00, 0x74, 0x66,
    0x6c, 0x2e, 0x71, 0x75, 0x61, 0x6e, 0x74, 0x69, 0x7a, 0x65, 0x00, 0x00, 0x00,
    0x00, 0x70, 0xd0, 0xff, 0xff, 0x08, 0x00, 0x00, 0x00, 0x0c, 0x00, 0x00, 0x00,
    0x01, 0x00, 0x00, 0x00, 0xe9, 0xef, 0xf2, 0x3b, 0x01, 0x00, 0x00, 0x00, 0x00,
    0x00, 0x00, 0x00, 0x00, 0x00, 0x00, 0x00, 0x00, 0x00, 0x00, 0x00, 0x0e, 0xd0,
    0xff, 0xff, 0x04, 0x00, 0x00, 0x00, 0x10, 0x00, 0x00, 0x00, 0xf2, 0xfe, 0xff,
    0xff, 0xb5, 0xed, 0xff, 0xff, 0x81, 0x03, 0x00, 0x00, 0x75, 0x0c, 0x00, 0x00,
    0x0e, 0xd0, 0xff, 0xff, 0x00, 0x00, 0x00, 0x02, 0x10, 0x00, 0x00, 0x00, 0x0c,
    0x00, 0x00, 0x00, 0x10, 0x00, 0x00, 0x00, 0x44, 0x00, 0x00, 0x00, 0x01, 0x00,
    0x00, 0x00, 0x04, 0x00, 0x00, 0x00, 0x32, 0x00, 0x00, 0x00, 0x73, 0x65, 0x71,
    0x75, 0x65, 0x6e, 0x74, 0x69, 0x61, 0x6c, 0x2f, 0x64, 0x65, 0x6e, 0x73, 0x65,
    0x5f, 0x32, 0x2f, 0x42, 0x69, 0x61, 0x73, 0x41, 0x64, 0x64, 0x2f, 0x52, 0x65,
    0x61, 0x64, 0x56, 0x61, 0x72, 0x69, 0x61, 0x62, 0x6c, 0x65, 0x4f, 0x70, 0x2f,
    0x72, 0x65, 0x73, 0x6f, 0x75, 0x72, 0x63, 0x65, 0x00, 0x00, 0x08, 0xd1, 0xff,
    0xff, 0x08, 0x00, 0x00, 0x00, 0x0c, 0x00, 0x00, 0x00, 0x01, 0x00, 0x00, 0x00,
    0x7d, 0x68, 0xc0, 0x39, 0x01, 0x00, 0x00, 0x00, 0x00, 0x00, 0x00, 0x00, 0x00,
    0x00, 0x00, 0x00, 0xa2, 0xd0, 0xff, 0xff, 0x04, 0x00, 0x00, 0x00, 0x80, 0x00,
    0x00, 0x00, 0x1d, 0x0e, 0xdf, 0x81, 0x0c, 0xe4, 0x2a, 0x01, 0xfc, 0xe7, 0xdc,
    0xea, 0xff, 0xaf, 0xcc, 0x11, 0x0e, 0x1d, 0x23, 0x0f, 0xb4, 0x0e, 0xec, 0x99,
    0x14, 0x06, 0xca, 0xef, 0x11, 0x0c, 0xbd, 0x16, 0xe9, 0x10, 0x09, 0xe5, 0xd8,
    0xca, 0xe6, 0x03, 0xfd, 0x12, 0xf6, 0x17, 0xbc, 0xca, 0x1c, 0xca, 0x11, 0xf0,
    0xf4, 0xbd, 0xab, 0x11, 0xcf, 0xd9, 0xd7, 0xb0, 0xfa, 0x11, 0x14, 0x0e, 0xbe,
    0x18, 0xd5, 0xe0, 0x03, 0x14, 0xc0, 0x3c, 0xf7, 0xd7, 0x81, 0x0c, 0x21, 0x13,
    0xc1, 0x1e, 0xd6, 0xdc, 0xd2, 0xf5, 0xea, 0xed, 0x04, 0x0d, 0x3c, 0x1b, 0xc5,
    0xe9, 0x29, 0x0b, 0xdf, 0xed, 0x0e, 0x9c, 0xd9, 0xcf, 0xc4, 0x01, 0x11, 0xd5,
    0xef, 0xb8, 0xed, 0xbd, 0xd0, 0xcb, 0x08, 0x14, 0x16, 0x1c, 0xc5, 0xd7, 0xdc,
    0x1d, 0x09, 0xa7, 0xd5, 0x0b, 0x18, 0x16, 0xd2, 0xc0, 0xc2, 0xc7, 0x19, 0x08,
    0x12, 0xd1, 0xff, 0xff, 0x00, 0x00, 0x00, 0x09, 0x10, 0x00, 0x00, 0x00, 0x0b,
    0x00, 0x00, 0x00, 0x14, 0x00, 0x00, 0x00, 0x30, 0x00, 0x00, 0x00, 0x02, 0x00,
    0x00, 0x00, 0x04, 0x00, 0x00, 0x00, 0x20, 0x00, 0x00, 0x00, 0x19, 0x00, 0x00,
    0x00, 0x73, 0x65, 0x71, 0x75, 0x65, 0x6e, 0x74, 0x69, 0x61, 0x6c, 0x2f, 0x64,
    0x65, 0x6e, 0x73, 0x65, 0x5f, 0x32, 0x2f, 0x4d, 0x61, 0x74, 0x4d, 0x75, 0x6c,
    0x00, 0x00, 0x00, 0xf8, 0xd1, 0xff, 0xff, 0x08, 0x00, 0x00, 0x00, 0x0c, 0x00,
    0x00, 0x00, 0x01, 0x00, 0x00, 0x00, 0x31, 0xd1, 0x91, 0x3c, 0x01, 0x00, 0x00,
    0x00, 0x00, 0x00, 0x00, 0x00, 0x00, 0x00, 0x00, 0x00, 0x00, 0x00, 0x00, 0x00,
    0x96, 0xd1, 0xff, 0xff, 0x04, 0x00, 0x00, 0x00, 0x80, 0x00, 0x00, 0x00, 0x59,
    0xf4, 0xff, 0xff, 0xaa, 0xf2, 0xff, 0xff, 0xb8, 0xf6, 0xff, 0xff, 0x5d, 0x28,
    0x00, 0x00, 0x3a, 0x14, 0x00, 0x00, 0xc6, 0x07, 0x00, 0x00, 0x3b, 0xfb, 0xff,
    0xff, 0x4b, 0xeb, 0xff, 0xff, 0xe0, 0x0b, 0x00, 0x00, 0x1c, 0xf4, 0xff, 0xff,
    0x80, 0x02, 0x00, 0x00, 0xa8, 0xf4, 0xff, 0xff, 0xd6, 0x15, 0x00, 0x00, 0x31,
    0x2a, 0x00, 0x00, 0x89, 0xf3, 0xff, 0xff, 0x46, 0x19, 0x00, 0x00, 0x53, 0xf6,
    0xff, 0xff, 0xca, 0xec, 0xff, 0xff, 0x9a, 0xf0, 0xff, 0xff, 0x38, 0x1c, 0x00,
    0x00, 0xc9, 0x22, 0x00, 0x00, 0x0f, 0x03, 0x00, 0x00, 0xb2, 0x06, 0x00, 0x00,
    0x57, 0x2a, 0x00, 0x00, 0x2e, 0x14, 0x00, 0x00, 0xbe, 0x2a, 0x00, 0x00, 0xee,
    0xfe, 0xff, 0xff, 0x6c, 0xf7, 0xff, 0xff, 0x29, 0xee, 0xff, 0xff, 0xa9, 0xee,
    0xff, 0xff, 0x25, 0x21, 0x00, 0x00, 0x10, 0x0b, 0x00, 0x00, 0x06, 0xd2, 0xff,
    0xff, 0x00, 0x00, 0x00, 0x02, 0x10, 0x00, 0x00, 0x00, 0x0a, 0x00, 0x00, 0x00,
    0x10, 0x00, 0x00, 0x00, 0x44, 0x00, 0x00, 0x00, 0x01, 0x00, 0x00, 0x00, 0x20,
    0x00, 0x00, 0x00, 0x32, 0x00, 0x00, 0x00, 0x73, 0x65, 0x71, 0x75, 0x65, 0x6e,
    0x74, 0x69, 0x61, 0x6c, 0x2f, 0x64, 0x65, 0x6e, 0x73, 0x65, 0x5f, 0x31, 0x2f,
    0x42, 0x69, 0x61, 0x73, 0x41, 0x64, 0x64, 0x2f, 0x52, 0x65, 0x61, 0x64, 0x56,
    0x61, 0x72, 0x69, 0x61, 0x62, 0x6c, 0x65, 0x4f, 0x70, 0x2f, 0x72, 0x65, 0x73,
    0x6f, 0x75, 0x72, 0x63, 0x65, 0x00, 0x00, 0x00, 0xd3, 0xff, 0xff, 0x08, 0x00,
    0x00, 0x00, 0x0c, 0x00, 0x00, 0x00, 0x01, 0x00, 0x00, 0x00, 0x06, 0xa6, 0x7f,
    0x37, 0x01, 0x00, 0x00, 0x00, 0x00, 0x00, 0x00, 0x00, 0x00, 0x00, 0x00, 0x00,
    0x9a, 0xd2, 0xff, 0xff, 0x04, 0x00, 0x00, 0x00, 0x00, 0x08, 0x00, 0x00, 0x00,
    0xdc, 0x00, 0xd2, 0xf2, 0x55, 0xfe, 0x08, 0x1c, 0x00, 0x00, 0x0d, 0xfe, 0xf4,
    0x00, 0x5d, 0x4e, 0x00, 0x00, 0x17, 0x04, 0x05, 0xff, 0xff, 0x01, 0xe4, 0x0c,
    0xfa, 0xde, 0x60, 0xdf, 0x3d, 0xf2, 0x02, 0xf5, 0x4e, 0xfa, 0xd7, 0x00, 0x04,
    0xfa, 0x00, 0xf5, 0x00, 0x58, 0xd8, 0x01, 0x17, 0x1c, 0xff, 0xf4, 0x00, 0x00,
    0xfe, 0xe8, 0xfc, 0x00, 0xdd, 0xee, 0x25, 0x02, 0xe5, 0x5f, 0xda, 0x00, 0xf5,
    0x3b, 0xeb, 0xf4, 0x18, 0x44, 0x21, 0x07, 0x00, 0x00, 0x08, 0x37, 0x25, 0x00,
    0x0c, 0x2a, 0x00, 0x00, 0x02, 0x37, 0x03, 0x00, 0x00, 0x42, 0xf5, 0x06, 0x2f,
    0xf4, 0x12, 0xfb, 0x11, 0x1c, 0x48, 0x1a, 0x19, 0x21, 0xeb, 0x00, 0x36, 0x47,
    0x00, 0x1c, 0x00, 0x10, 0xf0, 0x04, 0x08, 0x04, 0xf7, 0xfa, 0x00, 0x00, 0x41,
    0xf3, 0x46, 0x00, 0xf0, 0x15, 0x10, 0x41, 0xf3, 0x18, 0xf3, 0x36, 0x23, 0x05,
    0x1c, 0xef, 0xe2, 0x22, 0x16, 0xd4, 0x36, 0x3a, 0xde, 0x14, 0x40, 0x36, 0xe3,
    0xe8, 0x2d, 0x3c, 0xdc, 0xf6, 0xe0, 0x3a, 0x2f, 0xfb, 0xfa, 0xd7, 0x17, 0x16,
    0xe9, 0xf2, 0xe7, 0x3e, 0x2a, 0x1e, 0xe6, 0x12, 0x0b, 0x32, 0x16, 0x2e, 0x2d,
    0x1c, 0x2d, 0xea, 0x22, 0xd6, 0xd9, 0xdb, 0xde, 0xe8, 0x2b, 0x2a, 0x07, 0xf1,
    0xf9, 0x36, 0xfa, 0x30, 0xda, 0xff, 0x1c, 0xe3, 0x08, 0x56, 0x32, 0xf7, 0x3d,
    0xff, 0xfe, 0xe9, 0xf5, 0x06, 0x62, 0x5a, 0x08, 0xf2, 0xf8, 0x5c, 0xff, 0xf6,
    0x59, 0x4e, 0xf8, 0xf3, 0x07, 0x54, 0x5a, 0xee, 0x06, 0x00, 0xea, 0x28, 0xfa,
    0x04, 0xff, 0x26, 0xee, 0xfc, 0xf3, 0xf3, 0x19, 0x5c, 0xf0, 0xf5, 0x4f, 0x46,
    0x56, 0xfe, 0x44, 0xf6, 0x07, 0x05, 0x03, 0xfe, 0x59, 0x52, 0xf7, 0x04, 0xf4,
    0x52, 0x16, 0x0c, 0x05, 0xf4, 0x2c, 0xf7, 0x1e, 0xf1, 0xfa, 0xfb, 0xfc, 0x4e,
    0x12, 0x01, 0xf8, 0x48, 0xf4, 0xef, 0x44, 0xff, 0xf8, 0xf3, 0x0f, 0x0a, 0xef,
    0xf1, 0x4c, 0xfe, 0x55, 0xf4, 0xf5, 0xff, 0x44, 0x4e, 0x00, 0xfe, 0x16, 0x50,
    0x06, 0xfd, 0xfd, 0xf9, 0x09, 0xf9, 0x11, 0xf5, 0xfc, 0x04, 0xfb, 0x00, 0xf4,
    0x13, 0xf9, 0x51, 0x41, 0x3f, 0x4b, 0x51, 0xf7, 0xf8, 0xfa, 0x52, 0xff, 0xf6,
    0x34, 0xfa, 0x3b, 0xfb, 0xfc, 0x12, 0x10, 0x31, 0x0c, 0x01, 0x0f, 0xec, 0x14,
    0xfe, 0x00, 0xf3, 0x3b, 0x32, 0xf4, 0xff, 0xfd, 0x33, 0x0c, 0x12, 0x32, 0x2f,
    0xef, 0xfd, 0xf5, 0x2d, 0x31, 0x00, 0xf1, 0xee, 0x01, 0x1a, 0x0e, 0xef, 0x0f,
    0xfc, 0xfd, 0xfd, 0x10, 0xfd, 0x04, 0x33, 0x06, 0x01, 0x34, 0xfc, 0x2a, 0x0e,
    0x0d, 0xf3, 0xe7, 0xea, 0xf4, 0xf3, 0x3d, 0x31, 0x01, 0xf0, 0x04, 0x31, 0xee,
    0xfc, 0xf4, 0x04, 0x0d, 0x13, 0x07, 0x00, 0xce, 0x03, 0xc9, 0xe6, 0x62, 0xfe,
    0xff, 0x1c, 0x00, 0xff, 0x0b, 0xfb, 0xf6, 0xff, 0x5f, 0x5a, 0x00, 0xff, 0x1d,
    0x04, 0x09, 0xff, 0x00, 0x01, 0xd9, 0x1b, 0xfd, 0xd2, 0x62, 0xd8, 0x20, 0xf9,
    0x01, 0xfb, 0x36, 0xfe, 0xc6, 0x00, 0x04, 0xfd, 0x00, 0xfc, 0xff, 0x5b, 0xd9,
    0x06, 0x18, 0x32, 0x0c, 0xf2, 0xff, 0x00, 0xff, 0xd9, 0xfe, 0x00, 0xd8, 0xf3,
    0x2b, 0xfb, 0xd1, 0x56, 0xcf, 0x00, 0xf7, 0x45, 0xed, 0xf7, 0x0c, 0x34, 0x26,
    0x0f, 0x00, 0x00, 0x06, 0x26, 0x25, 0x00, 0x08, 0x17, 0x00, 0x00, 0x06, 0x33,
    0xfa, 0x00, 0x00, 0x36, 0xf5, 0xfb, 0x3b, 0xf9, 0x12, 0xf8, 0x09, 0x20, 0x2b,
    0x1c, 0x10, 0x20, 0xf0, 0x00, 0x33, 0x46, 0x00, 0x24, 0x00, 0x04, 0xf1, 0x06,
    0x03, 0x03, 0xfd, 0xf4, 0x00, 0x00, 0x32, 0xf9, 0x28, 0x00, 0xf6, 0x1b, 0x0c,
    0x35, 0xf5, 0x1d, 0xf2, 0xfc, 0x02, 0x4e, 0x02, 0x11, 0x40, 0x49, 0x2b, 0x33,
    0xfa, 0xf8, 0x25, 0x72, 0x1b, 0xfb, 0x54, 0x43, 0xf9, 0xf8, 0x28, 0x72, 0x1a,
    0xfb, 0xfd, 0x7a, 0x11, 0x27, 0x52, 0x01, 0x36, 0x02, 0x39, 0x1d, 0x6c, 0x17,
    0x3d, 0x17, 0xf9, 0xfa, 0x52, 0x60, 0xfe, 0x11, 0xf8, 0x41, 0xfe, 0x25, 0x2f,
    0x2d, 0x19, 0x13, 0xfc, 0xfc, 0x74, 0x05, 0x64, 0xfb, 0x0c, 0x11, 0x3a, 0x5a,
    0x01, 0x4b, 0x05, 0x28, 0x1a, 0x1d, 0x22, 0xed, 0xe5, 0x17, 0x44, 0xdb, 0x34,
    0x32, 0xd0, 0xff, 0x33, 0x29, 0xe9, 0xec, 0x26, 0x2c, 0xd5, 0x1c, 0xd5, 0x28,
    0x37, 0xfc, 0xfb, 0xdb, 0x1c, 0x22, 0xdf, 0xf2, 0xe9, 0x22, 0x07, 0x45, 0xec,
    0x41, 0x10, 0x31, 0x05, 0x09, 0x27, 0x27, 0x31, 0xdf, 0x27, 0xd7, 0xd3, 0xd7,
    0xe3, 0xed, 0x2e, 0x33, 0x07, 0xf2, 0x1c, 0x2d, 0xf3, 0x25, 0xd0, 0x10, 0x20,
    0xe7, 0x07, 0x43, 0x1b, 0x04, 0x12, 0xef, 0x00, 0xf5, 0xf4, 0xeb, 0x3e, 0x45,
    0xef, 0xf9, 0x19, 0x42, 0x00, 0x00, 0x46, 0x39, 0xeb, 0xf5, 0xe6, 0x44, 0x3f,
    0xf5, 0xf2, 0xe7, 0xe9, 0x1b, 0x00, 0xf2, 0xff, 0xfa, 0xec, 0x1b, 0x00, 0x13,
    0x05, 0x4a, 0xf0, 0xfb, 0x43, 0xed, 0x46, 0x00, 0x1a, 0xeb, 0xe9, 0xeb, 0xeb,
    0xeb, 0x3d, 0x3f, 0xfe, 0xed, 0xfe, 0x3f, 0xeb, 0xed, 0xeb, 0x03, 0x10, 0x00,
    0xf9, 0x2e, 0x1d, 0x31, 0x1f, 0xed, 0xed, 0x15, 0x32, 0xd8, 0x32, 0x36, 0xd1,
    0x1c, 0x2a, 0x34, 0xe8, 0xe2, 0x32, 0x29, 0xcf, 0xfb, 0xde, 0x36, 0x25, 0x03,
    0xf9, 0xdf, 0x01, 0x20, 0xe9, 0xf0, 0xed, 0x25, 0xef, 0x29, 0xe9, 0x27, 0x0c,
    0x32, 0x11, 0x01, 0x32, 0x1e, 0x2c, 0xe5, 0x1b, 0xd5, 0xd3, 0xd6, 0xe5, 0xe8,
    0x30, 0x2c, 0x0d, 0xf0, 0x13, 0x2e, 0xf6, 0x1c, 0xd9, 0x10, 0x26, 0xeb, 0x0f,
    0xed, 0x02, 0xfe, 0x08, 0x69, 0x05, 0x03, 0xfe, 0x22, 0xed, 0xec, 0x3e, 0xfa,
    0xf9, 0xec, 0x03, 0x05, 0xec, 0xea, 0x47, 0xfe, 0x60, 0xee, 0xf1, 0xfd, 0x58,
    0x43, 0x01, 0x0a, 0x09, 0x6c, 0x07, 0x01, 0xf9, 0xfd, 0x0b, 0xfe, 0x1c, 0xee,
    0xfc, 0xfe, 0xee, 0xfb, 0xed, 0x0a, 0x05, 0x4d, 0x36, 0x27, 0x50, 0x5e, 0xf1,
    0xef, 0x00, 0x6d, 0xfe, 0xf4, 0x4a, 0xf8, 0x2c, 0xff, 0xff, 0x03, 0x25, 0x46,
    0x50, 0xfa, 0x49, 0x0d, 0xff, 0xee, 0xf6, 0xfe, 0x40, 0x42, 0x02, 0xf7, 0xfe,
    0x43, 0xf7, 0xe9, 0x41, 0x42, 0x05, 0xf4, 0x05, 0x43, 0x45, 0xf5, 0x15, 0x06,
    0xf0, 0x3d, 0xf2, 0x0c, 0xf2, 0xfe, 0xf1, 0x00, 0xf6, 0xfe, 0x26, 0x4b, 0xfb,
    0xfa, 0x44, 0xfd, 0x41, 0xf9, 0x55, 0xfa, 0x03, 0xf9, 0x09, 0x09, 0x44, 0x43,
    0xf2, 0x0e, 0xf4, 0x3d, 0x15, 0xfd, 0x06, 0xf2, 0x46, 0xef, 0x29, 0xe8, 0x14,
    0x11, 0x18, 0x67, 0xd2, 0x20, 0x37, 0xf3, 0xdf, 0xe1, 0x06, 0xf0, 0x37, 0xe3,
    0xdd, 0xd7, 0xdc, 0xe2, 0x19, 0xed, 0x20, 0xe4, 0xdf, 0x0c, 0x64, 0x0d, 0x0c,
    0x28, 0xd8, 0x6a, 0xd8, 0x1c, 0xf9, 0x2c, 0xd6, 0x44, 0x41, 0xd9, 0x01, 0xf5,
    0xec, 0x3d, 0xdc, 0xd8, 0x12, 0x14, 0x0c, 0x01, 0x1f, 0x33, 0xe0, 0xe8, 0xeb,
    0x69, 0x07, 0xe3, 0x5e, 0x27, 0xff, 0xea, 0x22, 0xd5, 0x46, 0xf0, 0xfd, 0x01,
    0xfc, 0x71, 0x05, 0x01, 0xfb, 0x29, 0xeb, 0xe9, 0x32, 0xfa, 0xf9, 0xeb, 0x02,
    0x06, 0xe8, 0xe7, 0x3e, 0xfe, 0x5c, 0xef, 0xe5, 0xfd, 0x67, 0x38, 0xfd, 0x15,
    0x0e, 0x6a, 0xfb, 0xff, 0xfd, 0xfe, 0x08, 0xfd, 0x2a, 0xe8, 0x01, 0xfd, 0xf2,
    0xf6, 0xf1, 0x00, 0xfe, 0x51, 0x2e, 0x28, 0x4f, 0x58, 0xf3, 0xe9, 0xfe, 0x70,
    0xfe, 0xe2, 0x52, 0xfa, 0x2b, 0x00, 0x13, 0x0c, 0x2a, 0x00, 0xf6, 0x38, 0xef,
    0xfa, 0x02, 0x3f, 0x27, 0x08, 0x00, 0x00, 0x08, 0x43, 0x1c, 0x00, 0x0b, 0x1a,
    0x00, 0x00, 0x02, 0x2f, 0xff, 0x00, 0x00, 0x35, 0xf6, 0x04, 0x37, 0xf4, 0x12,
    0xfb, 0x0f, 0x25, 0x43, 0x15, 0x13, 0x1d, 0xf2, 0x00, 0x32, 0x3d, 0x00, 0x1c,
    0x00, 0x11, 0xf5, 0x04, 0x03, 0x03, 0xfd, 0xf6, 0x00, 0x00, 0x30, 0xf4, 0x37,
    0x00, 0xf3, 0x12, 0xff, 0x35, 0xfa, 0x10, 0xf6, 0x00, 0xd7, 0xfc, 0xcf, 0xe8,
    0x61, 0xfe, 0x02, 0x27, 0x00, 0x00, 0x09, 0xff, 0x01, 0x00, 0x5b, 0x5d, 0x00,
    0x00, 0x16, 0x01, 0xf7, 0xff, 0xff, 0xfc, 0xe1, 0x0e, 0x01, 0xda, 0x5f, 0xde,
    0x3c, 0xf9, 0xfa, 0xe9, 0x4f, 0xfe, 0xd6, 0x00, 0xfe, 0x03, 0x00, 0xed, 0x00,
    0x5d, 0xdd, 0x06, 0x26, 0x2c, 0x0a, 0xe9, 0x00, 0x00, 0xff, 0xdd, 0x00, 0x00,
    0xe0, 0xf1, 0x11, 0x01, 0xdb, 0x63, 0xdb, 0x00, 0xd9, 0x00, 0xd7, 0xe8, 0x5d,
    0x06, 0x03, 0x1a, 0x00, 0xff, 0x15, 0x06, 0xf3, 0xff, 0x54, 0x5e, 0x00, 0xff,
    0x0b, 0xf8, 0x09, 0xfe, 0xff, 0x02, 0xe4, 0x07, 0x08, 0xd6, 0x67, 0xe4, 0x4f,
    0xf6, 0x03, 0xf0, 0x3d, 0x01, 0xd5, 0x00, 0xff, 0x02, 0xff, 0xf7, 0xff, 0x5d,
    0xda, 0x06, 0x1f, 0x25, 0x0a, 0xfd, 0xff, 0x00, 0xfd, 0xe3, 0x00, 0x00, 0xe3,
    0xec, 0x29, 0xfb, 0xde, 0x6d, 0xdf, 0xe2, 0x03, 0xfd, 0x1b, 0x79, 0xf3, 0x00,
    0xfa, 0x10, 0xe1, 0xdf, 0x3c, 0xfd, 0xfe, 0xde, 0x02, 0x08, 0xdb, 0xde, 0x3d,
    0x00, 0x56, 0xe8, 0xe0, 0x00, 0x68, 0x47, 0xfe, 0x20, 0x02, 0x78, 0x17, 0xfc,
    0xfb, 0xf6, 0xf5, 0xfb, 0x38, 0xdf, 0xff, 0xf8, 0xe8, 0xfd, 0xe0, 0x03, 0xfe,
    0x33, 0x2c, 0x19, 0x50, 0x6a, 0xeb, 0xe3, 0xff, 0x78, 0xfb, 0xe3, 0x5c, 0xfa,
    0x1e, 0xff, 0x1d, 0x03, 0x44, 0x0a, 0x38, 0xf5, 0x40, 0x4e, 0xf1, 0xe6, 0xf7,
    0xfd, 0x0d, 0x09, 0x0d, 0xf0, 0xfe, 0x07, 0xf1, 0xe9, 0x08, 0x0b, 0x11, 0xf5,
    0x1c, 0x0b, 0x0a, 0xf9, 0x48, 0x03, 0xe9, 0x48, 0xe9, 0x44, 0xeb, 0xfe, 0xe8,
    0x00, 0xef, 0xfc, 0x4d, 0x03, 0xf4, 0xf9, 0x07, 0xfe, 0x08, 0xf4, 0x37, 0x15,
    0x06, 0x05, 0x19, 0x2e, 0x10, 0x0a, 0xf2, 0x44, 0xf5, 0x07, 0x46, 0xff, 0x0b,
    0xe7, 0x3f, 0xe8, 0x44, 0x29, 0x0a, 0x45, 0x00, 0xe6, 0x0f, 0x37, 0x3c, 0x01,
    0x33, 0x28, 0xf8, 0x3e, 0x2f, 0x29, 0x0d, 0x0f, 0x28, 0x2c, 0xf9, 0x37, 0xf2,
    0x29, 0x27, 0x36, 0xed, 0xf9, 0x3d, 0x0b, 0x15, 0xef, 0x1f, 0x24, 0x32, 0x2c,
    0x13, 0x25, 0xff, 0x2f, 0x33, 0x4c, 0x29, 0x1c, 0x25, 0x05, 0x0b, 0xf9, 0xfa,
    0x00, 0xf9, 0xf4, 0x23, 0x2c, 0x3b, 0xec, 0x2f, 0x2a, 0xef, 0x26, 0xf1, 0x3b,
    0x06, 0x02, 0xf7, 0x2a, 0x18, 0xfd, 0x12, 0xf0, 0x02, 0xff, 0xff, 0xe6, 0x33,
    0x2e, 0xe9, 0xfe, 0xfd, 0x30, 0x03, 0x03, 0x33, 0x29, 0xe2, 0xfe, 0xed, 0x2b,
    0x33, 0xfd, 0xf4, 0xe8, 0x00, 0x15, 0x03, 0xf3, 0x02, 0xfe, 0xfb, 0xfe, 0x01,
    0xff, 0x0b, 0x30, 0xff, 0xfd, 0x2c, 0xff, 0x35, 0x01, 0x1e, 0xee, 0xe8, 0xe5,
    0xef, 0xf2, 0x3d, 0x32, 0xfe, 0xf2, 0xff, 0x2d, 0xf2, 0xfd, 0xe5, 0x01, 0x10,
    0x03, 0xfa, 0x50, 0x48, 0xf7, 0x3d, 0x05, 0xff, 0xf1, 0xf6, 0xfc, 0x50, 0x4e,
    0x00, 0xf8, 0xfe, 0x4c, 0xf8, 0xf6, 0x41, 0x58, 0x05, 0xfc, 0xfc, 0x58, 0x5e,
    0xf5, 0x0a, 0x03, 0xf2, 0x35, 0xf7, 0x01, 0xf9, 0xff, 0xf3, 0x00, 0xf8, 0xfc,
    0x1f, 0x56, 0xf8, 0x02, 0x48, 0xfe, 0x48, 0xfc, 0x4f, 0x02, 0xfb, 0xff, 0x0a,
    0x06, 0x4a, 0x4c, 0xf7, 0x06, 0xf7, 0x59, 0x0d, 0xfe, 0x06, 0xee, 0x3d, 0xf2,
    0x27, 0xf3, 0x03, 0x02, 0x03, 0x48, 0x16, 0xff, 0xfa, 0x37, 0xee, 0xf9, 0x42,
    0xfd, 0xf9, 0xf5, 0x17, 0x17, 0xf4, 0xf1, 0x41, 0x00, 0x56, 0xf3, 0xfb, 0xfe,
    0x40, 0x44, 0xfe, 0xfe, 0x19, 0x4f, 0x0b, 0xf9, 0x07, 0xf4, 0x1b, 0xff, 0x11,
    0xf3, 0xfc, 0xf9, 0xf6, 0xfa, 0xf6, 0x0b, 0x00, 0x4e, 0x37, 0x35, 0x46, 0x4d,
    0xf8, 0xf3, 0x05, 0x4f, 0x08, 0xf1, 0x36, 0xf4, 0x35, 0xf9, 0x00, 0x0d, 0x1f,
    0xe1, 0x1e, 0xfc, 0x1a, 0x7d, 0x07, 0x00, 0xf8, 0x10, 0xd9, 0xe3, 0x2e, 0xff,
    0xfa, 0xda, 0xfc, 0xfd, 0xdb, 0xd4, 0x2e, 0x00, 0x4c, 0xe3, 0xdd, 0xff, 0x70,
    0x2e, 0x02, 0x2e, 0x00, 0x7f, 0x02, 0xfa, 0xfd, 0xfd, 0x07, 0xf6, 0x39, 0xd5,
    0xfc, 0xff, 0xe0, 0xfa, 0xd8, 0x05, 0x18, 0x49, 0x19, 0x11, 0x4c, 0x58, 0xe2,
    0xdc, 0xfb, 0x75, 0xfe, 0xdf, 0x62, 0xfc, 0x26, 0xfa, 0x19, 0x0a, 0x42, 0x40,
    0x14, 0x02, 0x15, 0xf1, 0x00, 0xfa, 0x10, 0xeb, 0x40, 0x42, 0xf0, 0xf2, 0xe9,
    0x3d, 0x00, 0x03, 0x40, 0x43, 0xeb, 0xf1, 0xee, 0x3b, 0x43, 0xee, 0xf6, 0xeb,
    0x16, 0x14, 0xfe, 0xf4, 0xff, 0xf7, 0xed, 0xfd, 0x01, 0xe3, 0x0c, 0x3e, 0xf9,
    0xe9, 0x3b, 0x05, 0x45, 0x00, 0x15, 0xed, 0xf0, 0xee, 0xec, 0xf5, 0x3a, 0x43,
    0xf8, 0xf4, 0xf8, 0x3f, 0xf3, 0x29, 0xeb, 0x0d, 0x15, 0x00, 0x05, 0x2d, 0x24,
    0x1c, 0x22, 0xf6, 0xe6, 0x06, 0x2b, 0xd5, 0x31, 0x2a, 0xdc, 0xf7, 0x33, 0x35,
    0xea, 0xe6, 0x2d, 0x2b, 0xd9, 0xf5, 0xd6, 0x36, 0x2e, 0x02, 0xf7, 0xd7, 0x26,
    0x20, 0xe7, 0xee, 0xe8, 0x2f, 0x2f, 0x30, 0xe6, 0x34, 0x11, 0x2f, 0x02, 0xfe,
    0x27, 0x34, 0x30, 0xea, 0x1a, 0xdc, 0xda, 0xdb, 0xd6, 0xe7, 0x2c, 0x24, 0x0d,
    0xee, 0x0b, 0x2b, 0xf6, 0x2b, 0xd3, 0x31, 0x1a, 0xe4, 0x07, 0x00, 0xf1, 0x4c,
    0xf5, 0xfb, 0x04, 0x27, 0x25, 0x00, 0x00, 0x00, 0x0c, 0x43, 0x18, 0x00, 0x0b,
    0x0c, 0x00, 0x00, 0xfc, 0x30, 0x01, 0x00, 0x00, 0x2d, 0xf9, 0x00, 0x38, 0xf8,
    0x10, 0xf9, 0x14, 0x26, 0x3a, 0x18, 0x10, 0x1a, 0xf6, 0x00, 0x36, 0x3f, 0x00,
    0x12, 0x00, 0x08, 0xf7, 0x08, 0x05, 0x06, 0x01, 0xf7, 0x00, 0x00, 0x30, 0xfc,
    0x3d, 0x00, 0xf9, 0x1f, 0x06, 0x2f, 0xf8, 0x09, 0xf1, 0x00, 0xf7, 0x3d, 0xef,
    0xfa, 0x10, 0x33, 0x23, 0x08, 0x00, 0x00, 0x04, 0x32, 0x25, 0x00, 0x22, 0x06,
    0x00, 0x00, 0x05, 0x40, 0x06, 0x00, 0x00, 0x36, 0xf6, 0xfe, 0x32, 0xf3, 0x17,
    0xf9, 0x1d, 0x1f, 0x3b, 0x18, 0x16, 0x17, 0xf9, 0x00, 0x37, 0x3b, 0x00, 0x22,
    0x00, 0x0c, 0xf5, 0x04, 0x08, 0x09, 0x05, 0xfa, 0x00, 0x00, 0x37, 0xf3, 0x39,
    0x00, 0xf7, 0x17, 0xff, 0x43, 0xf2, 0x17, 0xf5, 0x07, 0x39, 0xe9, 0x3a, 0x5e,
    0xf6, 0xe9, 0xf3, 0x06, 0x0a, 0x07, 0x14, 0xf1, 0xfe, 0x02, 0xea, 0xea, 0x01,
    0x0e, 0x10, 0xea, 0x26, 0x05, 0x09, 0xf1, 0x5a, 0x10, 0xdc, 0x44, 0xe9, 0x59,
    0xea, 0xfc, 0xda, 0x00, 0xf1, 0xfc, 0x5c, 0xff, 0xf2, 0xef, 0x02, 0xfe, 0x09,
    0xf0, 0x39, 0x10, 0x0a, 0x08, 0x1e, 0x32, 0x08, 0x02, 0xec, 0x5c, 0xe9, 0x06,
    0x58, 0xfe, 0x09, 0xef, 0x42, 0xf4, 0x53, 0xf8, 0xff, 0x4c, 0xfe, 0x0c, 0x32,
    0x46, 0x24, 0x32, 0xf9, 0xf9, 0x23, 0x78, 0x18, 0xf8, 0x46, 0x42, 0xf8, 0xfc,
    0x22, 0x59, 0x19, 0xfc, 0xfc, 0x70, 0x0c, 0x24, 0x47, 0xfc, 0x34, 0x08, 0x33,
    0x1e, 0x62, 0x14, 0x4f, 0x15, 0xf4, 0xf9, 0x59, 0x60, 0xfb, 0x14, 0xfc, 0x35,
    0xfb, 0x26, 0x33, 0x37, 0x18, 0x07, 0xfe, 0xfb, 0x77, 0xf8, 0x6c, 0xfd, 0x0c,
    0x16, 0x38, 0x4f, 0x04, 0x4a, 0x00, 0x8a, 0xda, 0xff, 0xff, 0x00, 0x00, 0x00,
    0x09, 0x10, 0x00, 0x00, 0x00, 0x09, 0x00, 0x00, 0x00, 0x14, 0x00, 0x00, 0x00,
    0x30, 0x00, 0x00, 0x00, 0x02, 0x00, 0x00, 0x00, 0x20, 0x00, 0x00, 0x00, 0x40,
    0x00, 0x00, 0x00, 0x19, 0x00, 0x00, 0x00, 0x73, 0x65, 0x71, 0x75, 0x65, 0x6e,
    0x74, 0x69, 0x61, 0x6c, 0x2f, 0x64, 0x65, 0x6e, 0x73, 0x65, 0x5f, 0x31, 0x2f,
    0x4d, 0x61, 0x74, 0x4d, 0x75, 0x6c, 0x00, 0x00, 0x00, 0x70, 0xdb, 0xff, 0xff,
    0x08, 0x00, 0x00, 0x00, 0x0c, 0x00, 0x00, 0x00, 0x01, 0x00, 0x00, 0x00, 0x05,
    0x78, 0xdf, 0x3a, 0x01, 0x00, 0x00, 0x00, 0x00, 0x00, 0x00, 0x00, 0x00, 0x00,
    0x00, 0x00, 0x00, 0x00, 0x00, 0x00, 0x0e, 0xdb, 0xff, 0xff, 0x04, 0x00, 0x00,
    0x00, 0x00, 0x01, 0x00, 0x00, 0xca, 0x3f, 0x00, 0x00, 0x6b, 0x49, 0x00, 0x00,
    0xe2, 0xdc, 0xff, 0xff, 0xb8, 0x4a, 0x00, 0x00, 0xdf, 0xe5, 0xff, 0xff, 0x50,
    0xfd, 0xff, 0xff, 0xc2, 0xe4, 0xff, 0xff, 0x65, 0xea, 0xff, 0xff, 0x00, 0x1b,
    0x00, 0x00, 0x1d, 0x3b, 0x00, 0x00, 0x88, 0x41, 0x00, 0x00, 0xd3, 0x07, 0x00,
    0x00, 0x41, 0xde, 0xff, 0xff, 0x42, 0xde, 0xff, 0xff, 0x5e, 0x3a, 0x00, 0x00,
    0xd6, 0xeb, 0xff, 0xff, 0x48, 0xfc, 0xff, 0xff, 0x19, 0x36, 0x00, 0x00, 0xb9,
    0x3c, 0x00, 0x00, 0xa1, 0x08, 0x00, 0x00, 0xa7, 0xe5, 0xff, 0xff, 0x77, 0x05,
    0x00, 0x00, 0xf8, 0x3b, 0x00, 0x00, 0x33, 0x39, 0x00, 0x00, 0x44, 0xdf, 0xff,
    0xff, 0x4b, 0xe4, 0xff, 0xff, 0x6f, 0x10, 0x00, 0x00, 0xbc, 0xec, 0xff, 0xff,
    0xfb, 0x2a, 0x00, 0x00, 0xa2, 0xfa, 0xff, 0xff, 0x5f, 0xe6, 0xff, 0xff, 0x0a,
    0xfb, 0xff, 0xff, 0xd0, 0xe3, 0xff, 0xff, 0x45, 0xdf, 0xff, 0xff, 0x50, 0xe6,
    0xff, 0xff, 0xa4, 0xfb, 0xff, 0xff, 0x87, 0xea, 0xff, 0xff, 0x5b, 0x13, 0x00,
    0x00, 0xb2, 0x40, 0x00, 0x00, 0x29, 0xe9, 0xff, 0xff, 0x70, 0xde, 0xff, 0xff,
    0xe1, 0x30, 0x00, 0x00, 0x0e, 0xe4, 0xff, 0xff, 0x2b, 0x3f, 0x00, 0x00, 0x72,
    0xfe, 0xff, 0xff, 0xaf, 0x48, 0x00, 0x00, 0xca, 0x0d, 0x00, 0x00, 0x54, 0x11,
    0x00, 0x00, 0xf1, 0x1f, 0x00, 0x00, 0x79, 0x02, 0x00, 0x00, 0xbb, 0xf7, 0xff,
    0xff, 0x15, 0x3c, 0x00, 0x00, 0x94, 0x2d, 0x00, 0x00, 0x23, 0xdf, 0xff, 0xff,
    0x6c, 0xd3, 0xff, 0xff, 0x86, 0xe3, 0xff, 0xff, 0x5a, 0x37, 0x00, 0x00, 0x48,
    0xee, 0xff, 0xff, 0xdd, 0xe7, 0xff, 0xff, 0xc3, 0x1d, 0x00, 0x00, 0xc4, 0xdb,
    0xff, 0xff, 0x28, 0x37, 0x00, 0x00, 0x81, 0xf3, 0xff, 0xff, 0x71, 0xfc, 0xff,
    0xff, 0xfe, 0xdb, 0xff, 0xff, 0x00, 0x00, 0x00, 0x02, 0x10, 0x00, 0x00, 0x00,
    0x08, 0x00, 0x00, 0x00, 0x10, 0x00, 0x00, 0x00, 0x44, 0x00, 0x00, 0x00, 0x01,
    0x00, 0x00, 0x00, 0x40, 0x00, 0x00, 0x00, 0x30, 0x00, 0x00, 0x00, 0x73, 0x65,
    0x71, 0x75, 0x65, 0x6e, 0x74, 0x69, 0x61, 0x6c, 0x2f, 0x64, 0x65, 0x6e, 0x73,
    0x65, 0x2f, 0x42, 0x69, 0x61, 0x73, 0x41, 0x64, 0x64, 0x2f, 0x52, 0x65, 0x61,
    0x64, 0x56, 0x61, 0x72, 0x69, 0x61, 0x62, 0x6c, 0x65, 0x4f, 0x70, 0x2f, 0x72,
    0x65, 0x73, 0x6f, 0x75, 0x72, 0x63, 0x65, 0x00, 0x00, 0x00, 0x00, 0xf8, 0xdc,
    0xff, 0xff, 0x08, 0x00, 0x00, 0x00, 0x0c, 0x00, 0x00, 0x00, 0x01, 0x00, 0x00,
    0x00, 0x2e, 0xb2, 0xa8, 0x36, 0x01, 0x00, 0x00, 0x00, 0x00, 0x00, 0x00, 0x00,
    0x00, 0x00, 0x00, 0x00, 0x00, 0x00, 0x00, 0x00, 0x96, 0xdc, 0xff, 0xff, 0x04,
    0x00, 0x00, 0x00, 0x00, 0x1e, 0x00, 0x00, 0xff, 0xd8, 0xfe, 0xbd, 0x00, 0x00,
    0x51, 0xfc, 0xfd, 0xd7, 0x00, 0xc0, 0x00, 0x00, 0x51, 0xff, 0xfc, 0xda, 0x00,
    0xbe, 0x00, 0x00, 0x5b, 0xfd, 0xff, 0xda, 0xfe, 0xc3, 0x00, 0x00, 0x52, 0xfe,
    0xfd, 0xd3, 0xfe, 0xbd, 0xff, 0x00, 0x5e, 0xfc, 0x00, 0xd6, 0xfe, 0xc6, 0x00,
    0x00, 0x4f, 0xff, 0x00, 0xe2, 0x00, 0xbc, 0x00, 0x00, 0x4d, 0xff, 0xfe, 0xd3,
    0xff, 0xc1, 0x00, 0xfc, 0x56, 0x00, 0xff, 0xd8, 0x00, 0xc5, 0x00, 0x00, 0x4d,
    0x00, 0xfb, 0xd5, 0x00, 0xc2, 0x00, 0xff, 0x5b, 0xfd, 0xf9, 0xdb, 0xfc, 0xc7,
    0x00, 0x00, 0x5a, 0xfc, 0xfc, 0xd7, 0xfc, 0xbe, 0x00, 0x00, 0x5e, 0xfd, 0xfc,
    0xd8, 0xfb, 0xbd, 0xff, 0x00, 0x65, 0xfc, 0xfa, 0xdb, 0x00, 0xc0, 0x00, 0x00,
    0x4e, 0xfd, 0xf5, 0xd6, 0xf6, 0xc3, 0x00, 0xfe, 0x4a, 0xfa, 0x00, 0xf8, 0xfe,
    0xe8, 0x01, 0xfd, 0x59, 0xff, 0x04, 0xf7, 0x03, 0xee, 0x01, 0xfc, 0x4e, 0x01,
    0x03, 0xf9, 0x00, 0xf3, 0xfd, 0x01, 0x51, 0xfd, 0xfe, 0xfd, 0xfd, 0xfa, 0x01,
    0x00, 0x4e, 0xfe, 0xfd, 0xf2, 0xff, 0xf4, 0xfd, 0xfd, 0x54, 0x00, 0x02, 0xf8,
    0x00, 0xf3, 0x00, 0xff, 0x56, 0x02, 0x04, 0xfe, 0x04, 0xf2, 0xff, 0xfd, 0x5e,
    0x04, 0xff, 0xf7, 0x00, 0xf9, 0x02, 0xfe, 0x5c, 0x04, 0x00, 0xf6, 0x00, 0xe9,
    0xfe, 0x02, 0x4e, 0xfe, 0xfb, 0xf8, 0xfb, 0xf2, 0xfb, 0xff, 0x55, 0xfd, 0xf9,
    0xfd, 0xfc, 0xf5, 0xfc, 0x00, 0x4e, 0xfa, 0xfe, 0xf6, 0xfd, 0xf3, 0x00, 0xfd,
    0x53, 0xfd, 0x02, 0xf6, 0x00, 0xed, 0xfd, 0x00, 0x56, 0x00, 0xfd, 0xf4, 0x03,
    0xf0, 0xfe, 0xfe, 0x51, 0xfd, 0xfa, 0xf5, 0xfb, 0xf2, 0x01, 0xfe, 0x52, 0xf9,
    0x24, 0xf2, 0x27, 0x0d, 0x32, 0x30, 0xf1, 0x0c, 0x22, 0xf7, 0x2b, 0xfa, 0x33,
    0x37, 0xf0, 0x1c, 0x1f, 0xf1, 0x30, 0xf4, 0x3a, 0x37, 0xf6, 0x1c, 0x21, 0x02,
    0x1a, 0xf6, 0x32, 0x31, 0xf4, 0x19, 0x15, 0xfb, 0x15, 0xf1, 0x35, 0x2d, 0xf2,
    0x0b, 0x22, 0xf2, 0x2e, 0x00, 0x2e, 0x2f, 0xf5, 0x0f, 0x29, 0xef, 0x4a, 0x08,
    0x39, 0x35, 0xee, 0x17, 0x1e, 0xfc, 0x38, 0x07, 0x37, 0x34, 0xf4, 0x1c, 0x21,
    0xf3, 0x42, 0x0b, 0x39, 0x35, 0xf0, 0x24, 0x1f, 0xf3, 0x1f, 0x1b, 0x2f, 0x33,
    0xf1, 0x14, 0x1f, 0xf1, 0x3c, 0x1e, 0x35, 0x32, 0xf1, 0x1d, 0x1c, 0xf7, 0x33,
    0xf2, 0x36, 0x3c, 0xed, 0x14, 0x26, 0xee, 0x18, 0xf8, 0x30, 0x2f, 0xf2, 0x16,
    0x16, 0xeb, 0x2e, 0xe5, 0x39, 0x36, 0xee, 0x13, 0x24, 0x02, 0x23, 0x12, 0x38,
    0x35, 0xf0, 0x12, 0xfe, 0x04, 0xfe, 0x05, 0xfe, 0xff, 0x5e, 0x00, 0xfe, 0x01,
    0xfb, 0x02, 0xff, 0xfd, 0x5c, 0xfc, 0xfc, 0x03, 0xfd, 0xf2, 0xfb, 0xfe, 0x57,
    0xfe, 0x01, 0xfa, 0x00, 0xea, 0x00, 0xff, 0x52, 0x00, 0xfe, 0xf9, 0x03, 0xef,
    0xfb, 0xfc, 0x4a, 0x00, 0xff, 0xfb, 0x00, 0xfe, 0xfc, 0xfd, 0x54, 0x04, 0xff,
    0xfd, 0xfe, 0xeb, 0xf9, 0xfc, 0x56, 0xfd, 0xfe, 0xfa, 0xfe, 0xf0, 0xfd, 0xfd,
    0x54, 0x04, 0xfd, 0xf8, 0xfd, 0xf0, 0xfe, 0xfd, 0x5a, 0xfe, 0xf7, 0xfc, 0xfe,
    0xf4, 0xfe, 0xfc, 0x54, 0xfe, 0xf7, 0x04, 0xfb, 0x02, 0xfa, 0x00, 0x53, 0xfb,
    0xfe, 0xfb, 0xfd, 0x02, 0x01, 0xfd, 0x4b, 0xfa, 0xfb, 0xf9, 0x02, 0xf0, 0xfb,
    0xfc, 0x4b, 0xfe, 0xff, 0xfe, 0xfe, 0x03, 0xfc, 0xfc, 0x5c, 0xfc, 0xf9, 0xfa,
    0xfc, 0xf3, 0xfb, 0xfc, 0x55, 0xfb, 0xb9, 0x33, 0xb2, 0x38, 0xf7, 0xf5, 0xe7,
    0xc7, 0xb0, 0x36, 0xa6, 0x3a, 0xf5, 0xfb, 0x11, 0xc9, 0xbd, 0x23, 0xa0, 0x63,
    0xf3, 0xfe, 0xe8, 0xbc, 0xc0, 0x2f, 0xb6, 0x76, 0xfa, 0xfb, 0x1e, 0xc4, 0xb2,
    0x4e, 0xb9, 0x62, 0xf8, 0xf6, 0x07, 0xc1, 0xc2, 0x51, 0xb3, 0x3b, 0xf7, 0xf6,
    0xf0, 0xbd, 0xb1, 0x1d, 0xae, 0x58, 0xf2, 0xf7, 0x03, 0xc3, 0xa1, 0x48, 0x99,
    0x7f, 0xf6, 0xf8, 0x18, 0xb6, 0xb2, 0x3e, 0xad, 0x34, 0xf2, 0xf5, 0xf1, 0xbd,
    0xb2, 0x3e, 0x9b, 0x58, 0xea, 0xf4, 0x12, 0xb2, 0xce, 0x4c, 0xa4, 0x42, 0xf3,
    0xfb, 0x19, 0xbf, 0xb5, 0x2a, 0xb2, 0x53, 0xf8, 0xf9, 0xe4, 0xc5, 0xda, 0x41,
    0xa6, 0x47, 0xf8, 0xf3, 0xfb, 0xba, 0xbd, 0x50, 0xa8, 0x63, 0xee, 0xf6, 0xf9,
    0xba, 0xb2, 0x4e, 0xa6, 0x51, 0xf4, 0xf5, 0xeb, 0xc4, 0xfd, 0xf2, 0x48, 0x2b,
    0xd1, 0xab, 0xd3, 0x2c, 0x05, 0x49, 0x35, 0xe6, 0xb5, 0xd7, 0xc6, 0x2a, 0x34,
    0x03, 0x09, 0x06, 0xc5, 0xd3, 0xc5, 0x23, 0x06, 0x18, 0xf4, 0x12, 0xe0, 0xf4,
    0xc5, 0x14, 0x03, 0x42, 0xf1, 0xee, 0xc2, 0xdf, 0xbe, 0x22, 0x4a, 0x27, 0x16,
    0x3a, 0xae, 0xb5, 0xd0, 0x46, 0x14, 0x48, 0x34, 0x1e, 0xd1, 0xe5, 0xbf, 0x3d,
    0x3c, 0x1d, 0x0f, 0xea, 0xb8, 0xc1, 0xc9, 0x42, 0x18, 0x32, 0x10, 0x03, 0xd6,
    0xde, 0xbf, 0x22, 0x2a, 0x31, 0x3f, 0x43, 0x95, 0xbb, 0xc7, 0x4a, 0x22, 0x1f,
    0x35, 0x16, 0x9d, 0xe0, 0xc9, 0x01, 0x19, 0x27, 0x30, 0x32, 0xbd, 0xbd, 0xcc,
    0x22, 0xfc, 0x14, 0x02, 0x12, 0xbd, 0xd9, 0xc5, 0x1f, 0x37, 0x11, 0x3c, 0x0f,
    0xb3, 0xb0, 0xc1, 0x46, 0x08, 0x1b, 0x21, 0x25, 0xa4, 0xdd, 0xc9, 0x11, 0x25,
    0xfa, 0x44, 0x07, 0x48, 0x36, 0xef, 0x11, 0x2f, 0xf6, 0x40, 0xef, 0x44, 0x3f,
    0xef, 0x1f, 0x2b, 0xf0, 0x39, 0xf3, 0x42, 0x44, 0xf3, 0x17, 0x23, 0xef, 0x29,
    0xea, 0x3b, 0x39, 0xf5, 0x1a, 0x26, 0xfb, 0x34, 0x07, 0x3c, 0x3a, 0xf6, 0x15,
    0x29, 0xef, 0x38, 0xe7, 0x3f, 0x3b, 0xf7, 0x16, 0x28, 0xf1, 0x3d, 0xf3, 0x43,
    0x3b, 0xf2, 0x13, 0x2a, 0xf8, 0x36, 0xed, 0x3f, 0x3b, 0xf2, 0x1d, 0x26, 0xf1,
    0x45, 0x0c, 0x44, 0x3e, 0xf0, 0x23, 0x28, 0xf9, 0x2b, 0xe6, 0x40, 0x3d, 0xee,
    0x12, 0x2d, 0xf4, 0x36, 0x01, 0x43, 0x36, 0xf5, 0x17, 0x23, 0xee, 0x3b, 0xfb,
    0x44, 0x3e, 0xf3, 0x1f, 0x25, 0xf6, 0x2c, 0xec, 0x3d, 0x3a, 0xec, 0x1a, 0x1e,
    0xf2, 0x3d, 0xf4, 0x3d, 0x3d, 0xf3, 0x14, 0x21, 0xf0, 0x36, 0x00, 0x3c, 0x3a,
    0xf8, 0x14, 0x10, 0xed, 0x28, 0xf6, 0x2b, 0x2c, 0xff, 0x03, 0x0e, 0xeb, 0x2a,
    0xe7, 0x2b, 0x31, 0xff, 0x0a, 0x0d, 0xe7, 0x10, 0xf5, 0x36, 0x2e, 0xfd, 0x0e,
    0x0a, 0xe8, 0x24, 0xf6, 0x33, 0x29, 0x00, 0xff, 0x11, 0xf4, 0x18, 0xe9, 0x2d,
    0x2c, 0xfd, 0xfa, 0x0a, 0xe7, 0x19, 0xe2, 0x28, 0x2f, 0x00, 0x02, 0x0a, 0xe7,
    0x1b, 0xf3, 0x32, 0x28, 0x01, 0x06, 0x13, 0xed, 0x25, 0xf2, 0x2e, 0x37, 0x01,
    0x0b, 0x08, 0xf2, 0x18, 0xf3, 0x39, 0x32, 0xff, 0x06, 0x0d, 0xef, 0x0e, 0xed,
    0x22, 0x30, 0xfe, 0x05, 0x0d, 0xea, 0x22, 0xfb, 0x2d, 0x39, 0xfe, 0x07, 0x1b,
    0xed, 0x24, 0xe8, 0x33, 0x3a, 0xfd, 0x13, 0x0c, 0xf2, 0x14, 0x03, 0x34, 0x2b,
    0xf9, 0x08, 0x0f, 0xec, 0x25, 0xf8, 0x33, 0x2b, 0x00, 0x0b, 0x11, 0xed, 0x07,
    0xf8, 0x31, 0x2f, 0x00, 0xfd, 0x04, 0x29, 0xf6, 0x1c, 0xd5, 0xd8, 0xfe, 0x0a,
    0xfc, 0x27, 0x01, 0x2f, 0xd4, 0xcb, 0xf5, 0x08, 0x08, 0x26, 0xfe, 0x28, 0xd1,
    0xd8, 0xf9, 0x12, 0xfe, 0x31, 0xfa, 0x21, 0xd7, 0xdc, 0xf8, 0x07, 0x08, 0x2e,
    0x02, 0x3a, 0xd3, 0xda, 0xf6, 0x10, 0x09, 0x2a, 0xfc, 0x2a, 0xd9, 0xda, 0xfa,
    0x0a, 0x01, 0x2d, 0x02, 0x2d, 0xda, 0xd5, 0xf6, 0x07, 0x0a, 0x2c, 0x01, 0x26,
    0xda, 0xd6, 0xf6, 0x0e, 0x06, 0x2a, 0xf8, 0x21, 0xd7, 0xd9, 0xf7, 0x04, 0x07,
    0x2b, 0xfb, 0x34, 0xd1, 0xe2, 0xf9, 0x10, 0x04, 0x29, 0xf9, 0x38, 0xd7, 0xd9,
    0xfa, 0x0a, 0x05, 0x2e, 0x09, 0x2e, 0xdb, 0xdf, 0xf9, 0x0a, 0x0b, 0x26, 0xfe,
    0x2a, 0xd7, 0xda, 0xf7, 0x0f, 0xfe, 0x2b, 0x01, 0x2a, 0xd0, 0xdc, 0xf9, 0x0a,
    0x05, 0x2a, 0x03, 0x37, 0xd4, 0xd8, 0xf7, 0x0e, 0xff, 0xcb, 0x00, 0xb2, 0x00,
    0x00, 0x5a, 0xfe, 0xfc, 0xcd, 0x00, 0xb4, 0x00, 0x00, 0x56, 0xff, 0xfc, 0xcc,
    0x00, 0xae, 0x00, 0x00, 0x53, 0xfd, 0xff, 0xd7, 0xfe, 0xb5, 0x00, 0x00, 0x64,
    0xfc, 0xfc, 0xd0, 0xfe, 0xb7, 0xff, 0x00, 0x50, 0xfc, 0x00, 0xd3, 0x00, 0xb8,
    0x00, 0x00, 0x65, 0xff, 0x00, 0xda, 0x00, 0xba, 0x00, 0x00, 0x64, 0x00, 0x00,
    0xcd, 0x00, 0xbb, 0x00, 0xfe, 0x69, 0x00, 0x00, 0xd2, 0x00, 0xbf, 0x00, 0x00,
    0x55, 0xff, 0xfd, 0xce, 0x00, 0xbb, 0x00, 0xff, 0x5c, 0xfc, 0xf8, 0xd6, 0xfd,
    0xbe, 0x00, 0x00, 0x4f, 0xfb, 0xfd, 0xce, 0xfd, 0xb9, 0x00, 0x00, 0x57, 0xfd,
    0x00, 0xc7, 0xfb, 0xb2, 0x00, 0x00, 0x53, 0xfd, 0xfb, 0xcf, 0x00, 0xb7, 0x00,
    0x00, 0x60, 0xfc, 0xf9, 0xcc, 0xf9, 0xb8, 0xff, 0xfe, 0x62, 0xf8, 0xfe, 0xd6,
    0xfe, 0xba, 0x00, 0x00, 0x60, 0xfe, 0xfa, 0xd5, 0xfc, 0xbc, 0x00, 0x00, 0x5d,
    0xfc, 0xfc, 0xd9, 0xfd, 0xbb, 0x00, 0xfc, 0x5e, 0xfe, 0xfe, 0xdb, 0xfd, 0xbe,
    0x00, 0x00, 0x59, 0xfb, 0xfe, 0xd4, 0xfe, 0xbf, 0xff, 0xff, 0x5d, 0xfd, 0xfd,
    0xdd, 0xfa, 0xc5, 0xff, 0xfd, 0x5c, 0x00, 0x00, 0xe2, 0xfd, 0xc1, 0x01, 0x00,
    0x5c, 0xfd, 0xfd, 0xd6, 0xfd, 0xc8, 0x00, 0xfe, 0x5b, 0xfc, 0xfa, 0xd3, 0xff,
    0xc2, 0x00, 0xfe, 0x58, 0xfc, 0xfe, 0xd4, 0xfe, 0xc3, 0x00, 0xfe, 0x5e, 0xff,
    0xfc, 0xd8, 0xff, 0xc4, 0x00, 0xfd, 0x5b, 0xff, 0xfe, 0xd9, 0xfa, 0xc2, 0xfd,
    0x00, 0x5a, 0xfc, 0xfc, 0xd7, 0xfc, 0xb9, 0x00, 0x00, 0x5d, 0xfd, 0xfd, 0xd5,
    0xfd, 0xbf, 0x00, 0x00, 0x5e, 0x00, 0xfb, 0xd2, 0xfd, 0xc0, 0xff, 0xff, 0x5a,
    0xfd, 0xee, 0x2d, 0xe6, 0x60, 0xe9, 0xf4, 0xfa, 0xf0, 0xec, 0x24, 0xe8, 0x29,
    0xee, 0xf2, 0xff, 0xf1, 0xfa, 0x34, 0xf5, 0x25, 0xf1, 0xf0, 0xf7, 0xfa, 0xf6,
    0x25, 0xeb, 0x1c, 0xeb, 0xf3, 0xfe, 0xf8, 0xfb, 0x2b, 0xf9, 0x5e, 0xf1, 0xf6,
    0xf5, 0xfd, 0xfa, 0x2a, 0xf9, 0x3c, 0xf4, 0xf2, 0x01, 0xff, 0xe5, 0x2b, 0xf3,
    0x5c, 0xf3, 0xef, 0xf5, 0xf1, 0xf4, 0x41, 0xeb, 0x47, 0xf0, 0xee, 0xfa, 0xf3,
    0xe8, 0x3b, 0xf6, 0x1e, 0xf0, 0xf0, 0xfd, 0xf5, 0xf6, 0x1e, 0xf5, 0x2d, 0xee,
    0xef, 0x02, 0xfd, 0xf4, 0x3c, 0xe7, 0x1a, 0xeb, 0xef, 0xfe, 0xf6, 0xf4, 0x1e,
    0xe7, 0x33, 0xed, 0xed, 0xfb, 0xfc, 0xf3, 0x1e, 0xeb, 0x3e, 0xf4, 0xeb, 0x05,
    0xfa, 0xec, 0x2e, 0xe0, 0x4a, 0xee, 0xf0, 0x00, 0xfa, 0xf4, 0x34, 0xf9, 0x26,
    0xeb, 0xf7, 0xfa, 0xf9, 0x3a, 0xf3, 0x4b, 0x1c, 0x38, 0x2b, 0xe2, 0x25, 0x39,
    0xfd, 0x50, 0x00, 0x31, 0x32, 0xe3, 0x28, 0x2e, 0x04, 0x3c, 0xfc, 0x32, 0x2b,
    0xdf, 0x26, 0x2b, 0x08, 0x3f, 0xf7, 0x31, 0x2d, 0xe3, 0x32, 0x2d, 0x07, 0x34,
    0x0d, 0x2d, 0x28, 0xdf, 0x1e, 0x29, 0xf6, 0x46, 0x14, 0x28, 0x28, 0xea, 0x2b,
    0x32, 0xeb, 0x41, 0x1f, 0x33, 0x2f, 0xe0, 0x2b, 0x38, 0x10, 0x3f, 0x05, 0x31,
    0x26, 0xdf, 0x2b, 0x39, 0x02, 0x5a, 0xfb, 0x34, 0x2a, 0xdc, 0x36, 0x32, 0xf7,
    0x46, 0x15, 0x30, 0x30, 0xe0, 0x26, 0x2f, 0xfa, 0x3b, 0x28, 0x33, 0x2b, 0xe7,
    0x31, 0x37, 0xfc, 0x43, 0x27, 0x2d, 0x2b, 0xe3, 0x28, 0x2b, 0xf0, 0x3d, 0x00,
    0x30, 0x2d, 0xe5, 0x22, 0x2d, 0x0a, 0x3b, 0xf0, 0x30, 0x32, 0xe4, 0x2f, 0x28,
    0xff, 0x3e, 0x10, 0x30, 0x29, 0xe5, 0x24, 0x21, 0xe7, 0x27, 0xda, 0x3e, 0x3f,
    0xfc, 0x04, 0x0c, 0xe0, 0x02, 0xe8, 0x34, 0x37, 0xfb, 0xfa, 0x1b, 0xdb, 0x3f,
    0xdc, 0x2d, 0x29, 0x00, 0x0e, 0x10, 0xe0, 0x0c, 0xfc, 0x32, 0x42, 0x02, 0x0e,
    0x02, 0xe7, 0x2d, 0xe3, 0x3f, 0x39, 0xfe, 0x01, 0x02, 0xdf, 0x28, 0xe8, 0x44,
    0x51, 0x00, 0xff, 0x20, 0xe1, 0x2f, 0xdc, 0x26, 0x39, 0x00, 0x0b, 0x01, 0xdf,
    0x28, 0xf9, 0x4e, 0x39, 0x00, 0x13, 0x09, 0xe3, 0x00, 0xd6, 0x3e, 0x36, 0xff,
    0xf8, 0xf7, 0xe6, 0x12, 0x00, 0x39, 0x22, 0xfe, 0x03, 0x0b, 0xe5, 0xfd, 0xf9,
    0x55, 0x53, 0xf9, 0xf7, 0x15, 0xed, 0x38, 0xf6, 0x29, 0x3e, 0xfc, 0xfb, 0x0d,
    0xe3, 0x13, 0xdd, 0x2c, 0x29, 0xfb, 0x05, 0x1f, 0xe2, 0x2c, 0xcc, 0x2d, 0x4e,
    0xfb, 0xfd, 0xff, 0xe4, 0x20, 0xd9, 0x34, 0x46, 0xfe, 0x00, 0xfe, 0xd7, 0xff,
    0xc2, 0x00, 0x00, 0x60, 0x00, 0xfe, 0xd6, 0x00, 0xbc, 0x00, 0x00, 0x59, 0xff,
    0xfd, 0xd8, 0x00, 0xbe, 0x00, 0x00, 0x5d, 0xfe, 0xff, 0xdc, 0xfe, 0xc0, 0x00,
    0xff, 0x57, 0xfd, 0xfe, 0xd3, 0xfe, 0xbe, 0xff, 0x01, 0x5a, 0xfe, 0xfc, 0xde,
    0xfc, 0xc3, 0x00, 0xfd, 0x5c, 0xff, 0xff, 0xe4, 0x00, 0xc8, 0x00, 0x00, 0x59,
    0x00, 0xfc, 0xd6, 0xfd, 0xca, 0x00, 0xfe, 0x58, 0xfd, 0xfd, 0xd2, 0x00, 0xc6,
    0x00, 0xfe, 0x58, 0xfd, 0xfd, 0xd8, 0x00, 0xc7, 0x00, 0xff, 0x59, 0x00, 0xfd,
    0xd9, 0x00, 0xcb, 0x00, 0xfd, 0x59, 0xff, 0xff, 0xda, 0xfc, 0xc1, 0xfd, 0xff,
    0x59, 0xfc, 0xfd, 0xd3, 0xfd, 0xbe, 0xff, 0x00, 0x5b, 0xfc, 0xff, 0xd9, 0xff,
    0xc5, 0x00, 0x00, 0x57, 0xff, 0xf9, 0xd6, 0xfa, 0xc3, 0xfe, 0xff, 0x57, 0xfc,
    0x14, 0x0a, 0xfe, 0x41, 0xa1, 0xce, 0xb6, 0x14, 0x2a, 0x06, 0x0a, 0x25, 0xdd,
    0xd0, 0xb9, 0x4a, 0x37, 0x0f, 0x30, 0x3d, 0xb6, 0xbf, 0xba, 0x1f, 0x02, 0x09,
    0x3e, 0xe6, 0xa8, 0xe0, 0xb5, 0x1e, 0x18, 0x43, 0xfa, 0x12, 0xb2, 0xcb, 0xb9,
    0x10, 0x23, 0x0c, 0xfc, 0xf0, 0xaf, 0xc3, 0xc4, 0x19, 0x22, 0x07, 0x2a, 0xfb,
    0xba, 0xdd, 0xb4, 0x30, 0x06, 0x2f, 0x22, 0x00, 0xda, 0xb8, 0xb4, 0x22, 0x0d,
    0x11, 0x26, 0x46, 0xcf, 0xca, 0xb0, 0x11, 0x37, 0x3d, 0xf5, 0xd1, 0xbd, 0xc3,
    0xb1, 0x1a, 0x23, 0x40, 0xf8, 0x3b, 0xa3, 0xd4, 0xbd, 0x28, 0x33, 0x19, 0x1b,
    0x47, 0xd6, 0xe0, 0xb4, 0x13, 0x1b, 0x2d, 0x31, 0xf2, 0xd0, 0xbb, 0xbf, 0x42,
    0x27, 0x3a, 0xe3, 0xec, 0xd4, 0xbe, 0xb9, 0x1c, 0xf1, 0x32, 0x10, 0x43, 0xd4,
    0xdd, 0xbf, 0x24, 0x07, 0x30, 0x3c, 0xe5, 0xc4, 0xb1, 0xc5, 0x0b, 0x24, 0xf8,
    0x3d, 0x52, 0xa4, 0xe6, 0xbf, 0x36, 0xf4, 0x03, 0x31, 0x3f, 0xab, 0xea, 0xc0,
    0x0a, 0x4b, 0x14, 0x20, 0xd1, 0xab, 0xb2, 0xbd, 0x34, 0x11, 0xf5, 0x1e, 0xde,
    0xdf, 0xd7, 0xbe, 0x04, 0x13, 0xfd, 0x2f, 0x52, 0x9d, 0xbb, 0xce, 0x14, 0x11,
    0x36, 0x55, 0x33, 0xae, 0xa7, 0xb8, 0x28, 0x15, 0x1d, 0xdb, 0xd5, 0xc4, 0xb4,
    0xbb, 0x1d, 0x29, 0x25, 0xea, 0xe3, 0xe8, 0xf8, 0xbd, 0x2e, 0xfe, 0x21, 0x38,
    0x0b, 0xcf, 0xcf, 0xba, 0x30, 0x29, 0x17, 0x10, 0x32, 0xe4, 0xbd, 0xc6, 0x16,
    0x4c, 0xfd, 0x4b, 0x58, 0xf4, 0xc5, 0xc8, 0x01, 0x1f, 0x09, 0xda, 0x56, 0xaa,
    0xa8, 0xc5, 0x18, 0x4b, 0x12, 0xf9, 0x4e, 0xb8, 0xad, 0xbd, 0x2e, 0x43, 0x1f,
    0x1c, 0x38, 0xa2, 0xaf, 0xbf, 0x0a, 0x00, 0xd9, 0x01, 0xbd, 0x00, 0x00, 0x5c,
    0x00, 0x00, 0xd3, 0xfe, 0xb7, 0x00, 0x01, 0x66, 0xfe, 0xfd, 0xdc, 0x00, 0xba,
    0x00, 0x00, 0x4e, 0xfd, 0xff, 0xd8, 0xfd, 0xbe, 0x00, 0x00, 0x43, 0xfd, 0xfd,
    0xd3, 0xfe, 0xbe, 0xff, 0x01, 0x51, 0xfc, 0x00, 0xd6, 0x00, 0xbf, 0x00, 0x00,
    0x5d, 0xff, 0x00, 0xe5, 0x00, 0xc2, 0x00, 0x00, 0x55, 0x00, 0x00, 0xd2, 0x00,
    0xba, 0x00, 0xfe, 0x48, 0x00, 0x00, 0xd2, 0x00, 0xba, 0x00, 0x00, 0x5b, 0x00,
    0xfc, 0xd2, 0x00, 0xbb, 0x00, 0xff, 0x68, 0xfd, 0xf8, 0xd6, 0xfd, 0xbf, 0x00,
    0x01, 0x5a, 0xfb, 0xfd, 0xd0, 0xfd, 0xbd, 0x00, 0x00, 0x65, 0xfd, 0xfd, 0xd4,
    0xfa, 0xbb, 0x00, 0x00, 0x4a, 0xfd, 0xfb, 0xd3, 0x00, 0xbd, 0x00, 0x00, 0x5e,
    0xfc, 0xfb, 0xd2, 0xf8, 0xc3, 0x00, 0xfe, 0x64, 0xfa, 0x00, 0xd9, 0x00, 0xbb,
    0x00, 0x00, 0x5c, 0x00, 0x00, 0xd5, 0xff, 0xb8, 0x00, 0x01, 0x5a, 0xff, 0xfe,
    0xd5, 0x00, 0xb8, 0x00, 0x00, 0x5b, 0xfd, 0xff, 0xdf, 0xfe, 0xc1, 0x00, 0x00,
    0x5f, 0xfd, 0xfc, 0xd9, 0xff, 0xc2, 0xff, 0x01, 0x51, 0xfb, 0x00, 0xda, 0x00,
    0xc1, 0x00, 0x00, 0x68, 0xff, 0x00, 0xe0, 0x01, 0xc8, 0x00, 0x00, 0x6a, 0x00,
    0x00, 0xd0, 0x00, 0xc4, 0x00, 0xfe, 0x4c, 0x00, 0x00, 0xd4, 0x00, 0xc4, 0x00,
    0x00, 0x4c, 0x00, 0xfd, 0xd1, 0x00, 0xbd, 0x00, 0xff, 0x4a, 0xfd, 0xf9, 0xd8,
    0xfd, 0xc5, 0x00, 0x01, 0x5d, 0xfb, 0xfd, 0xd4, 0xfd, 0xc3, 0x00, 0x00, 0x68,
    0xfd, 0x00, 0xcf, 0xfb, 0xbb, 0x00, 0x00, 0x4e, 0xfe, 0xfd, 0xd3, 0x00, 0xbc,
    0x00, 0x00, 0x45, 0xfc, 0xf9, 0xd2, 0xfa, 0xc5, 0xff, 0xff, 0x48, 0xf9, 0xe1,
    0x3d, 0x02, 0x61, 0xf4, 0xf6, 0xf1, 0x01, 0xf0, 0x29, 0xe9, 0x19, 0xef, 0xf2,
    0x02, 0xf5, 0xfd, 0x43, 0xee, 0x25, 0xf1, 0xf2, 0xef, 0xfc, 0xdf, 0x36, 0xeb,
    0x44, 0xee, 0xf0, 0x0a, 0xf8, 0xe4, 0x1b, 0xf2, 0x52, 0xee, 0xf8, 0x09, 0xee,
    0xfc, 0x1a, 0xff, 0x3f, 0xf8, 0xf9, 0x03, 0xf9, 0xf0, 0x42, 0xe0, 0x12, 0xee,
    0xf5, 0x08, 0xfe, 0xf5, 0x39, 0xfa, 0x62, 0xe9, 0xf1, 0xf6, 0xfe, 0xf0, 0x3c,
    0xe5, 0x30, 0xe5, 0xf2, 0xf9, 0xec, 0xe4, 0x41, 0xd1, 0x5a, 0xf7, 0xf4, 0xef,
    0xe9, 0xeb, 0x2c, 0xe8, 0x41, 0xeb, 0xf0, 0xff, 0xf1, 0xea, 0x48, 0xe8, 0x6b,
    0xf5, 0xef, 0xf6, 0xf4, 0xf7, 0x47, 0xdf, 0x52, 0xec, 0xf0, 0xf7, 0xf2, 0xed,
    0x2a, 0xdf, 0x11, 0xf6, 0xf6, 0x00, 0xff, 0xf1, 0x13, 0xfe, 0x22, 0xec, 0xf4,
    0xe8, 0xef, 0x3e, 0xfb, 0x50, 0xf6, 0x14, 0x14, 0xdc, 0x26, 0x25, 0x09, 0x48,
    0xfb, 0x14, 0x1a, 0xdd, 0x26, 0x34, 0x07, 0x2b, 0x17, 0x1a, 0x20, 0xde, 0x2c,
    0x30, 0x10, 0x2e, 0x2a, 0x15, 0x11, 0xdc, 0x18, 0x3a, 0x04, 0x2e, 0x14, 0x13,
    0x16, 0xdc, 0x32, 0x17, 0x0b, 0x3f, 0x20, 0x1e, 0x1c, 0xe5, 0x1e, 0x33, 0x0c,
    0x3b, 0x18, 0x19, 0x1d, 0xd9, 0x1b, 0x1d, 0x12, 0x51, 0x29, 0x13, 0x1a, 0xdd,
    0x24, 0x2b, 0x0f, 0x49, 0x17, 0x22, 0x0a, 0xdc, 0x2d, 0x28, 0xfa, 0x31, 0xf3,
    0x19, 0x24, 0xdc, 0x20, 0x31, 0x03, 0x24, 0x15, 0x1a, 0x1a, 0xdf, 0x26, 0x1e,
    0x07, 0x37, 0xf6, 0x24, 0x25, 0xdc, 0x1e, 0x1c, 0x00, 0x3d, 0x11, 0x0f, 0x16,
    0xe4, 0x28, 0x29, 0x05, 0x21, 0x21, 0x25, 0x17, 0xd9, 0x24, 0x1d, 0x14, 0x39,
    0xfc, 0x26, 0x0e, 0xdd, 0x18, 0xde, 0x54, 0xdf, 0x40, 0xfc, 0xfd, 0x07, 0xdb,
    0xdb, 0x3f, 0xc4, 0x1d, 0xef, 0xfb, 0xf1, 0xdc, 0xd4, 0x1c, 0xd8, 0x2a, 0xf6,
    0xfe, 0xff, 0xd7, 0xde, 0x4c, 0xd0, 0x69, 0xff, 0xff, 0xf5, 0xea, 0xde, 0x3a,
    0xd3, 0x39, 0xfc, 0x03, 0xf5, 0xe4, 0xdd, 0x25, 0xd1, 0x53, 0x06, 0x08, 0x15,
    0xdf, 0xd4, 0x16, 0xc5, 0x34, 0xfa, 0xfe, 0xf3, 0xe4, 0xc4, 0x20, 0xbf, 0x43,
    0xfb, 0xf9, 0xf2, 0xd4, 0xde, 0x2d, 0xc2, 0x72, 0xf8, 0x03, 0xf9, 0xd7, 0xdf,
    0x26, 0xd2, 0x6d, 0xfe, 0xfe, 0x04, 0xe2, 0xdd, 0x0a, 0xc0, 0x38, 0xfa, 0x03,
    0x01, 0xd4, 0xd2, 0x47, 0xcc, 0x4f, 0xfe, 0xfd, 0xec, 0xe6, 0xd5, 0x3c, 0xca,
    0x73, 0xfa, 0xf4, 0x0d, 0xdd, 0xe0, 0x24, 0xc3, 0x39, 0xf3, 0xf6, 0x01, 0xe2,
    0xdd, 0x4b, 0xbc, 0x58, 0xf5, 0xf9, 0xfe, 0xdc, 0x00, 0xe0, 0xfe, 0xc5, 0xfe,
    0xff, 0x57, 0xff, 0xfe, 0xd9, 0xfe, 0xbe, 0x00, 0x00, 0x6a, 0xff, 0xfc, 0xdd,
    0x00, 0xbf, 0x00, 0x00, 0x69, 0xfe, 0xfe, 0xdb, 0xfc, 0xc2, 0x00, 0xff, 0x56,
    0xfd, 0xfc, 0xd9, 0xfe, 0xbd, 0xfe, 0x01, 0x5a, 0xff, 0xff, 0xdc, 0xfd, 0xcb,
    0x01, 0x00, 0x58, 0x00, 0x02, 0xed, 0x03, 0xc3, 0x02, 0xff, 0x5f, 0x03, 0xfd,
    0xd9, 0xfc, 0xc0, 0x00, 0xfe, 0x5b, 0xfc, 0xff, 0xd7, 0xff, 0xbc, 0x00, 0x00,
    0x65, 0xfe, 0xfd, 0xda, 0x00, 0xc7, 0x00, 0xfe, 0x51, 0xff, 0xfb, 0xe2, 0x02,
    0xce, 0x00, 0x01, 0x68, 0xfd, 0xff, 0xd8, 0xfb, 0xc3, 0x00, 0x01, 0x57, 0xfc,
    0xfd, 0xd7, 0xff, 0xba, 0xff, 0x00, 0x4b, 0xfe, 0xfa, 0xdb, 0xfa, 0xc2, 0xfc,
    0x00, 0x63, 0xfe, 0xfb, 0xd5, 0xfd, 0xbf, 0x00, 0xff, 0x53, 0xfe, 0xfe, 0xd3,
    0xfe, 0xc0, 0x00, 0x00, 0x6e, 0xfc, 0xfc, 0xd9, 0xff, 0xc2, 0x00, 0x00, 0x5f,
    0xff, 0xfc, 0xdd, 0x01, 0xbf, 0x00, 0x00, 0x63, 0xff, 0x01, 0xe2, 0x00, 0xc4,
    0x00, 0xff, 0x61, 0x00, 0xfb, 0xd8, 0xff, 0xc3, 0xfe, 0x00, 0x59, 0xfe, 0xfd,
    0xd8, 0xfd, 0xc5, 0x01, 0xfd, 0x4f, 0x00, 0x04, 0xd9, 0x04, 0xc6, 0x02, 0x00,
    0x50, 0x03, 0xfb, 0xd8, 0xfc, 0xd0, 0x00, 0x02, 0x62, 0xfb, 0x01, 0xd7, 0x01,
    0xc9, 0x00, 0x00, 0x63, 0xfd, 0xfd, 0xd9, 0x00, 0xc3, 0x00, 0x00, 0x62, 0xff,
    0xfe, 0xd9, 0x02, 0xc8, 0x00, 0x01, 0x58, 0xfd, 0x02, 0xd8, 0xfd, 0xc4, 0xfd,
    0x00, 0x58, 0xfe, 0xfd, 0xd5, 0xfd, 0xbb, 0x00, 0x00, 0x59, 0xfc, 0xfc, 0xd9,
    0xfd, 0xc8, 0xfd, 0xfe, 0x5c, 0xfe, 0xfc, 0xdc, 0xfd, 0xbf, 0xfe, 0x00, 0x5b,
    0xff, 0x2f, 0xf8, 0x40, 0xfe, 0x2d, 0x2c, 0xed, 0x1a, 0x2e, 0xfd, 0x39, 0x01,
    0x2f, 0x31, 0xe9, 0x2a, 0x2c, 0xf6, 0x3c, 0x09, 0x30, 0x2f, 0xee, 0x21, 0x29,
    0xf5, 0x3a, 0xfe, 0x2f, 0x29, 0xe9, 0x25, 0x31, 0xfc, 0x38, 0xfb, 0x2d, 0x2f,
    0xe7, 0x1b, 0x2d, 0xfc, 0x41, 0xf8, 0x2e, 0x2c, 0xf2, 0x25, 0x30, 0xff, 0x42,
    0x0d, 0x2c, 0x2d, 0xeb, 0x1d, 0x2f, 0xfd, 0x40, 0x15, 0x32, 0x30, 0xe7, 0x23,
    0x31, 0xf9, 0x43, 0x11, 0x30, 0x2e, 0xe8, 0x25, 0x32, 0xfd, 0x3a, 0x19, 0x2f,
    0x2c, 0xeb, 0x1f, 0x30, 0xf9, 0x3a, 0xf6, 0x30, 0x2c, 0xee, 0x26, 0x2e, 0xff,
    0x33, 0x0b, 0x2b, 0x27, 0xe6, 0x1c, 0x2d, 0xfd, 0x36, 0x00, 0x2e, 0x29, 0xeb,
    0x1d, 0x29, 0xf5, 0x44, 0x08, 0x33, 0x33, 0xec, 0x21, 0x2c, 0xf3, 0x36, 0x15,
    0x2f, 0x2b, 0xed, 0x1f, 0xb5, 0x2f, 0xb6, 0x6b, 0xf2, 0xfa, 0x1b, 0xc2, 0xc7,
    0x2e, 0xb7, 0x3b, 0xf4, 0xfe, 0x16, 0xc8, 0xc9, 0x41, 0xac, 0x3c, 0xf5, 0xff,
    0xef, 0xc3, 0xcb, 0x36, 0xb8, 0x43, 0x03, 0xff, 0xff, 0xc4, 0xbd, 0x32, 0xb2,
    0x33, 0xf8, 0xfc, 0xfd, 0xc6, 0xc1, 0x47, 0xb4, 0x4f, 0xfb, 0xfe, 0xe7, 0xc5,
    0xc3, 0x22, 0xac, 0x2c, 0xee, 0xfa, 0x0b, 0xc2, 0xba, 0x45, 0xa8, 0x3c, 0xf8,
    0xfe, 0x04, 0xbd, 0xb6, 0x2a, 0xa9, 0x49, 0xf5, 0xfd, 0x13, 0xb8, 0xae, 0x28,
    0x9b, 0x3e, 0xf1, 0xfc, 0xf9, 0xb4, 0xc1, 0x2d, 0xb1, 0x3e, 0xf2, 0xf9, 0x12,
    0xbf, 0xae, 0x3a, 0xa8, 0x60, 0xf9, 0xfd, 0xee, 0xc3, 0xc3, 0x32, 0xc2, 0x60,
    0xfd, 0xf8, 0xf0, 0xbd, 0xc6, 0x29, 0xb7, 0x3c, 0xf4, 0xfa, 0xf0, 0xc4, 0xbb,
    0x30, 0xb2, 0x67, 0xfd, 0xf5, 0x00, 0xd8, 0xe7, 0x32, 0xe2, 0x44, 0xf3, 0xf9,
    0x03, 0xed, 0xe7, 0x38, 0xe1, 0x25, 0xee, 0xee, 0x09, 0xf4, 0xf5, 0x36, 0xe4,
    0x1d, 0xef, 0xed, 0xf3, 0xf8, 0xf0, 0x2c, 0xde, 0x31, 0xf4, 0xf3, 0x02, 0xed,
    0xf4, 0x16, 0xdf, 0x35, 0xf3, 0xf1, 0x00, 0xf4, 0xef, 0x36, 0xeb, 0x5b, 0xf5,
    0xf1, 0xf4, 0xf5, 0xec, 0x25, 0xe4, 0x43, 0xf1, 0xf1, 0xff, 0xf0, 0xea, 0x19,
    0xe4, 0x35, 0xf7, 0xee, 0x04, 0xe5, 0xe0, 0x33, 0xf1, 0x26, 0xf4, 0xf0, 0xfe,
    0xf5, 0xe6, 0x2f, 0xe3, 0x3d, 0xed, 0xf2, 0x04, 0xf2, 0xf6, 0x23, 0xe5, 0x5d,
    0xf2, 0xf0, 0xfc, 0xf1, 0xf4, 0x39, 0xe8, 0x16, 0xf4, 0xf3, 0x00, 0xfb, 0xee,
    0x3a, 0xea, 0x3a, 0xf3, 0xf4, 0xf6, 0xf9, 0xf0, 0x2d, 0xdf, 0x45, 0xf2, 0xf4,
    0xf6, 0xf2, 0xee, 0x27, 0xec, 0x41, 0xed, 0xef, 0xf4, 0xee, 0x25, 0xfe, 0x15,
    0x13, 0x1d, 0x20, 0xeb, 0x17, 0x1e, 0xfd, 0x1a, 0x0c, 0x1c, 0x29, 0xe6, 0x0c,
    0x22, 0xf9, 0x1d, 0xef, 0x1c, 0x25, 0xe6, 0x0d, 0x13, 0xf2, 0x24, 0xf5, 0x20,
    0x1c, 0xe9, 0x0c, 0x1c, 0x0a, 0x2b, 0x17, 0x17, 0x1b, 0xed, 0x04, 0x0f, 0xfc,
    0x1e, 0xfc, 0x1d, 0x22, 0xf2, 0x18, 0x1d, 0xf9, 0x27, 0xfa, 0x1f, 0x23, 0xec,
    0x0f, 0x2d, 0xfe, 0x3b, 0xf1, 0x2b, 0x28, 0xe8, 0x20, 0x23, 0x03, 0x1f, 0xf5,
    0x20, 0x1c, 0xe7, 0x19, 0x25, 0xfb, 0x1d, 0x13, 0x21, 0x1c, 0xeb, 0x0f, 0x1b,
    0x08, 0x1b, 0xfe, 0x29, 0x1a, 0xef, 0x18, 0x1d, 0xf6, 0x17, 0x03, 0x25, 0x1d,
    0xef, 0x15, 0x0b, 0x08, 0x16, 0xf7, 0x1b, 0x19, 0xe8, 0x10, 0x15, 0xff, 0x16,
    0xf4, 0x18, 0x1f, 0xe9, 0x14, 0x10, 0xf7, 0x1e, 0xf2, 0x1d, 0x1d, 0xed, 0x09,
    0xe9, 0x01, 0xe9, 0x24, 0xfb, 0xfc, 0x51, 0xee, 0xf5, 0x02, 0xea, 0x01, 0xfc,
    0xfe, 0x45, 0xf3, 0xf7, 0x09, 0xf5, 0xfd, 0xfe, 0xff, 0x41, 0xfa, 0xf6, 0x04,
    0xf5, 0x0a, 0xff, 0x00, 0x42, 0xf7, 0xed, 0x10, 0xee, 0x03, 0x00, 0xfe, 0x41,
    0xf1, 0xf2, 0x0a, 0xed, 0x23, 0xfe, 0xfe, 0x45, 0xf3, 0xf4, 0x11, 0xe4, 0x1d,
    0xfe, 0xfa, 0x45, 0xec, 0xe7, 0x09, 0xe0, 0xfc, 0xf5, 0xfb, 0x44, 0xe9, 0xf0,
    0x02, 0xe8, 0x01, 0xf8, 0xfd, 0x44, 0xea, 0xed, 0x05, 0xe5, 0x05, 0xfa, 0x00,
    0x4a, 0xec, 0xed, 0x0a, 0xe6, 0x09, 0xfb, 0xfc, 0x43, 0xec, 0xf0, 0x0e, 0xf4,
    0x10, 0xfe, 0x00, 0x44, 0xf0, 0xf2, 0x04, 0xef, 0x12, 0x00, 0xfa, 0x3f, 0xe9,
    0xf5, 0x0b, 0xef, 0x0b, 0xfd, 0xf8, 0x47, 0xf7, 0xe9, 0x0d, 0xe7, 0x0b, 0xfe,
    0xf7, 0x3a, 0xf0, 0x29, 0x29, 0xd4, 0xdf, 0xdd, 0xe0, 0xc2, 0x27, 0x41, 0xeb,
    0xe7, 0x50, 0xa6, 0xd9, 0xbe, 0x2a, 0x47, 0x35, 0x00, 0x01, 0xb4, 0xa1, 0xc1,
    0x0d, 0x3b, 0x0a, 0x29, 0x4d, 0xc1, 0x98, 0xc1, 0x31, 0x32, 0x1d, 0x4f, 0xd9,
    0xb0, 0xee, 0xc0, 0x44, 0x30, 0x46, 0x42, 0x14, 0xee, 0xee, 0xc9, 0x18, 0x04,
    0x2e, 0x24, 0x41, 0xc0, 0xc0, 0xb9, 0x06, 0x46, 0x20, 0x31, 0x3e, 0xaf, 0xc7,
    0xc1, 0x04, 0xf9, 0x36, 0x0a, 0x0e, 0xc1, 0xbb, 0xbb, 0x3d, 0xfd, 0x01, 0x50,
    0xe1, 0x91, 0xdb, 0xb5, 0x19, 0xf7, 0x19, 0x0f, 0x47, 0xdd, 0xc8, 0xc2, 0x29,
    0xfa, 0x3e, 0xd5, 0xea, 0xdb, 0xe6, 0xbf, 0x49, 0x22, 0x1a, 0x21, 0x07, 0xa3,
    0xdf, 0xc4, 0x4b, 0xfc, 0x23, 0x07, 0x0a, 0xb4, 0xc2, 0xbc, 0x4e, 0x16, 0x29,
    0x11, 0x0b, 0xcb, 0xf6, 0xc0, 0x15, 0xc4, 0x48, 0xcb, 0x79, 0xf6, 0xf8, 0x13,
    0xc6, 0xbb, 0x40, 0xa8, 0x63, 0xf4, 0xfc, 0xec, 0xc3, 0xc5, 0x41, 0xb9, 0x55,
    0xf5, 0xff, 0x07, 0xc7, 0xb9, 0x4a, 0xaf, 0x5c, 0xfd, 0xfa, 0xed, 0xc4, 0xbe,
    0x48, 0xb3, 0x76, 0xf8, 0xfc, 0xe1, 0xc6, 0xc7, 0x45, 0xb5, 0x6d, 0xfa, 0xfe,
    0x0e, 0xc0, 0xb6, 0x47, 0xa2, 0x68, 0xf0, 0xf9, 0x14, 0xc2, 0xac, 0x4a, 0x9c,
    0x3c, 0xf0, 0xf6, 0x12, 0xb3, 0xb7, 0x27, 0xa2, 0x69, 0xef, 0xf8, 0xff, 0xb9,
    0xb3, 0x36, 0xa6, 0x54, 0xf3, 0xff, 0xeb, 0xb0, 0xc5, 0x1d, 0xa9, 0x49, 0xf4,
    0xf9, 0xe9, 0xbb, 0xae, 0x2e, 0xaf, 0x3e, 0xf5, 0xfb, 0x1d, 0xc5, 0xc7, 0x29,
    0xb3, 0x42, 0xf5, 0xf2, 0x0c, 0xb6, 0xc4, 0x34, 0xb8, 0x4e, 0xf0, 0xf9, 0xf0,
    0xbf, 0xb4, 0x39, 0xa8, 0x27, 0xf4, 0xf0, 0xfb, 0xc6, 0x41, 0x13, 0x09, 0x2d,
    0xbb, 0xd8, 0xd1, 0x38, 0x06, 0x09, 0xde, 0x37, 0xc7, 0xe4, 0xcc, 0x12, 0x15,
    0x04, 0xfc, 0x2a, 0x07, 0xc4, 0xd5, 0x24, 0x1f, 0x30, 0x1d, 0x28, 0xb2, 0xc3,
    0xd0, 0xfe, 0x40, 0x2c, 0x3c, 0xf7, 0xf4, 0xb2, 0xcd, 0x0a, 0x1a, 0x0a, 0xda,
    0xf8, 0xfc, 0xb4, 0xd4, 0x2e, 0x1f, 0x1e, 0x29, 0xf3, 0xd4, 0xc5, 0xcf, 0x39,
    0x04, 0x11, 0xf3, 0xfd, 0xc6, 0xc0, 0xcc, 0x11, 0x08, 0x1b, 0x4b, 0x3e, 0xb6,
    0xc0, 0xc9, 0x0a, 0x29, 0x19, 0x43, 0xdb, 0xdf, 0xd5, 0xcf, 0x20, 0x30, 0x09,
    0x41, 0x01, 0xb5, 0xb6, 0xce, 0x1d, 0x00, 0x29, 0x0e, 0x13, 0xc0, 0xdb, 0xce,
    0x08, 0xf0, 0x23, 0x43, 0x2c, 0xf5, 0xee, 0xd3, 0x21, 0x39, 0x12, 0xfd, 0x29,
    0xd2, 0xc5, 0xce, 0x1d, 0x0b, 0x32, 0x2b, 0xf8, 0xfb, 0xc4, 0xd1, 0x36, 0x19,
    0xe2, 0x2e, 0xdb, 0x3c, 0x36, 0xfe, 0x0b, 0x17, 0xe1, 0x07, 0xf9, 0x32, 0x40,
    0xfb, 0x02, 0x16, 0xe5, 0x1c, 0xde, 0x35, 0x3c, 0xfe, 0x01, 0x0b, 0xe3, 0x05,
    0xef, 0x42, 0x39, 0xfd, 0x0b, 0x1d, 0xe5, 0x1d, 0xf6, 0x44, 0x3d, 0xfd, 0x03,
    0x0c, 0xe0, 0x09, 0xf0, 0x2f, 0x3b, 0xff, 0xfb, 0x08, 0xe4, 0x2c, 0xf6, 0x2e,
    0x3d, 0xff, 0xff, 0x0d, 0xe5, 0x33, 0xd6, 0x38, 0x3b, 0xfd, 0x11, 0x15, 0xe6,
    0x1e, 0xed, 0x43, 0x3a, 0xfe, 0xfd, 0x15, 0xe8, 0x10, 0xdf, 0x38, 0x3c, 0xfd,
    0x06, 0x04, 0xe7, 0x2b, 0xed, 0x36, 0x37, 0xf8, 0x0a, 0x0d, 0xe3, 0x18, 0xda,
    0x3e, 0x4a, 0xfb, 0x05, 0x0f, 0xe7, 0x28, 0xf6, 0x42, 0x31, 0xf9, 0x05, 0x17,
    0xe5, 0x05, 0xec, 0x46, 0x2b, 0xfb, 0xfd, 0x09, 0xe6, 0x1e, 0xe4, 0x3d, 0x42,
    0xfc, 0x03, 0x29, 0xf0, 0x1d, 0xfc, 0x22, 0x1d, 0xd8, 0x21, 0x2c, 0xf7, 0x28,
    0x02, 0x2a, 0x08, 0xd8, 0x0b, 0x19, 0xfb, 0x15, 0x37, 0x26, 0x22, 0xd8, 0x11,
    0x1b, 0x03, 0x41, 0x00, 0x24, 0x13, 0xda, 0x33, 0x1a, 0xfb, 0x3d, 0x27, 0x07,
    0x0a, 0xd5, 0xff, 0x2b, 0x1f, 0x17, 0x11, 0x18, 0x1a, 0xe2, 0x10, 0x44, 0x0b,
    0x17, 0xf4, 0x24, 0x17, 0xd6, 0x29, 0x1a, 0x17, 0x2d, 0xf1, 0x2b, 0x14, 0xda,
    0x32, 0x33, 0x05, 0x2c, 0xe8, 0x13, 0x02, 0xd6, 0x0f, 0x27, 0x0c, 0x19, 0xe5,
    0x28, 0x1d, 0xd7, 0x32, 0x3e, 0x14, 0x09, 0xe0, 0x22, 0x18, 0xdb, 0x1f, 0x30,
    0xff, 0x1b, 0xf5, 0x29, 0x0d, 0xdb, 0x18, 0x2d, 0xf5, 0x2d, 0x3a, 0x1c, 0xff,
    0xd9, 0x20, 0x07, 0x08, 0x42, 0x32, 0x12, 0x11, 0xda, 0x26, 0x35, 0x0b, 0x2f,
    0xf9, 0x16, 0x22, 0xdb, 0x0c, 0x0d, 0xf0, 0x22, 0xdf, 0x20, 0x25, 0x00, 0x07,
    0x10, 0xf1, 0x0b, 0xe3, 0x31, 0x3f, 0xfb, 0x02, 0x10, 0xe0, 0x01, 0xdb, 0x2a,
    0x47, 0x00, 0x08, 0x0d, 0xe8, 0x2f, 0xfc, 0x23, 0x3b, 0x00, 0x08, 0x0a, 0xed,
    0x2c, 0xe8, 0x3c, 0x32, 0xff, 0xf3, 0x0b, 0xf1, 0x06, 0xe2, 0x31, 0x36, 0x00,
    0xfe, 0x12, 0xe5, 0x02, 0xfb, 0x43, 0x36, 0x00, 0x05, 0x0a, 0xe7, 0x2d, 0xf3,
    0x1e, 0x31, 0xfd, 0x08, 0x04, 0xe5, 0x10, 0xe2, 0x44, 0x2a, 0xfe, 0xff, 0x0c,
    0xed, 0x12, 0xe8, 0x38, 0x3d, 0xff, 0xff, 0xfe, 0xe6, 0x25, 0xe1, 0x3c, 0x35,
    0xfc, 0xfd, 0xfa, 0xf2, 0x13, 0xde, 0x49, 0x23, 0xfd, 0xfd, 0x02, 0xe5, 0xfc,
    0xda, 0x24, 0x1a, 0xfb, 0x05, 0x06, 0xea, 0x39, 0xd4, 0x1d, 0x25, 0xfe, 0xfc,
    0x11, 0xea, 0x00, 0xf4, 0x2c, 0x36, 0xff, 0x06, 0x33, 0x2d, 0x3b, 0x37, 0xbf,
    0xdc, 0xc8, 0x2f, 0x2c, 0x33, 0x11, 0xec, 0xdb, 0xa7, 0xc5, 0x14, 0xfa, 0x32,
    0xe5, 0xf0, 0xaf, 0xca, 0xcb, 0x16, 0x2a, 0x21, 0xfb, 0x04, 0xcf, 0xb2, 0xc1,
    0x12, 0x01, 0x1d, 0x10, 0xee, 0xd1, 0xb3, 0xbf, 0x3d, 0x3c, 0x14, 0x21, 0x11,
    0xd0, 0xd0, 0xd3, 0x06, 0xfe, 0x05, 0xfa, 0xfe, 0xc4, 0xae, 0xc5, 0x14, 0x09,
    0x20, 0x02, 0xf9, 0xfd, 0xcb, 0xc5, 0x2c, 0x40, 0x26, 0x2c, 0x37, 0xf1, 0xb1,
    0xc3, 0x3f, 0xfe, 0x27, 0xea, 0x0f, 0xc8, 0xb7, 0xc3, 0x2f, 0xf7, 0xfd, 0x51,
    0x31, 0xd8, 0xd7, 0xc8, 0x2b, 0x1b, 0x2d, 0x0e, 0xec, 0xe7, 0xbf, 0xc9, 0x1e,
    0x33, 0x33, 0xf5, 0x2f, 0xa2, 0xad, 0xd0, 0x33, 0x26, 0x34, 0x21, 0x3d, 0xe9,
    0xce, 0xcb, 0x19, 0x25, 0x38, 0x47, 0xfb, 0xd8, 0xce, 0xce, 0x2c, 0x16, 0xf2,
    0x3a, 0xf2, 0x28, 0x29, 0x00, 0x07, 0x0d, 0xeb, 0x1e, 0xed, 0x3a, 0x41, 0x00,
    0x0b, 0x19, 0xeb, 0x34, 0xf2, 0x42, 0x3e, 0xff, 0x08, 0x00, 0xf0, 0x0e, 0xe3,
    0x1f, 0x3f, 0x01, 0x02, 0x11, 0xe8, 0x11, 0xdb, 0x33, 0x2f, 0xfe, 0xf6, 0x1b,
    0xec, 0x05, 0xda, 0x46, 0x31, 0xfe, 0xff, 0x00, 0xf0, 0x2d, 0xf4, 0x2a, 0x36,
    0x00, 0x0c, 0x0e, 0xf3, 0x1a, 0xe5, 0x38, 0x30, 0x03, 0x0a, 0x0c, 0xf0, 0x32,
    0xde, 0x36, 0x2f, 0x02, 0x04, 0x13, 0xee, 0xfe, 0xe7, 0x22, 0x26, 0x00, 0xfb,
    0x05, 0xea, 0x13, 0xfe, 0x45, 0x3e, 0xff, 0x00, 0x16, 0xf1, 0x20, 0xe2, 0x3d,
    0x3b, 0xff, 0x0a, 0x0e, 0xed, 0x2f, 0xe7, 0x3b, 0x2c, 0xfd, 0x02, 0x19, 0xe7,
    0x2e, 0xf3, 0x42, 0x29, 0xfc, 0x0e, 0x19, 0xeb, 0x1c, 0xde, 0x3f, 0x21, 0xfc,
    0x05, 0xd2, 0x24, 0xd2, 0x34, 0x01, 0xf8, 0x23, 0xe1, 0xd2, 0x25, 0xd2, 0x31,
    0xf4, 0xf9, 0x1e, 0xd7, 0xd8, 0x14, 0xd0, 0x38, 0xf8, 0xfe, 0x24, 0xda, 0xe0,
    0x1c, 0xdb, 0x22, 0xfd, 0xfc, 0x27, 0xe2, 0xd5, 0x1e, 0xd6, 0x23, 0xfa, 0xfc,
    0x23, 0xdd, 0xe4, 0x1f, 0xdb, 0x39, 0xff, 0xfe, 0x1a, 0xdf, 0xd8, 0x23, 0xcc,
    0x3b, 0xfb, 0xfd, 0x28, 0xde, 0xcc, 0x22, 0xc5, 0x1b, 0xf9, 0xfe, 0x26, 0xd9,
    0xdd, 0x24, 0xd6, 0x18, 0xf8, 0xfb, 0x28, 0xe2, 0xd0, 0x13, 0xcd, 0x1e, 0xf5,
    0xfe, 0x27, 0xd8, 0xea, 0x1b, 0xd0, 0x39, 0xfb, 0xfd, 0x18, 0xdf, 0xd9, 0x16,
    0xdc, 0x23, 0xff, 0xfe, 0x24, 0xdd, 0xdf, 0x26, 0xd2, 0x3b, 0xfc, 0xf7, 0x2b,
    0xda, 0xdf, 0x23, 0xd7, 0x21, 0xf5, 0xfd, 0x25, 0xe0, 0xdb, 0x1d, 0xd2, 0x3b,
    0xfe, 0xf9, 0x26, 0xe2, 0xff, 0xcd, 0xff, 0xb4, 0x00, 0x00, 0x73, 0xfe, 0xfa,
    0xcb, 0xfc, 0xb5, 0x00, 0x00, 0x61, 0xfd, 0xfb, 0xd1, 0x00, 0xb5, 0x00, 0x00,
    0x56, 0xfb, 0xfe, 0xe4, 0xff, 0xbc, 0x00, 0x00, 0x68, 0xfe, 0xfb, 0xcf, 0xfd,
    0xb9, 0xff, 0x00, 0x4f, 0xfb, 0x00, 0xd4, 0xfd, 0xc4, 0x00, 0x00, 0x58, 0xff,
    0xff, 0xd8, 0x00, 0xc3, 0x00, 0x00, 0x6a, 0x00, 0x00, 0xcd, 0xff, 0xce, 0x00,
    0xfe, 0x65, 0xfe, 0xfd, 0xd0, 0x00, 0xc9, 0x00, 0x00, 0x56, 0xff, 0xfc, 0xcf,
    0xff, 0xc3, 0x00, 0xff, 0x4e, 0xfb, 0xfa, 0xd1, 0xfc, 0xbf, 0x00, 0x00, 0x4a,
    0xfb, 0xfa, 0xcd, 0xfa, 0xbc, 0x00, 0x00, 0x50, 0xfc, 0x00, 0xcc, 0xfa, 0xb8,
    0xff, 0x00, 0x5c, 0xfe, 0xfb, 0xd3, 0xfd, 0xc2, 0x00, 0x00, 0x63, 0xfd, 0xf6,
    0xcf, 0xf8, 0xbf, 0xfe, 0xfe, 0x5c, 0xf7, 0x2b, 0x02, 0x39, 0xfb, 0x26, 0x21,
    0xe5, 0x20, 0x27, 0x01, 0x2c, 0x06, 0x24, 0x23, 0xe8, 0x21, 0x26, 0xff, 0x2a,
    0x0c, 0x27, 0x24, 0xe4, 0x1c, 0x28, 0x04, 0x3b, 0x0f, 0x21, 0x22, 0xe4, 0x25,
    0x28, 0x00, 0x34, 0x0a, 0x20, 0x24, 0xe7, 0x20, 0x1c, 0xfe, 0x34, 0xfc, 0x20,
    0x20, 0xec, 0x1d, 0x30, 0x02, 0x2f, 0x03, 0x23, 0x25, 0xe5, 0x18, 0x29, 0x05,
    0x34, 0xfb, 0x1f, 0x24, 0xe3, 0x20, 0x28, 0x04, 0x3b, 0x09, 0x1a, 0x22, 0xe7,
    0x27, 0x21, 0x04, 0x36, 0xfe, 0x23, 0x23, 0xe7, 0x1c, 0x24, 0xfe, 0x3a, 0xf3,
    0x20, 0x23, 0xe9, 0x20, 0x32, 0xff, 0x37, 0x11, 0x23, 0x25, 0xeb, 0x24, 0x2d,
    0xfd, 0x39, 0x11, 0x25, 0x23, 0xe9, 0x1e, 0x27, 0xfe, 0x2b, 0x02, 0x25, 0x20,
    0xea, 0x21, 0x2b, 0x03, 0x31, 0x15, 0x29, 0x24, 0xe8, 0x20, 0x34, 0x02, 0x34,
    0x18, 0x2c, 0x27, 0xeb, 0x28, 0x30, 0xf6, 0x2c, 0x1d, 0x31, 0x31, 0xe5, 0x2b,
    0x20, 0x03, 0x34, 0x18, 0x33, 0x2b, 0xea, 0x20, 0x2b, 0xff, 0x31, 0xfc, 0x32,
    0x27, 0xe7, 0x27, 0x2e, 0x03, 0x2e, 0x13, 0x30, 0x28, 0xeb, 0x16, 0x17, 0xf6,
    0x3b, 0x13, 0x2a, 0x21, 0xeb, 0x1d, 0x3c, 0xec, 0x42, 0xf8, 0x28, 0x35, 0xe6,
    0x23, 0x37, 0xf8, 0x31, 0xed, 0x2c, 0x2a, 0xe7, 0x2e, 0x2f, 0xf7, 0x46, 0xf7,
    0x36, 0x32, 0xe5, 0x25, 0x1b, 0x04, 0x25, 0x12, 0x24, 0x34, 0xe9, 0x1d, 0x2e,
    0xec, 0x26, 0xfe, 0x2b, 0x23, 0xee, 0x1c, 0x21, 0xf8, 0x37, 0xf6, 0x2d, 0x2b,
    0xe7, 0x23, 0x35, 0xfe, 0x15, 0x0b, 0x35, 0x36, 0xe9, 0x1d, 0x30, 0xf1, 0x47,
    0xe7, 0x31, 0x28, 0xea, 0x25, 0x24, 0xf0, 0x43, 0xfe, 0x38, 0x2f, 0xf0, 0x24,
    0xfe, 0xd2, 0xfd, 0xbf, 0x00, 0x00, 0x56, 0xfb, 0xfa, 0xd8, 0xfd, 0xc2, 0x00,
    0x00, 0x59, 0xfe, 0xfb, 0xdb, 0x00, 0xbf, 0x00, 0xfe, 0x5d, 0xff, 0xfe, 0xe2,
    0xfd, 0xc1, 0x00, 0xff, 0x52, 0xff, 0xfc, 0xde, 0xfe, 0xc0, 0xff, 0xff, 0x59,
    0xfe, 0xff, 0xdb, 0xfc, 0xc5, 0x00, 0x00, 0x4a, 0xff, 0x00, 0xda, 0xfd, 0xc8,
    0x00, 0x00, 0x58, 0xfe, 0xfe, 0xd7, 0xff, 0xcf, 0x00, 0xfe, 0x49, 0xff, 0xfc,
    0xd9, 0x00, 0xcc, 0x00, 0x00, 0x57, 0xff, 0xfe, 0xda, 0xff, 0xc7, 0x00, 0x00,
    0x58, 0x00, 0x00, 0xda, 0xff, 0xc6, 0x00, 0x01, 0x4d, 0xfd, 0xfe, 0xd7, 0xfd,
    0xbf, 0x00, 0xff, 0x53, 0xfc, 0xfa, 0xd6, 0xfa, 0xbd, 0x00, 0x00, 0x5b, 0xfb,
    0xfc, 0xd9, 0xfb, 0xc2, 0x00, 0x00, 0x52, 0xff, 0xfa, 0xd5, 0xfc, 0xbf, 0xfe,
    0xff, 0x5a, 0xfe, 0x0e, 0xea, 0x31, 0xd2, 0x18, 0x29, 0xfe, 0x08, 0x13, 0xe8,
    0x2a, 0x00, 0x4b, 0x20, 0xfe, 0xf1, 0xff, 0xe3, 0x33, 0xf4, 0x31, 0x1c, 0xfb,
    0x02, 0x01, 0xea, 0x0d, 0x02, 0x2a, 0x53, 0xfc, 0x11, 0x16, 0xdf, 0x1c, 0xce,
    0x3d, 0x1d, 0xfe, 0xfd, 0x1d, 0xda, 0x2c, 0xdf, 0x3d, 0x35, 0xfe, 0xfe, 0x1c,
    0xe0, 0x20, 0xea, 0x44, 0x2a, 0xfe, 0x0a, 0x0c, 0xe0, 0x34, 0xf3, 0x24, 0x26,
    0xff, 0x08, 0x20, 0xe6, 0xfe, 0xe7, 0x1d, 0x1f, 0xfe, 0x09, 0x1b, 0xe5, 0x18,
    0xec, 0x2c, 0x4d, 0xfe, 0x07, 0x02, 0xe4, 0x2a, 0xe7, 0x21, 0x31, 0xfc, 0xf7,
    0x1c, 0xe7, 0x0a, 0xff, 0x30, 0x44, 0xff, 0xf8, 0x0b, 0xe1, 0x42, 0xe4, 0x3d,
    0x4a, 0xf9, 0x0b, 0xff, 0xe7, 0x0e, 0xeb, 0x4a, 0x32, 0xf9, 0x01, 0x23, 0xe0,
    0xfe, 0xef, 0x31, 0x4e, 0xfb, 0x15, 0xff, 0xd6, 0xfe, 0xbf, 0x00, 0x00, 0x55,
    0xfd, 0xfd, 0xd2, 0x00, 0xbf, 0x00, 0x01, 0x51, 0xff, 0xfc, 0xd8, 0x00, 0xbc,
    0x00, 0x00, 0x5c, 0xfe, 0xff, 0xd8, 0xfd, 0xc0, 0x00, 0x00, 0x51, 0xfe, 0xff,
    0xd3, 0xfe, 0xbc, 0xff, 0x01, 0x53, 0x00, 0x00, 0xd6, 0xfe, 0xc5, 0x00, 0x00,
    0x5e, 0x00, 0x00, 0xe4, 0x00, 0xc5, 0x00, 0x00, 0x60, 0xff, 0xfe, 0xd0, 0xff,
    0xbf, 0x00, 0xfc, 0x5b, 0x00, 0xff, 0xd4, 0x00, 0xbf, 0x00, 0x00, 0x5b, 0x00,
    0xfd, 0xd1, 0x00, 0xbc, 0x00, 0xff, 0x4f, 0x00, 0xfc, 0xd7, 0x00, 0xc4, 0x00,
    0x01, 0x5b, 0xff, 0x00, 0xd6, 0x00, 0xc0, 0x00, 0x00, 0x5f, 0x00, 0xfc, 0xd3,
    0xfc, 0xb9, 0xff, 0x00, 0x5c, 0xfc, 0x00, 0xd4, 0x00, 0xc2, 0x00, 0x00, 0x57,
    0x00, 0xfb, 0xd6, 0xfb, 0xc1, 0x00, 0xfd, 0x4c, 0xfe, 0x28, 0x13, 0x0e, 0x0a,
    0xbc, 0xce, 0xc0, 0x2a, 0x25, 0x1e, 0xfb, 0x22, 0xcd, 0xbd, 0xc0, 0x2a, 0x22,
    0x1c, 0x0d, 0x08, 0xc6, 0xce, 0xc3, 0x1b, 0x21, 0x1f, 0x02, 0x14, 0xce, 0xeb,
    0xc4, 0x2b, 0x20, 0x28, 0x1c, 0x0a, 0xc9, 0xd0, 0xc4, 0x22, 0x24, 0x25, 0x02,
    0x04, 0xbc, 0xbc, 0xd2, 0x26, 0x1e, 0x16, 0x15, 0x11, 0xbb, 0xd2, 0xc0, 0x2a,
    0x21, 0x27, 0x0e, 0x0e, 0xd1, 0xc4, 0xc5, 0x32, 0x1b, 0x1f, 0x06, 0x24, 0xc3,
    0xd1, 0xbe, 0x2a, 0x27, 0x1e, 0x07, 0x0e, 0xc1, 0xd0, 0xbc, 0x33, 0x1e, 0x18,
    0x09, 0x1b, 0xaf, 0xc6, 0xc5, 0x2e, 0x26, 0x19, 0x1d, 0x1b, 0xdc, 0xca, 0xc1,
    0x1f, 0x24, 0x2a, 0xff, 0xfe, 0xc0, 0xdb, 0xc7, 0x20, 0x17, 0x1d, 0x10, 0x1d,
    0xba, 0xc6, 0xbf, 0x27, 0x1f, 0x1c, 0x24, 0x16, 0xd3, 0xd6, 0xcd, 0x24, 0x08,
    0xfa, 0x0a, 0xec, 0x07, 0x08, 0x61, 0x08, 0x00, 0xfd, 0x01, 0xeb, 0x06, 0x04,
    0x57, 0x04, 0x07, 0xf9, 0x09, 0xea, 0x07, 0x08, 0x5d, 0x03, 0x04, 0xf5, 0x03,
    0xee, 0x06, 0x05, 0x5e, 0x00, 0x02, 0xf3, 0x09, 0xef, 0x05, 0x0a, 0x55, 0x02,
    0x05, 0xf8, 0x03, 0xec, 0x04, 0x02, 0x53, 0x03, 0x05, 0xfa, 0x03, 0xf2, 0x01,
    0x01, 0x5a, 0x04, 0x03, 0xf7, 0x04, 0xf1, 0x05, 0x02, 0x5b, 0x07, 0x05, 0xf6,
    0x05, 0xea, 0x05, 0x02, 0x62, 0x01, 0x01, 0xfa, 0x03, 0xef, 0x04, 0xff, 0x5e,
    0x03, 0xfe, 0xfa, 0x03, 0xf9, 0x05, 0x05, 0x55, 0x02, 0x04, 0xf3, 0x02, 0xf1,
    0x06, 0x09, 0x5a, 0x01, 0x05, 0xf3, 0x04, 0xe8, 0x07, 0x04, 0x59, 0x01, 0x05,
    0xf4, 0x05, 0xf0, 0x05, 0x00, 0x57, 0x01, 0xfc, 0xf3, 0xfe, 0xee, 0x04, 0x03,
    0x55, 0x00, 0xde, 0x14, 0xdc, 0x53, 0xfa, 0xfa, 0xf1, 0xdc, 0xdd, 0x15, 0xda,
    0x61, 0xf1, 0xf8, 0x09, 0xea, 0xd5, 0x2d, 0xcd, 0x5b, 0xef, 0xf5, 0xf7, 0xe3,
    0xe9, 0x23, 0xea, 0x3c, 0xfa, 0xfd, 0xf7, 0xe8, 0xec, 0x26, 0xed, 0x39, 0xf8,
    0x00, 0xef, 0xf2, 0xe2, 0x32, 0xd9, 0x5b, 0x03, 0x03, 0xf4, 0xef, 0xd9, 0x44,
    0xcd, 0x1e, 0xfa, 0xfa, 0xf3, 0xe1, 0xd8, 0x36, 0xd7, 0x2c, 0xf4, 0xf8, 0xf8,
    0xd2, 0xd8, 0x2f, 0xe3, 0x43, 0xf8, 0xfe, 0xfb, 0xd5, 0xe3, 0x1e, 0xc9, 0x51,
    0xfe, 0xff, 0x01, 0xe4, 0xe2, 0x2f, 0xdb, 0x43, 0xfe, 0x05, 0xf5, 0xda, 0xd2,
    0x13, 0xe3, 0x2a, 0xfe, 0xfc, 0x09, 0xe0, 0xdc, 0x1e, 0xdf, 0x3f, 0xfe, 0xf8,
    0x05, 0xe7, 0xdb, 0x27, 0xe6, 0x32, 0xf9, 0x00, 0x02, 0xe7, 0xf0, 0x2e, 0xcc,
    0x5a, 0xf4, 0xf9, 0x07, 0xf0, 0xe3, 0x18, 0xf4, 0x10, 0xe2, 0xe2, 0xf8, 0x10,
    0xee, 0x40, 0xe6, 0x0e, 0xeb, 0xe3, 0xfb, 0x0c, 0x05, 0x31, 0x05, 0x4f, 0xd9,
    0xe3, 0xf2, 0x04, 0x07, 0x23, 0xfc, 0x18, 0xea, 0xdc, 0xf7, 0xf7, 0x07, 0x23,
    0x00, 0x55, 0xeb, 0xe5, 0xfd, 0x03, 0xef, 0x13, 0xdc, 0x5a, 0xf1, 0xe4, 0xfe,
    0x03, 0xed, 0x32, 0xf1, 0x16, 0xf1, 0xec, 0x03, 0xfe, 0x03, 0x3a, 0xe4, 0x34,
    0xeb, 0xe2, 0xed, 0xfc, 0xef, 0x18, 0x0d, 0x56, 0xe3, 0xea, 0xf4, 0x00, 0xf5,
    0x37, 0xeb, 0x0f, 0xe2, 0xe5, 0xfe, 0x01, 0x12, 0x31, 0xff, 0x19, 0xd8, 0xe7,
    0x04, 0x08, 0x0c, 0x24, 0x09, 0x42, 0xe4, 0xe6, 0xfa, 0xfd, 0xff, 0x2e, 0x0d,
    0x00, 0xe6, 0xe8, 0xff, 0x07, 0xee, 0x31, 0xe2, 0x13, 0xec, 0xe8, 0x05, 0x04,
    0xfe, 0x3f, 0xee, 0x46, 0xda, 0xea, 0xf9, 0x0c, 0x07, 0x35, 0xfd, 0x20, 0xd6,
    0xce, 0xfa, 0x13, 0x01, 0x1c, 0xf2, 0x2b, 0xc9, 0xdc, 0xfa, 0x0d, 0xff, 0x20,
    0x00, 0x38, 0xc6, 0xe1, 0xfb, 0x07, 0x14, 0x37, 0x12, 0x1d, 0xd4, 0xd9, 0xfc,
    0x11, 0x1b, 0x3a, 0xf5, 0x23, 0xcd, 0xda, 0xfb, 0x0b, 0x13, 0x26, 0xfd, 0x2b,
    0xcc, 0xd6, 0xff, 0x11, 0x08, 0x21, 0x24, 0x1f, 0xcc, 0xe0, 0xf6, 0x1b, 0x06,
    0x38, 0xf4, 0x2b, 0xbc, 0xe3, 0xf8, 0x0e, 0x15, 0x28, 0x14, 0x19, 0xde, 0xdc,
    0xf9, 0x16, 0x0d, 0x37, 0x10, 0x15, 0xc5, 0xe9, 0xfe, 0x19, 0x04, 0x39, 0x16,
    0x34, 0xb2, 0xe5, 0xfc, 0x0b, 0x0b, 0x1a, 0x18, 0x1e, 0xc8, 0xd1, 0xf9, 0x10,
    0x0b, 0x3b, 0x18, 0x22, 0xd9, 0xd9, 0xff, 0x09, 0x0f, 0x28, 0x1b, 0x34, 0xc3,
    0xcd, 0xf9, 0x05, 0x1d, 0x43, 0x06, 0x23, 0xcf, 0xce, 0xff, 0x07, 0xce, 0x1a,
    0xd6, 0x6b, 0xf9, 0xff, 0xf9, 0xe2, 0xeb, 0x14, 0xe1, 0x3a, 0xef, 0xfa, 0xf4,
    0xe4, 0xe9, 0x17, 0xda, 0x41, 0xf5, 0xf6, 0xfe, 0xe5, 0xda, 0x22, 0xe3, 0x25,
    0xfb, 0xfb, 0xf6, 0xd8, 0xe1, 0x45, 0xdc, 0x4c, 0xfc, 0x02, 0x03, 0xf2, 0xe8,
    0x20, 0xee, 0x23, 0x04, 0xff, 0xf5, 0xee, 0xe9, 0x42, 0xc8, 0x1b, 0xf7, 0xfe,
    0xfd, 0xdd, 0xe2, 0x3c, 0xea, 0x5a, 0xf9, 0xfa, 0xfb, 0xe2, 0xe7, 0x37, 0xce,
    0x34, 0xfb, 0xfb, 0x03, 0xda, 0xd6, 0x2f, 0xcf, 0x63, 0xf7, 0x01, 0xfe, 0xe6,
    0xec, 0x45, 0xd8, 0x14, 0xf6, 0x03, 0xfd, 0xed, 0xea, 0x3c, 0xde, 0x46, 0xff,
    0xff, 0xfc, 0xec, 0xe7, 0x3e, 0xe6, 0x50, 0xfe, 0xfe, 0xf3, 0xed, 0xe9, 0x3a,
    0xdb, 0x42, 0xf7, 0xf4, 0x00, 0xde, 0xe9, 0x38, 0xd6, 0x4b, 0xfa, 0xf9, 0x0e,
    0xf2, 0xcb, 0x28, 0xd3, 0x43, 0xf4, 0xf8, 0x0c, 0xd1, 0xca, 0x26, 0xc0, 0x55,
    0xf1, 0xf7, 0xf2, 0xd8, 0xd0, 0x3b, 0xd2, 0x3d, 0xf6, 0xfa, 0xe7, 0xca, 0xd7,
    0x49, 0xc4, 0x45, 0xfb, 0xfe, 0xf2, 0xd1, 0xca, 0x14, 0xd2, 0x4e, 0xf4, 0xff,
    0x09, 0xcc, 0xd1, 0x23, 0xd3, 0x47, 0xf5, 0xfb, 0x00, 0xdc, 0xd3, 0x1a, 0xb4,
    0x28, 0xf9, 0xfa, 0xf7, 0xdf, 0xcd, 0x3c, 0xb9, 0x4b, 0xf5, 0xf4, 0x00, 0xc7,
    0xce, 0x46, 0xbc, 0x5b, 0xf3, 0xf6, 0x0a, 0xcf, 0xc7, 0x42, 0xd4, 0x4f, 0xf5,
    0xf5, 0x11, 0xd8, 0xcd, 0x24, 0xc0, 0x42, 0xfa, 0xfe, 0xe8, 0xd6, 0xcc, 0x43,
    0xce, 0x37, 0xfc, 0xfe, 0x01, 0xdb, 0xd8, 0x4b, 0xcc, 0x63, 0xfa, 0xf5, 0x0c,
    0xd9, 0xc9, 0x1e, 0xbb, 0x34, 0xf3, 0xf2, 0x0c, 0xdb, 0xc9, 0x37, 0xd0, 0x46,
    0xf5, 0xf4, 0xe5, 0xdc, 0xff, 0xd8, 0xff, 0xbd, 0x00, 0x00, 0x56, 0xfe, 0xfd,
    0xd6, 0xff, 0xb9, 0x00, 0x01, 0x54, 0xfe, 0xfc, 0xd8, 0x00, 0xbb, 0x00, 0x00,
    0x5b, 0xfe, 0xff, 0xdd, 0xfe, 0xbf, 0x00, 0x00, 0x50, 0xfc, 0xfe, 0xd5, 0xfe,
    0xbc, 0xff, 0x01, 0x5e, 0x00, 0x00, 0xd7, 0x00, 0xc1, 0x00, 0x00, 0x59, 0x00,
    0xff, 0xe4, 0x00, 0xc0, 0x00, 0x00, 0x64, 0x00, 0xff, 0xd4, 0x00, 0xc4, 0x00,
    0xfe, 0x63, 0xff, 0x00, 0xd5, 0x00, 0xc5, 0x00, 0x00, 0x46, 0xff, 0xfd, 0xd3,
    0xff, 0xc2, 0x00, 0xff, 0x5c, 0xff, 0xfd, 0xd9, 0x00, 0xc7, 0x00, 0x01, 0x58,
    0xff, 0x00, 0xd5, 0x00, 0xbd, 0x00, 0x00, 0x49, 0x00, 0xfd, 0xd6, 0xff, 0xbb,
    0x00, 0x00, 0x5f, 0xfe, 0x00, 0xda, 0x00, 0xbc, 0x00, 0x00, 0x50, 0x00, 0xfb,
    0xd7, 0xfb, 0xc2, 0xff, 0xff, 0x56, 0xfd, 0x00, 0xd3, 0x00, 0xba, 0x00, 0x00,
    0x53, 0xfe, 0xfd, 0xd0, 0xff, 0xb7, 0x00, 0x00, 0x40, 0xfe, 0xfc, 0xd7, 0x00,
    0xbb, 0x00, 0x00, 0x5d, 0xfd, 0xff, 0xe0, 0xfe, 0xbb, 0x00, 0x00, 0x48, 0xfe,
    0xfb, 0xd1, 0xff, 0xb4, 0xff, 0x00, 0x52, 0xfc, 0x00, 0xd3, 0x00, 0xc0, 0x00,
    0x00, 0x5c, 0xff, 0x00, 0xdf, 0x00, 0xbf, 0x00, 0x00, 0x46, 0x00, 0x00, 0xd0,
    0x00, 0xc6, 0x00, 0xfe, 0x59, 0x00, 0x00, 0xd3, 0x00, 0xc1, 0x00, 0x00, 0x4f,
    0x00, 0xfd, 0xd4, 0x00, 0xc2, 0x00, 0xff, 0x5f, 0xfc, 0xf8, 0xd4, 0xfd, 0xc5,
    0x00, 0x00, 0x5c, 0xfb, 0xfd, 0xcc, 0xfd, 0xb7, 0x00, 0x00, 0x52, 0xfd, 0x00,
    0xd3, 0xfc, 0xb2, 0x00, 0x00, 0x53, 0xfe, 0xfb, 0xd0, 0x00, 0xbb, 0x00, 0x00,
    0x3a, 0xfc, 0xf9, 0xce, 0xfa, 0xba, 0xff, 0xff, 0x5e, 0xf9, 0x30, 0xfe, 0x38,
    0x09, 0x35, 0x2d, 0xe1, 0x26, 0x32, 0xfb, 0x41, 0x09, 0x32, 0x32, 0xe0, 0x1f,
    0x33, 0xfa, 0x40, 0x07, 0x30, 0x2d, 0xde, 0x24, 0x30, 0xfb, 0x3c, 0x07, 0x30,
    0x2f, 0xe1, 0x2a, 0x2d, 0x01, 0x3b, 0x0b, 0x32, 0x2d, 0xdb, 0x1f, 0x2e, 0xfe,
    0x3e, 0x0b, 0x2a, 0x26, 0xe7, 0x1f, 0x2c, 0xfb, 0x3d, 0x01, 0x36, 0x2d, 0xe0,
    0x25, 0x28, 0xfd, 0x3c, 0x08, 0x2d, 0x2c, 0xdb, 0x20, 0x35, 0xfa, 0x41, 0x06,
    0x2f, 0x30, 0xdd, 0x2b, 0x2a, 0xff, 0x3f, 0x0b, 0x2c, 0x2d, 0xde, 0x1f, 0x2c,
    0xf8, 0x42, 0x02, 0x34, 0x2e, 0xe3, 0x27, 0x2e, 0x03, 0x3f, 0x0d, 0x33, 0x2d,
    0xde, 0x25, 0x27, 0xf9, 0x37, 0x0a, 0x30, 0x2f, 0xe3, 0x28, 0x2d, 0xfa, 0x3b,
    0x07, 0x34, 0x2d, 0xe3, 0x23, 0x27, 0xf8, 0x3a, 0x05, 0x32, 0x2e, 0xde, 0x1b,
    0xbb, 0x26, 0xb5, 0x5b, 0xf4, 0xf7, 0x04, 0xca, 0xb9, 0x48, 0x99, 0x33, 0xf1,
    0xf8, 0xf8, 0xbd, 0xc0, 0x27, 0xbc, 0x73, 0xf8, 0xfd, 0xed, 0xc3, 0xbc, 0x31,
    0xb0, 0x6a, 0x00, 0xfa, 0xdd, 0xc2, 0xb3, 0x3f, 0xb5, 0x58, 0xf5, 0xfa, 0xe9,
    0xc4, 0xc3, 0x2e, 0xb2, 0x4a, 0xf6, 0xf9, 0x0f, 0xcb, 0xbd, 0x22, 0xb4, 0x67,
    0xf5, 0xf8, 0x19, 0xca, 0xab, 0x51, 0xa9, 0x2a, 0xf7, 0xfa, 0x07, 0xb8, 0xaf,
    0x3d, 0xb2, 0x65, 0xfb, 0xf7, 0xe2, 0xc2, 0xad, 0x38, 0xa6, 0x27, 0xf2, 0xf5,
    0x1a, 0xb6, 0xb8, 0x48, 0xb1, 0x59, 0xf0, 0xfb, 0x03, 0xbc, 0xaa, 0x25, 0xa4,
    0x31, 0xf7, 0xfa, 0x0a, 0xbf, 0xbd, 0x2b, 0xb4, 0x69, 0xfc, 0xfb, 0x04, 0xb7,
    0xb7, 0x2c, 0xae, 0x71, 0xf6, 0xfa, 0x13, 0xc1, 0xb2, 0x26, 0xb0, 0x64, 0xff,
    0xf9, 0x12, 0xc7, 0x34, 0xfd, 0x41, 0x01, 0x35, 0x33, 0xeb, 0x26, 0x30, 0x01,
    0x3d, 0x04, 0x36, 0x36, 0xec, 0x27, 0x31, 0x04, 0x42, 0x14, 0x35, 0x36, 0xed,
    0x2a, 0x2d, 0xf9, 0x3a, 0x02, 0x34, 0x32, 0xec, 0x23, 0x2e, 0x02, 0x40, 0x02,
    0x38, 0x35, 0xe6, 0x20, 0x32, 0x0a, 0x47, 0x00, 0x30, 0x31, 0xf1, 0x2a, 0x35,
    0xfa, 0x3e, 0x17, 0x37, 0x37, 0xea, 0x23, 0x34, 0x06, 0x41, 0x0d, 0x36, 0x33,
    0xef, 0x28, 0x31, 0x02, 0x42, 0x08, 0x36, 0x35, 0xe9, 0x26, 0x2f, 0x02, 0x41,
    0xfe, 0x36, 0x35, 0xf0, 0x23, 0x2e, 0x02, 0x44, 0x03, 0x39, 0x2f, 0xed, 0x26,
    0x32, 0x00, 0x38, 0x16, 0x34, 0x32, 0xed, 0x28, 0x31, 0x02, 0x3b, 0x01, 0x35,
    0x32, 0xeb, 0x26, 0x2f, 0xff, 0x43, 0x0e, 0x3a, 0x34, 0xee, 0x2a, 0x30, 0xfa,
    0x3a, 0x1b, 0x36, 0x2f, 0xec, 0x24, 0x00, 0xcf, 0x00, 0xb5, 0x00, 0x00, 0x5d,
    0xfe, 0xfd, 0xcf, 0x00, 0xb5, 0x00, 0x00, 0x56, 0xff, 0xfb, 0xcd, 0x00, 0xb0,
    0x00, 0x00, 0x58, 0xfd, 0xff, 0xdb, 0xfe, 0xb8, 0x00, 0x00, 0x54, 0xfe, 0xfc,
    0xd2, 0xfe, 0xba, 0xff, 0x00, 0x55, 0xfc, 0x00, 0xd8, 0x00, 0xb8, 0x00, 0x00,
    0x55, 0xff, 0x00, 0xdc, 0x00, 0xbd, 0x00, 0x00, 0x59, 0x00, 0x00, 0xcc, 0x00,
    0xc1, 0x00, 0xfe, 0x55, 0x00, 0x00, 0xd0, 0x00, 0xc3, 0x00, 0x00, 0x50, 0x00,
    0xfc, 0xcb, 0x00, 0xbd, 0x00, 0xff, 0x53, 0xfc, 0xf8, 0xd2, 0xfd, 0xbd, 0x00,
    0x00, 0x54, 0xfb, 0xfd, 0xd0, 0xfd, 0xbd, 0x00, 0x00, 0x54, 0xfd, 0xfd, 0xc9,
    0xfb, 0xb4, 0x00, 0x00, 0x57, 0xfd, 0xfb, 0xd2, 0x00, 0xb9, 0x00, 0x00, 0x55,
    0xfc, 0xf9, 0xd1, 0xf8, 0xbf, 0xff, 0xfe, 0x52, 0xf8, 0xce, 0x30, 0xcc, 0x4c,
    0xfa, 0xff, 0xff, 0xd8, 0xd3, 0x33, 0xc0, 0x46, 0xf9, 0xf9, 0x01, 0xcb, 0xd6,
    0x3f, 0xcd, 0x3e, 0xfc, 0xfe, 0x0e, 0xe3, 0xd8, 0x27, 0xce, 0x39, 0xfb, 0xff,
    0x0a, 0xd0, 0xcd, 0x2e, 0xcc, 0x33, 0xf8, 0xfe, 0x0b, 0xd6, 0xd5, 0x2e, 0xc8,
    0x4a, 0xff, 0xfd, 0x07, 0xd9, 0xd2, 0x36, 0xba, 0x28, 0xf8, 0xf6, 0xf8, 0xcd,
    0xcb, 0x3d, 0xbf, 0x46, 0xf7, 0x03, 0x01, 0xd1, 0xc9, 0x2d, 0xb6, 0x41, 0xf9,
    0xfc, 0x02, 0xcc, 0xc0, 0x26, 0xc0, 0x4d, 0xf6, 0xf8, 0xf7, 0xc1, 0xcb, 0x34,
    0xbc, 0x4d, 0xf8, 0x01, 0xef, 0xd3, 0xc8, 0x25, 0xd6, 0x43, 0xfd, 0xfe, 0xf7,
    0xd4, 0xcd, 0x27, 0xc7, 0x5c, 0x01, 0xfe, 0xfd, 0xcf, 0xdc, 0x2e, 0xcb, 0x4f,
    0xfd, 0xf8, 0xf4, 0xdd, 0xcd, 0x35, 0xc7, 0x3c, 0xfc, 0xf6, 0x0a, 0xd8, 0x18,
    0xe9, 0x0a, 0xdd, 0x1d, 0x37, 0xfd, 0xfe, 0xf8, 0xe7, 0x35, 0xea, 0x23, 0x1d,
    0xff, 0x04, 0x04, 0xe2, 0x15, 0xe3, 0x41, 0x2d, 0xfc, 0xf5, 0x0f, 0xe5, 0x1a,
    0xf3, 0x15, 0x1a, 0xfd, 0x06, 0xf2, 0xeb, 0x06, 0xe2, 0x31, 0x1a, 0xfd, 0x0c,
    0xf4, 0xe4, 0xeb, 0xea, 0x3e, 0x2a, 0x00, 0x08, 0x12, 0xe8, 0xec, 0xe4, 0x16,
    0x1e, 0xff, 0xfd, 0x15, 0xe3, 0x1e, 0xe2, 0x29, 0x2f, 0x00, 0xfe, 0x1e, 0xe6,
    0xf3, 0xdb, 0x20, 0x35, 0xff, 0x05, 0x13, 0xeb, 0x20, 0xf2, 0x13, 0x3a, 0xfe,
    0xf7, 0x10, 0xe7, 0x08, 0xe0, 0x32, 0x3c, 0xff, 0x01, 0xfc, 0xeb, 0x33, 0xec,
    0x42, 0x2d, 0xff, 0x06, 0x0b, 0xed, 0x05, 0xef, 0x3d, 0x19, 0xf7, 0x05, 0xf0,
    0xeb, 0xf8, 0xf0, 0x22, 0x41, 0xfb, 0x02, 0x15, 0xe9, 0x0f, 0xd7, 0x15, 0x25,
    0xfd, 0xf4, 0xfd, 0x25, 0x0c, 0x49, 0xd3, 0xe2, 0xf9, 0x0a, 0x0a, 0x3d, 0x0e,
    0x19, 0xe1, 0xe1, 0xed, 0x1a, 0xfe, 0x37, 0xf0, 0x19, 0xd4, 0xd7, 0xf1, 0x18,
    0x0f, 0x1e, 0x00, 0x01, 0xd9, 0xde, 0xfa, 0x09, 0xf9, 0x43, 0xf1, 0x30, 0xce,
    0xdf, 0xfc, 0x13, 0x0d, 0x34, 0xfa, 0x09, 0xd3, 0xcf, 0xfd, 0x11, 0xfe, 0x1a,
    0x19, 0x48, 0xde, 0xda, 0xfd, 0x13, 0xf9, 0x1b, 0xec, 0x35, 0xd1, 0xe2, 0xfb,
    0x09, 0x0c, 0x2d, 0x16, 0x0b, 0xe7, 0xdc, 0xfa, 0x18, 0x17, 0x0a, 0xe1, 0x4d,
    0xe6, 0xe9, 0xf5, 0x15, 0x06, 0x34, 0x15, 0x26, 0xda, 0xef, 0x05, 0x0a, 0x01,
    0x41, 0xf5, 0x56, 0xe3, 0xe3, 0xfa, 0x1a, 0x09, 0x3c, 0x18, 0x1c, 0xe6, 0xe6,
    0x03, 0x15, 0xfc, 0x27, 0x14, 0x2d, 0xe5, 0xe4, 0xf5, 0x0d, 0x12, 0x3f, 0xec,
    0x50, 0xd8, 0xe2, 0x04, 0x06, 0x27, 0xea, 0x27, 0x0e, 0x20, 0x1f, 0xde, 0x14,
    0x18, 0x0a, 0x25, 0x19, 0x1f, 0x1e, 0xdd, 0x23, 0x2a, 0x0c, 0x13, 0x25, 0x25,
    0x25, 0xe5, 0x0d, 0x16, 0x0d, 0x21, 0x00, 0x24, 0x20, 0xe4, 0x03, 0x14, 0x07,
    0x21, 0x1b, 0x21, 0x1d, 0xe2, 0x16, 0x1c, 0x08, 0x22, 0xf0, 0x16, 0x24, 0xe9,
    0x11, 0x2f, 0x09, 0x3f, 0xdd, 0x2a, 0x27, 0xdb, 0x14, 0x1e, 0x05, 0x2e, 0xf4,
    0x28, 0x28, 0xe6, 0x13, 0x1e, 0x0a, 0x21, 0xf8, 0x2d, 0x1f, 0xdf, 0x08, 0x22,
    0xfb, 0x36, 0xf5, 0x2b, 0x19, 0xdb, 0x13, 0x08, 0x03, 0x29, 0xe0, 0x1f, 0x21,
    0xe1, 0x1a, 0x26, 0xea, 0x2b, 0xfb, 0x2d, 0x22, 0xe0, 0x0e, 0x0c, 0x10, 0x30,
    0x33, 0x22, 0x21, 0xdd, 0x09, 0x05, 0xef, 0x20, 0xfb, 0x23, 0x23, 0xe0, 0x0c,
    0x19, 0x13, 0x0c, 0x16, 0x28, 0x15, 0xe1, 0x1b, 0xfa, 0xff, 0xf7, 0xf8, 0xfa,
    0x00, 0x4e, 0xfb, 0xf8, 0xfe, 0xf7, 0xf6, 0x00, 0xfb, 0x50, 0xfb, 0xfc, 0x04,
    0xfc, 0xf5, 0xfc, 0xfd, 0x47, 0xf6, 0xf8, 0x03, 0xf8, 0xfe, 0x01, 0xfc, 0x4a,
    0xf9, 0xf7, 0xfe, 0xfb, 0x03, 0xfc, 0xfd, 0x49, 0xf8, 0xfb, 0xff, 0xfc, 0x0b,
    0xfe, 0xfb, 0x4c, 0xfb, 0xfb, 0x04, 0xfc, 0x00, 0xfb, 0xfc, 0x4c, 0xfb, 0xf8,
    0xfc, 0xf5, 0x0d, 0xfc, 0xfd, 0x4d, 0xfa, 0xf7, 0xfb, 0xf8, 0xf9, 0xfe, 0x02,
    0x4b, 0xf6, 0xf5, 0x02, 0xef, 0xfd, 0xfc, 0xfd, 0x4e, 0xf9, 0xf3, 0xfc, 0xf0,
    0xfe, 0xf9, 0x04, 0x48, 0xf5, 0xfc, 0xfa, 0xf2, 0x09, 0xfd, 0x00, 0x48, 0xf7,
    0xfd, 0xfe, 0xfd, 0x03, 0xff, 0x01, 0x46, 0xfc, 0xf7, 0xff, 0xfa, 0xfb, 0xfc,
    0xfb, 0x4a, 0xf7, 0xf1, 0xfb, 0xf3, 0x05, 0xf8, 0xfa, 0x47, 0xf3, 0x1f, 0x46,
    0x3a, 0x58, 0xa4, 0xc6, 0xbb, 0x1e, 0x40, 0x4a, 0xf8, 0xe1, 0xb7, 0xbd, 0xba,
    0x16, 0x19, 0x1f, 0x35, 0xd6, 0xca, 0xcb, 0xb7, 0x47, 0x34, 0x34, 0x01, 0x36,
    0xd1, 0xd6, 0xbe, 0x2c, 0x1f, 0x3a, 0x3a, 0x26, 0xa8, 0xc9, 0xbe, 0x0e, 0x00,
    0x00, 0x06, 0xe1, 0xcb, 0xad, 0xc2, 0x34, 0x1b, 0x07, 0xf5, 0x1b, 0xba, 0xc8,
    0xb9, 0x45, 0x22, 0x49, 0x0f, 0x27, 0xbc, 0xdb, 0xbe, 0x26, 0x0b, 0x35, 0x02,
    0x1c, 0xc7, 0xbf, 0xbb, 0x4c, 0x2d, 0x4f, 0xff, 0x35, 0xbe, 0xcb, 0xba, 0x38,
    0x1d, 0x31, 0x2f, 0x15, 0xd4, 0xc5, 0xc3, 0x43, 0x1a, 0xfc, 0x05, 0xda, 0xb3,
    0xd0, 0xc7, 0x20, 0x17, 0x32, 0x27, 0x1a, 0xbe, 0xd9, 0xbc, 0x30, 0x29, 0xea,
    0x1c, 0x29, 0xaa, 0xbe, 0xba, 0x4b, 0x42, 0x40, 0xe4, 0x29, 0xd5, 0xdc, 0xbe,
    0x34, 0xca, 0x1c, 0xcb, 0x3c, 0xf8, 0xfa, 0x19, 0xd5, 0xcc, 0x18, 0xc5, 0x22,
    0xf1, 0xf9, 0x1a, 0xd4, 0xd5, 0x1b, 0xc6, 0x3a, 0xf8, 0xfd, 0x1c, 0xd1, 0xda,
    0x15, 0xd5, 0x40, 0xfb, 0xf9, 0x0e, 0xd8, 0xd1, 0x1d, 0xc9, 0x3c, 0xf3, 0xfa,
    0x14, 0xd4, 0xde, 0x1a, 0xdc, 0x3a, 0xf9, 0xfb, 0x0e, 0xe0, 0xd4, 0x26, 0xd2,
    0x22, 0xf6, 0xfc, 0x0d, 0xdf, 0xd7, 0x22, 0xc7, 0x20, 0xfc, 0xfa, 0x10, 0xd6,
    0xd3, 0x1a, 0xd2, 0x25, 0xf9, 0xfb, 0x0e, 0xdb, 0xd3, 0x1f, 0xcb, 0x19, 0xea,
    0xfb, 0x23, 0xd1, 0xd8, 0x20, 0xc4, 0x3b, 0xf7, 0xfe, 0x11, 0xd9, 0xd3, 0x1c,
    0xd4, 0x2e, 0xfe, 0xfb, 0x0f, 0xd6, 0xd9, 0x28, 0xd2, 0x1d, 0xf8, 0xfb, 0x09,
    0xda, 0xdc, 0x21, 0xd7, 0x43, 0xf5, 0xfa, 0x17, 0xe7, 0xd1, 0x25, 0xcf, 0x31,
    0xf5, 0xf6, 0x15, 0xdd, 0x86, 0xfa, 0xff, 0xff, 0x00, 0x00, 0x00, 0x09, 0x10,
    0x00, 0x00, 0x00, 0x07, 0x00, 0x00, 0x00, 0x14, 0x00, 0x00, 0x00, 0x2c, 0x00,
    0x00, 0x00, 0x02, 0x00, 0x00, 0x00, 0x40, 0x00, 0x00, 0x00, 0x78, 0x00, 0x00,
    0x00, 0x17, 0x00, 0x00, 0x00, 0x73, 0x65, 0x71, 0x75, 0x65, 0x6e, 0x74, 0x69,
    0x61, 0x6c, 0x2f, 0x64, 0x65, 0x6e, 0x73, 0x65, 0x2f, 0x4d, 0x61, 0x74, 0x4d,
    0x75, 0x6c, 0x00, 0x68, 0xfb, 0xff, 0xff, 0x08, 0x00, 0x00, 0x00, 0x0c, 0x00,
    0x00, 0x00, 0x01, 0x00, 0x00, 0x00, 0xea, 0x99, 0x6d, 0x3a, 0x01, 0x00, 0x00,
    0x00, 0x00, 0x00, 0x00, 0x00, 0x00, 0x00, 0x00, 0x00, 0x02, 0xfb, 0xff, 0xff,
    0x04, 0x00, 0x00, 0x00, 0x20, 0x00, 0x00, 0x00, 0x94, 0xd1, 0xff, 0xff, 0xd9,
    0xfc, 0xff, 0xff, 0xbf, 0xcf, 0xff, 0xff, 0x16, 0xfb, 0xff, 0xff, 0xbf, 0xbf,
    0xff, 0xff, 0xe8, 0xab, 0xff, 0xff, 0x7d, 0x31, 0x00, 0x00, 0x32, 0xe0, 0xff,
    0xff, 0x12, 0xfb, 0xff, 0xff, 0x00, 0x00, 0x00, 0x02, 0x10, 0x00, 0x00, 0x00,
    0x06, 0x00, 0x00, 0x00, 0x10, 0x00, 0x00, 0x00, 0x44, 0x00, 0x00, 0x00, 0x01,
    0x00, 0x00, 0x00, 0x08, 0x00, 0x00, 0x00, 0x33, 0x00, 0x00, 0x00, 0x73, 0x65,
    0x71, 0x75, 0x65, 0x6e, 0x74, 0x69, 0x61, 0x6c, 0x2f, 0x63, 0x6f, 0x6e, 0x76,
    0x32, 0x64, 0x5f, 0x31, 0x2f, 0x42, 0x69, 0x61, 0x73, 0x41, 0x64, 0x64, 0x2f,
    0x52, 0x65, 0x61, 0x64, 0x56, 0x61, 0x72, 0x69, 0x61, 0x62, 0x6c, 0x65, 0x4f,
    0x70, 0x2f, 0x72, 0x65, 0x73, 0x6f, 0x75, 0x72, 0x63, 0x65, 0x00, 0x0c, 0xfc,
    0xff, 0xff, 0x08, 0x00, 0x00, 0x00, 0x28, 0x00, 0x00, 0x00, 0x08, 0x00, 0x00,
    0x00, 0x07, 0xde, 0xcd, 0x37, 0x94, 0x02, 0xe7, 0x37, 0x03, 0xdf, 0xec, 0x37,
    0x4e, 0x0a, 0xe1, 0x37, 0x49, 0x6f, 0xff, 0x37, 0x66, 0x1a, 0xcb, 0x37, 0xcd,
    0xfb, 0x25, 0x38, 0xd4, 0x25, 0xfc, 0x37, 0x08, 0x00, 0x00, 0x00, 0x00, 0x00,
    0x00, 0x00, 0x00, 0x00, 0x00, 0x00, 0x00, 0x00, 0x00, 0x00, 0x00, 0x00, 0x00,
    0x00, 0x00, 0x00, 0x00, 0x00, 0x00, 0x00, 0x00, 0x00, 0x00, 0x00, 0x00, 0x00,
    0x00, 0x00, 0x00, 0x00, 0x00, 0x00, 0x00, 0x00, 0x00, 0x00, 0x00, 0x00, 0x00,
    0x00, 0x00, 0x00, 0x00, 0x00, 0x00, 0x00, 0x00, 0x00, 0x00, 0x00, 0x00, 0x00,
    0x00, 0x00, 0x00, 0x00, 0x00, 0x00, 0x00, 0x00, 0x00, 0x00, 0x00, 0x00, 0x00,
    0x00, 0xfe, 0xfb, 0xff, 0xff, 0x04, 0x00, 0x00, 0x00, 0x00, 0x01, 0x00, 0x00,
    0x28, 0x25, 0x17, 0x7f, 0x0a, 0x12, 0xf8, 0x0d, 0x0e, 0xe8, 0x74, 0x31, 0xf6,
    0x00, 0x5b, 0x3a, 0xa6, 0x08, 0x50, 0x19, 0x35, 0x2d, 0xf1, 0x4e, 0x44, 0x3f,
    0x57, 0x53, 0x4f, 0x58, 0x4f, 0x30, 0x03, 0x3a, 0x5e, 0xb5, 0x79, 0x92, 0x0b,
    0xd7, 0x4b, 0xb6, 0xd5, 0xd3, 0x1d, 0x88, 0x39, 0x33, 0x0d, 0x58, 0x56, 0x81,
    0x57, 0xc0, 0xdb, 0x24, 0x33, 0xd0, 0xe1, 0xde, 0x56, 0xca, 0xf6, 0x29, 0x1e,
    0xf0, 0x1f, 0x77, 0x41, 0x32, 0x36, 0x3c, 0x4b, 0x4e, 0x3b, 0x30, 0xf1, 0x55,
    0x28, 0x22, 0x02, 0x46, 0x68, 0x7f, 0x2f, 0x59, 0x1d, 0x12, 0xec, 0x55, 0x29,
    0x3a, 0x3a, 0x2e, 0x37, 0xe0, 0x58, 0x3a, 0x4c, 0x91, 0x7f, 0xb8, 0x4e, 0xf8,
    0x36, 0x53, 0x40, 0xea, 0x29, 0x96, 0x14, 0x10, 0x4a, 0x2e, 0x2f, 0xf8, 0x67,
    0xc4, 0x50, 0xdf, 0x5d, 0xc1, 0x68, 0x9a, 0x43, 0x8b, 0xd8, 0xe2, 0x34, 0x2f,
    0xe7, 0x5b, 0x3d, 0x1f, 0x38, 0x5c, 0x1a, 0x54, 0xd2, 0x71, 0xd0, 0x5f, 0x10,
    0x0d, 0x2e, 0x57, 0x08, 0x04, 0x08, 0x0e, 0xea, 0x30, 0x32, 0x2c, 0x29, 0x49,
    0xf8, 0x7f, 0xf9, 0x50, 0x1d, 0x43, 0x48, 0x7f, 0x94, 0x75, 0x31, 0x3c, 0x70,
    0xc3, 0xde, 0x59, 0xfd, 0x68, 0x61, 0xfa, 0x56, 0xd7, 0x29, 0x36, 0xe7, 0x4a,
    0x43, 0xc8, 0x5a, 0x0d, 0x29, 0x3a, 0x04, 0x27, 0x5f, 0x5b, 0xdd, 0xc5, 0xa9,
    0x02, 0xeb, 0xc0, 0xb7, 0xe4, 0xc9, 0x1e, 0xca, 0xd3, 0x0c, 0x81, 0xfd, 0x07,
    0xad, 0x0d, 0xe5, 0xfc, 0xf1, 0xf0, 0xb1, 0x19, 0xb6, 0xf3, 0xb6, 0xfa, 0xd3,
    0x10, 0xeb, 0xda, 0xfc, 0xe8, 0x5e, 0x3a, 0x31, 0x36, 0x2a, 0x10, 0xc5, 0x38,
    0x0f, 0x53, 0x1c, 0x2f, 0x23, 0x35, 0x20, 0x18, 0x7f, 0x08, 0x20, 0xe7, 0x38,
    0xef, 0xea, 0x1c, 0x07, 0xfb, 0x19, 0xe3, 0xfc, 0x30, 0xee, 0xfc, 0xff, 0xff,
    0x00, 0x00, 0x00, 0x09, 0x10, 0x00, 0x00, 0x00, 0x05, 0x00, 0x00, 0x00, 0x1c,
    0x00, 0x00, 0x00, 0x38, 0x00, 0x00, 0x00, 0x04, 0x00, 0x00, 0x00, 0x08, 0x00,
    0x00, 0x00, 0x04, 0x00, 0x00, 0x00, 0x01, 0x00, 0x00, 0x00, 0x08, 0x00, 0x00,
    0x00, 0x1a, 0x00, 0x00, 0x00, 0x73, 0x65, 0x71, 0x75, 0x65, 0x6e, 0x74, 0x69,
    0x61, 0x6c, 0x2f, 0x63, 0x6f, 0x6e, 0x76, 0x32, 0x64, 0x5f, 0x31, 0x2f, 0x43,
    0x6f, 0x6e, 0x76, 0x32, 0x44, 0x00, 0x00, 0xdc, 0xfd, 0xff, 0xff, 0x08, 0x00,
    0x00, 0x00, 0x28, 0x00, 0x00, 0x00, 0x08, 0x00, 0x00, 0x00, 0x9a, 0x65, 0x78,
    0x3b, 0xee, 0x5d, 0x8b, 0x3b, 0x22, 0xe7, 0x8e, 0x3b, 0xef, 0xc3, 0x87, 0x3b,
    0x26, 0x1a, 0x9a, 0x3b, 0xc9, 0x0f, 0x75, 0x3b, 0x12, 0x46, 0xc8, 0x3b, 0x81,
    0x1e, 0x98, 0x3b, 0x08, 0x00, 0x00, 0x00, 0x00, 0x00, 0x00, 0x00, 0x00, 0x00,
    0x00, 0x00, 0x00, 0x00, 0x00, 0x00, 0x00, 0x00, 0x00, 0x00, 0x00, 0x00, 0x00,
    0x00, 0x00, 0x00, 0x00, 0x00, 0x00, 0x00, 0x00, 0x00, 0x00, 0x00, 0x00, 0x00,
    0x00, 0x00, 0x00, 0x00, 0x00, 0x00, 0x00, 0x00, 0x00, 0x00, 0x00, 0x00, 0x00,
    0x00, 0x00, 0x00, 0x00, 0x00, 0x00, 0x00, 0x00, 0x00, 0x00, 0x00, 0x00, 0x00,
    0x00, 0x00, 0x00, 0x00, 0x00, 0x00, 0xca, 0xfd, 0xff, 0xff, 0x04, 0x00, 0x00,
    0x00, 0x20, 0x00, 0x00, 0x00, 0xde, 0xfd, 0xff, 0xff, 0x88, 0xfc, 0xff, 0xff,
    0x7c, 0xfd, 0xff, 0xff, 0x33, 0xe3, 0xff, 0xff, 0x5d, 0xfe, 0xff, 0xff, 0x09,
    0xd3, 0xff, 0xff, 0x58, 0xfb, 0xff, 0xff, 0xa3, 0xfa, 0xff, 0xff, 0xda, 0xfd,
    0xff, 0xff, 0x00, 0x00, 0x00, 0x02, 0x10, 0x00, 0x00, 0x00, 0x04, 0x00, 0x00,
    0x00, 0x10, 0x00, 0x00, 0x00, 0x44, 0x00, 0x00, 0x00, 0x01, 0x00, 0x00, 0x00,
    0x08, 0x00, 0x00, 0x00, 0x31, 0x00, 0x00, 0x00, 0x73, 0x65, 0x71, 0x75, 0x65,
    0x6e, 0x74, 0x69, 0x61, 0x6c, 0x2f, 0x63, 0x6f, 0x6e, 0x76, 0x32, 0x64, 0x2f,
    0x42, 0x69, 0x61, 0x73, 0x41, 0x64, 0x64, 0x2f, 0x52, 0x65, 0x61, 0x64, 0x56,
    0x61, 0x72, 0x69, 0x61, 0x62, 0x6c, 0x65, 0x4f, 0x70, 0x2f, 0x72, 0x65, 0x73,
    0x6f, 0x75, 0x72, 0x63, 0x65, 0x00, 0x00, 0x00, 0xd4, 0xfe, 0xff, 0xff, 0x08,
    0x00, 0x00, 0x00, 0x28, 0x00, 0x00, 0x00, 0x08, 0x00, 0x00, 0x00, 0xd6, 0x10,
    0x27, 0x38, 0x7b, 0x76, 0x03, 0x38, 0x55, 0xd4, 0x1c, 0x38, 0x85, 0xaa, 0x10,
    0x38, 0x03, 0xf1, 0xfe, 0x37, 0xd3, 0xec, 0xde, 0x37, 0xd7, 0x38, 0x24, 0x38,
    0xc9, 0xd3, 0x09, 0x38, 0x08, 0x00, 0x00, 0x00, 0x00, 0x00, 0x00, 0x00, 0x00,
    0x00, 0x00, 0x00, 0x00, 0x00, 0x00, 0x00, 0x00, 0x00, 0x00, 0x00, 0x00, 0x00,
    0x00, 0x00, 0x00, 0x00, 0x00, 0x00, 0x00, 0x00, 0x00, 0x00, 0x00, 0x00, 0x00,
    0x00, 0x00, 0x00, 0x00, 0x00, 0x00, 0x00, 0x00, 0x00, 0x00, 0x00, 0x00, 0x00,
    0x00, 0x00, 0x00, 0x00, 0x00, 0x00, 0x00, 0x00, 0x00, 0x00, 0x00, 0x00, 0x00,
    0x00, 0x00, 0x00, 0x00, 0x00, 0x00, 0x00, 0xc2, 0xfe, 0xff, 0xff, 0x04, 0x00,
    0x00, 0x00, 0x60, 0x00, 0x00, 0x00, 0xaf, 0x37, 0x09, 0xb9, 0x1f, 0xe1, 0x0a,
    0x94, 0x7f, 0x5d, 0xa6, 0xd0, 0x4c, 0x32, 0xdb, 0x7f, 0x18, 0x8e, 0x15, 0x69,
    0x45, 0x34, 0x68, 0x48, 0x40, 0xf5, 0x7f, 0x0a, 0x3b, 0x0a, 0xd1, 0xf5, 0x9e,
    0xdc, 0xc2, 0xd2, 0x9a, 0xec, 0x55, 0x9f, 0xce, 0xbb, 0x81, 0x46, 0xf1, 0x05,
    0x2c, 0xb9, 0x93, 0x30, 0x49, 0x42, 0xcb, 0xda, 0xf5, 0x13, 0x52, 0xbb, 0x63,
    0x81, 0x38, 0x36, 0x81, 0xe5, 0x37, 0xac, 0x9e, 0x63, 0xe6, 0x48, 0x95, 0xde,
    0x7f, 0x06, 0xb9, 0x4b, 0x4a, 0x3b, 0x16, 0xdf, 0xb6, 0x36, 0xf4, 0xa9, 0xe0,
    0xd3, 0xed, 0xde, 0x07, 0x10, 0xf4, 0x9e, 0xff, 0xe8, 0x5d, 0x7f, 0x12, 0xff,
    0xff, 0xff, 0x00, 0x00, 0x00, 0x09, 0x10, 0x00, 0x00, 0x00, 0x03, 0x00, 0x00,
    0x00, 0x1c, 0x00, 0x00, 0x00, 0x44, 0x00, 0x00, 0x00, 0x04, 0x00, 0x00, 0x00,
    0x08, 0x00, 0x00, 0x00, 0x04, 0x00, 0x00, 0x00, 0x01, 0x00, 0x00, 0x00, 0x03,
    0x00, 0x00, 0x00, 0x18, 0x00, 0x00, 0x00, 0x73, 0x65, 0x71, 0x75, 0x65, 0x6e,
    0x74, 0x69, 0x61, 0x6c, 0x2f, 0x63, 0x6f, 0x6e, 0x76, 0x32, 0x64, 0x2f, 0x43,
    0x6f, 0x6e, 0x76, 0x32, 0x44, 0x00, 0x00, 0x00, 0x00, 0x0c, 0x00, 0x0c, 0x00,
    0x00, 0x00, 0x00, 0x00, 0x04, 0x00, 0x08, 0x00, 0x0c, 0x00, 0x00, 0x00, 0x08,
    0x00, 0x00, 0x00, 0x28, 0x00, 0x00, 0x00, 0x08, 0x00, 0x00, 0x00, 0x8a, 0x0c,
    0xb0, 0x3b, 0x19, 0x88, 0x8a, 0x3b, 0x21, 0x43, 0xa5, 0x3b, 0xe2, 0x71, 0x98,
    0x3b, 0x2c, 0x53, 0x86, 0x3b, 0x71, 0xe9, 0x6a, 0x3b, 0x66, 0x0d, 0xad, 0x3b,
    0x03, 0x3d, 0x91, 0x3b, 0x08, 0x00, 0x00, 0x00, 0x00, 0x00, 0x00, 0x00, 0x00,
    0x00, 0x00, 0x00, 0x00, 0x00, 0x00, 0x00, 0x00, 0x00, 0x00, 0x00, 0x00, 0x00,
    0x00, 0x00, 0x00, 0x00, 0x00, 0x00, 0x00, 0x00, 0x00, 0x00, 0x00, 0x00, 0x00,
    0x00, 0x00, 0x00, 0x00, 0x00, 0x00, 0x00, 0x00, 0x00, 0x00, 0x00, 0x00, 0x00,
    0x00, 0x00, 0x00, 0x00, 0x00, 0x00, 0x00, 0x00, 0x00, 0x00, 0x00, 0x00, 0x00,
    0x00, 0x00, 0x00, 0x00, 0x00, 0x00, 0x00, 0x00, 0x00, 0x00, 0x00, 0x00, 0x00,
    0x06, 0x00, 0x08, 0x00, 0x04, 0x00, 0x06, 0x00, 0x00, 0x00, 0x04, 0x00, 0x00,
    0x00, 0x08, 0x00, 0x00, 0x00, 0xff, 0xff, 0xff, 0xff, 0x78, 0x00, 0x00, 0x00,
    0x00, 0x00, 0x0e, 0x00, 0x18, 0x00, 0x08, 0x00, 0x07, 0x00, 0x0c, 0x00, 0x10,
    0x00, 0x14, 0x00, 0x0e, 0x00, 0x00, 0x00, 0x00, 0x00, 0x00, 0x02, 0x10, 0x00,
    0x00, 0x00, 0x02, 0x00, 0x00, 0x00, 0x10, 0x00, 0x00, 0x00, 0x2c, 0x00, 0x00,
    0x00, 0x01, 0x00, 0x00, 0x00, 0x02, 0x00, 0x00, 0x00, 0x18, 0x00, 0x00, 0x00,
    0x73, 0x65, 0x71, 0x75, 0x65, 0x6e, 0x74, 0x69, 0x61, 0x6c, 0x2f, 0x66, 0x6c,
    0x61, 0x74, 0x74, 0x65, 0x6e, 0x2f, 0x43, 0x6f, 0x6e, 0x73, 0x74, 0x00, 0x00,
    0x00, 0x00, 0x90, 0xff, 0xff, 0xff, 0x14, 0x00, 0x18, 0x00, 0x04, 0x00, 0x00,
    0x00, 0x08, 0x00, 0x0c, 0x00, 0x10, 0x00, 0x00, 0x00, 0x00, 0x00, 0x14, 0x00,
    0x14, 0x00, 0x00, 0x00, 0x14, 0x00, 0x00, 0x00, 0x01, 0x00, 0x00, 0x00, 0x34,
    0x00, 0x00, 0x00, 0x44, 0x00, 0x00, 0x00, 0x18, 0x00, 0x00, 0x00, 0x04, 0x00,
    0x00, 0x00, 0x01, 0x00, 0x00, 0x00, 0x80, 0x00, 0x00, 0x00, 0x01, 0x00, 0x00,
    0x00, 0x03, 0x00, 0x00, 0x00, 0x04, 0x00, 0x00, 0x00, 0xff, 0xff, 0xff, 0xff,
    0x80, 0x00, 0x00, 0x00, 0x01, 0x00, 0x00, 0x00, 0x03, 0x00, 0x00, 0x00, 0x0c,
    0x00, 0x00, 0x00, 0x61, 0x63, 0x63, 0x65, 0x6c, 0x65, 0x72, 0x61, 0x74, 0x69,
    0x6f, 0x6e, 0x00, 0x00, 0x00, 0x00, 0xfc, 0xff, 0xff, 0xff, 0x04, 0x00, 0x04,
    0x00, 0x04, 0x00, 0x00, 0x00,
};
const int tensorflow_model_cnn_quant_len = 15280;
