// Copyright 2022, 2024 NXP.
// All rights reserved.
// SPDX-License-Identifier: BSD-3-Clause

// Neutron Converter Version: 1.2.0+0X84d37e1f
// Neutron Microcode Version: 0X84d37e1f

/*
// Register operators for TFLite Micro.
microOpResolver.AddQuantize();
microOpResolver.AddSoftmax();
microOpResolver.AddDequantize();
microOpResolver.AddCustom(tflite::GetString_NEUTRON_GRAPH(), tflite::Register_NEUTRON_GRAPH());
*/

#include "tensorflow_model_mlp_quant_neutron.h"

#define MODEL_NAME "tensorflow_model_mlp_quant_neutron.tflite"
#define MODEL_SIZE 7984

const unsigned char tensorflow_model_mlp_quant_neutron[] __attribute__((aligned(16))) = {
  0x0c, 0x00, 0x00, 0x00, 0x54, 0x46, 0x4c, 0x33, 0x00, 0x00, 0x00, 0x00,
  0xa2, 0xe5, 0xff, 0xff, 0x03, 0x00, 0x00, 0x00, 0x94, 0x1e, 0x00, 0x00,
  0x48, 0x1a, 0x00, 0x00, 0xdc, 0x19, 0x00, 0x00, 0x04, 0x00, 0x00, 0x00,
  0x03, 0x00, 0x00, 0x00, 0xcc, 0x19, 0x00, 0x00, 0x98, 0x18, 0x00, 0x00,
  0x04, 0x00, 0x00, 0x00, 0x2e, 0xe5, 0xff, 0xff, 0x04, 0x00, 0x00, 0x00,
  0x80, 0x18, 0x00, 0x00, 0x00, 0x00, 0x00, 0x00, 0x00, 0x00, 0x00, 0x00,
  0x00, 0x00, 0x00, 0x00, 0x00, 0x00, 0x00, 0x00, 0x00, 0x00, 0x00, 0x00,
  0x00, 0x00, 0x00, 0x00, 0xe7, 0x2c, 0xfe, 0x0a, 0x01, 0x03, 0x00, 0xfd,
  0xf1, 0x12, 0xf2, 0x05, 0xd4, 0x15, 0x0f, 0x00, 0x09, 0x11, 0x13, 0xfe,
  0xfa, 0x05, 0xec, 0xfd, 0x16, 0x03, 0xee, 0xf1, 0x37, 0xf2, 0x08, 0x15,
  0x00, 0x0e, 0x11, 0xef, 0x18, 0x11, 0xf2, 0x10, 0xfd, 0xf0, 0xfa, 0xe4,
  0x1f, 0x27, 0x01, 0xeb, 0x01, 0xda, 0x15, 0xf1, 0xfc, 0xfc, 0x06, 0x01,
  0x1f, 0xfd, 0xd9, 0x04, 0xd3, 0xf9, 0xcb, 0xf0, 0xef, 0xd9, 0x1b, 0xee,
  0xf1, 0x11, 0x00, 0xd3, 0xf5, 0x07, 0x13, 0x0b, 0xfa, 0xe5, 0x0b, 0xf1,
  0xff, 0x10, 0xe9, 0x27, 0x03, 0x06, 0xff, 0x18, 0x13, 0xf9, 0x0a, 0x1b,
  0xd1, 0x1f, 0x11, 0x07, 0x08, 0x05, 0x2e, 0xf7, 0x09, 0xf3, 0xe9, 0x11,
  0xeb, 0x18, 0x0b, 0xf2, 0x12, 0x22, 0xd4, 0x31, 0xfe, 0x2e, 0xfc, 0xee,
  0x08, 0xfb, 0xfe, 0x03, 0x0e, 0xda, 0x0a, 0x11, 0x22, 0xdf, 0xf9, 0xa4,
  0x09, 0x0c, 0xea, 0x0b, 0x08, 0x0d, 0xf1, 0x16, 0xf8, 0xde, 0x00, 0xfe,
  0xe4, 0x25, 0xe3, 0xe2, 0xeb, 0xad, 0xfd, 0xec, 0x03, 0x0b, 0x00, 0x0c,
  0xfc, 0xf0, 0x0c, 0x0f, 0x1a, 0xdc, 0xfa, 0x39, 0xed, 0xd2, 0x10, 0xd8,
  0x06, 0xd9, 0x0e, 0xee, 0xeb, 0x15, 0x0c, 0x13, 0xd0, 0xf0, 0xe7, 0x12,
  0xe4, 0x07, 0x2a, 0x13, 0x0d, 0x09, 0x0c, 0x03, 0x03, 0x20, 0x33, 0x0b,
  0x06, 0x22, 0x14, 0x1a, 0x04, 0x0c, 0x1a, 0xf4, 0xe2, 0xe3, 0x06, 0x0f,
  0x15, 0x15, 0xf8, 0xea, 0x24, 0xf3, 0x15, 0x0e, 0x20, 0x2b, 0x16, 0xfa,
  0x06, 0x01, 0xef, 0xf0, 0x22, 0x17, 0xfe, 0xee, 0xcf, 0xf7, 0x35, 0xd6,
  0xeb, 0x11, 0xde, 0x00, 0xe0, 0x10, 0x18, 0x06, 0x14, 0xdd, 0xd3, 0xdc,
  0xd3, 0x07, 0xee, 0xf2, 0x04, 0xc3, 0xdc, 0xfb, 0xfa, 0xfa, 0xf0, 0xf9,
  0xdc, 0x07, 0x0c, 0x13, 0x16, 0xe8, 0x17, 0x39, 0xb8, 0x22, 0x00, 0xee,
  0xed, 0xef, 0x1b, 0xec, 0xf2, 0xf3, 0xf4, 0x34, 0xd3, 0x29, 0x1c, 0x12,
  0xdc, 0x1f, 0xfb, 0x0e, 0x0a, 0x0f, 0xf8, 0xf7, 0x07, 0x10, 0xe6, 0xfb,
  0xf8, 0x2d, 0xfd, 0x04, 0x25, 0x14, 0x0d, 0x13, 0xd7, 0xeb, 0xf1, 0x20,
  0x0e, 0x21, 0x28, 0xe2, 0x16, 0xe5, 0x39, 0xe4, 0x29, 0x22, 0x1f, 0xfe,
  0x03, 0x0c, 0xf5, 0x05, 0x19, 0x08, 0x08, 0x07, 0xc5, 0xe7, 0xf6, 0x18,
  0xd5, 0x12, 0xbb, 0xfe, 0xf0, 0x1e, 0x1e, 0x1a, 0x12, 0xd9, 0x03, 0xb6,
  0x12, 0xd2, 0x05, 0x06, 0xd7, 0xd7, 0x07, 0xf4, 0x01, 0xfa, 0xf8, 0xfb,
  0xf6, 0x04, 0xf3, 0xe5, 0xed, 0x05, 0x6c, 0x01, 0xd1, 0x23, 0x22, 0x2e,
  0x08, 0xe8, 0x09, 0xf1, 0xe5, 0x13, 0x0d, 0x0e, 0xea, 0x0a, 0x02, 0x1c,
  0x0c, 0xeb, 0x13, 0x27, 0xf6, 0x00, 0x00, 0x07, 0xfe, 0x04, 0x18, 0xe2,
  0x0f, 0xd4, 0xc2, 0xe0, 0x35, 0xbb, 0xf4, 0xe1, 0xfe, 0xe7, 0xf2, 0x3f,
  0xfc, 0x2e, 0x2a, 0xc2, 0xf9, 0xd6, 0x28, 0xb8, 0x02, 0x05, 0x2f, 0x14,
  0x04, 0x01, 0x00, 0x00, 0x11, 0x0a, 0x05, 0x0f, 0x99, 0x1e, 0xd4, 0x18,
  0xfd, 0xc5, 0x17, 0x13, 0x10, 0x13, 0x17, 0x14, 0x08, 0x04, 0xe5, 0xc5,
  0x1f, 0xf8, 0x22, 0x20, 0x15, 0x0e, 0xe9, 0xf5, 0xfe, 0x0c, 0x05, 0x03,
  0xf9, 0x1c, 0xff, 0xe6, 0x27, 0x1c, 0x0d, 0xd5, 0xdb, 0x36, 0xef, 0xf2,
  0xff, 0xf4, 0x0d, 0xec, 0xbd, 0x02, 0xdf, 0x07, 0x0d, 0x22, 0x22, 0x3e,
  0xf8, 0x04, 0xfc, 0x17, 0xed, 0x09, 0x06, 0xea, 0xe9, 0x05, 0xfd, 0xe6,
  0x0f, 0xb0, 0xd5, 0xeb, 0xf3, 0xfa, 0xe1, 0x18, 0x16, 0xe0, 0xf7, 0x1f,
  0x0e, 0x36, 0x1d, 0xdb, 0xa4, 0xf6, 0xea, 0xe6, 0xfa, 0xfe, 0x2c, 0xe2,
  0xf7, 0xf6, 0x09, 0xf8, 0x17, 0x18, 0xd7, 0x05, 0x2a, 0x1a, 0x00, 0x1f,
  0xda, 0xeb, 0x26, 0x0d, 0xe9, 0x0d, 0x01, 0x12, 0x0e, 0xcf, 0xe1, 0xd2,
  0x46, 0x0d, 0x4a, 0x1f, 0x17, 0x12, 0xea, 0xe8, 0xfa, 0xf7, 0x12, 0xfc,
  0xf1, 0xf5, 0xe7, 0x26, 0xf4, 0x07, 0xc1, 0xd7, 0xf4, 0xe0, 0xe6, 0x1f,
  0x16, 0x06, 0xf9, 0x12, 0xc2, 0xf0, 0xfc, 0x03, 0x3c, 0xf3, 0xee, 0x26,
  0xff, 0xe1, 0xeb, 0xe8, 0xf6, 0xf7, 0x07, 0xfc, 0x05, 0xdd, 0xf4, 0xff,
  0xed, 0xd0, 0xff, 0xec, 0xdb, 0x29, 0x35, 0xf2, 0xf0, 0x07, 0x23, 0x03,
  0x1e, 0x21, 0x28, 0xeb, 0xb7, 0x1b, 0x0a, 0x2f, 0xe9, 0xdc, 0xfd, 0x14,
  0x06, 0xf7, 0x07, 0x09, 0x02, 0x0a, 0xf5, 0x17, 0x58, 0xd8, 0x06, 0x2f,
  0xd6, 0x06, 0x20, 0xf3, 0xf3, 0x20, 0x0c, 0x06, 0x17, 0xf5, 0xd6, 0xfd,
  0x1b, 0x17, 0x22, 0x0b, 0x24, 0x2f, 0x01, 0x0b, 0xf1, 0x05, 0xf5, 0x07,
  0x09, 0xef, 0xef, 0x17, 0xf9, 0x1a, 0xbd, 0xde, 0x0b, 0xe6, 0xf5, 0xd3,
  0x1d, 0x1b, 0xf3, 0xe6, 0xc2, 0xfd, 0xfd, 0xfa, 0xf6, 0xcb, 0xd0, 0xd7,
  0x10, 0xd9, 0xe6, 0xd9, 0xea, 0x05, 0xf7, 0x06, 0xff, 0x19, 0x03, 0x13,
  0xf5, 0x19, 0x52, 0x19, 0xec, 0x0f, 0xe0, 0x04, 0xdc, 0x10, 0xfd, 0xeb,
  0x3b, 0xf8, 0x37, 0x2a, 0xe5, 0x03, 0xe5, 0x3d, 0xe6, 0xee, 0xe7, 0x15,
  0x0a, 0xed, 0xff, 0xfe, 0x27, 0x00, 0xf1, 0xf7, 0x20, 0xe3, 0x2d, 0xd1,
  0x26, 0x32, 0xdc, 0x1c, 0x11, 0x1f, 0xe8, 0x06, 0x21, 0x1d, 0xea, 0x21,
  0x21, 0x00, 0xb7, 0xf4, 0x05, 0x13, 0xf4, 0x29, 0x05, 0x00, 0x0a, 0x0d,
  0xc7, 0xdf, 0x27, 0xf3, 0xd9, 0x1c, 0xc4, 0x2a, 0xf2, 0x19, 0xe5, 0x15,
  0x09, 0x07, 0x14, 0xf5, 0xf1, 0xd3, 0xe0, 0xed, 0xfb, 0xd6, 0x18, 0x00,
  0x00, 0xdb, 0xe2, 0xd5, 0x02, 0x0c, 0x05, 0x0d, 0xd2, 0xf6, 0xee, 0x03,
  0xea, 0x28, 0x2e, 0x19, 0x19, 0x17, 0x2a, 0x03, 0x08, 0x0b, 0x0e, 0x13,
  0x32, 0xfa, 0x1a, 0xf2, 0x2f, 0xf2, 0x24, 0x08, 0xff, 0xe8, 0x02, 0x05,
  0x0f, 0xf1, 0xfe, 0xfe, 0x1c, 0x05, 0xf7, 0x25, 0x01, 0x05, 0x0f, 0x91,
  0x1c, 0x09, 0xcb, 0x02, 0xff, 0x00, 0x0f, 0x0b, 0x2d, 0x33, 0xb5, 0x09,
  0xfa, 0x1a, 0xc9, 0xea, 0xfd, 0x18, 0x12, 0x1c, 0xfe, 0x08, 0x02, 0x0c,
  0xe8, 0xff, 0x2a, 0x21, 0xf9, 0xe0, 0xfe, 0x34, 0xf4, 0xae, 0x1c, 0xd2,
  0xfb, 0xee, 0xfc, 0x20, 0xe2, 0xc9, 0xd4, 0xe3, 0xe0, 0x1d, 0x2b, 0x2b,
  0x1a, 0xf0, 0xf8, 0xca, 0x0c, 0x12, 0xf8, 0xf2, 0xf2, 0xf4, 0x1f, 0xfc,
  0x20, 0x51, 0x05, 0x57, 0x23, 0x1f, 0xf9, 0x09, 0x1a, 0x0e, 0x11, 0x02,
  0x03, 0x06, 0x13, 0x2d, 0x44, 0xc1, 0x3a, 0xd9, 0xd1, 0xd4, 0xe8, 0x19,
  0x09, 0x02, 0x0d, 0x06, 0xb6, 0x23, 0x1b, 0xe0, 0xcf, 0xf6, 0x11, 0xda,
  0xf3, 0xd9, 0xdd, 0xe8, 0x04, 0x09, 0xf9, 0xf5, 0x40, 0x1a, 0xe2, 0xe0,
  0xc8, 0xe1, 0xc0, 0x4e, 0xee, 0x45, 0x0e, 0x00, 0x05, 0x0b, 0xfb, 0xf6,
  0x23, 0x03, 0x0f, 0xfb, 0x2f, 0x0c, 0x4e, 0xe6, 0xeb, 0x08, 0xf5, 0x0c,
  0xee, 0xec, 0x0a, 0x0e, 0xcd, 0xd6, 0xeb, 0xa5, 0xde, 0x51, 0x04, 0x39,
  0x34, 0xb5, 0x10, 0xfd, 0xf7, 0x1a, 0xf2, 0xe6, 0x19, 0xf3, 0xeb, 0xfa,
  0xea, 0xe7, 0xdd, 0x10, 0x45, 0xc2, 0xfa, 0xea, 0x12, 0xf3, 0x13, 0x13,
  0x0f, 0x04, 0x24, 0x18, 0xd6, 0x14, 0x26, 0xbf, 0xde, 0xe9, 0xcc, 0x08,
  0xf5, 0x01, 0x02, 0x04, 0x1e, 0x06, 0xea, 0x19, 0xcc, 0xf9, 0xda, 0x17,
  0xd8, 0xf5, 0xf1, 0xfa, 0x24, 0x15, 0xf8, 0x17, 0x20, 0x42, 0xf6, 0x10,
  0xf7, 0xff, 0x24, 0x23, 0xc5, 0x0b, 0x2c, 0x15, 0x01, 0x07, 0xfb, 0xfa,
  0x20, 0x0c, 0xe9, 0xfa, 0x33, 0x1b, 0x11, 0xec, 0xfa, 0x17, 0x32, 0x3c,
  0xe4, 0xe6, 0x04, 0xe6, 0xd2, 0xe8, 0xfc, 0xaf, 0xf8, 0x32, 0xf1, 0xfd,
  0x30, 0xfe, 0x10, 0xf9, 0xfb, 0x0d, 0x03, 0xfe, 0x14, 0x10, 0x1b, 0x1c,
  0x12, 0xcf, 0xf4, 0x0c, 0x09, 0x0b, 0x0f, 0xef, 0xe7, 0x03, 0x10, 0xfb,
  0xe7, 0xff, 0xf0, 0x23, 0xdd, 0x02, 0xec, 0xdb, 0xe9, 0x06, 0xc2, 0xe5,
  0xf6, 0xfe, 0x06, 0x02, 0x29, 0xee, 0xf4, 0x2a, 0xb7, 0x1c, 0xe2, 0x21,
  0xc0, 0x0a, 0x01, 0xec, 0x14, 0x13, 0x0b, 0x03, 0x17, 0x4a, 0x09, 0x26,
  0x22, 0xe7, 0x53, 0xe5, 0xd7, 0xf3, 0x18, 0x2a, 0x07, 0x04, 0x0a, 0x04,
  0xe0, 0xed, 0x3a, 0x00, 0x07, 0x30, 0xe3, 0x0e, 0xd7, 0x40, 0x0a, 0xe7,
  0xef, 0xe8, 0xf9, 0xed, 0x2c, 0xe7, 0xfb, 0xc2, 0x46, 0x06, 0x15, 0x12,
  0x3f, 0xd4, 0x31, 0x1d, 0x17, 0xfe, 0x0a, 0x0d, 0x11, 0xe3, 0xed, 0xe6,
  0x14, 0xcd, 0x0a, 0x0c, 0xd1, 0xe1, 0xe6, 0x00, 0xf2, 0x2c, 0x11, 0x01,
  0xe5, 0xdd, 0xfb, 0x30, 0xe4, 0x2a, 0xdd, 0x1d, 0xe1, 0x00, 0xc7, 0xdf,
  0x0b, 0xf8, 0xf6, 0xf2, 0xf3, 0x1b, 0x11, 0xec, 0x15, 0x4b, 0x1a, 0x24,
  0x07, 0xea, 0x36, 0xe6, 0x20, 0x0c, 0xdb, 0xf2, 0xfd, 0x4d, 0xfa, 0x3f,
  0x0a, 0x1b, 0x3d, 0xd1, 0xc2, 0xe6, 0x1b, 0xf7, 0xf0, 0xee, 0xf0, 0x07,
  0x13, 0xee, 0xe8, 0xe0, 0x0a, 0x4b, 0xb7, 0x1c, 0x17, 0x07, 0xfe, 0x2d,
  0x04, 0xfd, 0xea, 0xf9, 0x47, 0xd0, 0x08, 0xc7, 0x28, 0xee, 0xb4, 0x9c,
  0x27, 0x21, 0x42, 0x20, 0x0a, 0x00, 0xff, 0x01, 0x0e, 0x01, 0xf4, 0x10,
  0x07, 0xdb, 0xed, 0xe6, 0x9f, 0x1f, 0x1c, 0x1f, 0x03, 0xff, 0x05, 0x06,
  0x01, 0xbb, 0xd3, 0x2b, 0x06, 0xec, 0xc0, 0x58, 0xe7, 0x06, 0xbf, 0xd1,
  0xfe, 0xe7, 0xf4, 0xfe, 0xe2, 0x05, 0xee, 0xdc, 0x45, 0xf4, 0xfe, 0xf4,
  0x12, 0x39, 0x07, 0xe8, 0x07, 0x0b, 0xd5, 0x17, 0xfc, 0x35, 0xf9, 0x31,
  0xe2, 0xe3, 0x0a, 0xf2, 0xdd, 0xf0, 0xff, 0xf4, 0x0b, 0x09, 0xf8, 0xfe,
  0x35, 0xfd, 0x24, 0x00, 0xf6, 0xd0, 0x86, 0x21, 0x4b, 0xd5, 0xf1, 0xdb,
  0x08, 0xf6, 0x05, 0xfb, 0x1d, 0xd2, 0x2b, 0xd2, 0xf5, 0xd6, 0xeb, 0x0e,
  0x45, 0x36, 0x56, 0x19, 0xf9, 0x14, 0xfa, 0x02, 0xe9, 0x07, 0xdf, 0xd6,
  0xf5, 0x21, 0x3b, 0x23, 0xd8, 0x32, 0xe9, 0x2d, 0xf9, 0xd7, 0x1e, 0x28,
  0xd3, 0xd3, 0xcf, 0x2e, 0x27, 0x2c, 0x1a, 0x4e, 0xf3, 0x04, 0xe2, 0xd0,
  0xe8, 0xfe, 0xf9, 0x09, 0x15, 0xe8, 0xdf, 0xdf, 0x45, 0xee, 0x0d, 0xbb,
  0x11, 0x14, 0x00, 0xd3, 0x08, 0x14, 0x09, 0xfe, 0xf9, 0xf9, 0x35, 0x17,
  0xe1, 0x38, 0xd5, 0x0b, 0xda, 0xb4, 0x17, 0x08, 0x00, 0x01, 0x09, 0xf8,
  0xfe, 0xe4, 0xd7, 0x24, 0xf1, 0xb3, 0xf9, 0x20, 0xde, 0xb9, 0xf8, 0xe5,
  0xf9, 0x13, 0x0d, 0xf7, 0x2c, 0xf5, 0x0b, 0xee, 0xec, 0xff, 0x20, 0x40,
  0x21, 0x25, 0x47, 0x4a, 0xf8, 0x00, 0xf3, 0x11, 0x0d, 0x00, 0x09, 0x23,
  0xe6, 0x55, 0xf4, 0x29, 0x30, 0x2f, 0xd4, 0x0c, 0xfd, 0x04, 0x0c, 0x11,
  0xed, 0xdf, 0xe5, 0x13, 0x17, 0x14, 0x68, 0xfc, 0xf6, 0x1f, 0x12, 0xeb,
  0xfe, 0xfc, 0xed, 0x0a, 0xe1, 0x03, 0xfc, 0xe9, 0x0a, 0xd1, 0xe3, 0xcf,
  0xf1, 0xe6, 0x9c, 0x14, 0xf0, 0xfb, 0xf1, 0xfe, 0xcb, 0x30, 0x3c, 0x06,
  0x0b, 0x31, 0xe1, 0xdd, 0xea, 0xd2, 0x02, 0xfe, 0xfe, 0xf2, 0x01, 0xf7,
  0xfa, 0xf5, 0x1c, 0x31, 0xee, 0xed, 0x36, 0x22, 0xe3, 0x19, 0xf0, 0x03,
  0x0c, 0x10, 0xf7, 0x1b, 0x35, 0xf0, 0x2b, 0xf1, 0x0e, 0x4b, 0xef, 0x1d,
  0x03, 0x0a, 0x34, 0x30, 0xfb, 0xf7, 0xfe, 0x06, 0x28, 0xef, 0x0e, 0x16,
  0x16, 0x43, 0x05, 0x17, 0x66, 0x32, 0x41, 0xe7, 0x0c, 0xfd, 0xfe, 0xf2,
  0xf3, 0xd7, 0xc0, 0xf7, 0xfe, 0xda, 0x1b, 0xb6, 0x1e, 0x18, 0x04, 0xfc,
  0x04, 0xff, 0xfe, 0x0a, 0x20, 0x1b, 0x0a, 0x0e, 0xd4, 0xfa, 0xfd, 0xd0,
  0xd9, 0xe8, 0xb5, 0x2d, 0xe7, 0x03, 0xf9, 0xe6, 0xbb, 0xf8, 0x2c, 0x12,
  0x29, 0x01, 0xd9, 0x0c, 0x02, 0xbf, 0xc2, 0xdf, 0xf0, 0xef, 0xf3, 0xf8,
  0xf1, 0x19, 0xf6, 0x01, 0x06, 0xc7, 0x60, 0xd2, 0xdb, 0x30, 0x4b, 0xf1,
  0x0b, 0x17, 0x1c, 0x15, 0x32, 0xf6, 0x12, 0xf4, 0x1e, 0x27, 0xe6, 0x25,
  0x03, 0x0e, 0xfa, 0x14, 0x02, 0x0f, 0xe2, 0x01, 0xf8, 0xf8, 0xd3, 0xfb,
  0x2f, 0x04, 0xca, 0xbd, 0x15, 0xd5, 0xde, 0xa9, 0xe8, 0xfa, 0x0b, 0xe3,
  0xeb, 0xdc, 0xd5, 0x17, 0xd6, 0xdd, 0xf2, 0x9e, 0x24, 0x3b, 0x26, 0xf3,
  0xf6, 0x01, 0x0b, 0x08, 0xf2, 0x05, 0x0e, 0x1a, 0xe2, 0xfb, 0xe5, 0x3d,
  0x0a, 0xcd, 0x2b, 0xe8, 0xe5, 0xf7, 0xfc, 0xd8, 0xd9, 0xe2, 0x10, 0xfa,
  0x19, 0xe1, 0x1a, 0x1e, 0x1d, 0xca, 0xcf, 0xdc, 0xfa, 0xfa, 0x0f, 0x03,
  0xed, 0xde, 0xf4, 0x0c, 0x28, 0x12, 0x34, 0xdf, 0xd5, 0x44, 0xfc, 0xf5,
  0xff, 0x15, 0x15, 0x20, 0x14, 0x0b, 0x11, 0x23, 0x14, 0x08, 0xf5, 0x0b,
  0xcd, 0x14, 0xe4, 0x26, 0x0a, 0xf6, 0xf1, 0x07, 0xe9, 0x1f, 0xfc, 0xdb,
  0x30, 0xad, 0xe6, 0x05, 0xd9, 0xdc, 0xa1, 0x07, 0x12, 0x11, 0x0c, 0xfb,
  0xee, 0xf5, 0xe2, 0x06, 0xd0, 0x02, 0xf2, 0x0a, 0x11, 0x2b, 0x57, 0xd9,
  0x0a, 0x07, 0xf7, 0x04, 0xfb, 0x01, 0xe5, 0xcf, 0xff, 0x14, 0x29, 0x45,
  0x06, 0xb0, 0x3a, 0xc0, 0xf0, 0xdb, 0x04, 0xea, 0xf1, 0xe0, 0x20, 0xe3,
  0xff, 0x09, 0x3a, 0x17, 0x14, 0xec, 0xcd, 0xd5, 0x04, 0xf1, 0xf2, 0xf6,
  0x00, 0xf7, 0xdf, 0x13, 0xe6, 0x32, 0xea, 0x08, 0xb9, 0x03, 0xe4, 0xcd,
  0xfc, 0x27, 0x0d, 0x25, 0x10, 0x22, 0x08, 0x0a, 0x32, 0xf8, 0xce, 0x1a,
  0xcf, 0x14, 0xd4, 0x1c, 0x0b, 0xfc, 0xf8, 0xf6, 0xef, 0xd8, 0xf5, 0xfd,
  0xf3, 0xdf, 0xfc, 0xeb, 0xbf, 0xe2, 0xcd, 0x05, 0xf6, 0x1e, 0xed, 0x08,
  0xe5, 0x14, 0x1e, 0xfe, 0xb3, 0x0f, 0xe0, 0x40, 0x1e, 0xf4, 0x42, 0xfd,
  0x0d, 0x09, 0x09, 0x06, 0xdd, 0x22, 0xe3, 0xf9, 0x48, 0xff, 0x39, 0x3e,
  0x2a, 0xdf, 0x1a, 0xf5, 0x07, 0xe5, 0xf8, 0xf1, 0xfe, 0xef, 0x21, 0xd9,
  0xe7, 0x24, 0x0d, 0xd3, 0x24, 0xeb, 0xcc, 0x05, 0x05, 0xfe, 0xdb, 0xf2,
  0x29, 0x23, 0xd3, 0xf7, 0xd9, 0x21, 0xc0, 0x03, 0xef, 0xdd, 0xd5, 0xad,
  0xfe, 0x20, 0xee, 0x1d, 0x02, 0x1d, 0xfb, 0x23, 0xe9, 0xca, 0xf1, 0xd9,
  0xd7, 0xfc, 0xdb, 0xf1, 0xed, 0x16, 0xff, 0x0b, 0x1d, 0x07, 0xfa, 0x16,
  0x0a, 0x22, 0x19, 0x22, 0x15, 0xe3, 0xe3, 0x12, 0x1f, 0x26, 0x1e, 0xec,
  0xe9, 0x14, 0xf5, 0xf4, 0xdb, 0x40, 0x0a, 0x39, 0x3d, 0xec, 0x42, 0x32,
  0xfe, 0x0d, 0x08, 0x0a, 0x42, 0xf2, 0xff, 0x0b, 0x41, 0xee, 0x43, 0xce,
  0x25, 0x02, 0xe1, 0xe3, 0x04, 0xd5, 0xef, 0xdd, 0x01, 0xef, 0xe4, 0x07,
  0xdd, 0x1d, 0xe8, 0xf5, 0x2a, 0x21, 0xf7, 0x26, 0x00, 0xf3, 0xf6, 0xf5,
  0xf9, 0xe9, 0x01, 0xee, 0xd7, 0x12, 0xb9, 0x12, 0x0f, 0xe6, 0xdd, 0x25,
  0xe5, 0x33, 0xf8, 0x21, 0x0f, 0xed, 0x11, 0xfb, 0xf7, 0xef, 0xdf, 0x10,
  0xbc, 0xed, 0xf2, 0xb2, 0x06, 0x09, 0xfc, 0x07, 0x1b, 0xef, 0x20, 0xfa,
  0xfb, 0x37, 0x35, 0x2b, 0x2c, 0xd8, 0x03, 0x22, 0x09, 0x28, 0x17, 0xee,
  0xf8, 0xe0, 0xf0, 0x0a, 0x4c, 0x01, 0x24, 0xed, 0x2d, 0xee, 0x5d, 0x29,
  0xfb, 0x0d, 0x02, 0x01, 0xf5, 0xee, 0xee, 0x38, 0x1f, 0xe7, 0x32, 0xb5,
  0xe5, 0xd6, 0xe2, 0xf2, 0x16, 0xed, 0x01, 0xdb, 0x0c, 0xf4, 0xe4, 0x29,
  0x07, 0x2f, 0xb3, 0x1f, 0x33, 0x5b, 0xf5, 0x24, 0x02, 0xeb, 0xfb, 0x03,
  0xd4, 0xe3, 0x15, 0xf1, 0x20, 0x14, 0x22, 0x21, 0x09, 0xf4, 0x1b, 0x02,
  0xdf, 0x2d, 0xf9, 0x1c, 0x08, 0xe5, 0x0d, 0x0b, 0xfc, 0x0e, 0x1d, 0x05,
  0xd2, 0xde, 0xb4, 0xbe, 0xe8, 0x09, 0xfc, 0x00, 0xcb, 0xec, 0xe4, 0x20,
  0x28, 0x52, 0x0c, 0x19, 0x2a, 0xcb, 0x2d, 0xe4, 0x29, 0x0e, 0x28, 0xd6,
  0xda, 0xfa, 0x10, 0xee, 0x2a, 0xf1, 0x08, 0x00, 0x20, 0xdf, 0x4b, 0x3a,
  0x15, 0x01, 0x00, 0xf8, 0xe4, 0x18, 0x07, 0xf8, 0xc7, 0xc9, 0x06, 0xc7,
  0x05, 0xe4, 0xbf, 0xf9, 0xfc, 0xee, 0xdf, 0xf5, 0xef, 0x1e, 0x07, 0xec,
  0x09, 0xdc, 0x04, 0x31, 0x30, 0x66, 0xec, 0x13, 0x07, 0xef, 0x01, 0x08,
  0xfb, 0x04, 0x2b, 0xf3, 0x08, 0x0c, 0x2c, 0xef, 0xf8, 0xf5, 0x3a, 0x28,
  0xd2, 0xea, 0x01, 0x1c, 0x21, 0x05, 0xfc, 0x0a, 0x0d, 0x45, 0x0d, 0x16,
  0xd4, 0xcb, 0xe4, 0xcb, 0x02, 0x09, 0xf9, 0xef, 0xfc, 0x0f, 0x0d, 0xdb,
  0x25, 0xe1, 0xf2, 0xfd, 0xda, 0x04, 0xea, 0xf9, 0x2d, 0x16, 0x30, 0x0a,
  0xd6, 0x28, 0x14, 0xca, 0x00, 0xf9, 0x29, 0xc9, 0x0b, 0xf9, 0x1c, 0x42,
  0x00, 0x07, 0x04, 0xf7, 0x21, 0x09, 0x24, 0x34, 0xc4, 0xfc, 0xec, 0x32,
  0xec, 0x30, 0x06, 0x26, 0x03, 0x03, 0xf2, 0x01, 0xf9, 0x0b, 0xfa, 0xd4,
  0x05, 0xe1, 0xfe, 0x08, 0x1c, 0x53, 0x01, 0x1f, 0xfa, 0x03, 0x09, 0xec,
  0xef, 0x04, 0x1c, 0xdc, 0x15, 0x10, 0x41, 0xed, 0xed, 0x01, 0x19, 0x13,
  0xd7, 0xe2, 0xfd, 0x03, 0xf2, 0x05, 0x04, 0x03, 0x10, 0x16, 0xdd, 0xf3,
  0x01, 0xc4, 0xe5, 0xb9, 0xff, 0xf6, 0x0f, 0xf0, 0xfc, 0x02, 0xfe, 0xed,
  0x14, 0xfa, 0xfb, 0x04, 0x13, 0x16, 0x48, 0xef, 0x18, 0x03, 0x3e, 0xf6,
  0xe8, 0x0d, 0x02, 0x00, 0xba, 0xcb, 0xdb, 0xd4, 0xea, 0xd7, 0xe5, 0x09,
  0x07, 0xfd, 0x07, 0xfb, 0x2b, 0xec, 0x00, 0x1e, 0xc8, 0x3d, 0x10, 0x3f,
  0x08, 0x2c, 0xea, 0x08, 0x0a, 0xfe, 0xeb, 0x02, 0xd8, 0x00, 0xf5, 0xe3,
  0x0a, 0xde, 0x54, 0xe7, 0x1a, 0x66, 0x13, 0x3d, 0xf7, 0x11, 0x04, 0x06,
  0x11, 0x23, 0x13, 0xeb, 0x00, 0xfd, 0xf4, 0xee, 0x0d, 0x23, 0x1b, 0x24,
  0xd7, 0xef, 0xf0, 0xe0, 0x1c, 0xdf, 0xf8, 0xf3, 0xe8, 0xf1, 0xe3, 0xda,
  0x13, 0xd3, 0xe8, 0xb7, 0xff, 0xfc, 0xf9, 0xde, 0x04, 0xee, 0x06, 0xf9,
  0x29, 0xb1, 0xe4, 0xdb, 0xd1, 0x30, 0x36, 0xc9, 0x20, 0x0c, 0x3f, 0x19,
  0xf6, 0x12, 0xe7, 0xfa, 0xee, 0xd8, 0xd4, 0x3a, 0x08, 0xcf, 0xfd, 0x25,
  0x1f, 0x05, 0x1b, 0xfc, 0x16, 0xfd, 0xe7, 0xed, 0xe2, 0x10, 0xe4, 0x48,
  0x28, 0x20, 0x37, 0xee, 0x16, 0x35, 0xfb, 0x07, 0xd6, 0xfe, 0x0e, 0xf3,
  0x20, 0xe8, 0x43, 0xeb, 0xe8, 0x19, 0x0a, 0x20, 0xff, 0x0f, 0xe9, 0xfe,
  0x07, 0xf7, 0x10, 0x06, 0xe4, 0x11, 0xc7, 0xdd, 0x25, 0xdb, 0xf3, 0x28,
  0xc1, 0xdb, 0xdb, 0xc6, 0xe8, 0x13, 0x06, 0xfd, 0x0e, 0xd7, 0xf7, 0xe1,
  0x2d, 0x04, 0x12, 0xef, 0x01, 0x14, 0x09, 0xf2, 0x06, 0x2a, 0x07, 0xe2,
  0xc6, 0xd6, 0x02, 0xfa, 0xf4, 0xde, 0xf5, 0x00, 0x00, 0xf4, 0x1b, 0x09,
  0xf4, 0x13, 0xd2, 0xe5, 0xde, 0x59, 0x1f, 0x29, 0xd9, 0xf1, 0xd2, 0xf5,
  0x07, 0xfe, 0xfa, 0x0e, 0x2a, 0xef, 0xf7, 0x2a, 0x44, 0xf3, 0xdd, 0xfe,
  0xf4, 0x05, 0xfc, 0xc8, 0x2d, 0x3b, 0xd5, 0x09, 0x00, 0xcf, 0xd8, 0x0a,
  0xef, 0x1d, 0xdf, 0xf0, 0xca, 0x27, 0x22, 0x00, 0xef, 0xf8, 0xfb, 0xff,
  0xed, 0xe2, 0x2b, 0x1f, 0xed, 0x0f, 0xb3, 0x14, 0x06, 0xf3, 0x06, 0xe6,
  0xf5, 0xde, 0xf0, 0xdd, 0x23, 0xfa, 0xfd, 0x17, 0xdd, 0xcf, 0xdf, 0x0c,
  0x1c, 0xf2, 0x1f, 0xec, 0x02, 0x03, 0xf6, 0xf3, 0xfe, 0x0b, 0xf3, 0xf8,
  0xcb, 0xf8, 0x1c, 0x11, 0xed, 0x0b, 0xf9, 0x2c, 0x20, 0xd8, 0x0d, 0x3a,
  0x1c, 0xee, 0xf8, 0x03, 0x36, 0x01, 0xf2, 0x3f, 0xd5, 0xf4, 0xd9, 0x05,
  0xf2, 0xf8, 0x03, 0x03, 0x07, 0xfd, 0xfc, 0xfb, 0x2d, 0xf0, 0x2d, 0x98,
  0xea, 0x06, 0xf4, 0xf4, 0x35, 0x19, 0xf0, 0x20, 0x05, 0xe7, 0xe5, 0x0a,
  0x09, 0x0e, 0xdd, 0xfe, 0xd8, 0x06, 0x0f, 0xf6, 0xfc, 0xfb, 0x0b, 0x02,
  0xf5, 0x04, 0x17, 0xf5, 0x07, 0xc5, 0xd6, 0x13, 0xec, 0xda, 0x33, 0xff,
  0xf8, 0xe0, 0xd2, 0xe3, 0xea, 0xeb, 0x17, 0x16, 0xf7, 0x0c, 0xfb, 0x2c,
  0x50, 0xec, 0x2d, 0x10, 0x06, 0xff, 0x03, 0x0a, 0xdf, 0x1c, 0xff, 0x19,
  0x0b, 0x3d, 0xe8, 0x0a, 0x1f, 0x1c, 0xe8, 0x00, 0x11, 0xd7, 0x0f, 0x13,
  0x0a, 0x15, 0x0e, 0x11, 0x55, 0xf3, 0x23, 0xe5, 0xd2, 0x05, 0xbb, 0xf9,
  0x15, 0xf2, 0xfd, 0xf2, 0x0b, 0xe3, 0xdf, 0xfa, 0xbf, 0xf8, 0xff, 0xec,
  0xea, 0x10, 0xe4, 0xe1, 0x01, 0x33, 0xe6, 0x2d, 0xe9, 0xe6, 0x0b, 0xf4,
  0xf0, 0xf1, 0xce, 0x19, 0xc7, 0xeb, 0x06, 0xe2, 0xe9, 0xef, 0x06, 0x07,
  0x01, 0x0e, 0x1f, 0x0a, 0xf0, 0xd8, 0x32, 0x1a, 0xaf, 0x01, 0xf0, 0xda,
  0xf9, 0xe7, 0xf7, 0xda, 0xea, 0x00, 0x31, 0x12, 0x19, 0x15, 0xfc, 0x00,
  0x4c, 0x06, 0x2d, 0x37, 0x0c, 0x0a, 0x15, 0xfa, 0x10, 0x00, 0x25, 0x22,
  0x03, 0x21, 0xb8, 0x16, 0xeb, 0x3d, 0xfe, 0xf8, 0xfa, 0xd9, 0xf4, 0x3c,
  0xdc, 0x1f, 0x09, 0xe1, 0x08, 0xc2, 0x0c, 0xf3, 0x02, 0xfe, 0xe8, 0xe5,
  0x02, 0xf1, 0xf6, 0x09, 0xf1, 0xe9, 0x08, 0xf6, 0xb3, 0xfb, 0xe2, 0x04,
  0xe4, 0xf6, 0xd7, 0xf5, 0xf4, 0x2a, 0xed, 0x09, 0x19, 0xdd, 0x0c, 0xeb,
  0xdd, 0xd6, 0xe2, 0x11, 0xcc, 0xe8, 0x04, 0x05, 0xf4, 0x08, 0xfb, 0x07,
  0xea, 0xfc, 0xf5, 0x05, 0x14, 0x18, 0x46, 0xf9, 0xe8, 0x2a, 0xed, 0xe4,
  0x0e, 0xbf, 0x23, 0xe7, 0xfe, 0x31, 0x0b, 0x23, 0xf4, 0x29, 0x19, 0x19,
  0x25, 0x21, 0x3c, 0x2b, 0x03, 0x05, 0xfa, 0xf5, 0xf4, 0xcc, 0x05, 0x04,
  0x41, 0xbc, 0xf6, 0xfd, 0x2d, 0xe4, 0xca, 0xe2, 0xec, 0xf4, 0xfb, 0x2e,
  0xec, 0x14, 0x0e, 0xee, 0xec, 0x17, 0x1b, 0xd3, 0x01, 0x0a, 0xe5, 0xe7,
  0x07, 0xfb, 0xf6, 0x06, 0xf3, 0xfb, 0x12, 0x1f, 0xd9, 0x1a, 0xe5, 0x38,
  0xc6, 0xa0, 0xe6, 0x0d, 0xe6, 0x1c, 0x0b, 0x1e, 0x12, 0x01, 0x09, 0xf6,
  0x49, 0x0b, 0xf6, 0x23, 0xe2, 0xd1, 0x0b, 0x04, 0x04, 0x02, 0x0d, 0x07,
  0x10, 0x20, 0x1b, 0xd9, 0x04, 0x2b, 0xf9, 0xf5, 0xc3, 0x4e, 0xe1, 0xbe,
  0x0a, 0xd5, 0x15, 0xe9, 0xfc, 0x1f, 0xf7, 0x20, 0x1c, 0xf4, 0x2f, 0x4a,
  0x32, 0x2c, 0x13, 0x31, 0xf3, 0x03, 0xfc, 0xff, 0xfb, 0x38, 0xf4, 0x18,
  0x21, 0xc0, 0xff, 0xe4, 0x2c, 0xf4, 0xc4, 0xd9, 0xfe, 0xf8, 0xed, 0x20,
  0x29, 0x07, 0x13, 0xdd, 0xbe, 0xf6, 0xff, 0xff, 0xe2, 0x1c, 0x02, 0x01,
  0x00, 0xfa, 0xfd, 0x02, 0x21, 0xfb, 0x14, 0x01, 0x26, 0x4f, 0x20, 0x3d,
  0x00, 0xdb, 0x00, 0x0a, 0x0f, 0x32, 0x17, 0x18, 0xe4, 0xe8, 0xd4, 0xf6,
  0x35, 0x2b, 0x1b, 0x09, 0xf2, 0xd4, 0x1e, 0xdf, 0xff, 0xff, 0x06, 0x09,
  0x0c, 0x1a, 0xfc, 0x1d, 0xd8, 0x2a, 0xe7, 0xf3, 0xf0, 0x35, 0xd3, 0xe4,
  0x27, 0x0e, 0xf9, 0xe7, 0xd9, 0xfe, 0x14, 0x0c, 0x2d, 0xf1, 0xe9, 0xe9,
  0x01, 0x30, 0x36, 0x2f, 0xf5, 0xf7, 0x00, 0x03, 0x1f, 0xd5, 0x13, 0x14,
  0xfb, 0x09, 0x07, 0x09, 0xff, 0x09, 0xf6, 0xfe, 0x1f, 0x1a, 0x0b, 0x12,
  0x0e, 0xe2, 0x0f, 0xec, 0xe0, 0x01, 0xe9, 0x15, 0xec, 0xe9, 0x05, 0x0e,
  0xe1, 0xfd, 0xf2, 0x0c, 0xfb, 0x09, 0xf3, 0x10, 0x0d, 0xf3, 0x16, 0xc5,
  0xf6, 0x0d, 0xfa, 0x0f, 0xee, 0x0a, 0x2c, 0x13, 0xfb, 0x10, 0xec, 0x1d,
  0x0a, 0x03, 0x0a, 0x06, 0xe8, 0x0b, 0xe9, 0x0a, 0xf5, 0xeb, 0x31, 0xfe,
  0x10, 0xf2, 0x0d, 0x04, 0x1e, 0xc9, 0x0e, 0x32, 0xf1, 0x0c, 0xf3, 0xfc,
  0xf3, 0xfa, 0xf9, 0x13, 0x2b, 0xf6, 0x0a, 0xec, 0x32, 0xfa, 0x00, 0x17,
  0xfb, 0xe7, 0x02, 0x10, 0x12, 0x0c, 0xf8, 0xeb, 0x09, 0xfc, 0x06, 0x01,
  0x2d, 0x3a, 0xf8, 0x1d, 0x0b, 0xf9, 0x03, 0xf9, 0xe1, 0xfc, 0x20, 0x23,
  0x07, 0xe3, 0xda, 0xf1, 0xf3, 0x17, 0x0f, 0x02, 0x07, 0xed, 0xf2, 0x12,
  0x13, 0xe9, 0xf4, 0xf5, 0xfe, 0x07, 0x01, 0x12, 0xcb, 0x00, 0x0b, 0xe3,
  0xf1, 0x08, 0x04, 0x0a, 0xff, 0xfe, 0x2e, 0xf7, 0xf9, 0x1e, 0x02, 0x1c,
  0x16, 0x26, 0xfe, 0x06, 0xfb, 0x1e, 0x0c, 0x11, 0x0e, 0x29, 0xfe, 0xff,
  0x08, 0x0d, 0xf7, 0xf7, 0x10, 0xd9, 0x5a, 0xe3, 0x17, 0x0c, 0x03, 0xfa,
  0x11, 0x09, 0x0d, 0x10, 0xfc, 0x05, 0x02, 0x00, 0xfb, 0x04, 0xf8, 0x04,
  0x06, 0xf2, 0xf1, 0xe6, 0x32, 0xff, 0xd6, 0xff, 0x0e, 0xf4, 0xfb, 0xf8,
  0x17, 0xea, 0xd3, 0xda, 0xf7, 0xfc, 0xee, 0xe8, 0xdd, 0x0c, 0xde, 0xe5,
  0xf9, 0xcd, 0xdd, 0xf8, 0x03, 0x0d, 0xd9, 0x01, 0x07, 0xe9, 0x14, 0x2e,
  0x01, 0xf5, 0xf1, 0x03, 0x18, 0x1c, 0xfb, 0xf7, 0xac, 0xf4, 0xd5, 0x47,
  0xee, 0xfe, 0x0d, 0xfe, 0xeb, 0xf5, 0x26, 0xf1, 0xc5, 0xfa, 0x35, 0x40,
  0xe8, 0x0e, 0x07, 0x18, 0x09, 0x2f, 0x2b, 0x19, 0x18, 0x0e, 0xed, 0x01,
  0xe7, 0x02, 0xea, 0x02, 0x11, 0x11, 0x12, 0xdc, 0x10, 0x0e, 0xfa, 0xef,
  0x0b, 0xee, 0x22, 0xe9, 0x3c, 0x0e, 0xe3, 0x07, 0xe8, 0x0e, 0xef, 0x0e,
  0xf8, 0x01, 0xfc, 0xcd, 0x4b, 0xd6, 0xdc, 0xf1, 0xf7, 0xff, 0xf5, 0x0f,
  0x1c, 0x82, 0xe4, 0xdb, 0xf5, 0x01, 0xe7, 0x09, 0xeb, 0x1c, 0xda, 0xf2,
  0xc7, 0xf9, 0xc2, 0x1a, 0xf6, 0x2e, 0x14, 0xf9, 0xee, 0xe4, 0x04, 0x29,
  0x01, 0xbe, 0xf8, 0x15, 0x08, 0x03, 0x1b, 0xfd, 0x08, 0x13, 0x05, 0x3b,
  0xfa, 0xf3, 0x09, 0x01, 0xe6, 0x09, 0x18, 0xfa, 0x2a, 0x15, 0x31, 0xf7,
  0x18, 0x0a, 0xe8, 0x23, 0x0f, 0x11, 0x0e, 0x24, 0xf7, 0xed, 0xd5, 0x2f,
  0xfb, 0xf3, 0xee, 0x03, 0x06, 0x04, 0xd5, 0xd2, 0xff, 0xfb, 0x08, 0xf4,
  0xfa, 0xe0, 0x0e, 0x19, 0x39, 0xcb, 0x0c, 0xff, 0x19, 0x16, 0x13, 0xe4,
  0x07, 0xdb, 0xe1, 0xbf, 0x0d, 0xe2, 0x06, 0xff, 0x06, 0x09, 0x0e, 0xff,
  0x08, 0xb1, 0x14, 0xd2, 0xfc, 0xf8, 0xf4, 0x0f, 0x05, 0xf4, 0x09, 0xf7,
  0xcd, 0x25, 0xee, 0x40, 0x29, 0x01, 0xf6, 0x0a, 0xe9, 0xfc, 0x05, 0x20,
  0xef, 0xe8, 0xf5, 0xfe, 0x04, 0xf4, 0xff, 0xf6, 0x4c, 0x27, 0x2a, 0x29,
  0xfe, 0x05, 0x00, 0xfe, 0xfd, 0xe8, 0xee, 0x06, 0xd0, 0x1c, 0x05, 0xcb,
  0xed, 0x15, 0x0c, 0xdc, 0x1c, 0x23, 0x07, 0x2d, 0xe1, 0x0f, 0x02, 0x2e,
  0xfc, 0x02, 0xff, 0xff, 0xca, 0x03, 0x96, 0xfd, 0xfe, 0xf9, 0x06, 0xfb,
  0x2c, 0x1a, 0xdf, 0x0f, 0x0a, 0xd2, 0x14, 0xe7, 0x15, 0xde, 0x19, 0xfe,
  0x0f, 0x11, 0xf0, 0xbf, 0x0f, 0xf0, 0x24, 0x01, 0x07, 0x01, 0xf9, 0x01,
  0xec, 0x34, 0x24, 0x1c, 0x02, 0x07, 0xdc, 0x15, 0xe2, 0x04, 0x14, 0xec,
  0x0d, 0x23, 0x0e, 0x20, 0xf5, 0xeb, 0xe5, 0x01, 0xe8, 0xe0, 0xe1, 0x0b,
  0xef, 0x20, 0x38, 0xf5, 0xfd, 0x05, 0x02, 0xff, 0x3c, 0xf7, 0x4b, 0xaa,
  0xef, 0xfd, 0xee, 0x01, 0xfa, 0xf3, 0xff, 0x13, 0xd1, 0x1b, 0xb5, 0xf6,
  0xea, 0x1a, 0x04, 0xf3, 0x11, 0x18, 0x17, 0x14, 0xf0, 0xf5, 0x15, 0xf6,
  0x01, 0xf7, 0x0b, 0x08, 0xd7, 0xf3, 0xdb, 0x0c, 0xeb, 0xfb, 0x04, 0x0e,
  0x21, 0x34, 0xe5, 0x18, 0xf1, 0xf5, 0x22, 0x2b, 0xd6, 0x0d, 0x16, 0xde,
  0x35, 0xeb, 0x06, 0xe9, 0xe9, 0xf8, 0x1f, 0x03, 0xfb, 0x06, 0xec, 0x04,
  0xec, 0x2f, 0x28, 0x0f, 0x03, 0xfd, 0x07, 0x02, 0x1d, 0xd5, 0xe4, 0x06,
  0x31, 0x09, 0x0d, 0x09, 0x0f, 0xde, 0xe5, 0x0e, 0xdb, 0xee, 0xf3, 0x10,
  0xf0, 0x1c, 0xea, 0xff, 0xea, 0x02, 0xfe, 0x0e, 0xfb, 0xf6, 0x0e, 0xa7,
  0xfa, 0xe9, 0xfb, 0xff, 0xe5, 0xc5, 0xc9, 0xef, 0xd3, 0xb9, 0xc4, 0xff,
  0x03, 0xed, 0x26, 0xf4, 0xfe, 0x1f, 0x1c, 0xf8, 0xf8, 0x2e, 0xe1, 0xd4,
  0xfd, 0xf6, 0x01, 0x00, 0x1d, 0xd7, 0x26, 0x0f, 0xf4, 0x10, 0xee, 0x1c,
  0x1e, 0xda, 0x0f, 0x26, 0xf5, 0x40, 0x24, 0x30, 0x0c, 0x0c, 0x20, 0xfe,
  0x32, 0xf4, 0x08, 0x01, 0xcd, 0x03, 0xca, 0xf9, 0x05, 0xea, 0xf9, 0x03,
  0x31, 0x2c, 0xfa, 0x20, 0x00, 0xf9, 0x12, 0xef, 0xed, 0xe6, 0xed, 0xf6,
  0x30, 0xe5, 0x15, 0xbd, 0x2a, 0xf3, 0x08, 0x24, 0xcb, 0xff, 0xc9, 0xe3,
  0x03, 0xf8, 0xde, 0x05, 0x0f, 0xfe, 0xfd, 0x1a, 0xcd, 0xf4, 0xf0, 0xdb,
  0xfa, 0xd4, 0x02, 0x05, 0xc3, 0xf7, 0x23, 0xb0, 0x21, 0xeb, 0xeb, 0x04,
  0x07, 0xef, 0x0c, 0x14, 0xf3, 0xf8, 0xf7, 0xf4, 0x2d, 0xef, 0xf4, 0x33,
  0xfc, 0x02, 0xf8, 0xf1, 0x0f, 0xf8, 0x52, 0x17, 0x11, 0x08, 0x11, 0x14,
  0xe2, 0x32, 0xf0, 0xfd, 0xe5, 0x28, 0xc6, 0x1d, 0x28, 0xec, 0x0b, 0x29,
  0x30, 0xea, 0x24, 0x26, 0x3d, 0xdb, 0xf6, 0x10, 0x0f, 0xf3, 0xfb, 0x06,
  0x24, 0x10, 0xba, 0xe8, 0x02, 0xff, 0x0f, 0x01, 0xe6, 0x34, 0xdc, 0xef,
  0xf0, 0x17, 0x0b, 0x01, 0x01, 0xe5, 0x06, 0x19, 0xcf, 0xf7, 0xe5, 0xee,
  0x19, 0xd8, 0x0f, 0x2c, 0x09, 0xf3, 0x19, 0x0f, 0xb3, 0xf5, 0xd0, 0x0c,
  0xff, 0xe9, 0x0b, 0x07, 0xd2, 0xd3, 0x18, 0xb7, 0x17, 0xd8, 0x0e, 0xee,
  0x1b, 0x29, 0x1a, 0x05, 0xcd, 0xf2, 0x12, 0xf7, 0x04, 0x15, 0xff, 0x07,
  0xef, 0xf4, 0x00, 0x04, 0x11, 0xef, 0x53, 0xf1, 0x02, 0xfb, 0xeb, 0x06,
  0x05, 0x44, 0xd1, 0xf5, 0xf3, 0xf2, 0xb8, 0x1c, 0x23, 0xd7, 0xf9, 0xf3,
  0x13, 0x16, 0x1b, 0x46, 0xf8, 0x0b, 0xfa, 0x08, 0x0e, 0xfc, 0x0b, 0xee,
  0xf0, 0xc4, 0xcb, 0xd0, 0x13, 0x0e, 0x12, 0x0f, 0x28, 0x23, 0xe4, 0xdf,
  0xc3, 0x12, 0x20, 0xf2, 0xf6, 0xef, 0x1c, 0x21, 0xf4, 0x0f, 0xf5, 0xe6,
  0x14, 0x0c, 0x01, 0xf3, 0xfa, 0x01, 0x0e, 0x08, 0xda, 0x1d, 0xd3, 0x54,
  0xfe, 0xef, 0xf5, 0xfa, 0xe3, 0xd9, 0x18, 0xf5, 0x3c, 0x23, 0xfc, 0xd9,
  0xee, 0xfe, 0x10, 0xd7, 0xe4, 0xc8, 0xf9, 0xf2, 0x26, 0x2c, 0xda, 0x11,
  0x0c, 0xfa, 0xe8, 0x02, 0x0b, 0x3a, 0xd6, 0xff, 0xfe, 0xfb, 0xf2, 0xec,
  0xe2, 0x39, 0xf1, 0x0d, 0xcb, 0xd0, 0xd7, 0xff, 0xef, 0x02, 0x15, 0xc6,
  0x29, 0x1e, 0x1d, 0x6d, 0x25, 0xfa, 0x05, 0x1b, 0x04, 0x0f, 0x03, 0xe0,
  0x0d, 0xbe, 0x24, 0xe9, 0x0a, 0xff, 0xfa, 0xfd, 0xea, 0xf5, 0xef, 0x11,
  0x2b, 0x11, 0x27, 0x35, 0x18, 0xec, 0x10, 0xfd, 0x0b, 0x1a, 0xc9, 0xdc,
  0xdb, 0x14, 0xf4, 0xec, 0x0b, 0x00, 0x09, 0xf7, 0x35, 0x21, 0x27, 0x1b,
  0x0b, 0x08, 0x01, 0xf4, 0x05, 0x1f, 0x0c, 0xea, 0x26, 0x1b, 0xd9, 0x09,
  0xe4, 0xe2, 0x2a, 0xf0, 0xf7, 0xad, 0xdb, 0xf4, 0xfc, 0xf0, 0x0c, 0x10,
  0xef, 0x08, 0xfe, 0x09, 0xde, 0x1b, 0xa2, 0x0e, 0x07, 0x1a, 0xf1, 0xe4,
  0x19, 0x0f, 0x18, 0xea, 0xcf, 0xda, 0xed, 0xd2, 0x11, 0x28, 0xbe, 0xfb,
  0x00, 0x1d, 0x2e, 0x5d, 0xdc, 0xd2, 0xf0, 0xf7, 0x02, 0x12, 0x01, 0x06,
  0xde, 0xe3, 0x14, 0xe1, 0x00, 0x0f, 0x13, 0x12, 0x0d, 0xfe, 0x22, 0xdf,
  0x23, 0x08, 0x22, 0x2a, 0x25, 0x0b, 0x07, 0xfc, 0x20, 0x24, 0x08, 0xc8,
  0xe8, 0x10, 0xee, 0xe1, 0xf5, 0x04, 0xf4, 0xf8, 0x4e, 0xfa, 0x3a, 0xd4,
  0x03, 0x0c, 0x01, 0xf9, 0x18, 0x32, 0xeb, 0x0f, 0x0a, 0x1e, 0xe1, 0xda,
  0xfd, 0x11, 0xfc, 0x01, 0x04, 0xae, 0xc7, 0xbc, 0x14, 0xe8, 0xeb, 0xd1,
  0xf8, 0x13, 0x19, 0x09, 0xcd, 0xfc, 0xa2, 0x2e, 0xf8, 0xfe, 0xff, 0xf5,
  0x50, 0x03, 0xf4, 0x48, 0xca, 0xbf, 0xbb, 0xa4, 0xd6, 0x02, 0xc4, 0xef,
  0xe7, 0x0a, 0x18, 0x41, 0xf5, 0x0b, 0x18, 0xf9, 0x08, 0xfb, 0xe9, 0x03,
  0xea, 0x44, 0x12, 0x33, 0x02, 0x0a, 0x12, 0x08, 0x35, 0xc8, 0x0f, 0x17,
  0x36, 0x09, 0x25, 0x33, 0x19, 0xdd, 0xe7, 0x1b, 0x20, 0x63, 0x1d, 0xbd,
  0xe2, 0xe4, 0xe9, 0xef, 0xf3, 0xec, 0xf9, 0x13, 0x2c, 0xdc, 0x15, 0x98,
  0x01, 0xfc, 0xf7, 0xf0, 0x0d, 0xc9, 0xdb, 0x31, 0x22, 0x15, 0xe7, 0x1e,
  0xd0, 0xfb, 0xfe, 0x3a, 0x16, 0xc4, 0xca, 0xca, 0xde, 0xe9, 0x2c, 0xc0,
  0x08, 0xfe, 0xf3, 0x09, 0xf1, 0x09, 0xd4, 0x22, 0xff, 0xf7, 0xf1, 0x13,
  0x0f, 0xdc, 0x2f, 0x09, 0xe1, 0xe2, 0xf9, 0xe0, 0xe2, 0xea, 0x21, 0xf5,
  0xcf, 0x47, 0xd0, 0x40, 0x05, 0x12, 0xf7, 0xda, 0x02, 0xf5, 0xf9, 0xeb,
  0xdb, 0x6e, 0x20, 0x3d, 0x11, 0x00, 0x0b, 0x06, 0x34, 0xf1, 0x25, 0x20,
  0x30, 0xd4, 0x0c, 0x12, 0x22, 0xdf, 0x1d, 0x1e, 0x29, 0x3a, 0x27, 0xc3,
  0xe6, 0xf8, 0xcb, 0xc0, 0xfb, 0xf0, 0xfe, 0x10, 0xf6, 0xd1, 0xfe, 0xa9,
  0x11, 0x0d, 0x0f, 0x01, 0xd8, 0x16, 0x1f, 0xf0, 0xef, 0x2d, 0xd8, 0x2e,
  0xf7, 0x0e, 0xf8, 0xe3, 0x3d, 0xa5, 0xe0, 0xcd, 0xef, 0xf7, 0xe9, 0xcf,
  0x05, 0x01, 0xfa, 0xf7, 0x14, 0xe5, 0x35, 0x49, 0xe6, 0x03, 0xf0, 0xf7,
  0xee, 0xfa, 0xec, 0xef, 0xeb, 0xec, 0xe9, 0xeb, 0x02, 0x0a, 0x15, 0x0a,
  0xb6, 0x1a, 0xdb, 0x2a, 0xe6, 0x15, 0xf0, 0x03, 0x04, 0x01, 0xef, 0x08,
  0x43, 0x08, 0xf2, 0xf4, 0xfe, 0xfd, 0x07, 0xf7, 0x11, 0xdd, 0x13, 0x01,
  0xf6, 0xbc, 0x07, 0xf1, 0xe8, 0x12, 0x0c, 0xf8, 0x1a, 0x48, 0x59, 0xe7,
  0xe3, 0x03, 0xd8, 0xd4, 0xf8, 0x0b, 0xfb, 0xff, 0xa3, 0xd3, 0x04, 0x11,
  0xef, 0xfb, 0x05, 0xfd, 0xdc, 0x14, 0x1c, 0xd7, 0x22, 0x47, 0xf4, 0x75,
  0x04, 0x26, 0x16, 0xfa, 0x02, 0xe1, 0xdb, 0xb1, 0x36, 0xe2, 0xf5, 0x2d,
  0x0c, 0xfe, 0xfe, 0x08, 0x15, 0xea, 0x3b, 0xd6, 0xee, 0x06, 0xe5, 0x10,
  0xb9, 0x0a, 0xdd, 0xa6, 0x35, 0x09, 0xfd, 0xd6, 0x2b, 0x0c, 0xeb, 0xf4,
  0xcc, 0x0e, 0xe2, 0x28, 0xfa, 0xe9, 0x1b, 0xf7, 0xf3, 0xfd, 0x1a, 0xfc,
  0x4d, 0xd3, 0x0c, 0xd6, 0xf8, 0xf8, 0xfd, 0xfe, 0xeb, 0x09, 0xd0, 0xff,
  0xad, 0xc9, 0xcd, 0x08, 0x19, 0xbd, 0x00, 0x14, 0x19, 0x2e, 0x4b, 0xf9,
  0x1a, 0xff, 0x1d, 0xd7, 0x14, 0xf7, 0xf9, 0xfb, 0xcf, 0x23, 0x03, 0x4a,
  0xf8, 0x04, 0x04, 0x04, 0xd7, 0xeb, 0x12, 0xf9, 0xfd, 0x24, 0x32, 0x36,
  0xe8, 0xf6, 0xf9, 0xd7, 0x13, 0xed, 0xd4, 0xd1, 0x2f, 0x06, 0x09, 0x35,
  0xea, 0xf1, 0xfe, 0x07, 0x1f, 0x1c, 0x27, 0xe9, 0x09, 0x06, 0x01, 0x03,
  0xc9, 0x04, 0xd5, 0x8f, 0x71, 0xc9, 0xf3, 0xb5, 0xf9, 0xeb, 0xf3, 0xd2,
  0xbb, 0x03, 0xdd, 0xf9, 0x50, 0xe5, 0x3c, 0x57, 0xf1, 0x04, 0x04, 0xfc,
  0x03, 0xa1, 0xdb, 0xf7, 0x06, 0xf4, 0xe0, 0x0b, 0xe3, 0xef, 0xcd, 0xfa,
  0xc9, 0xed, 0xcc, 0x18, 0x00, 0xe6, 0xf8, 0x14, 0x31, 0x2a, 0x2d, 0x27,
  0x05, 0x09, 0x37, 0x1d, 0x16, 0xf4, 0x17, 0xe5, 0x1e, 0x0d, 0xe6, 0x4c,
  0xfb, 0x05, 0x06, 0xeb, 0x04, 0x30, 0x13, 0x1b, 0x03, 0x4e, 0x45, 0xff,
  0xf2, 0xe3, 0x1e, 0xe4, 0x27, 0x0a, 0xd6, 0x08, 0x14, 0x04, 0xd8, 0xfc,
  0xe8, 0xe4, 0xf1, 0x1a, 0xde, 0x40, 0xc6, 0xee, 0xf2, 0x06, 0xef, 0xf8,
  0x0d, 0x23, 0xe1, 0x2e, 0x2b, 0xc4, 0x15, 0xe8, 0xd1, 0x0d, 0x14, 0xf4,
  0xd9, 0xf6, 0xdb, 0xa9, 0xe5, 0xe4, 0xfd, 0xe7, 0xf4, 0x10, 0xfa, 0x06,
  0xd3, 0xaa, 0x1e, 0x10, 0x02, 0x02, 0xf6, 0x0f, 0x05, 0xc5, 0xfc, 0xe2,
  0xcd, 0x08, 0xb7, 0x15, 0xfa, 0x1f, 0xdf, 0x08, 0x09, 0x06, 0x28, 0x39,
  0x0c, 0x21, 0x0e, 0x01, 0xf9, 0xfd, 0x21, 0xe7, 0x34, 0x5b, 0x31, 0x14,
  0x06, 0xfc, 0x07, 0x0c, 0xea, 0x21, 0xe2, 0x38, 0xec, 0x28, 0x2c, 0x06,
  0x0c, 0x1a, 0xf3, 0x0e, 0x43, 0x27, 0xdf, 0x24, 0xe5, 0xf2, 0x21, 0x0f,
  0xf2, 0xff, 0xfe, 0x06, 0xdc, 0x3a, 0xab, 0xfe, 0x1a, 0xf9, 0x01, 0xe8,
  0x25, 0xb2, 0x03, 0x20, 0xfd, 0xf0, 0x30, 0x0c, 0xf2, 0xf6, 0xe7, 0xed,
  0xdd, 0xeb, 0xce, 0xc0, 0xfd, 0x01, 0xed, 0xe5, 0xf4, 0x19, 0xf7, 0xfd,
  0xee, 0x10, 0xf6, 0x14, 0x10, 0x08, 0xf4, 0xfd, 0xe4, 0x07, 0x1a, 0x15,
  0xd9, 0x3a, 0x00, 0x0b, 0x15, 0x2b, 0x30, 0xd1, 0x0e, 0xd3, 0x0a, 0x30,
  0x10, 0xeb, 0xec, 0xfc, 0xfd, 0xef, 0x07, 0xfd, 0x2b, 0x04, 0x24, 0xc8,
  0xef, 0x00, 0xf0, 0xf7, 0xff, 0x2b, 0xe6, 0x47, 0xc4, 0xd3, 0x0b, 0x05,
  0x1f, 0x27, 0x01, 0x04, 0x22, 0x53, 0xf0, 0x43, 0xce, 0xe4, 0xe7, 0xe1,
  0x0b, 0x10, 0xfc, 0xfd, 0xe7, 0xe5, 0xe7, 0x2b, 0x1b, 0xfd, 0xf8, 0xee,
  0x18, 0xd1, 0x05, 0x2f, 0x25, 0xf3, 0x3b, 0x20, 0x33, 0x0d, 0xe3, 0xf3,
  0x06, 0xd2, 0xf6, 0xab, 0xe4, 0xec, 0x1e, 0xe7, 0xef, 0xf9, 0xed, 0x0a,
  0x08, 0x42, 0x2a, 0xed, 0x0d, 0x0d, 0xf6, 0x03, 0xf6, 0x34, 0x54, 0xd4,
  0x0d, 0xf2, 0x0a, 0xdf, 0x41, 0xdb, 0x00, 0x1a, 0x03, 0xdf, 0xf2, 0x2d,
  0x3d, 0x04, 0xdf, 0xde, 0xe9, 0x04, 0x09, 0x08, 0x0f, 0xf2, 0x1d, 0xb3,
  0xfc, 0xdb, 0xf4, 0xfa, 0x2d, 0x16, 0xd0, 0x33, 0xc6, 0xbf, 0xc0, 0xff,
  0x0a, 0xf3, 0xfb, 0xf4, 0x03, 0x50, 0x2f, 0x1a, 0xe2, 0xf1, 0xff, 0x13,
  0x1a, 0x12, 0xfb, 0x06, 0x2f, 0xdc, 0x2b, 0xf3, 0x01, 0x0d, 0x0d, 0x0f,
  0xf1, 0xc0, 0x19, 0x0c, 0x22, 0x18, 0x44, 0x5b, 0xe5, 0x13, 0x2d, 0x10,
  0x0c, 0xed, 0x18, 0xc4, 0xef, 0xf3, 0xe6, 0x15, 0xeb, 0xe7, 0xfe, 0x09,
  0x0b, 0x2e, 0xe4, 0x21, 0x07, 0xf4, 0xff, 0xff, 0xb2, 0x42, 0x11, 0xec,
  0x14, 0x0e, 0xea, 0xc3, 0x01, 0xe7, 0xdb, 0x0b, 0xe1, 0xe4, 0xf5, 0x36,
  0xd5, 0xff, 0x0b, 0x06, 0xf3, 0xfd, 0xf7, 0x0a, 0xc0, 0xd9, 0xe4, 0xe7,
  0x0e, 0xfe, 0xf6, 0x11, 0x20, 0x2f, 0x25, 0x05, 0xea, 0x81, 0xf4, 0xe3,
  0x07, 0xd6, 0xfc, 0xcb, 0xe7, 0x38, 0x2c, 0x14, 0xe3, 0xf6, 0xf9, 0x38,
  0xfd, 0x03, 0x04, 0xe6, 0x22, 0xf6, 0x3a, 0x0b, 0x07, 0xff, 0xf0, 0x02,
  0xff, 0x23, 0xe8, 0xef, 0x1b, 0x36, 0xf6, 0x5a, 0xc8, 0xee, 0xf4, 0xf9,
  0x38, 0xbb, 0x24, 0xdf, 0x02, 0xf3, 0x14, 0x30, 0x0c, 0xdd, 0x05, 0xfb,
  0xfb, 0xf3, 0xeb, 0x03, 0xfb, 0x06, 0xec, 0xf7, 0xdf, 0x42, 0xe7, 0xcb,
  0xe8, 0x02, 0xf2, 0xc6, 0xf1, 0x08, 0x09, 0x0d, 0xd1, 0xe6, 0xc4, 0x16,
  0x00, 0x0d, 0x0a, 0xbf, 0x07, 0x01, 0x06, 0x0b, 0xb9, 0x3a, 0xc5, 0x39,
  0xfd, 0xe9, 0x0b, 0xef, 0x17, 0x18, 0xcc, 0xd8, 0x05, 0xa5, 0x11, 0xf1,
  0xe9, 0xc6, 0x33, 0x0f, 0xbf, 0x0b, 0x0a, 0x16, 0x23, 0x0e, 0xd7, 0x0a,
  0x05, 0xf5, 0xf4, 0xf5, 0xfc, 0x09, 0x25, 0xe0, 0xfb, 0x05, 0xf7, 0xf8,
  0x14, 0x2f, 0xd0, 0xd3, 0x08, 0x21, 0xfb, 0x48, 0xd9, 0x08, 0x0b, 0xc7,
  0x39, 0xce, 0x24, 0xf7, 0x15, 0xf3, 0x26, 0x44, 0x04, 0xf8, 0x0f, 0xf7,
  0xf4, 0xd1, 0xd0, 0xc0, 0x04, 0xf2, 0xf3, 0xf3, 0x39, 0xe4, 0xd2, 0xe7,
  0xe9, 0x2b, 0xee, 0xf7, 0xf7, 0x29, 0xf4, 0x0b, 0xc8, 0xc0, 0xbe, 0xee,
  0xfc, 0x1d, 0x0e, 0xf7, 0x0e, 0x03, 0x18, 0xf4, 0xec, 0x22, 0xda, 0x43,
  0x0f, 0xe6, 0x21, 0x02, 0x24, 0xbb, 0xe3, 0xe8, 0x26, 0xcb, 0xf7, 0xbe,
  0x03, 0x0b, 0x42, 0xf3, 0xe8, 0x1b, 0x03, 0x18, 0xf5, 0x0a, 0xd8, 0x32,
  0xf4, 0xf7, 0xf0, 0x0c, 0x01, 0x24, 0xf0, 0xfd, 0xfa, 0xfe, 0x03, 0x1a,
  0xeb, 0x27, 0xef, 0xf4, 0x07, 0x16, 0xe6, 0x25, 0xf5, 0xfa, 0xda, 0xe3,
  0x5a, 0xee, 0x2c, 0xcc, 0xff, 0x12, 0x0a, 0x17, 0xff, 0x15, 0xfe, 0xf7,
  0x0f, 0xcd, 0x11, 0xb6, 0xea, 0x13, 0xf7, 0x05, 0x28, 0xbc, 0xf5, 0xf1,
  0xeb, 0x21, 0xf6, 0xf3, 0xe5, 0x0a, 0xce, 0xc1, 0xd6, 0xf2, 0xad, 0xf4,
  0xfa, 0xf0, 0xef, 0x1a, 0x03, 0x03, 0x0b, 0xf4, 0x34, 0x0b, 0x07, 0x09,
  0xfa, 0xed, 0x13, 0xe9, 0xd0, 0xcb, 0x0b, 0xe9, 0x2b, 0xe9, 0xf8, 0xd2,
  0x15, 0x0f, 0xf3, 0xfe, 0xfb, 0x01, 0x20, 0x04, 0x02, 0xd9, 0xf6, 0x25,
  0xf1, 0xf3, 0x04, 0xff, 0xdd, 0x1c, 0xbb, 0xff, 0x17, 0xf1, 0x17, 0x0a,
  0xcc, 0x01, 0x09, 0x3b, 0xce, 0xe0, 0xe1, 0xfe, 0x11, 0xe3, 0xeb, 0xe7,
  0x4d, 0xf8, 0xfb, 0x1a, 0xff, 0xf3, 0x24, 0x0c, 0xf4, 0x02, 0xf9, 0x08,
  0xe8, 0xe2, 0x08, 0x0f, 0x0b, 0x0a, 0xf6, 0x06, 0xf1, 0x0d, 0x20, 0x09,
  0x05, 0x17, 0x33, 0x28, 0x00, 0x02, 0xb6, 0x01, 0xe5, 0x19, 0xd9, 0x05,
  0xf4, 0xf9, 0x03, 0xf6, 0xfb, 0xf4, 0x03, 0x01, 0x4b, 0xdb, 0x0e, 0xff,
  0x05, 0xfa, 0xff, 0x0d, 0xff, 0xfb, 0xf8, 0xf0, 0xfe, 0x1a, 0xc9, 0xc7,
  0x0a, 0xfb, 0xdb, 0x1b, 0xde, 0xf0, 0xfe, 0xf8, 0x21, 0xe9, 0xe0, 0x13,
  0x0c, 0xfb, 0x00, 0xfd, 0xdc, 0xe4, 0xd1, 0x05, 0xea, 0xfc, 0xeb, 0xf6,
  0xf4, 0x0f, 0xdc, 0xf6, 0xb1, 0xc9, 0x00, 0xf3, 0x28, 0x08, 0xe9, 0x0d,
  0x10, 0x24, 0x1d, 0x1f, 0xdb, 0x15, 0x35, 0xf6, 0x0c, 0x05, 0x04, 0xf8,
  0xd6, 0x34, 0x1d, 0x35, 0x1c, 0x11, 0x01, 0xf9, 0xec, 0x00, 0x0e, 0x02,
  0x30, 0x0d, 0x52, 0x05, 0x4a, 0xeb, 0x3a, 0x0b, 0xef, 0x09, 0xec, 0xe5,
  0x1b, 0xf9, 0xc6, 0xe5, 0x02, 0xfe, 0x04, 0xfa, 0x24, 0xeb, 0xfe, 0xc7,
  0xff, 0x07, 0xf0, 0xfc, 0x1a, 0x26, 0xfe, 0x05, 0x14, 0xf8, 0xb8, 0x14,
  0xd2, 0xe7, 0x07, 0x17, 0xe0, 0xc8, 0x0f, 0xcb, 0x29, 0xdb, 0xd6, 0x0e,
  0x08, 0x07, 0x12, 0x07, 0xdd, 0xfb, 0xf3, 0x19, 0x00, 0x10, 0x0d, 0xef,
  0x27, 0xf3, 0xeb, 0xfb, 0xbc, 0x08, 0xec, 0x05, 0xeb, 0x05, 0x0e, 0x1a,
  0xf7, 0x0d, 0x13, 0x47, 0x38, 0xef, 0x13, 0x3d, 0x0b, 0x0a, 0xf1, 0xed,
  0xd5, 0x58, 0x02, 0x37, 0x0a, 0xf8, 0x17, 0x0a, 0x04, 0xdc, 0xff, 0x0b,
  0x3c, 0xf5, 0x2e, 0x0a, 0xe6, 0x1c, 0x05, 0x14, 0x0e, 0x12, 0xfc, 0x0e,
  0x1a, 0xc9, 0x12, 0x27, 0xf4, 0x04, 0xfd, 0x05, 0xee, 0x01, 0x14, 0x94,
  0x0a, 0xfa, 0x04, 0x07, 0x0e, 0xf5, 0xe5, 0x27, 0x27, 0x03, 0xee, 0x1f,
  0x29, 0x0b, 0x36, 0xee, 0x06, 0xb4, 0xfa, 0xe2, 0xef, 0xd8, 0x0f, 0xdb,
  0x02, 0xfa, 0x1b, 0xfc, 0x0d, 0xe9, 0x1b, 0x32, 0xed, 0x14, 0xfb, 0xf2,
  0xff, 0xee, 0xfe, 0x0f, 0xaf, 0x20, 0xfc, 0xd2, 0xdd, 0xfe, 0x1c, 0xdb,
  0xdd, 0xf3, 0x1b, 0x31, 0xf6, 0x04, 0xfb, 0x02, 0xf5, 0xec, 0x0a, 0x01,
  0x20, 0x28, 0xe8, 0x21, 0xf8, 0x05, 0x08, 0x05, 0xce, 0x1a, 0xec, 0xf5,
  0x04, 0xe3, 0x09, 0xe6, 0xe7, 0x0c, 0x06, 0xc4, 0x15, 0x12, 0x0a, 0xd6,
  0xff, 0xf7, 0xf7, 0x2d, 0x00, 0x00, 0xf9, 0x00, 0xbf, 0xd9, 0xe3, 0xfb,
  0x06, 0xeb, 0x15, 0x01, 0xe5, 0x0e, 0x0d, 0xee, 0x1e, 0x43, 0xfb, 0x13,
  0xf9, 0x0f, 0xf2, 0xfe, 0x06, 0xc7, 0xf1, 0xd4, 0xe3, 0x0d, 0x07, 0x09,
  0xf2, 0x1c, 0xf2, 0xfe, 0xf2, 0xec, 0x58, 0xf2, 0xf4, 0x12, 0xef, 0xfb,
  0x0d, 0x18, 0xfb, 0xd9, 0xde, 0xf8, 0xcb, 0xdd, 0xec, 0x04, 0xe6, 0xe3,
  0xc9, 0x15, 0xfb, 0x33, 0x29, 0x09, 0xff, 0x17, 0xf3, 0x02, 0xf2, 0x0c,
  0x31, 0xf7, 0xe5, 0xef, 0xf0, 0x04, 0x05, 0x05, 0x0b, 0xd4, 0xf6, 0x10,
  0xee, 0xdc, 0xee, 0x11, 0x0b, 0xf8, 0xde, 0xee, 0x1f, 0x20, 0x2f, 0xdd,
  0xcb, 0x20, 0x29, 0xf3, 0x03, 0xfa, 0x04, 0x01, 0xcf, 0x17, 0xfa, 0x3c,
  0xf3, 0xfe, 0x05, 0x0a, 0x00, 0xe4, 0x00, 0x23, 0x30, 0x3e, 0x11, 0x35,
  0x02, 0xef, 0x07, 0x03, 0x00, 0xe9, 0xfd, 0xe1, 0xea, 0xf3, 0x20, 0xf0,
  0xf8, 0x02, 0xfc, 0x10, 0x20, 0x18, 0x1c, 0xeb, 0x06, 0xf6, 0x0c, 0x04,
  0x20, 0xf8, 0x1e, 0xe3, 0x05, 0xfb, 0xd4, 0xd0, 0xec, 0xfa, 0xfe, 0xf2,
  0xd8, 0x00, 0xda, 0x14, 0x08, 0x0f, 0xdb, 0xe4, 0xf3, 0x05, 0x01, 0xf6,
  0xf1, 0xad, 0x1d, 0xbe, 0xfd, 0x07, 0xe2, 0x15, 0xda, 0x0f, 0xea, 0x15,
  0xea, 0xc5, 0xe1, 0x28, 0x50, 0xe0, 0xdb, 0x12, 0x17, 0x25, 0x28, 0x06,
  0xec, 0xf5, 0xf2, 0x19, 0xff, 0xed, 0xff, 0x09, 0x0e, 0x1c, 0x2f, 0x2a,
  0xfc, 0x1a, 0xf8, 0x01, 0xfe, 0xf3, 0x0d, 0x24, 0xfc, 0x1e, 0x17, 0x2f,
  0xef, 0xfb, 0x05, 0xf0, 0x20, 0xf4, 0xdd, 0xde, 0xf5, 0x32, 0x02, 0x03,
  0xf7, 0xf9, 0xe6, 0x02, 0xf9, 0x20, 0xbf, 0xf7, 0xf4, 0x00, 0xf6, 0xdb,
  0x35, 0x09, 0xe9, 0xfe, 0x2b, 0xbc, 0xd7, 0xb4, 0xe0, 0x02, 0xf9, 0xfc,
  0xac, 0xf8, 0xf3, 0x01, 0x29, 0x19, 0xe3, 0xf8, 0x14, 0x03, 0xf7, 0x07,
  0x1d, 0xd9, 0x41, 0x10, 0xfa, 0xfc, 0x01, 0x00, 0xdc, 0xec, 0x08, 0xfb,
  0xd5, 0xe8, 0xeb, 0x46, 0x10, 0xef, 0x01, 0x16, 0x31, 0x00, 0x3e, 0xff,
  0x17, 0xcb, 0xcf, 0x12, 0x02, 0xe7, 0x07, 0x00, 0x5a, 0xfd, 0x4d, 0xed,
  0xfa, 0x06, 0x03, 0x01, 0xe8, 0x21, 0x10, 0x06, 0xfc, 0x5e, 0x23, 0xf7,
  0xd5, 0xdf, 0x23, 0x02, 0x10, 0x0f, 0xe0, 0x05, 0x3b, 0xde, 0xec, 0x11,
  0xfd, 0xf1, 0xfc, 0x0b, 0xff, 0x25, 0xd7, 0xff, 0xf2, 0x03, 0x01, 0x07,
  0x1a, 0xc5, 0x05, 0x03, 0xd7, 0xce, 0x05, 0xe2, 0x04, 0xfb, 0x05, 0x02,
  0xd7, 0x0e, 0xeb, 0xe5, 0x16, 0xdc, 0xfc, 0x02, 0x04, 0x1c, 0x05, 0x13,
  0x0c, 0x28, 0x0c, 0x04, 0x08, 0x0b, 0xee, 0xfc, 0xbc, 0xe2, 0xeb, 0x08,
  0x02, 0x05, 0x1e, 0x22, 0x14, 0xfe, 0xf3, 0x0a, 0x11, 0x0b, 0x11, 0x0b,
  0xf2, 0x15, 0xf8, 0xf6, 0xfb, 0xe9, 0xf5, 0xf3, 0x15, 0xc2, 0x32, 0xd7,
  0xff, 0x0a, 0xfe, 0xf1, 0xfe, 0xfc, 0x13, 0x0a, 0xf2, 0x3a, 0xea, 0x28,
  0x1c, 0xee, 0xf7, 0xdc, 0x00, 0x12, 0x06, 0x04, 0xef, 0xdf, 0xfc, 0x25,
  0x11, 0x04, 0x0a, 0x18, 0x00, 0xf0, 0xf5, 0xfb, 0xed, 0xed, 0x01, 0x05,
  0x26, 0xdc, 0x2c, 0xc9, 0x05, 0xcb, 0x2e, 0xf2, 0x13, 0x0c, 0x0c, 0x12,
  0xda, 0x13, 0xeb, 0xea, 0xde, 0x1d, 0xff, 0x05, 0xfe, 0x04, 0xfc, 0xfb,
  0x16, 0x3a, 0x18, 0x00, 0x67, 0x83, 0xef, 0x8f, 0x87, 0x8e, 0x55, 0x82,
  0x1a, 0x82, 0xb1, 0x1a, 0xa9, 0x93, 0x2f, 0x81, 0x82, 0x1a, 0xcf, 0x83,
  0x53, 0x86, 0xaa, 0x8f, 0x09, 0x86, 0x27, 0x83, 0x4a, 0x1a, 0xdf, 0x81,
  0xf9, 0x14, 0x24, 0xe1, 0x37, 0x0d, 0x1b, 0x2e, 0x90, 0xe7, 0xc9, 0x85,
  0x1f, 0xb5, 0xb8, 0x2f, 0x22, 0xec, 0xd0, 0xd2, 0xfe, 0xb9, 0x30, 0x25,
  0x99, 0x36, 0xec, 0x9f, 0xd2, 0x01, 0xda, 0x36, 0xfe, 0x12, 0x25, 0xe5,
  0xcc, 0x42, 0x03, 0x40, 0x32, 0xcc, 0x81, 0xe4, 0xf2, 0xf5, 0x0c, 0xf1,
  0x26, 0xf4, 0xef, 0xe3, 0xfe, 0x30, 0xbb, 0x22, 0xa3, 0xd5, 0x1c, 0xb3,
  0xc3, 0xf1, 0x11, 0x40, 0xe0, 0x8f, 0x5a, 0x17, 0x28, 0x9f, 0xb6, 0x93,
  0x00, 0x00, 0x00, 0x00, 0xbe, 0xfd, 0xff, 0xff, 0x04, 0x00, 0x00, 0x00,
  0x18, 0x01, 0x00, 0x00, 0x6e, 0x4d, 0x43, 0x64, 0x1f, 0x7e, 0xd3, 0x84,
  0xca, 0x00, 0x00, 0x00, 0x00, 0x00, 0x00, 0x00, 0xca, 0x00, 0x00, 0x00,
  0x08, 0x00, 0x00, 0x00, 0x18, 0x01, 0x00, 0x00, 0x80, 0x18, 0x00, 0x00,
  0x10, 0x00, 0x00, 0x00, 0x01, 0x00, 0x00, 0x00, 0x01, 0x00, 0x00, 0x00,
  0x02, 0x00, 0x00, 0x00, 0x03, 0x00, 0x00, 0x00, 0x00, 0x00, 0x00, 0x00,
  0x00, 0x00, 0x00, 0x00, 0x00, 0x00, 0x00, 0x00, 0x03, 0x05, 0x03, 0x00,
  0x01, 0x01, 0x07, 0x00, 0x02, 0x47, 0x00, 0x00, 0x00, 0x00, 0x00, 0x00,
  0x00, 0x00, 0x18, 0x00, 0x00, 0x00, 0x18, 0x18, 0x00, 0x00, 0x00, 0x00,
  0x00, 0x00, 0x01, 0x00, 0x00, 0x00, 0x01, 0x00, 0x00, 0x00, 0x01, 0x00,
  0x00, 0x00, 0x10, 0x00, 0x00, 0x00, 0x01, 0x00, 0x00, 0x00, 0x01, 0x00,
  0x00, 0x00, 0x01, 0x00, 0x00, 0x00, 0x80, 0x01, 0x00, 0x00, 0x01, 0x00,
  0x00, 0x00, 0x01, 0x00, 0x00, 0x00, 0x01, 0x00, 0x00, 0x00, 0x01, 0x00,
  0x00, 0x00, 0x00, 0x00, 0x00, 0x00, 0x00, 0x00, 0x00, 0x00, 0x00, 0x00,
  0x00, 0x00, 0x00, 0x00, 0x00, 0x00, 0x01, 0x00, 0x00, 0x00, 0x01, 0x00,
  0x00, 0x00, 0x10, 0x01, 0x0f, 0x07, 0x00, 0x00, 0x00, 0x00, 0x00, 0x00,
  0x00, 0x00, 0x01, 0x00, 0x00, 0x00, 0x01, 0x00, 0x00, 0x00, 0x00, 0x00,
  0x00, 0x00, 0x30, 0x80, 0xf8, 0x4e, 0x00, 0x00, 0x00, 0x00, 0x05, 0x47,
  0x03, 0x05, 0x02, 0x03, 0x01, 0x01, 0x07, 0x00, 0x04, 0x47, 0x06, 0x00,
  0x00, 0x00, 0x04, 0x04, 0x04, 0x04, 0x04, 0x04, 0x00, 0x00, 0x02, 0x03,
  0x08, 0x0c, 0x1c, 0x1d, 0x00, 0x00, 0x38, 0x18, 0x00, 0x00, 0x78, 0x18,
  0x00, 0x00, 0x04, 0x00, 0x00, 0x00, 0x10, 0x00, 0x00, 0x00, 0x80, 0xff,
  0xff, 0xff, 0x30, 0x47, 0x96, 0x47, 0x00, 0x00, 0x00, 0x00, 0x00, 0x00,
  0x00, 0x00, 0x05, 0x47, 0x01, 0x00, 0x00, 0x00, 0x00, 0x00, 0x00, 0x00,
  0x80, 0x01, 0x00, 0x00, 0x04, 0x00, 0x00, 0x00, 0x00, 0x00, 0x00, 0x00,
  0x00, 0x00, 0x00, 0x00, 0x00, 0x00, 0x00, 0x00, 0x74, 0xfb, 0xff, 0xff,
  0x62, 0x00, 0x00, 0x00, 0x4d, 0x4c, 0x49, 0x52, 0x20, 0x43, 0x6f, 0x6e,
  0x76, 0x65, 0x72, 0x74, 0x65, 0x64, 0x2e, 0x0a, 0x43, 0x6f, 0x6e, 0x76,
  0x65, 0x72, 0x74, 0x65, 0x64, 0x20, 0x77, 0x69, 0x74, 0x68, 0x20, 0x65,
  0x49, 0x51, 0x20, 0x6e, 0x65, 0x75, 0x74, 0x72, 0x6f, 0x6e, 0x2d, 0x63,
  0x6f, 0x6e, 0x76, 0x65, 0x72, 0x74, 0x65, 0x72, 0x20, 0x31, 0x2e, 0x32,
  0x2e, 0x30, 0x2b, 0x30, 0x58, 0x38, 0x34, 0x64, 0x33, 0x37, 0x65, 0x31,
  0x66, 0x20, 0x66, 0x6f, 0x72, 0x20, 0x4e, 0x58, 0x50, 0x20, 0x4d, 0x43,
  0x58, 0x20, 0x4e, 0x39, 0x34, 0x78, 0x20, 0x4d, 0x43, 0x55, 0x20, 0x74,
  0x61, 0x72, 0x67, 0x65, 0x74, 0x2e, 0x00, 0x00, 0x01, 0x00, 0x00, 0x00,
  0x14, 0x00, 0x00, 0x00, 0x00, 0x00, 0x0e, 0x00, 0x18, 0x00, 0x04, 0x00,
  0x08, 0x00, 0x0c, 0x00, 0x10, 0x00, 0x14, 0x00, 0x0e, 0x00, 0x00, 0x00,
  0x44, 0x01, 0x00, 0x00, 0x38, 0x01, 0x00, 0x00, 0x2c, 0x01, 0x00, 0x00,
  0x14, 0x00, 0x00, 0x00, 0x04, 0x00, 0x00, 0x00, 0x04, 0x00, 0x00, 0x00,
  0x6d, 0x61, 0x69, 0x6e, 0x00, 0x00, 0x00, 0x00, 0x04, 0x00, 0x00, 0x00,
  0xf4, 0x00, 0x00, 0x00, 0x90, 0x00, 0x00, 0x00, 0x44, 0x00, 0x00, 0x00,
  0x10, 0x00, 0x00, 0x00, 0x00, 0x00, 0x0a, 0x00, 0x10, 0x00, 0x04, 0x00,
  0x08, 0x00, 0x0c, 0x00, 0x0a, 0x00, 0x00, 0x00, 0x03, 0x00, 0x00, 0x00,
  0x10, 0x00, 0x00, 0x00, 0x04, 0x00, 0x00, 0x00, 0x01, 0x00, 0x00, 0x00,
  0x03, 0x00, 0x00, 0x00, 0x01, 0x00, 0x00, 0x00, 0x02, 0x00, 0x00, 0x00,
  0x00, 0x00, 0x0e, 0x00, 0x1a, 0x00, 0x08, 0x00, 0x0c, 0x00, 0x10, 0x00,
  0x07, 0x00, 0x14, 0x00, 0x0e, 0x00, 0x00, 0x00, 0x00, 0x00, 0x00, 0x09,
  0x02, 0x00, 0x00, 0x00, 0x24, 0x00, 0x00, 0x00, 0x18, 0x00, 0x00, 0x00,
  0x0c, 0x00, 0x00, 0x00, 0x00, 0x00, 0x06, 0x00, 0x08, 0x00, 0x04, 0x00,
  0x06, 0x00, 0x00, 0x00, 0x00, 0x00, 0x80, 0x3f, 0x01, 0x00, 0x00, 0x00,
  0x02, 0x00, 0x00, 0x00, 0x01, 0x00, 0x00, 0x00, 0x04, 0x00, 0x00, 0x00,
  0x10, 0x00, 0x14, 0x00, 0x04, 0x00, 0x08, 0x00, 0x0c, 0x00, 0x00, 0x00,
  0x00, 0x00, 0x10, 0x00, 0x10, 0x00, 0x00, 0x00, 0x01, 0x00, 0x00, 0x00,
  0x3c, 0x00, 0x00, 0x00, 0x2c, 0x00, 0x00, 0x00, 0x04, 0x00, 0x00, 0x00,
  0x1e, 0x00, 0x00, 0x00, 0x73, 0x75, 0x62, 0x67, 0x72, 0x61, 0x70, 0x68,
  0x00, 0x09, 0x73, 0x75, 0x62, 0x67, 0x72, 0x61, 0x70, 0x68, 0x33, 0x00,
  0x01, 0x15, 0x01, 0x01, 0x01, 0x0f, 0x14, 0x02, 0x24, 0x01, 0x00, 0x00,
  0x02, 0x00, 0x00, 0x00, 0x04, 0x00, 0x00, 0x00, 0x05, 0x00, 0x00, 0x00,
  0x03, 0x00, 0x00, 0x00, 0x01, 0x00, 0x00, 0x00, 0x06, 0x00, 0x00, 0x00,
  0x07, 0x00, 0x00, 0x00, 0x00, 0x00, 0x0a, 0x00, 0x0c, 0x00, 0x00, 0x00,
  0x04, 0x00, 0x08, 0x00, 0x0a, 0x00, 0x00, 0x00, 0x10, 0x00, 0x00, 0x00,
  0x04, 0x00, 0x00, 0x00, 0x01, 0x00, 0x00, 0x00, 0x01, 0x00, 0x00, 0x00,
  0x01, 0x00, 0x00, 0x00, 0x00, 0x00, 0x00, 0x00, 0x01, 0x00, 0x00, 0x00,
  0x03, 0x00, 0x00, 0x00, 0x01, 0x00, 0x00, 0x00, 0x00, 0x00, 0x00, 0x00,
  0x08, 0x00, 0x00, 0x00, 0x94, 0x02, 0x00, 0x00, 0xf8, 0x01, 0x00, 0x00,
  0x80, 0x01, 0x00, 0x00, 0x3c, 0x01, 0x00, 0x00, 0xc8, 0x00, 0x00, 0x00,
  0x88, 0x00, 0x00, 0x00, 0x44, 0x00, 0x00, 0x00, 0x04, 0x00, 0x00, 0x00,
  0xd0, 0xff, 0xff, 0xff, 0x00, 0x00, 0x00, 0x03, 0x20, 0x00, 0x00, 0x00,
  0x02, 0x00, 0x00, 0x00, 0x04, 0x00, 0x00, 0x00, 0x0e, 0x00, 0x00, 0x00,
  0x4e, 0x65, 0x75, 0x74, 0x72, 0x6f, 0x6e, 0x57, 0x65, 0x69, 0x67, 0x68,
  0x74, 0x73, 0x00, 0x00, 0x01, 0x00, 0x00, 0x00, 0x80, 0x18, 0x00, 0x00,
  0x0c, 0x00, 0x14, 0x00, 0x08, 0x00, 0x07, 0x00, 0x0c, 0x00, 0x10, 0x00,
  0x0c, 0x00, 0x00, 0x00, 0x00, 0x00, 0x00, 0x03, 0x24, 0x00, 0x00, 0x00,
  0x01, 0x00, 0x00, 0x00, 0x04, 0x00, 0x00, 0x00, 0x10, 0x00, 0x00, 0x00,
  0x4e, 0x65, 0x75, 0x74, 0x72, 0x6f, 0x6e, 0x4d, 0x69, 0x63, 0x72, 0x6f,
  0x63, 0x6f, 0x64, 0x65, 0x00, 0x00, 0x00, 0x00, 0x01, 0x00, 0x00, 0x00,
  0x18, 0x01, 0x00, 0x00, 0x0c, 0x00, 0x10, 0x00, 0x08, 0x00, 0x07, 0x00,
  0x00, 0x00, 0x0c, 0x00, 0x0c, 0x00, 0x00, 0x00, 0x00, 0x00, 0x00, 0x03,
  0x1c, 0x00, 0x00, 0x00, 0x04, 0x00, 0x00, 0x00, 0x0e, 0x00, 0x00, 0x00,
  0x4e, 0x65, 0x75, 0x74, 0x72, 0x6f, 0x6e, 0x53, 0x63, 0x72, 0x61, 0x74,
  0x63, 0x68, 0x00, 0x00, 0x01, 0x00, 0x00, 0x00, 0x10, 0x00, 0x00, 0x00,
  0x00, 0x00, 0x0e, 0x00, 0x14, 0x00, 0x08, 0x00, 0x07, 0x00, 0x00, 0x00,
  0x0c, 0x00, 0x10, 0x00, 0x0e, 0x00, 0x00, 0x00, 0x00, 0x00, 0x00, 0x09,
  0x5c, 0x00, 0x00, 0x00, 0x28, 0x00, 0x00, 0x00, 0x04, 0x00, 0x00, 0x00,
  0xc4, 0xfe, 0xff, 0xff, 0x14, 0x00, 0x00, 0x00, 0x04, 0x00, 0x00, 0x00,
  0x01, 0x00, 0x00, 0x00, 0x47, 0x00, 0x00, 0x00, 0x00, 0x00, 0x00, 0x00,
  0x01, 0x00, 0x00, 0x00, 0xcd, 0xb1, 0xa0, 0x3d, 0x2a, 0x00, 0x00, 0x00,
  0x6d, 0x6f, 0x64, 0x65, 0x6c, 0x2f, 0x64, 0x65, 0x6e, 0x73, 0x65, 0x5f,
  0x36, 0x2f, 0x4d, 0x61, 0x74, 0x4d, 0x75, 0x6c, 0x3b, 0x6d, 0x6f, 0x64,
  0x65, 0x6c, 0x2f, 0x64, 0x65, 0x6e, 0x73, 0x65, 0x5f, 0x36, 0x2f, 0x42,
  0x69, 0x61, 0x73, 0x41, 0x64, 0x64, 0x00, 0x00, 0x02, 0x00, 0x00, 0x00,
  0x01, 0x00, 0x00, 0x00, 0x04, 0x00, 0x00, 0x00, 0xc8, 0xfe, 0xff, 0xff,
  0x30, 0x00, 0x00, 0x00, 0x1c, 0x00, 0x00, 0x00, 0x14, 0x00, 0x00, 0x00,
  0x04, 0x00, 0x00, 0x00, 0x02, 0x00, 0x00, 0x00, 0x01, 0x00, 0x00, 0x00,
  0x04, 0x00, 0x00, 0x00, 0xac, 0xfe, 0xff, 0xff, 0x08, 0x00, 0x00, 0x00,
  0x49, 0x64, 0x65, 0x6e, 0x74, 0x69, 0x74, 0x79, 0x00, 0x00, 0x00, 0x00,
  0x02, 0x00, 0x00, 0x00, 0x01, 0x00, 0x00, 0x00, 0x04, 0x00, 0x00, 0x00,
  0xa0, 0xff, 0xff, 0xff, 0x00, 0x00, 0x00, 0x09, 0x4c, 0x00, 0x00, 0x00,
  0x38, 0x00, 0x00, 0x00, 0x14, 0x00, 0x00, 0x00, 0x04, 0x00, 0x00, 0x00,
  0x02, 0x00, 0x00, 0x00, 0x01, 0x00, 0x00, 0x00, 0x04, 0x00, 0x00, 0x00,
  0x84, 0xff, 0xff, 0xff, 0x14, 0x00, 0x00, 0x00, 0x04, 0x00, 0x00, 0x00,
  0x01, 0x00, 0x00, 0x00, 0x80, 0xff, 0xff, 0xff, 0xff, 0xff, 0xff, 0xff,
  0x01, 0x00, 0x00, 0x00, 0x00, 0x00, 0x80, 0x3b, 0x09, 0x00, 0x00, 0x00,
  0x49, 0x64, 0x65, 0x6e, 0x74, 0x69, 0x74, 0x79, 0x31, 0x00, 0x00, 0x00,
  0x02, 0x00, 0x00, 0x00, 0x01, 0x00, 0x00, 0x00, 0x04, 0x00, 0x00, 0x00,
  0x14, 0x00, 0x18, 0x00, 0x08, 0x00, 0x07, 0x00, 0x00, 0x00, 0x0c, 0x00,
  0x10, 0x00, 0x00, 0x00, 0x00, 0x00, 0x14, 0x00, 0x14, 0x00, 0x00, 0x00,
  0x00, 0x00, 0x00, 0x09, 0x68, 0x00, 0x00, 0x00, 0x50, 0x00, 0x00, 0x00,
  0x28, 0x00, 0x00, 0x00, 0x04, 0x00, 0x00, 0x00, 0x04, 0x00, 0x00, 0x00,
  0x01, 0x00, 0x00, 0x00, 0x80, 0x00, 0x00, 0x00, 0x01, 0x00, 0x00, 0x00,
  0x03, 0x00, 0x00, 0x00, 0x0c, 0x00, 0x0c, 0x00, 0x00, 0x00, 0x00, 0x00,
  0x04, 0x00, 0x08, 0x00, 0x0c, 0x00, 0x00, 0x00, 0x18, 0x00, 0x00, 0x00,
  0x04, 0x00, 0x00, 0x00, 0x01, 0x00, 0x00, 0x00, 0x00, 0x00, 0x00, 0x00,
  0x00, 0x00, 0x00, 0x00, 0x00, 0x00, 0x00, 0x00, 0x01, 0x00, 0x00, 0x00,
  0xe9, 0xef, 0xf2, 0x3b, 0x0c, 0x00, 0x00, 0x00, 0x74, 0x66, 0x6c, 0x2e,
  0x71, 0x75, 0x61, 0x6e, 0x74, 0x69, 0x7a, 0x65, 0x00, 0x00, 0x00, 0x00,
  0x04, 0x00, 0x00, 0x00, 0x01, 0x00, 0x00, 0x00, 0x80, 0x00, 0x00, 0x00,
  0x01, 0x00, 0x00, 0x00, 0x03, 0x00, 0x00, 0x00, 0x14, 0x00, 0x14, 0x00,
  0x04, 0x00, 0x00, 0x00, 0x00, 0x00, 0x08, 0x00, 0x0c, 0x00, 0x00, 0x00,
  0x00, 0x00, 0x10, 0x00, 0x14, 0x00, 0x00, 0x00, 0x38, 0x00, 0x00, 0x00,
  0x28, 0x00, 0x00, 0x00, 0x20, 0x00, 0x00, 0x00, 0x04, 0x00, 0x00, 0x00,
  0x04, 0x00, 0x00, 0x00, 0x01, 0x00, 0x00, 0x00, 0x80, 0x00, 0x00, 0x00,
  0x01, 0x00, 0x00, 0x00, 0x03, 0x00, 0x00, 0x00, 0x04, 0x00, 0x04, 0x00,
  0x04, 0x00, 0x00, 0x00, 0x07, 0x00, 0x00, 0x00, 0x69, 0x6e, 0x70, 0x75,
  0x74, 0x5f, 0x31, 0x00, 0x04, 0x00, 0x00, 0x00, 0x01, 0x00, 0x00, 0x00,
  0x80, 0x00, 0x00, 0x00, 0x01, 0x00, 0x00, 0x00, 0x03, 0x00, 0x00, 0x00,
  0x04, 0x00, 0x00, 0x00, 0x78, 0x00, 0x00, 0x00, 0x44, 0x00, 0x00, 0x00,
  0x24, 0x00, 0x00, 0x00, 0x04, 0x00, 0x00, 0x00, 0xf0, 0xff, 0xff, 0xff,
  0x00, 0x00, 0x00, 0x06, 0x02, 0x00, 0x00, 0x00, 0x06, 0x00, 0x00, 0x00,
  0x0c, 0x00, 0x10, 0x00, 0x07, 0x00, 0x00, 0x00, 0x08, 0x00, 0x0c, 0x00,
  0x0c, 0x00, 0x00, 0x00, 0x00, 0x00, 0x00, 0x19, 0x02, 0x00, 0x00, 0x00,
  0x19, 0x00, 0x00, 0x00, 0x0c, 0x00, 0x10, 0x00, 0x07, 0x00, 0x08, 0x00,
  0x00, 0x00, 0x0c, 0x00, 0x0c, 0x00, 0x00, 0x00, 0x00, 0x00, 0x00, 0x20,
  0x08, 0x00, 0x00, 0x00, 0x20, 0x00, 0x00, 0x00, 0x0c, 0x00, 0x00, 0x00,
  0x4e, 0x65, 0x75, 0x74, 0x72, 0x6f, 0x6e, 0x47, 0x72, 0x61, 0x70, 0x68,
  0x00, 0x00, 0x00, 0x00, 0x0c, 0x00, 0x0c, 0x00, 0x07, 0x00, 0x00, 0x00,
  0x00, 0x00, 0x08, 0x00, 0x0c, 0x00, 0x00, 0x00, 0x00, 0x00, 0x00, 0x72,
  0x72, 0x00, 0x00, 0x00
};
const unsigned int tensorflow_model_mlp_quant_neutron_len = 7984;
