
#include "model_fan_clsf_quant.h"

// This is a TensorFlow Lite model file that has been converted into a C data
// array using the tensorflow.lite.util.convert_bytes_to_c_source() function.
// This form is useful for compiling into a binary for devices that don't have a
// file system.


// We need to keep the data array aligned on some architectures.
#ifdef __has_attribute
#define HAVE_ATTRIBUTE(x) __has_attribute(x)
#else
#define HAVE_ATTRIBUTE(x) 0
#endif
#if HAVE_ATTRIBUTE(aligned) || (defined(__GNUC__) && !defined(__clang__))
#define DATA_ALIGN_ATTRIBUTE __attribute__((aligned(4)))
#else
#define DATA_ALIGN_ATTRIBUTE
#endif

const unsigned char model_fan_clsf_quant[] DATA_ALIGN_ATTRIBUTE = {
    0x28, 0x00, 0x00, 0x00, 0x54, 0x46, 0x4c, 0x33, 0x00, 0x00, 0x00, 0x00, 0x00,
    0x00, 0x00, 0x00, 0x00, 0x00, 0x00, 0x00, 0x00, 0x00, 0x12, 0x00, 0x1c, 0x00,
    0x04, 0x00, 0x08, 0x00, 0x0c, 0x00, 0x10, 0x00, 0x14, 0x00, 0x00, 0x00, 0x18,
    0x00, 0x12, 0x00, 0x00, 0x00, 0x03, 0x00, 0x00, 0x00, 0xf0, 0x3c, 0x00, 0x00,
    0xe0, 0x2b, 0x00, 0x00, 0xc8, 0x2b, 0x00, 0x00, 0x3c, 0x00, 0x00, 0x00, 0x04,
    0x00, 0x00, 0x00, 0x01, 0x00, 0x00, 0x00, 0x0c, 0x00, 0x00, 0x00, 0x08, 0x00,
    0x0c, 0x00, 0x04, 0x00, 0x08, 0x00, 0x08, 0x00, 0x00, 0x00, 0x08, 0x00, 0x00,
    0x00, 0x15, 0x00, 0x00, 0x00, 0x13, 0x00, 0x00, 0x00, 0x6d, 0x69, 0x6e, 0x5f,
    0x72, 0x75, 0x6e, 0x74, 0x69, 0x6d, 0x65, 0x5f, 0x76, 0x65, 0x72, 0x73, 0x69,
    0x6f, 0x6e, 0x00, 0x16, 0x00, 0x00, 0x00, 0x80, 0x2b, 0x00, 0x00, 0x6c, 0x2b,
    0x00, 0x00, 0x30, 0x2b, 0x00, 0x00, 0xfc, 0x2a, 0x00, 0x00, 0xe8, 0x29, 0x00,
    0x00, 0x54, 0x29, 0x00, 0x00, 0x30, 0x29, 0x00, 0x00, 0x0c, 0x29, 0x00, 0x00,
    0xf8, 0x0a, 0x00, 0x00, 0xe4, 0x02, 0x00, 0x00, 0x50, 0x02, 0x00, 0x00, 0xdc,
    0x01, 0x00, 0x00, 0xc8, 0x00, 0x00, 0x00, 0xbc, 0x00, 0x00, 0x00, 0xa8, 0x00,
    0x00, 0x00, 0x94, 0x00, 0x00, 0x00, 0x80, 0x00, 0x00, 0x00, 0x6c, 0x00, 0x00,
    0x00, 0x58, 0x00, 0x00, 0x00, 0x44, 0x00, 0x00, 0x00, 0x30, 0x00, 0x00, 0x00,
    0x04, 0x00, 0x00, 0x00, 0x1e, 0xd4, 0xff, 0xff, 0x04, 0x00, 0x00, 0x00, 0x10,
    0x00, 0x00, 0x00, 0x31, 0x2e, 0x35, 0x2e, 0x30, 0x00, 0x00, 0x00, 0x00, 0x00,
    0x00, 0x00, 0x00, 0x00, 0x00, 0x00, 0x00, 0x00, 0x00, 0x00, 0x00, 0x00, 0x00,
    0x00, 0x00, 0x00, 0x00, 0x00, 0xe4, 0xc7, 0xff, 0xff, 0x00, 0x00, 0x00, 0x00,
    0x00, 0x00, 0x00, 0x00, 0x00, 0x00, 0x00, 0x00, 0xf4, 0xc7, 0xff, 0xff, 0x00,
    0x00, 0x00, 0x00, 0x00, 0x00, 0x00, 0x00, 0x00, 0x00, 0x00, 0x00, 0x04, 0xc8,
    0xff, 0xff, 0x00, 0x00, 0x00, 0x00, 0x00, 0x00, 0x00, 0x00, 0x00, 0x00, 0x00,
    0x00, 0x14, 0xc8, 0xff, 0xff, 0x00, 0x00, 0x00, 0x00, 0x00, 0x00, 0x00, 0x00,
    0x00, 0x00, 0x00, 0x00, 0x24, 0xc8, 0xff, 0xff, 0x00, 0x00, 0x00, 0x00, 0x00,
    0x00, 0x00, 0x00, 0x00, 0x00, 0x00, 0x00, 0x34, 0xc8, 0xff, 0xff, 0x00, 0x00,
    0x00, 0x00, 0x00, 0x00, 0x00, 0x00, 0x00, 0x00, 0x00, 0x00, 0x44, 0xc8, 0xff,
    0xff, 0x00, 0x00, 0x00, 0x00, 0x00, 0x00, 0x00, 0x00, 0x00, 0x00, 0x00, 0x00,
    0x54, 0xc8, 0xff, 0xff, 0x00, 0x00, 0x00, 0x00, 0xbe, 0xd4, 0xff, 0xff, 0x04,
    0x00, 0x00, 0x00, 0x00, 0x01, 0x00, 0x00, 0x01, 0xfd, 0x08, 0x0b, 0x17, 0xf9,
    0xe6, 0x81, 0x02, 0xe8, 0x19, 0x01, 0x0e, 0xe9, 0x0f, 0xf1, 0xe4, 0xf2, 0x19,
    0xe9, 0xe4, 0x0b, 0xf1, 0xf9, 0x0e, 0x03, 0x0e, 0x02, 0xf9, 0x16, 0x12, 0x46,
    0xfe, 0x0b, 0x10, 0xf7, 0x3b, 0xf3, 0xfa, 0x81, 0x12, 0xeb, 0xeb, 0x02, 0xbd,
    0xec, 0x0a, 0xfb, 0xfc, 0x14, 0x0c, 0xed, 0xcc, 0x02, 0xf2, 0xee, 0x0b, 0xee,
    0xf2, 0x04, 0x28, 0x00, 0xf3, 0x27, 0xfc, 0xf4, 0x01, 0x0c, 0x46, 0x00, 0x02,
    0xcf, 0x13, 0x0f, 0x07, 0xf5, 0x81, 0x0a, 0xfe, 0xf0, 0x03, 0x04, 0x10, 0x09,
    0x06, 0x03, 0x00, 0x72, 0xf0, 0x10, 0x00, 0xf4, 0x6c, 0xfb, 0x00, 0xdc, 0x19,
    0x02, 0x03, 0xeb, 0x44, 0xf9, 0x0e, 0xd6, 0xfa, 0x16, 0xfc, 0x06, 0x3e, 0xe9,
    0xf8, 0x18, 0x04, 0x0c, 0x05, 0x15, 0xf6, 0x02, 0x14, 0x10, 0x17, 0xe7, 0x16,
    0xed, 0x81, 0xf0, 0xe8, 0xbc, 0x07, 0x02, 0xf8, 0x11, 0x66, 0xf6, 0x01, 0x05,
    0xfd, 0x0b, 0xf6, 0x0e, 0xb7, 0x0d, 0x00, 0x97, 0x03, 0x0b, 0x01, 0xf3, 0xf6,
    0xf1, 0xf0, 0x7f, 0x03, 0x03, 0x0e, 0x02, 0x63, 0x11, 0xf5, 0xe7, 0xfe, 0x01,
    0x06, 0x05, 0x05, 0x02, 0x01, 0x12, 0x04, 0xfa, 0xfa, 0x02, 0x04, 0x03, 0x04,
    0xe7, 0x01, 0xfa, 0x03, 0xfd, 0x81, 0x00, 0x06, 0xf9, 0x03, 0xfe, 0x02, 0x01,
    0xe4, 0xfd, 0x06, 0x29, 0xfc, 0xf2, 0xe7, 0x17, 0xec, 0xee, 0xe2, 0x89, 0x01,
    0x1c, 0xe7, 0xf8, 0x79, 0xe4, 0x07, 0x06, 0xf5, 0x00, 0x01, 0x0b, 0x4e, 0x0f,
    0xe9, 0x2c, 0xf9, 0xec, 0xf3, 0xee, 0x8e, 0x1b, 0xfd, 0x81, 0x06, 0xe9, 0x1b,
    0x0a, 0xf2, 0x12, 0x0d, 0x56, 0xf2, 0x1d, 0xfc, 0x0c, 0x97, 0x16, 0xfa, 0xed,
    0x11, 0xf5, 0x1c, 0xf5, 0xa5, 0xeb, 0x00, 0xb0, 0xf1, 0xf8, 0xe5, 0xf0, 0x60,
    0xed, 0xf5, 0x7f, 0x00, 0x00, 0x00, 0x00, 0xce, 0xd5, 0xff, 0xff, 0x04, 0x00,
    0x00, 0x00, 0x60, 0x00, 0x00, 0x00, 0xa0, 0x2e, 0xef, 0xb8, 0xff, 0xae, 0x27,
    0x81, 0x4c, 0x58, 0x8b, 0xaf, 0x7d, 0x21, 0xb3, 0x7f, 0x1d, 0x9f, 0x14, 0x7c,
    0x06, 0x3a, 0x44, 0x42, 0x2b, 0x2d, 0x7f, 0xf7, 0x0e, 0xe1, 0x17, 0xca, 0x91,
    0x47, 0xbc, 0xb7, 0xef, 0x1e, 0x64, 0xbd, 0xf1, 0x81, 0x85, 0x6c, 0xc9, 0x38,
    0x66, 0x97, 0x18, 0x00, 0x26, 0x46, 0xcb, 0xed, 0x7f, 0x07, 0xf9, 0x2e, 0x2e,
    0x03, 0x29, 0x25, 0x81, 0x19, 0x43, 0xc5, 0xc9, 0x7c, 0xbb, 0x32, 0xab, 0x9e,
    0x7f, 0x09, 0x8e, 0x6d, 0x70, 0x43, 0xfd, 0xeb, 0x94, 0x5c, 0x4c, 0xa4, 0x81,
    0xda, 0x09, 0xb3, 0x7a, 0x03, 0x7c, 0x3b, 0xec, 0x17, 0x57, 0x13, 0x00, 0x00,
    0x00, 0x00, 0x3e, 0xd6, 0xff, 0xff, 0x04, 0x00, 0x00, 0x00, 0x80, 0x00, 0x00,
    0x00, 0x05, 0x04, 0xc9, 0x08, 0x04, 0x08, 0x08, 0xf9, 0x0a, 0xe3, 0x05, 0x0a,
    0x02, 0xbc, 0x01, 0x05, 0x04, 0x05, 0x07, 0x09, 0x06, 0xeb, 0x07, 0xcb, 0x09,
    0x07, 0x08, 0xff, 0x05, 0x07, 0x06, 0x06, 0xd4, 0xd5, 0xb8, 0x0d, 0xd7, 0xcf,
    0xc8, 0x0a, 0x0f, 0x22, 0xc8, 0x10, 0xd4, 0x13, 0x06, 0xd9, 0xd6, 0xcb, 0xc0,
    0xca, 0xcc, 0x21, 0xcf, 0xc8, 0xd6, 0xc1, 0x0e, 0x04, 0x0a, 0x0f, 0xd8, 0xda,
    0x9c, 0x88, 0x48, 0xc8, 0x87, 0x0e, 0x11, 0xbc, 0x84, 0xc1, 0x10, 0xb7, 0x81,
    0x1c, 0xab, 0x86, 0x84, 0x11, 0x11, 0x12, 0x0c, 0xc8, 0x14, 0x4d, 0x9c, 0x10,
    0xc8, 0xc0, 0xc3, 0xc9, 0x94, 0x88, 0x04, 0x04, 0xb8, 0xdf, 0x03, 0xbf, 0xc3,
    0xec, 0xe4, 0xe9, 0xbe, 0xe2, 0x00, 0xb0, 0xf1, 0x05, 0x03, 0xbf, 0xc6, 0xc1,
    0xbf, 0xe4, 0xc2, 0xb0, 0x07, 0xc4, 0xde, 0xef, 0xe6, 0xdd, 0x05, 0x05, 0x00,
    0x00, 0x00, 0x00, 0xce, 0xd6, 0xff, 0xff, 0x04, 0x00, 0x00, 0x00, 0x00, 0x08,
    0x00, 0x00, 0x2e, 0xfb, 0x2e, 0x00, 0x21, 0x00, 0x53, 0x08, 0xe7, 0x2b, 0x08,
    0x42, 0x00, 0x20, 0x3c, 0xee, 0x03, 0x42, 0x27, 0xe5, 0xe1, 0x1f, 0xe8, 0xf1,
    0x4a, 0xd9, 0x4b, 0xf6, 0x28, 0x00, 0x1a, 0xf8, 0xcd, 0x34, 0x00, 0xe5, 0x26,
    0xcf, 0xca, 0x15, 0xe0, 0x00, 0x00, 0xfb, 0x57, 0x04, 0x23, 0x1f, 0xfc, 0x43,
    0x54, 0xf2, 0x3a, 0x23, 0xb8, 0xcb, 0xce, 0x1a, 0xe2, 0xf7, 0x1c, 0xfe, 0x2d,
    0x59, 0x2c, 0xd6, 0x1a, 0x00, 0x39, 0x00, 0x4a, 0x04, 0xe3, 0x33, 0xed, 0x1f,
    0x00, 0x26, 0x1c, 0x09, 0xef, 0x02, 0x2c, 0xe8, 0xe0, 0x15, 0xed, 0xe7, 0x4a,
    0xe2, 0x3f, 0x0b, 0x4b, 0x00, 0x29, 0xe3, 0xf1, 0x2d, 0x00, 0xec, 0x32, 0xcc,
    0xce, 0x2d, 0xe8, 0x00, 0x00, 0xfc, 0x59, 0xf0, 0x0a, 0x17, 0x1b, 0x49, 0x47,
    0xe4, 0x0a, 0x1f, 0xcc, 0xbc, 0xd4, 0x16, 0xd2, 0xca, 0x36, 0xf8, 0x0c, 0x30,
    0x21, 0x22, 0xd7, 0x00, 0xf3, 0x00, 0xd6, 0x05, 0x4d, 0xe4, 0x22, 0xf6, 0x00,
    0x1a, 0xf0, 0x10, 0xfb, 0xe3, 0xe6, 0x31, 0xff, 0xff, 0x1c, 0x48, 0xea, 0x05,
    0x02, 0xc7, 0xd2, 0x00, 0x19, 0xcd, 0xe4, 0xfe, 0x00, 0x00, 0x01, 0x02, 0x00,
    0xfa, 0xed, 0x00, 0x00, 0x13, 0xea, 0x27, 0x00, 0xc5, 0xe7, 0xe8, 0xd1, 0x3f,
    0xe0, 0x21, 0x02, 0xe8, 0xfb, 0xef, 0xff, 0x2b, 0x1f, 0x3c, 0xe7, 0xe6, 0x3e,
    0xf8, 0x54, 0x00, 0x47, 0x00, 0xc2, 0x14, 0xea, 0x35, 0x07, 0x4c, 0xff, 0xc3,
    0x42, 0x24, 0x32, 0x53, 0xda, 0xe3, 0x30, 0x0b, 0xfc, 0xe7, 0xdf, 0x09, 0xdc,
    0x66, 0x16, 0x00, 0x10, 0x5c, 0x2b, 0x32, 0x00, 0x28, 0xfa, 0x12, 0x31, 0x17,
    0x2f, 0x00, 0x00, 0x10, 0x08, 0xfb, 0xcf, 0x5e, 0x53, 0xe2, 0x24, 0xef, 0x2d,
    0x1b, 0x1f, 0x33, 0x2a, 0x43, 0x23, 0xe2, 0x60, 0x17, 0x44, 0xea, 0x2d, 0xdd,
    0x1a, 0x00, 0x31, 0x04, 0x3f, 0x0e, 0xe4, 0x56, 0xf0, 0x1c, 0xff, 0x4b, 0x37,
    0x0e, 0xfe, 0x20, 0x4c, 0xd5, 0x20, 0x32, 0xf9, 0xe7, 0x26, 0xe9, 0x3c, 0x04,
    0x3a, 0x00, 0x12, 0x01, 0xea, 0x46, 0x00, 0xd6, 0x44, 0xd3, 0xfc, 0x1d, 0xee,
    0x00, 0x00, 0xe2, 0x49, 0xf7, 0x2f, 0x27, 0x3b, 0x50, 0x46, 0xe5, 0x34, 0x35,
    0xb1, 0xdd, 0xfa, 0x3a, 0x04, 0xd9, 0x20, 0xef, 0x1b, 0x3f, 0x10, 0x50, 0x13,
    0x00, 0x17, 0x00, 0xc1, 0x4d, 0x2a, 0x0d, 0x49, 0xe9, 0x00, 0xdc, 0x24, 0x62,
    0xd3, 0x09, 0xdb, 0x2e, 0xdd, 0x25, 0x41, 0x1a, 0xdb, 0x3e, 0xd1, 0xf2, 0xea,
    0x00, 0x17, 0xfe, 0xd7, 0x36, 0x00, 0xff, 0xff, 0xf6, 0x04, 0x23, 0xea, 0x00,
    0x00, 0x55, 0xd2, 0x5b, 0x00, 0x1e, 0x15, 0xd7, 0xe4, 0x2d, 0x0d, 0xe2, 0xe4,
    0xef, 0xea, 0x1c, 0xfe, 0x47, 0xfc, 0x4a, 0x20, 0xee, 0x2f, 0x41, 0x08, 0x00,
    0x0a, 0x00, 0xd5, 0x36, 0x30, 0xfa, 0x34, 0x13, 0x00, 0xdd, 0x1e, 0x5c, 0xf5,
    0xd8, 0xd3, 0x3d, 0xf3, 0x34, 0x52, 0x28, 0xe0, 0x36, 0xbe, 0x09, 0xd6, 0x00,
    0x39, 0xdc, 0xfa, 0x4b, 0x00, 0xf1, 0xcd, 0xd4, 0xfc, 0x14, 0xf0, 0x00, 0x00,
    0x1d, 0x03, 0x3d, 0x00, 0x24, 0x50, 0xe4, 0xf3, 0x3f, 0x24, 0xd8, 0xf2, 0xc7,
    0xf5, 0x22, 0xf4, 0x48, 0x1c, 0x53, 0x21, 0xf1, 0xfc, 0xf7, 0x06, 0x00, 0xe0,
    0xf7, 0x40, 0x00, 0xfd, 0xd6, 0xf9, 0x0e, 0x0b, 0x14, 0xf8, 0xf5, 0x40, 0x17,
    0x41, 0xf7, 0x4b, 0x00, 0xfa, 0xfb, 0x28, 0x17, 0x23, 0x61, 0xab, 0x00, 0xfe,
    0x38, 0x25, 0xe0, 0x00, 0xf2, 0x03, 0x1f, 0x1a, 0x0b, 0x25, 0x00, 0x00, 0x09,
    0x94, 0x18, 0x41, 0xfa, 0xee, 0xe5, 0xc9, 0xfc, 0xeb, 0x2a, 0x47, 0x58, 0x64,
    0xd9, 0x3d, 0xfb, 0x05, 0x11, 0x18, 0xde, 0x1a, 0xf3, 0x16, 0x00, 0x3b, 0x00,
    0xf0, 0x11, 0xe9, 0x3d, 0xf4, 0x44, 0x00, 0xc5, 0x1e, 0xf6, 0x05, 0x44, 0xc5,
    0xff, 0x28, 0x45, 0x00, 0xe1, 0xf2, 0xfd, 0xd2, 0x56, 0x03, 0x00, 0x01, 0x34,
    0x0a, 0x2b, 0x00, 0x07, 0x9e, 0x1a, 0x19, 0x2c, 0x3c, 0x00, 0x00, 0x02, 0x2e,
    0x03, 0xe4, 0x36, 0x39, 0xd0, 0x26, 0xe4, 0x24, 0xd1, 0x0b, 0x29, 0x23, 0x2e,
    0x2d, 0xec, 0x37, 0x08, 0x51, 0x05, 0xf9, 0xf7, 0xf5, 0x00, 0xe6, 0x00, 0xd5,
    0xfa, 0x00, 0xf8, 0x00, 0xf2, 0x00, 0xe3, 0xf2, 0xe1, 0x22, 0xfb, 0xf1, 0x10,
    0x43, 0xf8, 0xf7, 0x00, 0xe4, 0xf7, 0xbe, 0x3e, 0x18, 0x00, 0xf9, 0x29, 0x00,
    0xdf, 0x00, 0x1a, 0x07, 0x37, 0x3d, 0x15, 0x33, 0x00, 0x00, 0xf1, 0xea, 0xf5,
    0xfd, 0xe4, 0x05, 0xdb, 0xfd, 0x00, 0xdd, 0xfb, 0x32, 0x4e, 0xfe, 0xec, 0x2a,
    0xf6, 0xf4, 0xec, 0xeb, 0xfa, 0x29, 0x39, 0x0d, 0x00, 0x1d, 0x00, 0xd6, 0x59,
    0x4c, 0xf5, 0x41, 0x14, 0x00, 0xe2, 0x19, 0x4e, 0xdc, 0x2f, 0xd9, 0x34, 0xf3,
    0x26, 0x51, 0x24, 0xeb, 0x1e, 0xcf, 0x0c, 0x12, 0x00, 0x11, 0xf3, 0xee, 0x0e,
    0x00, 0xfa, 0xe4, 0xf7, 0xfd, 0x2e, 0xeb, 0x00, 0x00, 0x3e, 0xda, 0x43, 0x00,
    0x19, 0x4d, 0xb9, 0xd8, 0x36, 0x17, 0xee, 0xfc, 0xeb, 0xf0, 0x01, 0x00, 0x5d,
    0x18, 0x54, 0x30, 0xe2, 0x29, 0xf5, 0x1f, 0x00, 0x19, 0x00, 0xec, 0x05, 0xf7,
    0x2f, 0x1e, 0x55, 0x00, 0xfd, 0x2a, 0x1c, 0xec, 0x6f, 0xfd, 0xea, 0x17, 0x0d,
    0x1a, 0xee, 0xf9, 0x04, 0xca, 0x75, 0xfd, 0x00, 0x26, 0x59, 0x06, 0x14, 0x00,
    0x13, 0xeb, 0x36, 0x24, 0x1d, 0x31, 0x00, 0x00, 0x2c, 0x23, 0x0b, 0xdd, 0x27,
    0x2c, 0xc5, 0x0e, 0xef, 0x22, 0xdc, 0x48, 0x21, 0x45, 0x26, 0x2a, 0x00, 0x24,
    0x26, 0x2a, 0xed, 0xe5, 0xed, 0x3d, 0x00, 0x22, 0x09, 0x31, 0x01, 0xe8, 0x16,
    0xed, 0x38, 0x12, 0x5f, 0x4a, 0x15, 0xda, 0xfc, 0x51, 0xe9, 0xe1, 0x18, 0xef,
    0xfb, 0x64, 0x16, 0x18, 0x12, 0x33, 0x00, 0x34, 0xe8, 0xd3, 0x14, 0x00, 0xea,
    0x18, 0xea, 0xd3, 0x37, 0xd7, 0x00, 0x00, 0xf9, 0x24, 0xf3, 0x61, 0x3c, 0x3f,
    0x19, 0x47, 0xe6, 0x2b, 0x27, 0xda, 0xd3, 0xdd, 0x21, 0xd7, 0xee, 0x3c, 0x0a,
    0x2e, 0x3c, 0xf6, 0x47, 0xe8, 0x00, 0x03, 0x00, 0xc6, 0x1f, 0x2d, 0xfc, 0x28,
    0xf1, 0x00, 0xcc, 0xff, 0x00, 0x20, 0xd2, 0xdf, 0x36, 0xfd, 0xfd, 0x34, 0x3e,
    0xe5, 0x19, 0xd7, 0xc9, 0xd3, 0x00, 0xf6, 0xe0, 0x27, 0xe0, 0x00, 0x0c, 0xea,
    0x40, 0x39, 0xdb, 0x41, 0x00, 0x00, 0x08, 0xf1, 0x10, 0xf9, 0xee, 0xf3, 0xda,
    0xb6, 0x3e, 0xd6, 0xdd, 0x03, 0x1a, 0xfa, 0xfa, 0x03, 0x37, 0xd1, 0x2d, 0xed,
    0xe3, 0xfa, 0xec, 0x22, 0x00, 0x0f, 0x02, 0x04, 0x12, 0xf2, 0x43, 0xf7, 0x43,
    0x1a, 0x32, 0x09, 0x01, 0x41, 0x23, 0x12, 0xf2, 0x2f, 0x34, 0x05, 0xec, 0xfd,
    0x01, 0x21, 0x51, 0xed, 0x00, 0x1a, 0x3a, 0x3c, 0x02, 0x00, 0xfc, 0x04, 0x22,
    0x3b, 0x09, 0x26, 0x00, 0x00, 0x18, 0xb4, 0xfe, 0x76, 0x4f, 0x1f, 0xfd, 0xea,
    0xf5, 0x32, 0xf3, 0x2d, 0x2c, 0x31, 0x11, 0x02, 0xf7, 0x25, 0x01, 0x36, 0x01,
    0x13, 0xe2, 0x2e, 0x00, 0x3b, 0x03, 0x24, 0xeb, 0xdc, 0x1f, 0xda, 0x38, 0xff,
    0x41, 0x26, 0xff, 0xf6, 0x2a, 0x38, 0xe6, 0xce, 0x03, 0xe3, 0xde, 0x46, 0xfa,
    0x45, 0xf7, 0x42, 0x00, 0x26, 0xe0, 0xf2, 0x1d, 0x00, 0xec, 0x21, 0xfc, 0xf0,
    0x01, 0xe2, 0x00, 0x00, 0xf1, 0x3e, 0xee, 0x0a, 0x20, 0x1f, 0x35, 0x58, 0xe1,
    0x3f, 0x44, 0xdd, 0xde, 0xfa, 0x14, 0xc5, 0xf4, 0x21, 0xf6, 0x3f, 0x1e, 0x23,
    0xfd, 0x2e, 0x00, 0x3d, 0x00, 0x2e, 0xf9, 0xf9, 0x2e, 0xf1, 0xf8, 0x00, 0x1a,
    0x3f, 0x11, 0xe6, 0xff, 0x50, 0xf8, 0xda, 0x2b, 0xf4, 0xf7, 0x3e, 0x0a, 0x52,
    0xfd, 0x42, 0x00, 0x30, 0xec, 0xe6, 0x25, 0x00, 0xf9, 0x4a, 0xea, 0xe9, 0x4b,
    0xee, 0x00, 0x00, 0x12, 0x4d, 0x01, 0x1d, 0x3e, 0x35, 0x38, 0x4c, 0xf3, 0x20,
    0x41, 0xcd, 0xf8, 0xc5, 0x16, 0xe0, 0xfe, 0x2c, 0x08, 0x19, 0x37, 0x26, 0x3f,
    0x07, 0x00, 0x13, 0x00, 0xe6, 0x6a, 0x33, 0x20, 0x49, 0x23, 0x00, 0xe6, 0x2c,
    0x5e, 0xdf, 0xed, 0xc6, 0x3d, 0xf9, 0x01, 0x21, 0x2f, 0xc3, 0x59, 0xc4, 0xfd,
    0xf6, 0x00, 0x15, 0xf3, 0xe4, 0x3c, 0x00, 0x01, 0xd1, 0xe7, 0x00, 0x30, 0xd8,
    0x00, 0x00, 0x40, 0xe8, 0x64, 0xf8, 0x2e, 0x0e, 0xe2, 0xcb, 0x2f, 0x15, 0xcd,
    0xfd, 0xec, 0xed, 0x02, 0xe4, 0x4a, 0x44, 0x3f, 0x1b, 0xc8, 0x29, 0x4c, 0x1a,
    0x00, 0x21, 0x08, 0xce, 0x66, 0x39, 0x01, 0x3f, 0x2e, 0x00, 0xe3, 0x4e, 0x34,
    0xf6, 0x2d, 0xd7, 0x1a, 0xf1, 0x2b, 0x63, 0x2a, 0xd0, 0x32, 0xd6, 0xfa, 0xfd,
    0x00, 0xfb, 0x0f, 0xf3, 0x33, 0x00, 0xf8, 0xe1, 0xfa, 0xf8, 0xff, 0xfa, 0x00,
    0x00, 0x41, 0xff, 0x45, 0x00, 0x28, 0x11, 0xc6, 0xd4, 0x23, 0x27, 0xdb, 0xf7,
    0xf7, 0xfd, 0x31, 0xed, 0x61, 0x2a, 0x3f, 0x2b, 0xc9, 0x09, 0x39, 0x05, 0x00,
    0xf8, 0xff, 0xb9, 0x5e, 0x3a, 0x25, 0x2e, 0x16, 0x00, 0xe4, 0x36, 0x2d, 0xcf,
    0x10, 0xe1, 0x48, 0xdc, 0x1d, 0x2e, 0x38, 0xce, 0x63, 0xa9, 0xfb, 0xfb, 0x00,
    0x33, 0x08, 0xe5, 0x13, 0x00, 0xf4, 0xf6, 0xf9, 0x00, 0x15, 0xe8, 0x00, 0x00,
    0x5a, 0xda, 0x5b, 0x00, 0x34, 0x0e, 0xc4, 0xf1, 0x3a, 0xd7, 0xe5, 0xf2, 0xf3,
    0xe7, 0x09, 0x00, 0x52, 0xf6, 0x37, 0x1b, 0xf6, 0x5b, 0x3d, 0x48, 0x00, 0x2c,
    0xff, 0xe9, 0x2a, 0x2f, 0x0b, 0x44, 0x1f, 0x00, 0xc8, 0x29, 0x53, 0xe5, 0x26,
    0xc7, 0x4a, 0xee, 0x35, 0x31, 0x2a, 0xf8, 0x70, 0xda, 0x00, 0xd6, 0x00, 0x2d,
    0x11, 0xe7, 0x4c, 0x00, 0xfb, 0xbf, 0xe7, 0xf2, 0xf7, 0xe6, 0x00, 0x00, 0x60,
    0xee, 0x42, 0xf0, 0x39, 0x2c, 0xd2, 0x11, 0x2c, 0x31, 0xbf, 0xf2, 0xf0, 0xe8,
    0x22, 0xf2, 0x33, 0x34, 0x27, 0x14, 0xdf, 0xf8, 0x00, 0xf9, 0x00, 0x00, 0x00,
    0xfa, 0xfe, 0x00, 0xff, 0x00, 0x0c, 0x00, 0x0b, 0xf1, 0xf1, 0x27, 0x0f, 0xf6,
    0x12, 0x2a, 0x16, 0x00, 0x00, 0xec, 0xf5, 0xd3, 0xf3, 0xd2, 0x00, 0xfe, 0x22,
    0x70, 0xe5, 0x00, 0x1b, 0x17, 0x2d, 0x34, 0xf6, 0x27, 0x00, 0x00, 0xfb, 0xea,
    0xff, 0xc8, 0xfd, 0xf4, 0xd5, 0xcd, 0x00, 0xfd, 0xef, 0x3b, 0x22, 0x16, 0x0c,
    0x2c, 0x00, 0xf4, 0xfc, 0xe1, 0xe6, 0x09, 0x32, 0x10, 0x00, 0xfe, 0x00, 0xa5,
    0x64, 0x37, 0x19, 0x4b, 0x2c, 0x00, 0xe8, 0x02, 0x61, 0xec, 0x11, 0xcf, 0x15,
    0x00, 0x05, 0x4c, 0x26, 0xb2, 0x2d, 0xc9, 0xf0, 0xed, 0x00, 0x23, 0xe9, 0xfc,
    0x31, 0x00, 0xe3, 0xef, 0xec, 0xe2, 0x0a, 0xf7, 0x00, 0x00, 0x3f, 0x05, 0x64,
    0x00, 0x09, 0x0d, 0xcc, 0xcd, 0x39, 0xf5, 0xd2, 0x00, 0xd7, 0x00, 0xfb, 0xe7,
    0x3c, 0x14, 0x61, 0x15, 0xdf, 0x12, 0x27, 0xda, 0x00, 0xd3, 0x00, 0xec, 0x16,
    0x42, 0xe1, 0x0f, 0xf8, 0x00, 0xf3, 0xec, 0x24, 0x09, 0xfc, 0xfd, 0x33, 0xf0,
    0xe5, 0x1a, 0x2a, 0xfc, 0x1c, 0xf6, 0xbe, 0xe6, 0x00, 0xfd, 0xd6, 0xf9, 0xdf,
    0x00, 0x02, 0xea, 0xe7, 0xfd, 0xd8, 0xd7, 0x00, 0x00, 0xfc, 0xf4, 0x25, 0xff,
    0xc8, 0xe6, 0xf6, 0xdb, 0x4d, 0xd6, 0x00, 0xf9, 0xe9, 0xf5, 0xfe, 0x10, 0x2d,
    0xe8, 0x29, 0xf9, 0xed, 0x0e, 0xf2, 0x1c, 0x00, 0x36, 0x04, 0x1b, 0xf1, 0xe6,
    0x27, 0xe1, 0x43, 0x0d, 0x4b, 0x2b, 0xf8, 0xec, 0x3d, 0x4c, 0xf3, 0xfb, 0x1a,
    0xeb, 0xeb, 0x28, 0xff, 0x20, 0x04, 0x6d, 0x00, 0x24, 0x14, 0x12, 0x27, 0x00,
    0xf9, 0x60, 0xe0, 0xf3, 0x33, 0xf9, 0x00, 0x00, 0xfa, 0x26, 0xfa, 0x44, 0x0f,
    0x17, 0x38, 0x41, 0xe2, 0x2c, 0x23, 0xf4, 0xda, 0xf3, 0x24, 0xde, 0xe3, 0x2a,
    0xef, 0x39, 0x4a, 0x36, 0x42, 0x25, 0x00, 0x0f, 0x00, 0xf3, 0x51, 0x1e, 0xef,
    0x3e, 0xf3, 0x00, 0xe6, 0x13, 0x5e, 0xde, 0x12, 0xda, 0x53, 0xf5, 0x10, 0x32,
    0x2a, 0xea, 0x4b, 0xb0, 0x01, 0x09, 0x00, 0xff, 0xe3, 0xf4, 0x19, 0x00, 0xfe,
    0xd8, 0xf9, 0xf3, 0x14, 0xe4, 0x00, 0x00, 0x4e, 0xce, 0x47, 0xfc, 0x4e, 0x18,
    0xec, 0xec, 0x46, 0x1d, 0xeb, 0xf2, 0xe5, 0xf2, 0xfe, 0xef, 0x56, 0x15, 0x27,
    0x15, 0xf2, 0x24, 0xff, 0x24, 0x00, 0x65, 0x00, 0xe5, 0xfa, 0xfe, 0x4b, 0x01,
    0x32, 0xff, 0xdd, 0x1c, 0x16, 0x08, 0x3e, 0xeb, 0xdf, 0x2f, 0x41, 0xfa, 0xff,
    0x09, 0x19, 0xd4, 0x43, 0x24, 0x00, 0x1e, 0x56, 0x2e, 0x2e, 0x00, 0x1a, 0xd7,
    0x13, 0x29, 0x01, 0x38, 0x00, 0x00, 0x2c, 0xf1, 0xee, 0xdd, 0x26, 0x10, 0xbb,
    0xfb, 0xfc, 0x0c, 0xcc, 0x1d, 0x11, 0x2b, 0x00, 0x33, 0xf9, 0x20, 0xec, 0x2f,
    0xd7, 0x14, 0xe6, 0x1f, 0x00, 0x07, 0x00, 0x2b, 0x21, 0xeb, 0x26, 0xe6, 0x40,
    0x0e, 0x2e, 0x06, 0x1f, 0x13, 0x2c, 0x27, 0xe1, 0x45, 0x3f, 0xe9, 0xd6, 0xfe,
    0x08, 0x0c, 0x68, 0x09, 0x00, 0x0f, 0x45, 0x32, 0x1f, 0x00, 0x13, 0x0a, 0x32,
    0x40, 0x0b, 0x20, 0x00, 0x00, 0xf5, 0x94, 0x09, 0x60, 0x36, 0x26, 0xfc, 0xbd,
    0xed, 0x29, 0x1a, 0x2f, 0xf3, 0x52, 0x33, 0x18, 0xeb, 0x41, 0x0a, 0x31, 0xd2,
    0x08, 0x09, 0x52, 0x00, 0x28, 0x00, 0xf5, 0xf2, 0xe4, 0x54, 0x05, 0x5f, 0xff,
    0xcf, 0x2c, 0xff, 0x08, 0x52, 0xb0, 0xe2, 0x49, 0x4b, 0x0f, 0xd5, 0x12, 0xed,
    0xf1, 0x39, 0xe1, 0x00, 0x3c, 0x5f, 0xfc, 0x2c, 0x00, 0xfe, 0xde, 0x28, 0x09,
    0x1b, 0x2d, 0x00, 0x00, 0x18, 0x02, 0xf5, 0xf8, 0x7f, 0x56, 0xe5, 0x03, 0xd4,
    0x52, 0xc0, 0x48, 0x16, 0x28, 0x43, 0x1e, 0xe8, 0x2d, 0x28, 0x24, 0x02, 0x43,
    0xf0, 0x25, 0x00, 0x16, 0x00, 0xfe, 0x14, 0xfb, 0xf6, 0xf4, 0x1b, 0x00, 0xaf,
    0x05, 0x1c, 0x2f, 0x6e, 0xd6, 0xe4, 0x1f, 0x4c, 0x19, 0xf9, 0x22, 0xda, 0xe8,
    0x1e, 0xda, 0x00, 0x36, 0x3e, 0x0b, 0x4d, 0x00, 0x2e, 0xbd, 0x44, 0x3d, 0x3b,
    0x2a, 0x00, 0x00, 0x0d, 0x14, 0xfb, 0xf9, 0x30, 0x70, 0xd7, 0xe7, 0xfb, 0x5b,
    0xa9, 0x1d, 0x23, 0x0d, 0x59, 0x1f, 0xf9, 0x2b, 0x18, 0x0c, 0xd5, 0x22, 0xe3,
    0x2e, 0x00, 0x34, 0x00, 0x5d, 0xe5, 0xf7, 0x23, 0xe0, 0x24, 0x00, 0x53, 0x4c,
    0xf5, 0x11, 0x30, 0x4a, 0xde, 0xf0, 0x1a, 0xf3, 0xe5, 0x3e, 0xeb, 0x4c, 0xec,
    0x3a, 0x00, 0x0d, 0x12, 0xea, 0x29, 0x00, 0xfe, 0x56, 0x16, 0xf9, 0x3f, 0xed,
    0x00, 0x00, 0xfb, 0x53, 0xdb, 0x64, 0x11, 0x18, 0x44, 0x65, 0xe1, 0x1d, 0x0a,
    0xcd, 0xe6, 0xfe, 0x1e, 0xf6, 0xf0, 0x23, 0xf4, 0x39, 0x45, 0x3a, 0xfa, 0x45,
    0x00, 0x38, 0x04, 0x5b, 0x04, 0xee, 0x40, 0xeb, 0x28, 0x0c, 0x4c, 0x19, 0x03,
    0xae, 0x1c, 0x28, 0xce, 0x1d, 0xfb, 0x04, 0xfa, 0x2b, 0xfa, 0x11, 0x09, 0x73,
    0x00, 0x12, 0xd5, 0xee, 0x37, 0x00, 0xdf, 0x6b, 0xe1, 0xe2, 0x07, 0xfa, 0x00,
    0x00, 0xf1, 0x42, 0xf1, 0x3a, 0x10, 0x2b, 0x40, 0x3f, 0xef, 0x15, 0x27, 0xda,
    0xec, 0xec, 0x58, 0xdf, 0xee, 0x2c, 0xea, 0x2d, 0x2d, 0x00, 0x00, 0x00, 0x00,
    0xde, 0xde, 0xff, 0xff, 0x04, 0x00, 0x00, 0x00, 0x00, 0x1e, 0x00, 0x00, 0x4e,
    0x2b, 0x2d, 0xdb, 0xff, 0xf8, 0xf0, 0xec, 0x22, 0x45, 0x25, 0xe9, 0xf2, 0xe9,
    0xd5, 0x09, 0x1e, 0x2a, 0x10, 0xdd, 0xd9, 0xe9, 0x05, 0xf2, 0x28, 0xfe, 0x1f,
    0x00, 0xfb, 0xeb, 0xfb, 0xf3, 0x1e, 0x31, 0x0a, 0xdb, 0xfa, 0xfb, 0xfe, 0xd0,
    0x1e, 0x3a, 0x18, 0xd6, 0xf1, 0xf5, 0xda, 0xf8, 0x3f, 0x2e, 0x0e, 0x0f, 0xf7,
    0xeb, 0xec, 0x0e, 0x2a, 0x0b, 0xff, 0xbd, 0xe2, 0xef, 0xb0, 0xf2, 0x3a, 0x37,
    0x1e, 0xd8, 0xe9, 0xf0, 0xd9, 0xd6, 0x23, 0x35, 0x1d, 0xf9, 0xdf, 0xed, 0xd1,
    0xe8, 0x42, 0x15, 0xfb, 0xd5, 0xf8, 0xf2, 0xc1, 0xd2, 0x29, 0x28, 0x1c, 0x0f,
    0xfc, 0xfe, 0xd2, 0xd7, 0x32, 0x19, 0x1b, 0xdf, 0x00, 0xde, 0xe9, 0xdd, 0x36,
    0x32, 0x22, 0xe5, 0xd7, 0xf4, 0xef, 0xc5, 0x27, 0x37, 0x1d, 0xf2, 0xfe, 0xf0,
    0xbe, 0xe7, 0xd6, 0xda, 0xf8, 0xf8, 0xff, 0xfa, 0xe5, 0xf7, 0xdb, 0xfd, 0x04,
    0xd8, 0xf0, 0x03, 0xc6, 0xf2, 0xee, 0xf3, 0xf1, 0xef, 0x01, 0x01, 0xec, 0xea,
    0xc7, 0xdc, 0xe4, 0xe3, 0xfa, 0x04, 0xde, 0x0b, 0x01, 0x01, 0xf3, 0xef, 0x00,
    0xfe, 0xe7, 0xcf, 0xee, 0x18, 0xf0, 0xe4, 0xff, 0xf6, 0xe4, 0x0b, 0xe2, 0xea,
    0xf3, 0xe9, 0xf8, 0xe4, 0xe1, 0x07, 0xe5, 0xdf, 0xe9, 0xda, 0xff, 0xf9, 0xde,
    0xd0, 0xfe, 0xf1, 0xf3, 0xeb, 0x00, 0xfa, 0xf6, 0xfc, 0xf2, 0x0d, 0x07, 0xec,
    0x01, 0xfd, 0xee, 0xe2, 0xd4, 0xfd, 0xf7, 0xe7, 0xf9, 0xf6, 0xda, 0xda, 0xc6,
    0xef, 0xfc, 0xe5, 0x00, 0x0f, 0xe0, 0xd9, 0xe7, 0x25, 0x00, 0xf1, 0xf0, 0x0b,
    0xe4, 0xd1, 0xe6, 0x10, 0x0a, 0xcb, 0x00, 0x0b, 0xf5, 0x1b, 0xe5, 0x04, 0xf6,
    0xee, 0x00, 0xf8, 0xcb, 0xe8, 0x2d, 0x3d, 0x06, 0xe6, 0x04, 0xfe, 0xd2, 0xdb,
    0x2a, 0x53, 0xfc, 0xd2, 0xf3, 0x00, 0xd3, 0xf7, 0x20, 0x41, 0x1e, 0xdf, 0xe9,
    0x05, 0xf6, 0xc7, 0x35, 0x1f, 0x06, 0xec, 0xea, 0xdd, 0xd5, 0x12, 0x1e, 0x34,
    0xff, 0xd6, 0xec, 0xf5, 0x09, 0xbb, 0x29, 0x59, 0x1c, 0xed, 0xef, 0xf2, 0xd3,
    0xf5, 0x1f, 0x3b, 0x20, 0xfb, 0xf9, 0xfa, 0xdc, 0x03, 0x30, 0x36, 0x10, 0xca,
    0xf2, 0x03, 0xcd, 0xe2, 0x48, 0x3a, 0x10, 0xc2, 0xfb, 0x0c, 0xf7, 0xc3, 0x1e,
    0x21, 0x17, 0xf7, 0xed, 0xe9, 0xe8, 0xde, 0x3c, 0x3a, 0xf0, 0xc5, 0x01, 0xe3,
    0xe4, 0xd1, 0x28, 0x28, 0x09, 0xeb, 0x01, 0xf8, 0xeb, 0xd6, 0x2f, 0x29, 0x11,
    0xf1, 0xfe, 0xdc, 0xe5, 0xcb, 0x24, 0x42, 0x29, 0xe3, 0xfb, 0xf8, 0xdc, 0xd2,
    0x1b, 0x36, 0x1a, 0xcc, 0xec, 0xfc, 0xc0, 0xe8, 0x00, 0x00, 0x00, 0x00, 0x00,
    0x00, 0x00, 0x00, 0x00, 0x00, 0x00, 0x00, 0x00, 0x00, 0x00, 0x00, 0x00, 0x00,
    0x00, 0x00, 0x00, 0x00, 0x00, 0x00, 0x00, 0x00, 0x00, 0x00, 0x00, 0x00, 0x00,
    0x00, 0x00, 0x00, 0x00, 0x00, 0x00, 0x00, 0x00, 0x00, 0x00, 0x00, 0x00, 0x00,
    0x00, 0x00, 0x00, 0x00, 0x00, 0x00, 0x00, 0x00, 0x00, 0x00, 0x00, 0x00, 0x00,
    0x00, 0x00, 0x00, 0x00, 0x00, 0x00, 0x00, 0x00, 0x00, 0x00, 0x00, 0x00, 0x00,
    0x00, 0x00, 0x00, 0x00, 0x00, 0x00, 0x00, 0x00, 0x00, 0x00, 0x00, 0x00, 0x00,
    0x00, 0x00, 0x00, 0x00, 0x00, 0x00, 0x00, 0x00, 0x00, 0x00, 0x00, 0x00, 0x00,
    0x00, 0x00, 0x00, 0x00, 0x00, 0x00, 0x00, 0x00, 0x00, 0x00, 0x00, 0x00, 0x00,
    0x00, 0x00, 0x00, 0x00, 0x00, 0x00, 0x00, 0x00, 0x00, 0x00, 0x00, 0x32, 0x48,
    0x1d, 0xe5, 0x05, 0xe5, 0xbe, 0xff, 0x06, 0x4c, 0xfe, 0xec, 0xf1, 0xea, 0xd1,
    0xbe, 0x2d, 0x4b, 0x2f, 0xc7, 0xf5, 0xef, 0x06, 0xfb, 0x24, 0x37, 0x0c, 0x00,
    0xf9, 0xd0, 0xd7, 0xe5, 0x39, 0x39, 0x1f, 0xf8, 0xec, 0xdf, 0xe5, 0xc7, 0x2c,
    0x3a, 0x23, 0xbd, 0x01, 0xe7, 0xd0, 0xcc, 0x48, 0x5a, 0x39, 0x0d, 0xff, 0xe3,
    0xea, 0xec, 0x37, 0x52, 0x0a, 0xdc, 0xfd, 0xea, 0xd7, 0xe4, 0x3e, 0x37, 0x03,
    0xdb, 0xfc, 0xf8, 0xd1, 0x03, 0x3e, 0x1e, 0x1b, 0x12, 0xf1, 0xec, 0xdc, 0x1f,
    0x3b, 0x2c, 0xed, 0x00, 0x03, 0xef, 0xea, 0xf0, 0x1e, 0x2f, 0x06, 0xf8, 0xff,
    0xe8, 0x0a, 0xe0, 0x19, 0x1d, 0x05, 0xde, 0x0a, 0xd7, 0x18, 0x04, 0x0d, 0x48,
    0x08, 0x04, 0xf0, 0xe3, 0xe2, 0xc5, 0x14, 0x22, 0x28, 0xd3, 0x05, 0xf1, 0xe4,
    0xea, 0xff, 0xfa, 0xfe, 0x01, 0x00, 0x00, 0xfc, 0x10, 0xff, 0xf9, 0x00, 0xfa,
    0xf8, 0xf3, 0x12, 0x04, 0x00, 0x00, 0xf4, 0xfd, 0x00, 0x00, 0x09, 0xfe, 0xfe,
    0xf8, 0xfc, 0xfd, 0xf9, 0xd8, 0xff, 0xf8, 0x00, 0xff, 0x00, 0x00, 0xfe, 0x00,
    0x04, 0x07, 0x00, 0x00, 0x00, 0xff, 0x00, 0x00, 0x02, 0xfe, 0xff, 0x00, 0x00,
    0x00, 0x00, 0x00, 0x08, 0xff, 0x00, 0x00, 0x00, 0xff, 0xf7, 0x00, 0xf6, 0x02,
    0x01, 0x00, 0x00, 0xfe, 0xfd, 0x00, 0x00, 0x08, 0xfd, 0x00, 0x00, 0x00, 0x00,
    0xf7, 0xf7, 0x09, 0x00, 0x00, 0xfb, 0xf4, 0xf6, 0x00, 0xf9, 0x01, 0x00, 0x00,
    0x00, 0xfa, 0xfa, 0xe9, 0xff, 0x00, 0x00, 0x00, 0xf1, 0x00, 0xf7, 0x00, 0xff,
    0x00, 0x00, 0xfd, 0x00, 0xf9, 0x00, 0xef, 0xed, 0xfe, 0x00, 0x00, 0xff, 0x03,
    0xf6, 0x00, 0x00, 0x0a, 0xfe, 0xc8, 0xb8, 0x2d, 0xe5, 0xe7, 0x2b, 0x26, 0xec,
    0xbc, 0xbf, 0x45, 0xe0, 0xe7, 0x3b, 0x16, 0x14, 0xd2, 0xb1, 0x1f, 0xef, 0xf2,
    0x1d, 0x46, 0x10, 0xda, 0xf4, 0xf8, 0xd9, 0xff, 0xe8, 0x1b, 0x1f, 0xb4, 0xb7,
    0x39, 0xd3, 0xd9, 0x18, 0x43, 0x17, 0xd8, 0xd0, 0x09, 0xad, 0xc9, 0xfe, 0x4d,
    0x0b, 0xd9, 0xbf, 0x30, 0xd5, 0xe3, 0x34, 0x03, 0x0e, 0xcd, 0xb5, 0x27, 0xcb,
    0xf7, 0x28, 0x36, 0x0e, 0xcc, 0xd5, 0x2f, 0xcd, 0xd7, 0x19, 0x19, 0x16, 0xf3,
    0xd7, 0x1d, 0x09, 0xf1, 0xd4, 0x23, 0xf5, 0xca, 0xd0, 0x20, 0xca, 0xf3, 0x0e,
    0x56, 0x2b, 0xee, 0xa5, 0x3e, 0xc8, 0xdb, 0xe3, 0x27, 0x1d, 0xd1, 0xde, 0x18,
    0xdd, 0xdf, 0x16, 0x3f, 0xfc, 0xe5, 0xd0, 0x05, 0xd7, 0xe2, 0x17, 0x0b, 0x2b,
    0xe0, 0xac, 0xfe, 0xcd, 0xde, 0x33, 0x18, 0x0a, 0x2b, 0x2c, 0xd7, 0xf9, 0xf3,
    0xe7, 0xbb, 0xea, 0x12, 0x11, 0x05, 0xfb, 0xea, 0x03, 0xe3, 0xfb, 0x22, 0x21,
    0xe8, 0xf3, 0x02, 0x1d, 0xdb, 0xfc, 0x12, 0x3e, 0xd2, 0xfd, 0xef, 0x06, 0xd9,
    0xe3, 0x3e, 0x12, 0xed, 0x09, 0x04, 0x0c, 0xc9, 0xfa, 0x06, 0x0c, 0xf5, 0xf7,
    0x02, 0xeb, 0xed, 0xfd, 0x0d, 0x08, 0xd7, 0x02, 0xe1, 0xbe, 0xe2, 0xf4, 0x03,
    0x0c, 0xe9, 0x03, 0xe1, 0xff, 0xe4, 0x1d, 0x1a, 0x0f, 0xc8, 0x01, 0xdb, 0xe9,
    0x0c, 0x28, 0x11, 0x33, 0xef, 0x00, 0xe3, 0xe7, 0xf2, 0xef, 0x37, 0x22, 0xdb,
    0xfe, 0xf6, 0xcd, 0xf4, 0xf1, 0x17, 0xf2, 0xd8, 0xff, 0xf1, 0x00, 0xd8, 0xe7,
    0x30, 0x0a, 0xe0, 0xf8, 0x00, 0xd0, 0xf9, 0xe4, 0x19, 0x01, 0xe3, 0xf9, 0xef,
    0xc3, 0xd3, 0xe3, 0x12, 0x0b, 0xbe, 0x02, 0xe3, 0xbd, 0xcb, 0xeb, 0xd6, 0xf2,
    0xff, 0xf8, 0x00, 0x00, 0xf3, 0xfa, 0xe4, 0x00, 0xea, 0xfd, 0x00, 0xe8, 0xf7,
    0xdc, 0xe2, 0xf2, 0xf6, 0xff, 0x00, 0xf8, 0xfa, 0xd0, 0xd2, 0xfe, 0xfc, 0xf5,
    0x00, 0xee, 0xef, 0xdb, 0xdf, 0xff, 0xf7, 0x00, 0x00, 0xf6, 0xf2, 0xf5, 0xed,
    0x00, 0xf0, 0x00, 0x00, 0xed, 0xff, 0xe5, 0xc6, 0xe7, 0xf5, 0xee, 0x00, 0xfc,
    0xf1, 0xf3, 0xee, 0xf7, 0xe5, 0xff, 0x00, 0xe4, 0xef, 0xe1, 0xd9, 0x00, 0xf7,
    0x00, 0x00, 0xf5, 0xf6, 0xd6, 0xe1, 0xff, 0xf3, 0xfd, 0x00, 0xf0, 0xe2, 0xeb,
    0xe0, 0xfa, 0xf9, 0xfd, 0x00, 0xdc, 0xec, 0xf0, 0xf3, 0xfe, 0xff, 0x00, 0x00,
    0xec, 0xe8, 0xe4, 0xf0, 0x00, 0xfd, 0xe9, 0x00, 0xf3, 0xe5, 0xd2, 0xeb, 0x00,
    0xf2, 0x00, 0x00, 0xf8, 0xee, 0xd7, 0xf5, 0xea, 0xff, 0x00, 0x00, 0xed, 0xf2,
    0x27, 0x0d, 0x06, 0xcd, 0x05, 0xfc, 0xc3, 0xea, 0x1b, 0x25, 0x10, 0xe8, 0xe9,
    0xd6, 0xdf, 0xd6, 0x14, 0x2b, 0xf5, 0xd7, 0xf4, 0xe4, 0xf0, 0xd9, 0x0a, 0x19,
    0xef, 0xbf, 0xf2, 0xfd, 0xe4, 0xd0, 0x1c, 0x37, 0x01, 0xe1, 0xf3, 0xf7, 0xde,
    0xb3, 0x21, 0x35, 0x1b, 0xcc, 0xf8, 0xdf, 0xc7, 0xbb, 0x1f, 0x34, 0x19, 0xd7,
    0x01, 0xd3, 0xe1, 0xeb, 0x1e, 0x2e, 0x05, 0xe4, 0xef, 0xfb, 0xde, 0xec, 0x1b,
    0x46, 0x0e, 0xd7, 0x01, 0xf0, 0xbd, 0x14, 0x1b, 0x3c, 0x11, 0xe8, 0x00, 0xce,
    0xed, 0xe2, 0x01, 0x20, 0x1a, 0xeb, 0xfe, 0xd2, 0xda, 0xc3, 0x09, 0x3a, 0x15,
    0xd6, 0x03, 0xdc, 0xe6, 0xe4, 0x20, 0x35, 0x04, 0xe0, 0xef, 0xfa, 0xda, 0xc5,
    0x30, 0x30, 0x05, 0xc3, 0xfe, 0xf8, 0xcf, 0xd7, 0x20, 0x31, 0x34, 0xc6, 0xf5,
    0xda, 0xdd, 0xcf, 0xe5, 0xe6, 0xfc, 0xee, 0xfa, 0x00, 0xef, 0xec, 0x0c, 0xff,
    0x0b, 0xe8, 0xff, 0xf7, 0xef, 0xe4, 0xef, 0xf8, 0xfd, 0xed, 0x00, 0x00, 0x06,
    0xde, 0xe0, 0xed, 0x0c, 0xf9, 0xfc, 0x00, 0xec, 0xf2, 0xf8, 0xfb, 0xe8, 0xf7,
    0xff, 0xff, 0x06, 0xb8, 0xea, 0xf8, 0xfe, 0x01, 0x00, 0x01, 0xfa, 0xf1, 0xe3,
    0xdd, 0xe9, 0xf7, 0xed, 0x00, 0xda, 0xea, 0xe6, 0x04, 0xfc, 0xd8, 0xfb, 0xf4,
    0xc7, 0xdc, 0xdd, 0xeb, 0xff, 0xef, 0x00, 0xed, 0xd4, 0xe2, 0xd6, 0xdb, 0xf2,
    0x06, 0xfe, 0x00, 0xdf, 0xcc, 0xe0, 0xf4, 0xfd, 0xeb, 0xfe, 0x00, 0xce, 0xf5,
    0xd7, 0xf2, 0x06, 0x00, 0xfe, 0x01, 0xf4, 0xd8, 0xf1, 0xfc, 0x06, 0xfc, 0xeb,
    0x00, 0xe4, 0xdb, 0xc5, 0xee, 0xef, 0x04, 0xf2, 0x00, 0xf1, 0xe9, 0xef, 0x0c,
    0xff, 0xfe, 0xfc, 0xfa, 0xde, 0xe3, 0x38, 0x47, 0x1b, 0xc9, 0xf2, 0xe5, 0xe8,
    0xff, 0x48, 0x72, 0x11, 0xc2, 0xed, 0xdf, 0xe6, 0xf5, 0x31, 0x52, 0x06, 0xf8,
    0xee, 0xcd, 0xee, 0xb6, 0x49, 0x29, 0x2b, 0xae, 0xea, 0xd6, 0xf3, 0x90, 0x35,
    0x5b, 0xfd, 0xdb, 0xf0, 0xdf, 0xdb, 0xa5, 0x23, 0x45, 0x18, 0xb3, 0xfa, 0xe5,
    0xd5, 0xc3, 0x15, 0x36, 0x3c, 0xef, 0xde, 0xe5, 0xc2, 0xaf, 0x38, 0x2c, 0xff,
    0xed, 0xfc, 0x05, 0x08, 0xca, 0x2b, 0x4a, 0xf5, 0xec, 0xf9, 0xf6, 0xcc, 0xe4,
    0x35, 0x42, 0x2f, 0xc7, 0xe9, 0xe8, 0x09, 0xdd, 0x12, 0x43, 0xf5, 0xda, 0xfa,
    0xe1, 0xee, 0xec, 0x16, 0x38, 0x06, 0xe2, 0xf2, 0xea, 0xfb, 0xd5, 0x21, 0x2a,
    0x00, 0xc5, 0xda, 0xe4, 0xdd, 0xc7, 0x30, 0x2b, 0xf7, 0xe5, 0xfe, 0x01, 0xed,
    0xaf, 0x13, 0x28, 0x0f, 0xe4, 0xf1, 0xd6, 0xec, 0xc6, 0x00, 0x00, 0x00, 0xfb,
    0x00, 0x00, 0x03, 0x02, 0x00, 0x00, 0x00, 0xfd, 0xfa, 0xf7, 0xf6, 0x01, 0x00,
    0x00, 0xff, 0xfb, 0x00, 0x00, 0x08, 0xfd, 0x00, 0xff, 0x00, 0xfb, 0xfe, 0xf7,
    0x01, 0xfa, 0x00, 0x00, 0x00, 0xff, 0xff, 0x00, 0x00, 0xff, 0x00, 0x00, 0x00,
    0xff, 0x00, 0x00, 0x02, 0x01, 0x00, 0x00, 0x00, 0xfb, 0x00, 0x00, 0x0a, 0x05,
    0x00, 0x00, 0x00, 0xff, 0xff, 0x00, 0xfe, 0x01, 0x00, 0x00, 0x00, 0xfd, 0x00,
    0x00, 0xff, 0xfe, 0x00, 0x00, 0x00, 0x00, 0x00, 0xff, 0xff, 0x02, 0x00, 0x00,
    0x00, 0xfd, 0xff, 0x00, 0x01, 0x05, 0x00, 0x00, 0x00, 0xfc, 0x00, 0xfc, 0xf6,
    0xfd, 0x00, 0x00, 0xfd, 0xfe, 0xff, 0x00, 0x0c, 0x01, 0x00, 0x00, 0x00, 0xfd,
    0x00, 0xfe, 0x03, 0xff, 0x00, 0x00, 0x00, 0xf8, 0xff, 0x00, 0x04, 0x02, 0xfd,
    0xf1, 0x0c, 0xd5, 0xdf, 0xbc, 0x2b, 0x1f, 0xe6, 0xb1, 0xd8, 0x13, 0x1a, 0xd1,
    0x1f, 0x21, 0xf5, 0xaf, 0xc5, 0x2f, 0xfa, 0xe7, 0x5e, 0x2e, 0xe4, 0xec, 0xe1,
    0xf3, 0xf7, 0xda, 0x22, 0x0e, 0xe7, 0xbd, 0xcc, 0x27, 0xff, 0xbb, 0xf0, 0x18,
    0xfa, 0xd4, 0xec, 0xed, 0x05, 0xb6, 0x20, 0x0f, 0xe0, 0xc3, 0xd5, 0x0a, 0x01,
    0x05, 0x45, 0x35, 0x07, 0xc3, 0xd3, 0x07, 0xef, 0xa8, 0x24, 0x40, 0xdd, 0xd5,
    0xca, 0x03, 0xf0, 0xe5, 0x58, 0x3a, 0xe7, 0xdb, 0xcd, 0x19, 0xbd, 0xf5, 0x0b,
    0x26, 0xe2, 0xc5, 0xd0, 0xfd, 0xd3, 0xd0, 0x2b, 0x29, 0xea, 0xd9, 0x09, 0xf8,
    0x05, 0xcd, 0x2b, 0x5b, 0xeb, 0xc2, 0xd6, 0x09, 0xcf, 0xbe, 0x57, 0x0c, 0xdf,
    0xe3, 0xdf, 0xff, 0xe3, 0xe4, 0x2c, 0x00, 0xc1, 0x02, 0xc0, 0xec, 0xf7, 0xbf,
    0x3d, 0x00, 0x1b, 0x2b, 0xfa, 0xca, 0xff, 0xde, 0xcc, 0xe4, 0x24, 0x4f, 0x0e,
    0xdc, 0xfc, 0xe3, 0xc3, 0xef, 0x16, 0x3b, 0x17, 0xdb, 0x02, 0xd3, 0xd3, 0xc8,
    0x12, 0x1a, 0x1c, 0xce, 0xf6, 0xc1, 0xdb, 0xf9, 0x26, 0x43, 0x1a, 0xe0, 0xe3,
    0xec, 0xa7, 0xc8, 0x00, 0x3c, 0x16, 0xe2, 0xf9, 0xf8, 0xe6, 0xeb, 0x12, 0x23,
    0x10, 0xd5, 0xfb, 0xec, 0xca, 0xe0, 0x0a, 0x27, 0xf0, 0xde, 0xe6, 0x09, 0x08,
    0xce, 0x0a, 0x50, 0xe5, 0xb5, 0xeb, 0x0c, 0xe1, 0xf7, 0x1d, 0x53, 0xf3, 0xde,
    0xe4, 0xde, 0xea, 0xb8, 0x1b, 0x56, 0x1b, 0xdb, 0x02, 0xc1, 0xbf, 0xc8, 0x08,
    0x1c, 0xfe, 0xf3, 0xfd, 0xf1, 0xe5, 0xc3, 0x25, 0x61, 0xeb, 0xe4, 0xe3, 0xf7,
    0xb2, 0xe3, 0x39, 0x41, 0xfb, 0xb6, 0xeb, 0x07, 0xdf, 0xd0, 0x1c, 0x4d, 0x16,
    0xbb, 0xde, 0xe5, 0xf1, 0xd6, 0x13, 0x09, 0x24, 0xc4, 0x0f, 0x09, 0xcd, 0xd3,
    0xf7, 0x35, 0x23, 0xdf, 0xf5, 0x00, 0xef, 0xe4, 0x06, 0x14, 0x0a, 0xdd, 0x00,
    0xed, 0xc1, 0xbb, 0xe0, 0x03, 0x1f, 0xf1, 0xf9, 0x0e, 0xe5, 0xe8, 0xfb, 0x28,
    0x14, 0xe2, 0x00, 0x05, 0xdb, 0xbe, 0x05, 0x10, 0x05, 0xf8, 0x03, 0x10, 0xca,
    0xdf, 0xd6, 0xf7, 0xfa, 0x07, 0xfc, 0xff, 0xc2, 0xe7, 0xd1, 0x02, 0xf4, 0xcb,
    0x00, 0x0a, 0xcf, 0xd3, 0xfa, 0x2c, 0x04, 0xb7, 0x00, 0x19, 0xcf, 0x01, 0xe9,
    0x0f, 0x26, 0xcb, 0x01, 0xfd, 0xec, 0xb6, 0xef, 0x30, 0x10, 0xf3, 0x06, 0xf4,
    0xce, 0xed, 0xea, 0x30, 0x10, 0xf0, 0x06, 0x15, 0xd2, 0x00, 0xf0, 0x46, 0x14,
    0xf7, 0xf6, 0x0f, 0xf5, 0xd0, 0x08, 0x1a, 0x26, 0xcd, 0xff, 0x1e, 0xc7, 0xfc,
    0x0d, 0x4a, 0x09, 0xc0, 0xf8, 0x00, 0xc4, 0xdd, 0xeb, 0x04, 0x37, 0xcd, 0x43,
    0x2c, 0xe0, 0xff, 0xcd, 0x19, 0x21, 0xff, 0x41, 0x4f, 0xe9, 0x1b, 0xd5, 0x08,
    0x2f, 0xea, 0x31, 0x1c, 0xfd, 0xea, 0xcd, 0x2d, 0xee, 0xfc, 0x4c, 0x42, 0x0a,
    0xf5, 0xd2, 0x19, 0x32, 0x03, 0x49, 0x47, 0xf2, 0x10, 0xdd, 0x1c, 0x03, 0x09,
    0x18, 0x0a, 0x14, 0x13, 0x0a, 0xf8, 0x32, 0xef, 0x43, 0xfa, 0x11, 0x12, 0xe3,
    0x03, 0x1e, 0x20, 0x31, 0x0e, 0x08, 0xdf, 0xdf, 0x12, 0x2e, 0x06, 0x3d, 0x2f,
    0x0a, 0x10, 0xc1, 0x18, 0x3f, 0xed, 0x26, 0x46, 0xed, 0x0d, 0xd7, 0xfd, 0x36,
    0xf8, 0x30, 0x12, 0x07, 0x0b, 0xce, 0x14, 0x3f, 0x10, 0x2f, 0x21, 0x19, 0xe7,
    0xd8, 0x21, 0x19, 0xf2, 0x44, 0x35, 0xe9, 0xf0, 0xde, 0x0d, 0x13, 0xf8, 0xfc,
    0x11, 0xe9, 0xf7, 0xe7, 0x12, 0x21, 0xf6, 0x39, 0x49, 0x0e, 0xdf, 0x4e, 0x69,
    0x21, 0xee, 0xe3, 0xe9, 0xd9, 0xed, 0x49, 0x57, 0x02, 0xec, 0xdf, 0xd1, 0xc3,
    0xd6, 0x17, 0x51, 0x1a, 0xe5, 0xe7, 0xc7, 0xe4, 0xd5, 0x15, 0x36, 0x27, 0xbf,
    0xf5, 0xdc, 0xf8, 0xe0, 0x35, 0x47, 0x09, 0xe4, 0xe9, 0xeb, 0xbe, 0xcd, 0x2c,
    0x3a, 0x2f, 0xb3, 0xf4, 0xd0, 0xd2, 0xbd, 0x28, 0x34, 0x19, 0xcb, 0xec, 0xd7,
    0xc4, 0xd8, 0x3c, 0x58, 0xfe, 0xe3, 0xe9, 0xfe, 0xe2, 0xd5, 0x4b, 0x6d, 0x23,
    0xf2, 0xe3, 0xf5, 0xcd, 0xf6, 0x2c, 0x30, 0x1a, 0xc2, 0xe6, 0xef, 0xef, 0xeb,
    0x1c, 0x58, 0xf2, 0xda, 0xef, 0xfa, 0xec, 0xbf, 0x1c, 0x3b, 0xee, 0xc6, 0xec,
    0xea, 0xce, 0xdf, 0x19, 0x30, 0x09, 0xb9, 0xde, 0xe6, 0xd7, 0xf4, 0x25, 0x33,
    0xf5, 0xb8, 0xf2, 0xed, 0xec, 0xb9, 0x1d, 0x49, 0xf0, 0xcd, 0xec, 0xd5, 0xd0,
    0xd5, 0xdc, 0xf8, 0xf6, 0x16, 0xb6, 0xd8, 0x43, 0x0c, 0xea, 0xf3, 0xc6, 0x17,
    0xeb, 0xf3, 0xff, 0x24, 0xf1, 0xe7, 0xbe, 0x2e, 0xe7, 0x01, 0x38, 0x02, 0xe6,
    0xf7, 0xf8, 0xdd, 0xde, 0xd4, 0xe7, 0x2c, 0xed, 0xdd, 0xc0, 0x1a, 0xd5, 0xe4,
    0x39, 0x03, 0xd4, 0xef, 0xe1, 0xee, 0xdc, 0xba, 0x31, 0x2a, 0xf8, 0xee, 0xef,
    0x1a, 0xe7, 0x07, 0x46, 0x1d, 0xe6, 0xf2, 0xe3, 0xf5, 0xf5, 0xa5, 0x43, 0x1d,
    0xd5, 0xf4, 0xe2, 0xd1, 0xd6, 0xf0, 0x2e, 0x2c, 0xef, 0xeb, 0xcf, 0x31, 0xe0,
    0xe5, 0x1b, 0x0c, 0xda, 0xe7, 0xdb, 0x24, 0xd6, 0xc6, 0x4b, 0x35, 0xeb, 0xef,
    0xed, 0x10, 0xe8, 0xba, 0x1b, 0x2c, 0xbf, 0xe6, 0xd0, 0x03, 0xcc, 0xc2, 0x4a,
    0xf7, 0xe6, 0xdf, 0xd6, 0x03, 0xe7, 0xc1, 0x42, 0x1f, 0xd1, 0xfc, 0xc1, 0xf6,
    0xc1, 0xc7, 0x1c, 0x1b, 0xdc, 0xdd, 0xe4, 0x0c, 0xeb, 0x05, 0xf4, 0xfd, 0xe0,
    0xe5, 0x00, 0xe8, 0xec, 0xfe, 0xe3, 0xda, 0xdc, 0x01, 0x0e, 0xf8, 0xf3, 0xf5,
    0xf4, 0xf1, 0xe9, 0xcf, 0xfc, 0xef, 0xdf, 0x03, 0xd9, 0xd8, 0x0b, 0xf1, 0xea,
    0xf5, 0xfa, 0xff, 0xf2, 0xdb, 0xf1, 0x01, 0xf1, 0x09, 0xfd, 0x0b, 0xfa, 0xe5,
    0xd8, 0x05, 0xfd, 0xed, 0xe2, 0xfa, 0xd4, 0xd5, 0xd2, 0xf8, 0xf3, 0xec, 0xf3,
    0x10, 0xdb, 0xd5, 0xc2, 0xfd, 0xee, 0xfb, 0xe8, 0x00, 0xda, 0xf6, 0xec, 0xe9,
    0xf7, 0x07, 0xe6, 0xf7, 0xf4, 0xc5, 0xdb, 0xe4, 0xfd, 0xfe, 0xfd, 0x04, 0xd4,
    0xd3, 0xda, 0xe3, 0xfd, 0x05, 0xf4, 0x1f, 0xe1, 0xd0, 0xec, 0x0b, 0x06, 0xf7,
    0xf2, 0x10, 0xd6, 0xe0, 0xf8, 0xed, 0xf7, 0xfa, 0xef, 0x10, 0xee, 0xd3, 0xf9,
    0xec, 0xf0, 0x04, 0x07, 0xff, 0xda, 0xdf, 0xcd, 0x04, 0x16, 0xff, 0x2f, 0x22,
    0xf8, 0xdf, 0xd4, 0x1d, 0x1a, 0x07, 0x2a, 0x35, 0x05, 0x24, 0xcb, 0x22, 0x2c,
    0x28, 0x3f, 0x2f, 0x19, 0x03, 0xdb, 0xfc, 0x0a, 0x06, 0x3d, 0x1d, 0x1e, 0x28,
    0xec, 0x0f, 0x1a, 0x05, 0x0d, 0x37, 0x1f, 0x21, 0xbd, 0xff, 0x24, 0xeb, 0x2d,
    0x08, 0x0c, 0xf0, 0xe9, 0x15, 0x16, 0x00, 0x26, 0x1b, 0x0b, 0x09, 0xe7, 0x11,
    0x33, 0x04, 0x46, 0x26, 0x05, 0xfb, 0xd5, 0x14, 0x30, 0xf9, 0x43, 0x3d, 0x29,
    0xff, 0xfd, 0xf5, 0x26, 0x03, 0x31, 0x23, 0x21, 0x12, 0xf4, 0x03, 0x2b, 0x17,
    0x38, 0x13, 0x11, 0x28, 0xd3, 0x0d, 0x23, 0x19, 0x3a, 0x0c, 0x1a, 0x14, 0xcc,
    0x24, 0x1c, 0x02, 0x3d, 0x26, 0xf7, 0x20, 0xda, 0x07, 0x38, 0x03, 0x1e, 0x2d,
    0xfc, 0x2e, 0xe2, 0xfc, 0x3b, 0x17, 0x18, 0x30, 0x07, 0x00, 0x32, 0x5b, 0x15,
    0xd6, 0x01, 0xdf, 0xc7, 0x16, 0x25, 0x47, 0x05, 0xcf, 0xdc, 0xcb, 0xde, 0xde,
    0x1e, 0x3d, 0x31, 0xe2, 0xe6, 0xd8, 0xe4, 0xef, 0x3e, 0x16, 0x29, 0xd2, 0xf0,
    0xcb, 0xe6, 0xf8, 0x36, 0x50, 0xfb, 0x21, 0xfb, 0xf5, 0xd6, 0xd1, 0x40, 0x1a,
    0x08, 0xcc, 0xf4, 0xf5, 0xe1, 0xe5, 0x43, 0x37, 0xf3, 0x02, 0xe3, 0xf2, 0xca,
    0xdf, 0x32, 0x35, 0xf6, 0xd1, 0xf9, 0xfe, 0xd4, 0xcb, 0x36, 0x5e, 0xfd, 0xef,
    0xe8, 0xfe, 0xd2, 0xf4, 0x3f, 0x29, 0x10, 0xef, 0xf1, 0xeb, 0xc9, 0xff, 0x2d,
    0x4d, 0xed, 0xf2, 0xf9, 0xef, 0xcf, 0xde, 0x2c, 0x45, 0xfb, 0xd9, 0xea, 0xd9,
    0xbc, 0xdf, 0x3a, 0x37, 0x1d, 0xd1, 0xdc, 0xea, 0xc5, 0xfd, 0x2f, 0x29, 0xe0,
    0xc9, 0xf8, 0xe0, 0xd4, 0xf0, 0x3f, 0x3a, 0xf6, 0xe0, 0xe0, 0xdb, 0xcb, 0xea,
    0xfa, 0xff, 0x12, 0xbb, 0xff, 0xf8, 0x06, 0xe2, 0x05, 0x00, 0x01, 0xe2, 0x02,
    0xe8, 0xf7, 0xb9, 0xf7, 0x0c, 0x00, 0xeb, 0x01, 0xda, 0xfe, 0xef, 0xf6, 0x08,
    0x12, 0x06, 0xff, 0xfe, 0x0b, 0xcf, 0xf8, 0x0e, 0xeb, 0xe4, 0xf1, 0x01, 0xd6,
    0xeb, 0xf3, 0xe7, 0xf9, 0xf8, 0xfe, 0xfc, 0xe8, 0xb6, 0xe2, 0xfe, 0x09, 0xcc,
    0xef, 0x00, 0xe8, 0xfd, 0xec, 0xf3, 0xf9, 0xdf, 0xf9, 0xf9, 0xd8, 0xf3, 0xf6,
    0xfa, 0x07, 0xdb, 0x01, 0xf9, 0xf9, 0xd5, 0xe3, 0xee, 0x0f, 0xd1, 0x01, 0xf6,
    0xf8, 0xc4, 0x0a, 0xed, 0x11, 0xdb, 0xfe, 0x01, 0xfb, 0xcf, 0xfd, 0x0d, 0x06,
    0xfb, 0xf8, 0x02, 0xf0, 0xda, 0xf1, 0xf9, 0x04, 0xfc, 0xea, 0x02, 0xf4, 0xef,
    0xdb, 0xe9, 0x0a, 0xdf, 0xfe, 0x00, 0x04, 0xf3, 0xe3, 0x11, 0xed, 0xd6, 0xfc,
    0xf9, 0xd8, 0xdf, 0xe6, 0xdc, 0xe5, 0xe8, 0xff, 0xff, 0xf0, 0xec, 0xe5, 0xf9,
    0xef, 0xd5, 0x01, 0xfc, 0xfc, 0x10, 0xde, 0xdd, 0xf6, 0xeb, 0xf4, 0x00, 0xf9,
    0x06, 0xe1, 0xd2, 0xf6, 0x0f, 0xf3, 0xfb, 0xf7, 0xf8, 0xe8, 0xf3, 0x02, 0xfa,
    0x0d, 0xff, 0xf0, 0xed, 0xc8, 0x02, 0x0e, 0xe9, 0x02, 0xff, 0xe1, 0xf7, 0xc2,
    0xdf, 0xe8, 0xfe, 0xf9, 0x00, 0xfa, 0xd6, 0xdd, 0xd5, 0xe7, 0xe0, 0x00, 0x00,
    0xd1, 0xed, 0xf8, 0xdd, 0xf9, 0xd2, 0xff, 0x00, 0xe8, 0xef, 0xf5, 0xd7, 0xee,
    0xeb, 0xf5, 0x00, 0xe0, 0xdf, 0xd1, 0xdd, 0x12, 0xec, 0x00, 0x00, 0xef, 0x0f,
    0xf4, 0xf3, 0xe3, 0xfa, 0xff, 0x00, 0xf9, 0xe6, 0xc4, 0xdd, 0xf3, 0x07, 0xee,
    0xf7, 0xe0, 0xd7, 0xe2, 0xdf, 0xfd, 0xe1, 0x01, 0x00, 0x04, 0xd2, 0xca, 0x11,
    0xda, 0xf0, 0x00, 0x00, 0xec, 0xe7, 0x22, 0xfd, 0xd9, 0xdf, 0xa7, 0xf8, 0x16,
    0x02, 0xf7, 0xcc, 0xd1, 0xf9, 0xfe, 0xed, 0x0f, 0x45, 0x14, 0xea, 0xce, 0x00,
    0xb8, 0x05, 0xfe, 0x01, 0xfa, 0xd4, 0x14, 0xf8, 0xf6, 0xc6, 0x03, 0xf8, 0x1b,
    0xd6, 0xb3, 0x2e, 0xe2, 0xe6, 0xfd, 0x16, 0xf5, 0xe9, 0xf1, 0xf6, 0xe8, 0xc2,
    0xf4, 0x01, 0x12, 0x07, 0xe3, 0xf7, 0xdc, 0xd8, 0x48, 0x48, 0x0f, 0x05, 0xd6,
    0xf0, 0xe3, 0xe9, 0xfc, 0x2d, 0x1a, 0xfd, 0xdf, 0x16, 0xe8, 0xfa, 0x3f, 0x37,
    0x17, 0xf9, 0xd2, 0x11, 0xcd, 0xef, 0x31, 0x1f, 0x0e, 0xf0, 0xd2, 0x17, 0xd8,
    0xc2, 0x19, 0x36, 0xfd, 0xd3, 0xf4, 0x00, 0xdc, 0xd9, 0x0f, 0x46, 0x01, 0xb4,
    0xdf, 0xfb, 0xc2, 0xbf, 0x29, 0x08, 0x11, 0xce, 0xec, 0x09, 0xe5, 0xcf, 0x00,
    0xfe, 0x0f, 0xe9, 0xd9, 0x14, 0xe9, 0xc6, 0x0b, 0x27, 0x10, 0x01, 0xe8, 0xe4,
    0xf6, 0x00, 0xe0, 0xd4, 0xfe, 0x19, 0xfd, 0xd4, 0xe6, 0x02, 0xe2, 0xe2, 0xf1,
    0x0b, 0x24, 0xe5, 0xe2, 0xff, 0xe2, 0xfc, 0x08, 0xf4, 0x0c, 0xf8, 0xed, 0xef,
    0xdb, 0xfe, 0xf2, 0xf2, 0x0c, 0x00, 0xfe, 0x0b, 0xed, 0xd7, 0x0a, 0x27, 0x32,
    0xeb, 0x0c, 0x04, 0xcc, 0xef, 0xdf, 0xfc, 0xff, 0xd4, 0x02, 0xf3, 0xe8, 0xf1,
    0xd9, 0x15, 0xf0, 0xc6, 0xf9, 0x05, 0xbe, 0xe6, 0xf8, 0xfc, 0x21, 0xcb, 0xf7,
    0x04, 0xd6, 0x04, 0xed, 0x1e, 0x23, 0xc6, 0xf2, 0xf3, 0xd0, 0xe0, 0xfd, 0xfb,
    0x21, 0xec, 0x09, 0xf4, 0xbd, 0xe8, 0x0e, 0x0c, 0xed, 0xf9, 0xf6, 0x06, 0xdf,
    0xc5, 0xf9, 0x2e, 0x19, 0xf4, 0xed, 0x10, 0xd5, 0xa6, 0x04, 0x06, 0x1f, 0xdc,
    0xf9, 0x07, 0xea, 0xd4, 0xdb, 0x2f, 0x08, 0xe8, 0x0e, 0xf7, 0xb9, 0xf3, 0x03,
    0xf4, 0xd8, 0xfa, 0xb8, 0xfc, 0x2d, 0x05, 0x19, 0xe4, 0xcb, 0x04, 0xec, 0xd5,
    0x0b, 0x23, 0xdb, 0xe9, 0xce, 0x14, 0xde, 0x09, 0x1b, 0x07, 0x0a, 0xfe, 0xdf,
    0xf0, 0xce, 0xd1, 0xf4, 0xfa, 0x16, 0xb2, 0xbc, 0x15, 0xda, 0xf9, 0x1c, 0x44,
    0x06, 0xf6, 0x0a, 0xff, 0xec, 0xc7, 0x17, 0x29, 0xf9, 0xf1, 0xff, 0xe2, 0xdc,
    0xf0, 0x4a, 0x25, 0x07, 0x0f, 0xf3, 0x05, 0xdf, 0xcc, 0x13, 0x10, 0x01, 0xff,
    0xdf, 0x12, 0xe1, 0xf8, 0x3f, 0x10, 0xfc, 0xd9, 0xc2, 0x21, 0xd6, 0xea, 0x29,
    0x31, 0xde, 0xa6, 0xc6, 0xfa, 0xc7, 0xc9, 0x3b, 0x4a, 0x00, 0xc3, 0xd4, 0xfc,
    0xda, 0xcc, 0x02, 0x2c, 0x12, 0xe2, 0xd0, 0x24, 0xd5, 0xc5, 0x33, 0x36, 0xea,
    0xe4, 0xc9, 0xfc, 0xf2, 0xbf, 0x28, 0x15, 0x0a, 0xdf, 0xdf, 0x16, 0xdf, 0xca,
    0x37, 0x42, 0x11, 0x6d, 0x3a, 0xe5, 0x3d, 0x28, 0xd3, 0xfc, 0xfb, 0x28, 0x35,
    0xce, 0x3d, 0x14, 0xf3, 0xef, 0x04, 0x5b, 0x62, 0xf2, 0x5a, 0x0a, 0x09, 0xd6,
    0x16, 0x32, 0x0a, 0xdd, 0x0e, 0x01, 0xf0, 0x0a, 0xe4, 0x42, 0x55, 0xeb, 0x14,
    0x2a, 0xd9, 0xbd, 0x23, 0x2b, 0x28, 0xc1, 0x41, 0xf5, 0x25, 0xd3, 0x31, 0x38,
    0x3c, 0x23, 0x3a, 0x42, 0xe1, 0xf6, 0x0e, 0x44, 0x67, 0xff, 0x47, 0x11, 0xf8,
    0xc5, 0x04, 0x75, 0x26, 0xed, 0x40, 0x33, 0xf5, 0x04, 0x19, 0x3d, 0x58, 0xe0,
    0x58, 0x40, 0xe8, 0xc7, 0x10, 0x73, 0x23, 0xd8, 0x3c, 0x1e, 0x15, 0xd4, 0xf4,
    0x40, 0x50, 0xae, 0x17, 0x12, 0xf5, 0xe8, 0x2d, 0x2e, 0x43, 0xfc, 0x46, 0x1f,
    0x0b, 0xf4, 0x33, 0x33, 0x43, 0xf5, 0x37, 0xed, 0xd8, 0x14, 0x0d, 0x57, 0x50,
    0xda, 0x21, 0x40, 0xf1, 0xf1, 0x1f, 0x0e, 0xdb, 0xe1, 0xfa, 0xc5, 0x12, 0x1e,
    0x16, 0x16, 0xe6, 0xec, 0x03, 0xca, 0x1c, 0x04, 0x1e, 0x0b, 0xd9, 0xf8, 0xf0,
    0xdd, 0x2e, 0x05, 0x2d, 0x33, 0xff, 0x00, 0xd5, 0xb2, 0x24, 0xf3, 0x0c, 0x15,
    0x05, 0x0d, 0xd5, 0xbd, 0x08, 0x2a, 0x3a, 0x02, 0xfb, 0x08, 0xe2, 0xb7, 0xff,
    0xef, 0x2e, 0x04, 0x08, 0xe8, 0x08, 0xef, 0x35, 0xf6, 0x09, 0x03, 0xe4, 0x19,
    0xe8, 0xd6, 0x3f, 0x14, 0x1d, 0xf4, 0xf7, 0x0b, 0xe7, 0xa3, 0x34, 0x04, 0x04,
    0x24, 0xd0, 0xee, 0xda, 0xd9, 0x2d, 0x22, 0xfb, 0x11, 0x0f, 0x22, 0xe7, 0xc6,
    0x20, 0x33, 0x2c, 0x19, 0x06, 0x03, 0xe4, 0xda, 0x07, 0x02, 0x22, 0xf1, 0x0a,
    0x09, 0xc4, 0xb2, 0x24, 0x2a, 0x06, 0xff, 0xdb, 0xf1, 0x0b, 0xbd, 0xfb, 0xf7,
    0x23, 0x08, 0xf6, 0xf9, 0x0d, 0xba, 0x2f, 0x18, 0x00, 0x00, 0x00, 0x00, 0x00,
    0x00, 0x00, 0x00, 0x00, 0x00, 0x00, 0x00, 0x00, 0x00, 0x00, 0x00, 0x00, 0x00,
    0x00, 0x00, 0x00, 0x00, 0x00, 0x00, 0x00, 0x00, 0x00, 0x00, 0x00, 0x00, 0x00,
    0x00, 0x00, 0x00, 0x00, 0x00, 0x00, 0x00, 0x00, 0x00, 0x00, 0x00, 0x00, 0x00,
    0x00, 0x00, 0x00, 0x00, 0x00, 0x00, 0x00, 0x00, 0x00, 0x00, 0x00, 0x00, 0x00,
    0x00, 0x00, 0x00, 0x00, 0x00, 0x00, 0x00, 0x00, 0x00, 0x00, 0x00, 0x00, 0x00,
    0x00, 0x00, 0x00, 0x00, 0x00, 0x00, 0x00, 0x00, 0x00, 0x00, 0x00, 0x00, 0x00,
    0x00, 0x00, 0x00, 0x00, 0x00, 0x00, 0x00, 0x00, 0x00, 0x00, 0x00, 0x00, 0x00,
    0x00, 0x00, 0x00, 0x00, 0x00, 0x00, 0x00, 0x00, 0x00, 0x00, 0x00, 0x00, 0x00,
    0x00, 0x00, 0x00, 0x00, 0x00, 0x00, 0x00, 0x00, 0x00, 0x00, 0x00, 0x2c, 0x24,
    0x06, 0xd2, 0x00, 0xf2, 0xd7, 0xfd, 0x37, 0x28, 0x12, 0xe0, 0x00, 0xed, 0xfa,
    0xe1, 0x1d, 0x46, 0x11, 0xed, 0xfe, 0xf5, 0xd4, 0xf0, 0x13, 0x0a, 0x0f, 0xe8,
    0xef, 0xe7, 0xd9, 0xfa, 0x28, 0x39, 0x17, 0xf3, 0xff, 0xed, 0xee, 0xd2, 0x24,
    0x3d, 0x0a, 0xd7, 0x01, 0xf0, 0xe0, 0xea, 0x26, 0x25, 0x0b, 0xde, 0xfe, 0xef,
    0xb9, 0xf1, 0x0d, 0x0a, 0xfc, 0xdc, 0xfe, 0xf1, 0xd3, 0x06, 0x3c, 0x4c, 0x0f,
    0xd5, 0xfe, 0xfa, 0xe4, 0x16, 0x3f, 0x2a, 0x01, 0xeb, 0xfd, 0xf3, 0xbd, 0xff,
    0x2c, 0x42, 0x1f, 0xc6, 0x03, 0xe5, 0xdb, 0xf0, 0x10, 0x27, 0x0e, 0xce, 0x00,
    0xf5, 0xf2, 0xe4, 0x09, 0x32, 0x07, 0x0f, 0xf4, 0xf7, 0xc2, 0xc4, 0x36, 0x1c,
    0x03, 0xf2, 0xff, 0xec, 0x03, 0xce, 0x02, 0x2b, 0xfd, 0xe0, 0xfb, 0xcb, 0xde,
    0xeb, 0x22, 0x50, 0x4a, 0xc0, 0x36, 0x1c, 0xd5, 0xd8, 0xfd, 0x2f, 0x55, 0x01,
    0x2e, 0x37, 0xe8, 0x02, 0x2b, 0x38, 0x49, 0x03, 0x4c, 0x1c, 0xe0, 0xb6, 0x2e,
    0x44, 0x1b, 0x0c, 0x32, 0x4e, 0xfb, 0x0d, 0x17, 0x4f, 0x4e, 0xc7, 0x27, 0x0f,
    0xe6, 0xe6, 0x0f, 0x14, 0x21, 0xd2, 0x37, 0xda, 0x06, 0xe1, 0x12, 0x27, 0x3c,
    0x0e, 0x17, 0xfd, 0xea, 0x01, 0x08, 0x32, 0x2e, 0xc8, 0x38, 0xf0, 0xff, 0xca,
    0x0f, 0x42, 0x37, 0xea, 0x49, 0x06, 0xcf, 0xf8, 0x02, 0x38, 0x40, 0xd5, 0x52,
    0x1d, 0x2a, 0xd5, 0x01, 0x27, 0x43, 0xec, 0x2e, 0xe0, 0xe8, 0x01, 0xf8, 0x55,
    0x35, 0xf2, 0x26, 0x15, 0xfd, 0xf2, 0xf8, 0x34, 0x19, 0xe9, 0x71, 0x0f, 0xe3,
    0xde, 0x23, 0x33, 0x59, 0x04, 0x1b, 0x25, 0xca, 0xf8, 0xfd, 0x32, 0x4e, 0xdc,
    0x32, 0x0b, 0xd7, 0xe9, 0xb5, 0xeb, 0x24, 0x00, 0x36, 0x24, 0xff, 0x05, 0xcb,
    0x1d, 0x21, 0x0b, 0x1b, 0x3a, 0x0d, 0x11, 0xc6, 0x16, 0x3d, 0x14, 0x3d, 0x27,
    0xfc, 0xfc, 0xc0, 0x08, 0x0c, 0x0d, 0x59, 0x12, 0x1f, 0x15, 0xd5, 0x17, 0x26,
    0x16, 0x2b, 0x2f, 0x28, 0x05, 0xe1, 0x10, 0x2d, 0x0b, 0x22, 0x06, 0x36, 0xf4,
    0xde, 0x34, 0x40, 0xfa, 0x1b, 0x1b, 0x10, 0x04, 0xc9, 0x15, 0x16, 0x22, 0x50,
    0x17, 0x2d, 0xde, 0xac, 0xfc, 0x35, 0xf4, 0x18, 0x16, 0xf6, 0xf2, 0xde, 0x01,
    0x34, 0x26, 0x35, 0xfe, 0x2f, 0x15, 0xde, 0x27, 0x4a, 0x0e, 0x3e, 0x3f, 0x15,
    0x13, 0xb3, 0x0e, 0x25, 0x29, 0x2d, 0x0f, 0x27, 0xff, 0xde, 0x2b, 0x36, 0x1d,
    0x43, 0x3f, 0x09, 0x01, 0xe0, 0x01, 0x2e, 0x10, 0x1e, 0x21, 0x0e, 0x2a, 0xdf,
    0x13, 0x1e, 0xf5, 0x23, 0x10, 0x0e, 0x09, 0x30, 0x3e, 0x05, 0xdd, 0x08, 0x04,
    0xf3, 0xd4, 0x39, 0x17, 0x01, 0xb1, 0xe9, 0xf1, 0xe2, 0xf5, 0x41, 0x5a, 0x16,
    0xda, 0xf3, 0xfe, 0x05, 0xcb, 0x0f, 0x18, 0x27, 0xe6, 0xf6, 0xe3, 0xd1, 0xd2,
    0x0e, 0x4e, 0x10, 0xdf, 0xf2, 0xf6, 0xef, 0xd8, 0x0d, 0x5a, 0xff, 0xcc, 0xf5,
    0xe8, 0xec, 0xf2, 0x35, 0x3d, 0x21, 0xe5, 0xf8, 0xdc, 0xdf, 0x02, 0x36, 0x12,
    0x24, 0xda, 0xf2, 0xfd, 0xe5, 0xe3, 0x30, 0x43, 0x17, 0xfe, 0x00, 0xf2, 0xf9,
    0xec, 0x64, 0x26, 0xf5, 0xd8, 0xec, 0xdb, 0xeb, 0xdb, 0x13, 0x67, 0x2e, 0xd2,
    0x10, 0xd5, 0xe8, 0xea, 0x18, 0x49, 0x13, 0xe5, 0x04, 0xf1, 0xe9, 0xdf, 0x07,
    0x32, 0x2f, 0x07, 0xfc, 0xf3, 0xf9, 0xce, 0x37, 0x62, 0x23, 0xc0, 0xf9, 0xdc,
    0xe8, 0xd4, 0x17, 0x55, 0x19, 0xd2, 0xef, 0xe4, 0xc0, 0xde, 0x00, 0x00, 0x00,
    0x00, 0x00, 0x00, 0x00, 0x00, 0x00, 0x00, 0x00, 0x00, 0x00, 0x00, 0x00, 0x00,
    0x00, 0x00, 0x00, 0x00, 0x00, 0x00, 0x00, 0x00, 0x00, 0x00, 0x00, 0x00, 0x00,
    0x00, 0x00, 0x00, 0x00, 0x00, 0x00, 0x00, 0x00, 0x00, 0x00, 0x00, 0x00, 0x00,
    0x00, 0x00, 0x00, 0x00, 0x00, 0x00, 0x00, 0x00, 0x00, 0x00, 0x00, 0x00, 0x00,
    0x00, 0x00, 0x00, 0x00, 0x00, 0x00, 0x00, 0x00, 0x00, 0x00, 0x00, 0x00, 0x00,
    0x00, 0x00, 0x00, 0x00, 0x00, 0x00, 0x00, 0x00, 0x00, 0x00, 0x00, 0x00, 0x00,
    0x00, 0x00, 0x00, 0x00, 0x00, 0x00, 0x00, 0x00, 0x00, 0x00, 0x00, 0x00, 0x00,
    0x00, 0x00, 0x00, 0x00, 0x00, 0x00, 0x00, 0x00, 0x00, 0x00, 0x00, 0x00, 0x00,
    0x00, 0x00, 0x00, 0x00, 0x00, 0x00, 0x00, 0x00, 0x00, 0x00, 0x00, 0x00, 0x00,
    0xfc, 0x01, 0x06, 0xe8, 0x16, 0x05, 0xef, 0xee, 0xe4, 0xf8, 0x07, 0xe6, 0x19,
    0x2c, 0xf8, 0xfe, 0xec, 0xf8, 0x10, 0x01, 0x0a, 0xff, 0xf2, 0xee, 0xf1, 0xfd,
    0x02, 0xe4, 0x1c, 0x22, 0xe8, 0xff, 0xe9, 0xfb, 0x16, 0xdd, 0x0f, 0x1a, 0xfd,
    0xda, 0xf2, 0xf7, 0x0d, 0xe7, 0x0f, 0xfe, 0xef, 0xe5, 0xf5, 0xfc, 0x12, 0xf8,
    0x17, 0x19, 0xe1, 0xeb, 0xff, 0xfb, 0x18, 0xe6, 0x06, 0xed, 0x0a, 0xd5, 0xdd,
    0xfa, 0x0c, 0xeb, 0x22, 0x25, 0xe3, 0xed, 0xe7, 0xf5, 0x1e, 0x00, 0x11, 0x16,
    0x0d, 0xf6, 0xf2, 0x01, 0xfb, 0xe0, 0x07, 0xfb, 0xf9, 0xfd, 0xed, 0xfb, 0x0b,
    0xfe, 0x1d, 0x15, 0x03, 0xde, 0xe6, 0xf9, 0x17, 0xd2, 0x23, 0x17, 0xee, 0xee,
    0xea, 0xfc, 0x0e, 0xf1, 0x0d, 0xf8, 0xf2, 0x0c, 0xf1, 0x00, 0x08, 0xf7, 0x08,
    0x20, 0xff, 0xd8, 0xe6, 0xe9, 0xf0, 0x07, 0x11, 0xda, 0x30, 0x17, 0x07, 0xb6,
    0xe5, 0x11, 0x04, 0xd4, 0x23, 0x0a, 0xf4, 0xb9, 0xcd, 0x2d, 0xf8, 0x13, 0x17,
    0x19, 0xfc, 0xdf, 0xe4, 0x0d, 0xfb, 0xbc, 0x0e, 0x16, 0xe2, 0xdc, 0x0a, 0x22,
    0xf2, 0xed, 0xfe, 0x31, 0xe7, 0xf4, 0x0b, 0xe2, 0x09, 0xf4, 0x22, 0x22, 0xc7,
    0xdf, 0xcb, 0xde, 0x1b, 0xf6, 0x00, 0x0b, 0x07, 0xbc, 0xd6, 0x3c, 0xd4, 0xd1,
    0x20, 0x2f, 0xde, 0xd7, 0xe2, 0x00, 0xe7, 0xe1, 0x2b, 0x26, 0xd0, 0xfe, 0xe1,
    0x10, 0xed, 0xe3, 0xf2, 0x45, 0xd0, 0xd6, 0xd6, 0x13, 0xcb, 0xec, 0xf6, 0x3c,
    0xef, 0xf4, 0x0e, 0x19, 0xd8, 0xcd, 0x30, 0x39, 0xe6, 0xd4, 0xc8, 0x1a, 0xd0,
    0xda, 0x2e, 0x47, 0xff, 0xb3, 0xce, 0x1e, 0x17, 0xb1, 0x1f, 0x1f, 0x02, 0x16,
    0xd5, 0x19, 0xe7, 0xf7, 0x3d, 0x2b, 0xf6, 0x24, 0x41, 0x03, 0x59, 0x45, 0xf9,
    0x10, 0x08, 0x30, 0x2b, 0x06, 0x13, 0x42, 0x27, 0x17, 0xe7, 0x0d, 0x0e, 0x09,
    0x23, 0x13, 0xe9, 0xf2, 0xf3, 0x17, 0xfc, 0x0c, 0x17, 0x40, 0x05, 0x14, 0xf1,
    0x0c, 0x3f, 0xf1, 0x3b, 0x03, 0x11, 0xf6, 0x0d, 0x1b, 0xec, 0x2a, 0x14, 0x34,
    0x09, 0xe5, 0xfd, 0x0b, 0x23, 0x2e, 0x1a, 0x27, 0xf5, 0xf8, 0x03, 0x10, 0x22,
    0x17, 0x27, 0x39, 0xf9, 0xf0, 0x00, 0x06, 0x3d, 0xea, 0x2b, 0x0e, 0xf4, 0xe9,
    0xf7, 0x19, 0x5a, 0x1c, 0x2d, 0x0e, 0x13, 0x0c, 0xf3, 0x0d, 0x45, 0xfe, 0x38,
    0x1e, 0x16, 0xe3, 0x01, 0x1d, 0x2b, 0x07, 0x27, 0x2a, 0x27, 0x0d, 0xf7, 0x15,
    0x2f, 0xee, 0x5f, 0x2b, 0xf4, 0x0f, 0xf6, 0x1b, 0x29, 0xfe, 0x21, 0x26, 0xc8,
    0x0b, 0xfe, 0x00, 0x35, 0x13, 0x41, 0x3f, 0xf1, 0xf2, 0xc4, 0x01, 0x11, 0xfd,
    0x1d, 0x2e, 0xf6, 0xf7, 0xda, 0x1b, 0x12, 0x13, 0xfc, 0x38, 0x26, 0x03, 0xc0,
    0x16, 0x1f, 0xf4, 0x27, 0x27, 0xff, 0xef, 0xd1, 0xfc, 0x10, 0xf1, 0x37, 0x11,
    0x1c, 0x21, 0xd8, 0x01, 0x08, 0xf6, 0x0a, 0x35, 0x1f, 0x04, 0xda, 0xe9, 0xff,
    0x0d, 0x05, 0x34, 0x15, 0x29, 0xd4, 0x11, 0x21, 0x00, 0x28, 0x1c, 0x2d, 0x0d,
    0xda, 0x28, 0x24, 0x10, 0x23, 0x5b, 0xff, 0x0e, 0xd5, 0x04, 0x23, 0xeb, 0x2f,
    0x1e, 0x1a, 0xdd, 0xd9, 0x07, 0x0d, 0xff, 0x32, 0x19, 0xff, 0x19, 0xd0, 0x0a,
    0x1a, 0xff, 0x46, 0x2b, 0x18, 0xf5, 0xe4, 0xfe, 0x0b, 0x10, 0x35, 0x2a, 0xed,
    0x12, 0xca, 0x17, 0x22, 0xf1, 0x27, 0x3e, 0x03, 0x12, 0xd1, 0x08, 0x17, 0x0b,
    0x0b, 0x60, 0xff, 0x17, 0xe9, 0xf8, 0xfb, 0xf2, 0x1d, 0xfe, 0x03, 0xf9, 0x14,
    0x09, 0x03, 0xd9, 0xef, 0xf1, 0xbf, 0xf0, 0x22, 0x40, 0x0f, 0xd9, 0xec, 0xe6,
    0xc5, 0xee, 0x1d, 0x22, 0x1a, 0xed, 0xfa, 0xe9, 0xec, 0xc4, 0x23, 0x1a, 0x0d,
    0xd9, 0xfa, 0xf1, 0xe7, 0xec, 0x37, 0x2f, 0x01, 0xcf, 0xe8, 0xfd, 0xc4, 0xe3,
    0x00, 0x03, 0x0c, 0xcb, 0xf2, 0xf3, 0xdb, 0x10, 0x19, 0x05, 0x13, 0xe4, 0xf7,
    0xd7, 0xd8, 0xe1, 0x0e, 0x14, 0x0a, 0xf1, 0xe7, 0x0c, 0xed, 0xc9, 0x21, 0x2b,
    0xf9, 0xcc, 0xf0, 0xf7, 0xe3, 0xfe, 0x23, 0x40, 0xff, 0xdd, 0xe0, 0xdd, 0xec,
    0xba, 0x0a, 0x0e, 0xf6, 0xd2, 0xf1, 0xe6, 0xcf, 0xd1, 0x23, 0x2d, 0xf3, 0xee,
    0xf3, 0xef, 0xd1, 0xdc, 0x29, 0x3e, 0xef, 0xdd, 0xf2, 0xf1, 0xbc, 0xb6, 0x19,
    0x27, 0xf4, 0xd7, 0xe3, 0xf0, 0xe1, 0xcf, 0x20, 0x20, 0xf1, 0xd7, 0xf8, 0xf1,
    0xd1, 0xe6, 0xf2, 0x02, 0x17, 0x01, 0x24, 0x39, 0x07, 0xf4, 0xf5, 0x1e, 0x2c,
    0x21, 0x0b, 0x35, 0x0e, 0xe7, 0xeb, 0x28, 0x22, 0xf6, 0x12, 0x33, 0xe3, 0xec,
    0xf3, 0xf9, 0x00, 0x0d, 0x40, 0x1b, 0x10, 0xdd, 0xf1, 0x04, 0x25, 0x11, 0x1b,
    0x4f, 0x2c, 0xe0, 0x03, 0xf2, 0x24, 0x0e, 0x0f, 0x24, 0x0e, 0x0b, 0xf0, 0x2c,
    0x2e, 0x16, 0x27, 0x2b, 0x1e, 0xfe, 0xf7, 0x20, 0x2e, 0xfe, 0x1c, 0x46, 0xf8,
    0xe7, 0xf2, 0x00, 0x37, 0xf4, 0x40, 0x43, 0xef, 0xf9, 0x02, 0x09, 0x42, 0x09,
    0x52, 0x21, 0x17, 0xf9, 0x07, 0x0a, 0x2c, 0xf3, 0x33, 0x35, 0xfd, 0xdd, 0xf9,
    0xff, 0x29, 0x1a, 0x2b, 0x16, 0x14, 0xef, 0xf5, 0x25, 0x39, 0xf1, 0x35, 0x4d,
    0xf4, 0xd9, 0xea, 0x12, 0x22, 0xf8, 0xef, 0x39, 0xee, 0x03, 0x0a, 0x06, 0x35,
    0xe8, 0x2b, 0x4a, 0xe0, 0xf7, 0x00, 0x00, 0x00, 0x00, 0x00, 0x00, 0x00, 0x00,
    0x00, 0x00, 0x00, 0x00, 0x00, 0x00, 0x00, 0x00, 0x00, 0x00, 0x00, 0x00, 0x00,
    0x00, 0x00, 0x00, 0x00, 0x00, 0x00, 0x00, 0x00, 0x00, 0x00, 0x00, 0x00, 0x00,
    0x00, 0x00, 0x00, 0x00, 0x00, 0x00, 0x00, 0x00, 0x00, 0x00, 0x00, 0x00, 0x00,
    0x00, 0x00, 0x00, 0x00, 0x00, 0x00, 0x00, 0x00, 0x00, 0x00, 0x00, 0x00, 0x00,
    0x00, 0x00, 0x00, 0x00, 0x00, 0x00, 0x00, 0x00, 0x00, 0x00, 0x00, 0x00, 0x00,
    0x00, 0x00, 0x00, 0x00, 0x00, 0x00, 0x00, 0x00, 0x00, 0x00, 0x00, 0x00, 0x00,
    0x00, 0x00, 0x00, 0x00, 0x00, 0x00, 0x00, 0x00, 0x00, 0x00, 0x00, 0x00, 0x00,
    0x00, 0x00, 0x00, 0x00, 0x00, 0x00, 0x00, 0x00, 0x00, 0x00, 0x00, 0x00, 0x00,
    0x00, 0x00, 0x00, 0x00, 0x00, 0x00, 0x00, 0x00, 0x00, 0x00, 0x00, 0x00, 0x00,
    0x00, 0x00, 0x00, 0x00, 0x00, 0x00, 0x00, 0x00, 0x00, 0x00, 0x00, 0x00, 0x00,
    0x00, 0x00, 0x00, 0x00, 0x00, 0x00, 0x00, 0x00, 0x00, 0x00, 0x00, 0x00, 0x00,
    0x00, 0x00, 0x00, 0x00, 0x00, 0x00, 0x00, 0x00, 0x00, 0x00, 0x00, 0x00, 0x00,
    0x00, 0x00, 0x00, 0x00, 0x00, 0x00, 0x00, 0x00, 0x00, 0x00, 0x00, 0x00, 0x00,
    0x00, 0x00, 0x00, 0x00, 0x00, 0x00, 0x00, 0x00, 0x00, 0x00, 0x00, 0x00, 0x00,
    0x00, 0x00, 0x00, 0x00, 0x00, 0x00, 0x00, 0x00, 0x00, 0x00, 0x00, 0x00, 0x00,
    0x00, 0x00, 0x00, 0x00, 0x00, 0x00, 0x00, 0x00, 0x00, 0x00, 0x00, 0x00, 0x00,
    0x00, 0x00, 0x00, 0x00, 0x00, 0x00, 0x00, 0x00, 0x00, 0x00, 0x00, 0x00, 0x00,
    0x00, 0x00, 0x00, 0x00, 0x00, 0x00, 0x00, 0x00, 0x00, 0x00, 0x00, 0x07, 0xfb,
    0xea, 0xb0, 0xf1, 0xf1, 0x03, 0xe6, 0x15, 0x1e, 0x31, 0xcd, 0xed, 0xe9, 0xcc,
    0xe1, 0x0a, 0x0b, 0x2d, 0xd7, 0x00, 0xfb, 0xdd, 0xe7, 0xf1, 0xee, 0x17, 0xbd,
    0xf1, 0xe4, 0xcc, 0xcf, 0x05, 0xee, 0x20, 0xc6, 0xfb, 0x01, 0xd7, 0xc3, 0x16,
    0x18, 0x1f, 0xfa, 0x0d, 0xe9, 0xeb, 0xe8, 0x02, 0x03, 0x14, 0xde, 0xfc, 0xfa,
    0xb1, 0xea, 0x11, 0x12, 0xf1, 0xbd, 0xfb, 0x05, 0xc3, 0xfc, 0xfa, 0x11, 0xf7,
    0xc2, 0xf6, 0x11, 0xd7, 0x1b, 0x17, 0x2d, 0x2a, 0xc3, 0xec, 0xf7, 0x00, 0xc4,
    0x1e, 0x25, 0x08, 0xc0, 0xff, 0xe4, 0xb0, 0xea, 0xf9, 0x04, 0xf8, 0xdf, 0xf6,
    0x03, 0xcb, 0xc3, 0xf8, 0x46, 0x1e, 0xd8, 0xe5, 0x16, 0xc0, 0xc5, 0x10, 0x44,
    0x0d, 0xde, 0xea, 0x0f, 0xd7, 0x04, 0xf0, 0x2d, 0x03, 0xcd, 0x01, 0x03, 0xae,
    0xdb, 0x69, 0x10, 0xf2, 0x16, 0xfb, 0xe7, 0xf8, 0xef, 0x6e, 0x0f, 0xee, 0xf4,
    0x04, 0x18, 0x00, 0xfc, 0x5b, 0x08, 0xf0, 0xff, 0x01, 0x02, 0xe8, 0x1a, 0x2c,
    0x0a, 0xf0, 0xe4, 0xfb, 0xd4, 0xe5, 0xf7, 0x4d, 0x0e, 0xfa, 0xea, 0xe7, 0x02,
    0xf1, 0xe1, 0x61, 0xfb, 0xe3, 0x29, 0xe8, 0x17, 0x2a, 0x03, 0x5b, 0x04, 0x07,
    0x01, 0xff, 0xef, 0xd6, 0xf5, 0x4c, 0x01, 0xe6, 0x05, 0xe8, 0xfa, 0x0c, 0x30,
    0x44, 0xfb, 0xfc, 0x37, 0xff, 0xe7, 0xf1, 0xf7, 0x63, 0xfd, 0xf1, 0x0f, 0xfb,
    0x05, 0xec, 0x20, 0x5a, 0x0c, 0xff, 0x18, 0xf1, 0x23, 0xf0, 0xfc, 0x3b, 0xfd,
    0xf4, 0xe4, 0xfc, 0xf7, 0xd4, 0x10, 0x53, 0xf2, 0xf8, 0x2f, 0xef, 0xfa, 0xf5,
    0x28, 0x48, 0x07, 0xe3, 0x1d, 0xfb, 0x16, 0x16, 0xfb, 0x47, 0xf6, 0xec, 0xe1,
    0xf9, 0xf8, 0xe1, 0xed, 0xc7, 0x01, 0x34, 0xd7, 0x07, 0x00, 0xbb, 0x08, 0x04,
    0x1d, 0xea, 0xf2, 0x07, 0xec, 0xd5, 0xdf, 0xd8, 0xf0, 0x0b, 0xfb, 0xfd, 0x05,
    0xf9, 0xde, 0xdf, 0xfa, 0xeb, 0xf1, 0xf8, 0xf8, 0xf2, 0xd7, 0x18, 0x18, 0x07,
    0xea, 0x00, 0x01, 0xfe, 0xbb, 0xf4, 0x20, 0x10, 0xe1, 0x06, 0xfc, 0xf3, 0xf0,
    0xdc, 0x0f, 0x03, 0xf6, 0xf9, 0x00, 0xf4, 0xcd, 0xff, 0x19, 0x0c, 0xda, 0xff,
    0xf6, 0xf7, 0xd0, 0xdc, 0xfb, 0x15, 0xe7, 0x00, 0x0d, 0xe2, 0xf5, 0x03, 0xed,
    0xfc, 0xfd, 0x00, 0x00, 0xf1, 0xd6, 0xfa, 0xf3, 0x12, 0xe5, 0x00, 0x01, 0xca,
    0xf3, 0xe8, 0x07, 0x0a, 0xdc, 0xf9, 0xfb, 0xef, 0xb6, 0x0a, 0x12, 0x00, 0xd2,
    0xfe, 0xf5, 0xda, 0xe6, 0xe4, 0x01, 0xf4, 0xe0, 0xee, 0x10, 0xd7, 0x03, 0xed,
    0x05, 0x09, 0xe6, 0xfb, 0xee, 0xcd, 0xdb, 0xb5, 0xf8, 0xf8, 0xf8, 0xe7, 0xd2,
    0x3f, 0x0f, 0xb6, 0xdb, 0xed, 0xf2, 0xe6, 0xbf, 0x23, 0x1d, 0xc2, 0xce, 0xca,
    0x2f, 0xe8, 0xd2, 0x3f, 0x2a, 0xc6, 0xf6, 0xc5, 0x21, 0xcb, 0xec, 0x35, 0xfb,
    0xaa, 0xda, 0xed, 0x3f, 0xe3, 0xd3, 0x01, 0x35, 0xab, 0xe5, 0xed, 0xec, 0xf7,
    0xc9, 0x22, 0x22, 0xba, 0xc9, 0xd6, 0x06, 0xf2, 0x0f, 0x21, 0x24, 0xa6, 0xdd,
    0xdd, 0x16, 0xc4, 0xce, 0x21, 0x32, 0xb3, 0xd8, 0xdb, 0xfc, 0xea, 0xce, 0x2b,
    0x08, 0x83, 0xf7, 0x0c, 0x0b, 0xe7, 0xe7, 0x0b, 0x21, 0x95, 0xf9, 0xdd, 0xfe,
    0xe8, 0xb9, 0x0f, 0x28, 0xae, 0xe0, 0xfb, 0x0e, 0xd7, 0xe9, 0x06, 0x0e, 0xc2,
    0xe6, 0xcc, 0x24, 0xdd, 0xd4, 0x38, 0xfc, 0xb4, 0xf7, 0xce, 0xdc, 0xdd, 0xcc,
    0x31, 0xee, 0x84, 0xf6, 0xdf, 0x03, 0xfd, 0xdf, 0x22, 0x13, 0x43, 0x7f, 0x06,
    0xac, 0xf6, 0xef, 0xd6, 0xeb, 0x5b, 0x58, 0x26, 0xe8, 0xed, 0xd8, 0x00, 0xc0,
    0x65, 0x76, 0x1a, 0xfc, 0xe1, 0xd0, 0xbf, 0xd0, 0x5a, 0x40, 0x4a, 0xc7, 0xdd,
    0xde, 0xd5, 0xf0, 0x20, 0x33, 0xff, 0xf3, 0xdc, 0xdc, 0xd9, 0xc1, 0x55, 0x29,
    0x24, 0xcb, 0xf5, 0xdf, 0xd6, 0xb0, 0x38, 0x31, 0x20, 0xee, 0xe2, 0xe6, 0xa1,
    0xc4, 0x26, 0x40, 0x04, 0xc9, 0xe1, 0xf7, 0xae, 0x06, 0x30, 0x5f, 0x11, 0xc8,
    0xdd, 0xf8, 0xeb, 0xda, 0x68, 0x49, 0x16, 0xd5, 0xde, 0xe6, 0xca, 0xf4, 0x40,
    0x5b, 0x0a, 0xdb, 0xee, 0xd1, 0xd1, 0xc5, 0x23, 0x2e, 0xe4, 0xea, 0x00, 0xe1,
    0xdf, 0xe1, 0x2e, 0x34, 0x14, 0xe8, 0xe1, 0xeb, 0xd6, 0xd4, 0x43, 0x5b, 0x0d,
    0xd7, 0xf9, 0xf5, 0xc9, 0xb7, 0x18, 0x48, 0x0e, 0xa0, 0xdd, 0xc4, 0xbf, 0xe1,
    0x16, 0x38, 0x01, 0x9f, 0xd8, 0xe5, 0xbe, 0xdd, 0x1c, 0x18, 0xf8, 0xe4, 0xfd,
    0xd0, 0xd4, 0xb7, 0x31, 0x4b, 0x20, 0xca, 0xf2, 0xcb, 0x09, 0xbb, 0x2a, 0x1f,
    0xf1, 0xc1, 0xed, 0xbe, 0xe7, 0xb8, 0x3e, 0x52, 0xe6, 0xd4, 0xdc, 0xe7, 0xba,
    0xde, 0x29, 0x3b, 0x12, 0xc5, 0xed, 0xde, 0xea, 0xf4, 0x40, 0x44, 0x12, 0xd5,
    0xfc, 0xc5, 0xba, 0x16, 0x42, 0x41, 0xf7, 0xec, 0xd7, 0xfc, 0xf5, 0xf6, 0x1e,
    0x36, 0xec, 0xee, 0xeb, 0xf9, 0xe7, 0x0f, 0x2e, 0x21, 0xf6, 0xe0, 0xcf, 0xf8,
    0xf5, 0xe7, 0x30, 0x1c, 0xdc, 0xc7, 0xfd, 0xec, 0xe8, 0xe5, 0x08, 0x19, 0x00,
    0xe0, 0xf0, 0xee, 0xc4, 0xe4, 0x23, 0x3b, 0xee, 0xcf, 0xdf, 0xcc, 0xf4, 0xc3,
    0x23, 0x42, 0x02, 0xe7, 0xe7, 0xe7, 0x06, 0xc4, 0x0b, 0x28, 0xfa, 0xe2, 0xf1,
    0xda, 0xc6, 0xd2, 0x02, 0xf0, 0xe1, 0x30, 0xd9, 0xf7, 0x39, 0x05, 0x41, 0xbf,
    0xe3, 0x0e, 0xd8, 0xdb, 0x21, 0x17, 0x2e, 0xd3, 0xb9, 0x1c, 0xd7, 0xe9, 0x08,
    0x0f, 0x19, 0xc8, 0x0b, 0x2f, 0xdd, 0x0e, 0xff, 0xf8, 0x27, 0xdf, 0xbe, 0x20,
    0xf8, 0xf5, 0x1c, 0x0f, 0x25, 0xd0, 0xcd, 0x12, 0xd9, 0x08, 0x12, 0x18, 0x0e,
    0xcb, 0xe6, 0x11, 0xf1, 0xf7, 0x16, 0x25, 0x25, 0xe3, 0xe1, 0x18, 0xe6, 0xe3,
    0xfe, 0x26, 0x13, 0xcb, 0xd4, 0x11, 0xf1, 0xfb, 0x15, 0xe4, 0x10, 0xe7, 0xc5,
    0x07, 0xec, 0xf8, 0x18, 0x24, 0x24, 0xc0, 0xc2, 0x0d, 0xe5, 0xf9, 0x13, 0x09,
    0x36, 0xad, 0xda, 0x31, 0xee, 0xf6, 0x00, 0x45, 0x24, 0xa8, 0xe1, 0x32, 0xdd,
    0xdb, 0x13, 0x17, 0x1b, 0xc4, 0xdd, 0x41, 0xd7, 0xf3, 0x26, 0x10, 0x24, 0xca,
    0xcf, 0x3a, 0xe6, 0xf4, 0x28, 0x2b, 0x36, 0xee, 0xdb, 0x24, 0xcd, 0xd3, 0xf5,
    0x05, 0x27, 0xd7, 0xf3, 0x18, 0xe5, 0xd1, 0x03, 0x1f, 0x3d, 0xf5, 0xf4, 0x0d,
    0x00, 0xe8, 0xfe, 0xff, 0x50, 0x0b, 0xf1, 0x13, 0xfb, 0xdc, 0xfc, 0xf3, 0x50,
    0xf0, 0xf5, 0x02, 0xdc, 0xef, 0xda, 0x27, 0x46, 0xe9, 0x01, 0x12, 0xf6, 0xda,
    0xfe, 0x17, 0x44, 0x05, 0x04, 0xf2, 0x01, 0xe4, 0xf9, 0xc1, 0x4b, 0x03, 0xe7,
    0x20, 0xda, 0xea, 0x0f, 0xf0, 0x3c, 0xfa, 0xdd, 0x14, 0xd2, 0xe9, 0x0e, 0xee,
    0x43, 0x17, 0xcd, 0x1f, 0xdd, 0xf6, 0x04, 0xdf, 0x44, 0x14, 0xe5, 0x0d, 0xf8,
    0xf4, 0xf5, 0xd3, 0x3e, 0x08, 0xe1, 0xea, 0xeb, 0xdc, 0xdb, 0xea, 0x57, 0xf2,
    0xf6, 0x23, 0xe0, 0xfa, 0xe7, 0xfa, 0x41, 0x05, 0xd7, 0x14, 0xea, 0xf2, 0x0a,
    0x03, 0x3e, 0xfc, 0x10, 0x01, 0xed, 0xf5, 0x0f, 0xff, 0xe4, 0xdd, 0xff, 0xff,
    0xf8, 0xf6, 0xff, 0xfc, 0xff, 0xfa, 0xf8, 0xf9, 0xfe, 0x00, 0xf1, 0xde, 0xec,
    0xe4, 0xf0, 0x00, 0x00, 0xf7, 0x00, 0x00, 0xca, 0xe0, 0xf6, 0xf8, 0xf4, 0x00,
    0xfc, 0xe9, 0xf9, 0xeb, 0x00, 0xfe, 0xf8, 0x00, 0xfc, 0xf6, 0xf7, 0xe8, 0xff,
    0x04, 0x00, 0x00, 0xfe, 0xe1, 0xe1, 0xcd, 0xf7, 0x00, 0xf0, 0x00, 0xe6, 0xec,
    0xe4, 0xda, 0xf9, 0xf5, 0xff, 0xee, 0xec, 0xe1, 0xd8, 0xdd, 0xfe, 0xf8, 0xfe,
    0xf3, 0xfc, 0xf7, 0xe3, 0xd3, 0xfb, 0xfb, 0xfe, 0xf0, 0xf8, 0xcc, 0xec, 0xd2,
    0x00, 0xff, 0x00, 0x00, 0xe4, 0xd7, 0xf9, 0xf4, 0x00, 0xef, 0x00, 0x00, 0xf9,
    0xd6, 0xf1, 0xf0, 0xff, 0xf7, 0xf4, 0x00, 0xe7, 0xdc, 0xe4, 0xf2, 0xfd, 0xfb,
    0x00, 0x00, 0xec, 0xf8, 0xe3, 0xf9, 0xf4, 0x00, 0x00, 0x00, 0xe3, 0xe5, 0x25,
    0x3e, 0xfe, 0xef, 0xff, 0xfd, 0xdf, 0xfe, 0x1c, 0x3d, 0xfd, 0xc5, 0xca, 0xe0,
    0xf0, 0xdd, 0x3b, 0x58, 0x32, 0xf1, 0xec, 0xd8, 0xe6, 0xc5, 0x48, 0x0d, 0x1e,
    0xda, 0xe8, 0xe1, 0xce, 0x25, 0x28, 0x3b, 0x00, 0x14, 0xf9, 0xfe, 0x14, 0xba,
    0x18, 0x32, 0x09, 0xd1, 0xf6, 0xf5, 0xc6, 0x00, 0x34, 0x13, 0x07, 0x26, 0xde,
    0xf3, 0xbc, 0xd7, 0x29, 0x45, 0xef, 0x02, 0xf3, 0x02, 0xcb, 0xcc, 0x30, 0x41,
    0x1f, 0xec, 0xe3, 0x04, 0xdc, 0xf7, 0x54, 0x34, 0x32, 0xed, 0xec, 0xf3, 0xd1,
    0xf3, 0x36, 0x68, 0x05, 0xea, 0xfc, 0xf9, 0xed, 0xe5, 0x35, 0x4e, 0x0d, 0xde,
    0xea, 0xe5, 0xc7, 0xd7, 0x27, 0x47, 0x28, 0xe9, 0xe2, 0xe8, 0xc4, 0xda, 0x34,
    0x20, 0x01, 0xe9, 0x00, 0xe7, 0xe3, 0xbc, 0x0b, 0x4c, 0xfd, 0xe2, 0xea, 0xe6,
    0xc4, 0xdc, 0x1d, 0xdd, 0xe2, 0xfc, 0xca, 0xdc, 0x07, 0xf1, 0xfe, 0xf7, 0xc5,
    0x04, 0xe2, 0xf3, 0x1c, 0x2c, 0x07, 0xb5, 0xb9, 0x1d, 0xd1, 0xfd, 0x0d, 0x4b,
    0x19, 0xf3, 0xf7, 0x0d, 0xf0, 0xdb, 0x07, 0xfd, 0x1a, 0xd1, 0xba, 0x10, 0xdd,
    0xec, 0x33, 0x0a, 0xd2, 0xc7, 0xdf, 0x12, 0xc2, 0xd7, 0xfa, 0xf7, 0x09, 0xec,
    0xd6, 0xfe, 0xe8, 0xf3, 0x2f, 0x05, 0x04, 0xd5, 0xb9, 0xff, 0xd9, 0xc8, 0x13,
    0x15, 0x04, 0xe5, 0xd3, 0xea, 0xd9, 0xd4, 0x23, 0x0c, 0xfa, 0xf2, 0xc5, 0x19,
    0xe3, 0xc9, 0x1f, 0x14, 0xfd, 0xc6, 0xd7, 0x35, 0xc4, 0xe4, 0x10, 0x37, 0x37,
    0xfd, 0xc2, 0xff, 0xd0, 0xe8, 0xee, 0x0e, 0xf3, 0xf6, 0xe3, 0xec, 0xb2, 0x09,
    0x03, 0x27, 0xf8, 0x09, 0xb1, 0xea, 0xe8, 0xf4, 0x13, 0x04, 0xe6, 0xe5, 0xc0,
    0xb6, 0xf8, 0xf6, 0x0d, 0x26, 0xd2, 0x1e, 0x1a, 0xf5, 0xff, 0x53, 0x04, 0xe9,
    0xe2, 0x2a, 0x07, 0x07, 0x11, 0x46, 0x00, 0x1a, 0xe2, 0x30, 0x34, 0xe7, 0x0b,
    0x1e, 0xe8, 0xc9, 0xcb, 0xee, 0xe7, 0x07, 0x43, 0x3c, 0x1d, 0x1c, 0xeb, 0x1f,
    0x0b, 0xe0, 0x44, 0x30, 0x10, 0x01, 0xdc, 0x0a, 0xf5, 0x14, 0x28, 0x42, 0x1c,
    0x0f, 0xff, 0x11, 0x25, 0x10, 0x0e, 0x1d, 0xea, 0xf9, 0xee, 0x1e, 0x27, 0xfc,
    0x48, 0x39, 0xe6, 0xe1, 0xe6, 0x0f, 0x43, 0x07, 0x24, 0x3b, 0xf3, 0x0a, 0xe5,
    0x0b, 0x46, 0xf3, 0x39, 0x2d, 0x23, 0xf3, 0xd4, 0x1f, 0x07, 0xec, 0x40, 0x57,
    0xf3, 0xed, 0xdd, 0x13, 0xe6, 0xf7, 0xf7, 0x2a, 0xf7, 0xfa, 0xd6, 0x27, 0x0c,
    0xf2, 0x3f, 0x42, 0xdb, 0x12, 0xdd, 0x01, 0x31, 0x1f, 0x1f, 0x1d, 0x0c, 0x18,
    0xf1, 0xe8, 0x2e, 0x04, 0x0c, 0x4b, 0xd9, 0xf2, 0xcd, 0x09, 0x4c, 0xda, 0x56,
    0x24, 0xe2, 0x0a, 0xda, 0x35, 0x2d, 0xf8, 0x24, 0x38, 0xf3, 0x0a, 0xea, 0x29,
    0x21, 0xed, 0xf5, 0x02, 0xe3, 0xdf, 0xde, 0x29, 0x0c, 0x00, 0x0e, 0x30, 0x0b,
    0xf7, 0xcf, 0x27, 0x53, 0x00, 0x2f, 0x22, 0x0d, 0xfb, 0x04, 0x1b, 0x28, 0xf5,
    0x36, 0x33, 0x19, 0xef, 0xfe, 0x0c, 0x3f, 0x0b, 0x25, 0x2b, 0xe2, 0xfa, 0xeb,
    0x28, 0x3d, 0x16, 0x28, 0x29, 0xf4, 0xe7, 0xc6, 0x1a, 0x3c, 0x0d, 0x3c, 0x1e,
    0xfd, 0x10, 0xca, 0x21, 0x45, 0xf1, 0x44, 0x18, 0x0c, 0x10, 0xdb, 0x2e, 0x3e,
    0xef, 0x1f, 0x35, 0x17, 0xcc, 0xcb, 0x36, 0x42, 0xf6, 0x3d, 0x0a, 0x08, 0xdd,
    0xe6, 0x0d, 0x38, 0x11, 0x53, 0x1e, 0xfb, 0x07, 0xe8, 0x19, 0x1a, 0xf6, 0x31,
    0x01, 0xd8, 0xe9, 0xdc, 0x22, 0x4a, 0xd9, 0x49, 0x35, 0xec, 0xf8, 0xf4, 0x11,
    0x32, 0xdf, 0x14, 0x28, 0x34, 0xd2, 0xd4, 0x27, 0x28, 0x06, 0x2f, 0x11, 0x0c,
    0x05, 0xc2, 0x24, 0x27, 0x14, 0xfe, 0xfe, 0xfc, 0xe6, 0xc1, 0x1e, 0xf0, 0xfc,
    0x30, 0x1d, 0x03, 0x2a, 0xc2, 0x2e, 0x37, 0xee, 0x13, 0x3c, 0x18, 0x39, 0xdb,
    0x0e, 0x07, 0x18, 0x16, 0x35, 0x4c, 0x11, 0xeb, 0x17, 0x1b, 0x22, 0x23, 0x13,
    0xff, 0x02, 0xe9, 0x1a, 0x1c, 0x13, 0x30, 0x2b, 0x0f, 0xe7, 0xd2, 0x29, 0x3c,
    0xe8, 0x2d, 0x35, 0x16, 0x04, 0xd5, 0x04, 0x4c, 0x29, 0x36, 0x31, 0x23, 0x06,
    0xdc, 0x2f, 0x27, 0x05, 0x19, 0x32, 0x1d, 0x0e, 0xa5, 0x0e, 0x20, 0x1b, 0x24,
    0x10, 0xf5, 0x2b, 0xc2, 0x2f, 0x07, 0xe1, 0x2f, 0x60, 0x27, 0xf2, 0xd7, 0x0a,
    0x18, 0xf3, 0x32, 0xf4, 0x05, 0xef, 0xd1, 0x26, 0x22, 0xfb, 0x29, 0x4b, 0x0f,
    0xef, 0x33, 0x3f, 0x08, 0xc7, 0xf0, 0xe5, 0x00, 0xf1, 0x3d, 0x2c, 0x12, 0xd6,
    0xef, 0xe9, 0xfc, 0xc7, 0x2b, 0x51, 0x08, 0xf5, 0xef, 0xf7, 0x07, 0xe7, 0x45,
    0x23, 0x2b, 0xb6, 0xed, 0xf5, 0xdd, 0xd3, 0x23, 0x19, 0xf8, 0xff, 0xed, 0xcb,
    0xf0, 0xc9, 0x39, 0x43, 0x11, 0xd9, 0xfe, 0xf6, 0xfe, 0xca, 0x34, 0x3d, 0xfc,
    0xfc, 0xf0, 0xf0, 0xa4, 0xbf, 0x41, 0x2a, 0xea, 0xf7, 0xf3, 0xf1, 0xd5, 0xec,
    0x1d, 0x4c, 0xf8, 0xe1, 0xf0, 0xf8, 0xcb, 0xf6, 0x50, 0x2f, 0x1b, 0xdf, 0xf0,
    0xf9, 0xe3, 0xea, 0x2e, 0x5e, 0xe2, 0xf0, 0xf3, 0xf8, 0xf3, 0xcc, 0x1f, 0x3c,
    0x0a, 0xf4, 0xf2, 0xf6, 0xeb, 0xc4, 0x2c, 0x1b, 0x14, 0xe2, 0xee, 0x02, 0xe8,
    0xdb, 0x2e, 0x2d, 0x0b, 0xd0, 0x05, 0xf4, 0xe5, 0xc1, 0x2b, 0x36, 0x13, 0xc6,
    0xef, 0xf6, 0xb4, 0xcf, 0x03, 0x00, 0x21, 0xd4, 0x4a, 0x1e, 0xec, 0xe5, 0xf0,
    0x0d, 0x23, 0xf4, 0x33, 0x3c, 0xf7, 0x0b, 0xf3, 0x0b, 0x35, 0x0b, 0x2d, 0x36,
    0x11, 0xe0, 0xe9, 0xf4, 0x2c, 0x05, 0x44, 0x1b, 0x22, 0xf9, 0xea, 0x04, 0x12,
    0xfd, 0x1d, 0x28, 0xf5, 0xeb, 0xf2, 0xeb, 0x37, 0xfe, 0x18, 0x15, 0x12, 0x18,
    0xf1, 0x0d, 0x25, 0xff, 0x20, 0x2c, 0x1b, 0xf2, 0x05, 0x08, 0x36, 0xe6, 0x25,
    0x07, 0x0f, 0xd8, 0xe4, 0xf9, 0x17, 0xe9, 0x5d, 0x14, 0x0f, 0xe7, 0x01, 0x09,
    0x30, 0x06, 0x3b, 0x2e, 0xf0, 0xfb, 0x04, 0x0b, 0x2b, 0x03, 0x3c, 0x12, 0x11,
    0x15, 0xf0, 0xfc, 0x12, 0x04, 0x36, 0x12, 0x25, 0xed, 0xf1, 0x17, 0x41, 0xd2,
    0x38, 0x2a, 0xf8, 0x02, 0xe6, 0xf2, 0x34, 0x0d, 0x22, 0x12, 0xfa, 0xf3, 0xfc,
    0xf4, 0x33, 0xe5, 0x39, 0x28, 0x0d, 0xf7, 0xc6, 0xf8, 0x0b, 0xf4, 0x12, 0xf5,
    0xe5, 0xed, 0xd9, 0x10, 0x1b, 0xdc, 0x14, 0x00, 0xe3, 0xe4, 0xd3, 0xde, 0xfa,
    0xef, 0xff, 0xf5, 0xf6, 0xf6, 0xe5, 0x00, 0x0e, 0xe8, 0x08, 0x01, 0xeb, 0xed,
    0xf4, 0xf6, 0xfb, 0x04, 0x00, 0x09, 0xfe, 0xd9, 0xe1, 0xff, 0xfd, 0xf7, 0x04,
    0xff, 0x00, 0xec, 0xe7, 0x1f, 0xeb, 0xf5, 0x0a, 0x0a, 0xeb, 0xfc, 0xff, 0xf3,
    0xfe, 0xec, 0x03, 0xec, 0xf3, 0xe5, 0xef, 0x05, 0xda, 0xde, 0xff, 0x07, 0xea,
    0xe8, 0xcc, 0xe7, 0xf1, 0xee, 0x06, 0x00, 0xdf, 0xe8, 0xd2, 0x0f, 0x0e, 0xec,
    0x0e, 0x0c, 0xf7, 0xf5, 0xea, 0xf0, 0x0e, 0xed, 0x0e, 0xf1, 0xf0, 0xce, 0xdb,
    0x13, 0xf6, 0xf2, 0x04, 0xfc, 0xe9, 0xe9, 0xda, 0x01, 0xea, 0xdc, 0x00, 0x05,
    0xeb, 0xf3, 0xee, 0x0c, 0x1a, 0xd1, 0xff, 0xf8, 0xe1, 0xc7, 0x20, 0x3b, 0x00,
    0xdc, 0x02, 0x07, 0xcd, 0xf2, 0x54, 0x47, 0x16, 0xd6, 0xfd, 0xea, 0xf5, 0x0e,
    0x4b, 0x63, 0x29, 0xdd, 0x06, 0x02, 0xf8, 0xd6, 0x36, 0x26, 0x33, 0x0b, 0xf8,
    0xff, 0xd4, 0x06, 0x2d, 0x2e, 0x15, 0xdd, 0xf9, 0xfc, 0xfe, 0xb2, 0x35, 0x3d,
    0x2e, 0xd3, 0x04, 0xfd, 0xd5, 0xc5, 0x2b, 0x38, 0x25, 0xe0, 0xf7, 0xed, 0xee,
    0xf0, 0x03, 0x44, 0x1d, 0xb9, 0xfa, 0x20, 0xc6, 0x08, 0x34, 0x37, 0x19, 0xba,
    0xfd, 0x00, 0xe1, 0xe4, 0x3d, 0x41, 0xf5, 0xd2, 0xfd, 0xe4, 0xdb, 0xdf, 0x07,
    0x57, 0x3a, 0xd2, 0xfc, 0xea, 0xde, 0xcf, 0x27, 0x42, 0x0a, 0x00, 0x03, 0xf7,
    0x09, 0xd5, 0x26, 0x3a, 0x2b, 0x26, 0xf4, 0xfd, 0xe9, 0xb7, 0x44, 0x41, 0x06,
    0xe4, 0x01, 0xfb, 0xf6, 0xc3, 0x2d, 0x49, 0x0a, 0xec, 0xf9, 0xec, 0xda, 0xdd,
    0xf8, 0x08, 0x0d, 0xd9, 0xff, 0xfd, 0xf5, 0xc8, 0x18, 0x1d, 0xfe, 0xdc, 0x02,
    0xf4, 0xf2, 0xcf, 0xf1, 0x02, 0xfc, 0xeb, 0xff, 0xd7, 0x0f, 0xd6, 0xe1, 0xf2,
    0x18, 0xf0, 0xf7, 0xfc, 0x06, 0xd8, 0x00, 0x01, 0xe4, 0xee, 0xf8, 0xfa, 0xf4,
    0xcc, 0xf9, 0xfa, 0x00, 0xfc, 0x00, 0x01, 0x1b, 0xdb, 0xda, 0x00, 0xf5, 0xe5,
    0xf4, 0x00, 0xe7, 0xcf, 0xf4, 0xe3, 0xf9, 0xe9, 0xfe, 0xfd, 0xe7, 0xfb, 0xe3,
    0x0f, 0x11, 0xd2, 0x00, 0xf0, 0xd3, 0xdf, 0x03, 0xf0, 0x00, 0xde, 0x05, 0xee,
    0xfe, 0xd3, 0xdf, 0xfe, 0x17, 0xf2, 0x00, 0xfb, 0xe5, 0xd2, 0xcb, 0xf5, 0xf7,
    0xd4, 0xff, 0xf4, 0xfb, 0xcf, 0xdc, 0x14, 0xfc, 0xe1, 0xef, 0x01, 0xde, 0xb8,
    0xd0, 0x06, 0xfb, 0xfa, 0xf7, 0x06, 0xe1, 0xe6, 0xfc, 0x0f, 0xfd, 0x02, 0xfd,
    0xf4, 0xbf, 0xe0, 0x41, 0x45, 0xfb, 0xec, 0x02, 0xd4, 0xd2, 0xc4, 0x25, 0x1f,
    0x16, 0xd4, 0xf8, 0xd6, 0xc6, 0xc5, 0x34, 0x39, 0x15, 0x02, 0xff, 0xdc, 0x17,
    0xcc, 0x24, 0x28, 0x03, 0xc6, 0xfb, 0xe9, 0xfd, 0x04, 0x0f, 0x2c, 0x12, 0xe6,
    0xe2, 0xea, 0xd4, 0xd4, 0x33, 0x41, 0x26, 0xcc, 0xf5, 0xe2, 0xe4, 0xc9, 0x26,
    0x34, 0x07, 0xe9, 0xf7, 0xde, 0xc3, 0xcb, 0x35, 0x1f, 0x0a, 0xf9, 0xe2, 0x00,
    0xef, 0xce, 0x2c, 0x55, 0xf8, 0xc7, 0xe8, 0x02, 0xdc, 0x14, 0x2b, 0x33, 0x06,
    0xed, 0xe2, 0xe2, 0xfd, 0xbe, 0x33, 0x5e, 0x1c, 0xdf, 0x06, 0xfd, 0xf1, 0xdc,
    0x28, 0x35, 0x01, 0xee, 0xfd, 0xef, 0xd2, 0xe7, 0x24, 0x26, 0x00, 0xeb, 0xde,
    0xef, 0xdd, 0xc5, 0x50, 0x2f, 0x01, 0xde, 0xed, 0x01, 0xf3, 0xbc, 0x0f, 0x47,
    0x1d, 0xc2, 0xf1, 0xf6, 0xcb, 0xbf, 0x3f, 0xc3, 0xbc, 0x39, 0xef, 0xc8, 0x2a,
    0xe5, 0x2d, 0xea, 0xbc, 0x1a, 0xe2, 0xda, 0x04, 0xe4, 0x16, 0xc6, 0xae, 0xe1,
    0xf5, 0xfd, 0xf2, 0x1f, 0x1e, 0xd9, 0xca, 0x55, 0xdf, 0xc2, 0x18, 0xf6, 0x42,
    0xdc, 0xd7, 0x01, 0xe5, 0xfb, 0xfe, 0x09, 0x29, 0xe8, 0xd6, 0x08, 0xe8, 0xfc,
    0xf5, 0xff, 0x35, 0xbd, 0xee, 0x14, 0xea, 0xfe, 0x11, 0x16, 0x30, 0xdb, 0xe5,
    0x0f, 0xe3, 0xeb, 0xdc, 0x26, 0x1b, 0xd0, 0xe9, 0x23, 0xd6, 0xed, 0x10, 0xd6,
    0x2f, 0x05, 0xfb, 0x02, 0xe1, 0x17, 0xe3, 0xf9, 0x33, 0xd7, 0xdf, 0x20, 0xd7,
    0x09, 0xee, 0x01, 0x26, 0xf0, 0xb7, 0xf2, 0xd2, 0x0c, 0x0c, 0x15, 0x1c, 0xd8,
    0xb2, 0x04, 0xe6, 0xee, 0xcf, 0x17, 0x31, 0xe7, 0xe8, 0xfc, 0xe7, 0x09, 0xe0,
    0x2a, 0x31, 0xe3, 0xde, 0x33, 0xd7, 0x0e, 0x0f, 0xec, 0x00, 0x00, 0x00, 0x00,
    0xee, 0xfc, 0xff, 0xff, 0x04, 0x00, 0x00, 0x00, 0x08, 0x00, 0x00, 0x00, 0xff,
    0xff, 0xff, 0xff, 0x78, 0x00, 0x00, 0x00, 0x00, 0x00, 0x00, 0x00, 0x00, 0x00,
    0x00, 0x00, 0x00, 0x00, 0x00, 0x00, 0x0e, 0xfd, 0xff, 0xff, 0x04, 0x00, 0x00,
    0x00, 0x10, 0x00, 0x00, 0x00, 0x2d, 0xdf, 0xff, 0xff, 0x6d, 0x01, 0x00, 0x00,
    0x48, 0x0e, 0x00, 0x00, 0x65, 0x1c, 0x00, 0x00, 0x00, 0x00, 0x00, 0x00, 0x2e,
    0xfd, 0xff, 0xff, 0x04, 0x00, 0x00, 0x00, 0x80, 0x00, 0x00, 0x00, 0xba, 0xfb,
    0xff, 0xff, 0x15, 0x1b, 0x00, 0x00, 0x12, 0xf7, 0xff, 0xff, 0x7a, 0xe3, 0xff,
    0xff, 0x7a, 0x12, 0x00, 0x00, 0xa5, 0xdd, 0xff, 0xff, 0x5e, 0x06, 0x00, 0x00,
    0xc1, 0xd6, 0xff, 0xff, 0x82, 0xed, 0xff, 0xff, 0x53, 0xec, 0xff, 0xff, 0x34,
    0x08, 0x00, 0x00, 0x27, 0xa9, 0xff, 0xff, 0x0e, 0x01, 0x00, 0x00, 0xa8, 0x17,
    0x00, 0x00, 0x5b, 0xd6, 0xff, 0xff, 0x95, 0x10, 0x00, 0x00, 0x4e, 0xe5, 0xff,
    0xff, 0x63, 0x02, 0x00, 0x00, 0xed, 0xf7, 0xff, 0xff, 0x5a, 0xe9, 0xff, 0xff,
    0x04, 0x17, 0x00, 0x00, 0xe6, 0xd9, 0xff, 0xff, 0x1c, 0xfd, 0xff, 0xff, 0x7b,
    0xf5, 0xff, 0xff, 0x6b, 0x14, 0x00, 0x00, 0x57, 0x04, 0x00, 0x00, 0xb1, 0x9c,
    0xff, 0xff, 0x4e, 0x05, 0x00, 0x00, 0x38, 0xda, 0xff, 0xff, 0x07, 0xc6, 0xff,
    0xff, 0x1d, 0x0a, 0x00, 0x00, 0xff, 0xf6, 0xff, 0xff, 0x00, 0x00, 0x00, 0x00,
    0xbe, 0xfd, 0xff, 0xff, 0x04, 0x00, 0x00, 0x00, 0x00, 0x01, 0x00, 0x00, 0xcf,
    0x91, 0x00, 0x00, 0xc9, 0x79, 0x02, 0x00, 0x82, 0xfe, 0xff, 0xff, 0x00, 0x00,
    0x00, 0x00, 0x35, 0xe5, 0xff, 0xff, 0xcf, 0xb8, 0xff, 0xff, 0x8c, 0xf1, 0xff,
    0xff, 0x11, 0x77, 0x02, 0x00, 0x22, 0x11, 0x02, 0x00, 0xe0, 0xad, 0xff, 0xff,
    0x23, 0x44, 0x02, 0x00, 0x81, 0xd1, 0xff, 0xff, 0xcb, 0xd1, 0xff, 0xff, 0x82,
    0xc2, 0xff, 0xff, 0x4b, 0xdc, 0xff, 0xff, 0x92, 0x3e, 0x02, 0x00, 0x02, 0x3d,
    0xfd, 0xff, 0xe4, 0x2c, 0x00, 0x00, 0x76, 0xe9, 0xff, 0xff, 0xcb, 0x48, 0x02,
    0x00, 0xe1, 0xdd, 0xfd, 0xff, 0x6d, 0xf5, 0xff, 0xff, 0x5f, 0x1a, 0x02, 0x00,
    0x37, 0x63, 0x02, 0x00, 0xe3, 0xcb, 0xff, 0xff, 0x0e, 0x46, 0x02, 0x00, 0x56,
    0xb2, 0xff, 0xff, 0x3f, 0xd2, 0xfe, 0xff, 0xa3, 0xe3, 0xff, 0xff, 0x00, 0x00,
    0x00, 0x00, 0x98, 0xe4, 0xff, 0xff, 0x32, 0xe9, 0xfe, 0xff, 0x51, 0xcf, 0xfd,
    0xff, 0xd6, 0x05, 0x00, 0x00, 0x00, 0x00, 0x00, 0x00, 0xaa, 0x30, 0xfd, 0xff,
    0xc4, 0xde, 0xff, 0xff, 0xf7, 0x51, 0xfd, 0xff, 0x87, 0xda, 0xfd, 0xff, 0xf7,
    0x0b, 0x00, 0x00, 0xfe, 0xbc, 0xfd, 0xff, 0x00, 0x00, 0x00, 0x00, 0x00, 0x00,
    0x00, 0x00, 0x81, 0x45, 0x02, 0x00, 0x7c, 0xe5, 0xff, 0xff, 0x1b, 0x56, 0x02,
    0x00, 0xad, 0xd0, 0xff, 0xff, 0x3e, 0x23, 0x00, 0x00, 0xb1, 0xf4, 0xff, 0xff,
    0x63, 0xc3, 0xff, 0xff, 0x18, 0xe5, 0xff, 0xff, 0x54, 0x05, 0x02, 0x00, 0xea,
    0x13, 0x00, 0x00, 0xf5, 0xe0, 0xff, 0xff, 0xb2, 0x85, 0xfd, 0xff, 0xae, 0x94,
    0xfd, 0xff, 0x3a, 0xce, 0xfd, 0xff, 0xa8, 0x0b, 0x00, 0x00, 0xc5, 0x71, 0xfd,
    0xff, 0x9d, 0xa5, 0x02, 0x00, 0xb0, 0xef, 0xff, 0xff, 0x71, 0x58, 0x02, 0x00,
    0xf4, 0x0e, 0x00, 0x00, 0x7f, 0xc5, 0xff, 0xff, 0x00, 0x00, 0x00, 0x00, 0xce,
    0xfe, 0xff, 0xff, 0x04, 0x00, 0x00, 0x00, 0x20, 0x00, 0x00, 0x00, 0x25, 0xfb,
    0xff, 0xff, 0xd5, 0x0f, 0x00, 0x00, 0x81, 0xc1, 0xff, 0xff, 0xb1, 0xf7, 0xff,
    0xff, 0x40, 0x99, 0xff, 0xff, 0x2b, 0x17, 0x00, 0x00, 0x75, 0xfc, 0xff, 0xff,
    0x31, 0xe3, 0xff, 0xff, 0x00, 0x00, 0x00, 0x00, 0xfe, 0xfe, 0xff, 0xff, 0x04,
    0x00, 0x00, 0x00, 0x20, 0x00, 0x00, 0x00, 0x00, 0x00, 0x00, 0x00, 0x00, 0x00,
    0x00, 0x00, 0x00, 0x00, 0x00, 0x00, 0x00, 0x00, 0x00, 0x00, 0xca, 0xfd, 0xff,
    0xff, 0x00, 0x00, 0x00, 0x00, 0x00, 0x00, 0x00, 0x00, 0xce, 0xff, 0xff, 0xff,
    0x00, 0x00, 0x00, 0x00, 0x00, 0x00, 0x00, 0x00, 0x00, 0x00, 0x00, 0x00, 0xd4,
    0xf2, 0xff, 0xff, 0x00, 0x00, 0x00, 0x00, 0x00, 0x00, 0x00, 0x00, 0x00, 0x00,
    0x00, 0x00, 0xe4, 0xf2, 0xff, 0xff, 0x0f, 0x00, 0x00, 0x00, 0x4d, 0x4c, 0x49,
    0x52, 0x20, 0x43, 0x6f, 0x6e, 0x76, 0x65, 0x72, 0x74, 0x65, 0x64, 0x2e, 0x00,
    0x01, 0x00, 0x00, 0x00, 0x14, 0x00, 0x00, 0x00, 0x00, 0x00, 0x0e, 0x00, 0x18,
    0x00, 0x04, 0x00, 0x08, 0x00, 0x0c, 0x00, 0x10, 0x00, 0x14, 0x00, 0x0e, 0x00,
    0x00, 0x00, 0xac, 0x02, 0x00, 0x00, 0xa0, 0x02, 0x00, 0x00, 0x94, 0x02, 0x00,
    0x00, 0x14, 0x00, 0x00, 0x00, 0x04, 0x00, 0x00, 0x00, 0x04, 0x00, 0x00, 0x00,
    0x6d, 0x61, 0x69, 0x6e, 0x00, 0x00, 0x00, 0x00, 0x0a, 0x00, 0x00, 0x00, 0x58,
    0x02, 0x00, 0x00, 0x00, 0x02, 0x00, 0x00, 0xb0, 0x01, 0x00, 0x00, 0x5c, 0x01,
    0x00, 0x00, 0x24, 0x01, 0x00, 0x00, 0xe8, 0x00, 0x00, 0x00, 0x9c, 0x00, 0x00,
    0x00, 0x64, 0x00, 0x00, 0x00, 0x28, 0x00, 0x00, 0x00, 0x04, 0x00, 0x00, 0x00,
    0xda, 0xfd, 0xff, 0xff, 0x06, 0x00, 0x00, 0x00, 0x10, 0x00, 0x00, 0x00, 0x04,
    0x00, 0x00, 0x00, 0x01, 0x00, 0x00, 0x00, 0x15, 0x00, 0x00, 0x00, 0x01, 0x00,
    0x00, 0x00, 0x13, 0x00, 0x00, 0x00, 0xee, 0xfe, 0xff, 0xff, 0x00, 0x00, 0x00,
    0x09, 0x04, 0x00, 0x00, 0x00, 0x24, 0x00, 0x00, 0x00, 0x18, 0x00, 0x00, 0x00,
    0x0c, 0x00, 0x00, 0x00, 0x00, 0x00, 0x06, 0x00, 0x08, 0x00, 0x04, 0x00, 0x06,
    0x00, 0x00, 0x00, 0x00, 0x00, 0x80, 0x3f, 0x01, 0x00, 0x00, 0x00, 0x13, 0x00,
    0x00, 0x00, 0x01, 0x00, 0x00, 0x00, 0x12, 0x00, 0x00, 0x00, 0x92, 0xff, 0xff,
    0xff, 0x00, 0x00, 0x00, 0x08, 0x03, 0x00, 0x00, 0x00, 0x18, 0x00, 0x00, 0x00,
    0x0c, 0x00, 0x00, 0x00, 0x04, 0x00, 0x00, 0x00, 0xd4, 0xf3, 0xff, 0xff, 0x01,
    0x00, 0x00, 0x00, 0x12, 0x00, 0x00, 0x00, 0x03, 0x00, 0x00, 0x00, 0x11, 0x00,
    0x00, 0x00, 0x09, 0x00, 0x00, 0x00, 0x05, 0x00, 0x00, 0x00, 0xc6, 0xff, 0xff,
    0xff, 0x00, 0x00, 0x00, 0x08, 0x03, 0x00, 0x00, 0x00, 0x1c, 0x00, 0x00, 0x00,
    0x10, 0x00, 0x00, 0x00, 0x04, 0x00, 0x00, 0x00, 0xd2, 0xef, 0xff, 0xff, 0x00,
    0x00, 0x00, 0x01, 0x01, 0x00, 0x00, 0x00, 0x11, 0x00, 0x00, 0x00, 0x03, 0x00,
    0x00, 0x00, 0x10, 0x00, 0x00, 0x00, 0x08, 0x00, 0x00, 0x00, 0x04, 0x00, 0x00,
    0x00, 0x00, 0x00, 0x0e, 0x00, 0x18, 0x00, 0x08, 0x00, 0x0c, 0x00, 0x10, 0x00,
    0x07, 0x00, 0x14, 0x00, 0x0e, 0x00, 0x00, 0x00, 0x00, 0x00, 0x00, 0x08, 0x03,
    0x00, 0x00, 0x00, 0x1c, 0x00, 0x00, 0x00, 0x10, 0x00, 0x00, 0x00, 0x04, 0x00,
    0x00, 0x00, 0x1a, 0xf0, 0xff, 0xff, 0x00, 0x00, 0x00, 0x01, 0x01, 0x00, 0x00,
    0x00, 0x10, 0x00, 0x00, 0x00, 0x03, 0x00, 0x00, 0x00, 0x0f, 0x00, 0x00, 0x00,
    0x07, 0x00, 0x00, 0x00, 0x03, 0x00, 0x00, 0x00, 0xe6, 0xfe, 0xff, 0xff, 0x02,
    0x00, 0x00, 0x00, 0x10, 0x00, 0x00, 0x00, 0x04, 0x00, 0x00, 0x00, 0x01, 0x00,
    0x00, 0x00, 0x0f, 0x00, 0x00, 0x00, 0x02, 0x00, 0x00, 0x00, 0x0e, 0x00, 0x00,
    0x00, 0x06, 0x00, 0x00, 0x00, 0x00, 0x00, 0x0e, 0x00, 0x1a, 0x00, 0x08, 0x00,
    0x0c, 0x00, 0x10, 0x00, 0x07, 0x00, 0x14, 0x00, 0x0e, 0x00, 0x00, 0x00, 0x00,
    0x00, 0x00, 0x05, 0x01, 0x00, 0x00, 0x00, 0x3c, 0x00, 0x00, 0x00, 0x30, 0x00,
    0x00, 0x00, 0x14, 0x00, 0x00, 0x00, 0x00, 0x00, 0x0e, 0x00, 0x18, 0x00, 0x07,
    0x00, 0x08, 0x00, 0x0c, 0x00, 0x10, 0x00, 0x14, 0x00, 0x0e, 0x00, 0x00, 0x00,
    0x00, 0x00, 0x00, 0x01, 0x01, 0x00, 0x00, 0x00, 0x08, 0x00, 0x00, 0x00, 0x01,
    0x00, 0x00, 0x00, 0x08, 0x00, 0x00, 0x00, 0x01, 0x00, 0x00, 0x00, 0x0e, 0x00,
    0x00, 0x00, 0x01, 0x00, 0x00, 0x00, 0x0d, 0x00, 0x00, 0x00, 0xc2, 0xff, 0xff,
    0xff, 0x00, 0x00, 0x00, 0x01, 0x24, 0x00, 0x00, 0x00, 0x18, 0x00, 0x00, 0x00,
    0x04, 0x00, 0x00, 0x00, 0xb4, 0xff, 0xff, 0xff, 0x00, 0x00, 0x01, 0x01, 0x01,
    0x00, 0x00, 0x00, 0x01, 0x00, 0x00, 0x00, 0x01, 0x00, 0x00, 0x00, 0x0d, 0x00,
    0x00, 0x00, 0x03, 0x00, 0x00, 0x00, 0x0c, 0x00, 0x00, 0x00, 0x0b, 0x00, 0x00,
    0x00, 0x02, 0x00, 0x00, 0x00, 0x00, 0x00, 0x0e, 0x00, 0x14, 0x00, 0x00, 0x00,
    0x08, 0x00, 0x0c, 0x00, 0x07, 0x00, 0x10, 0x00, 0x0e, 0x00, 0x00, 0x00, 0x00,
    0x00, 0x00, 0x01, 0x30, 0x00, 0x00, 0x00, 0x24, 0x00, 0x00, 0x00, 0x10, 0x00,
    0x00, 0x00, 0x0c, 0x00, 0x10, 0x00, 0x06, 0x00, 0x08, 0x00, 0x0c, 0x00, 0x07,
    0x00, 0x0c, 0x00, 0x00, 0x00, 0x00, 0x00, 0x01, 0x01, 0x01, 0x00, 0x00, 0x00,
    0x01, 0x00, 0x00, 0x00, 0x01, 0x00, 0x00, 0x00, 0x0c, 0x00, 0x00, 0x00, 0x03,
    0x00, 0x00, 0x00, 0x00, 0x00, 0x00, 0x00, 0x0a, 0x00, 0x00, 0x00, 0x01, 0x00,
    0x00, 0x00, 0x00, 0x00, 0x0a, 0x00, 0x10, 0x00, 0x04, 0x00, 0x08, 0x00, 0x0c,
    0x00, 0x0a, 0x00, 0x00, 0x00, 0x05, 0x00, 0x00, 0x00, 0x10, 0x00, 0x00, 0x00,
    0x04, 0x00, 0x00, 0x00, 0x01, 0x00, 0x00, 0x00, 0x00, 0x00, 0x00, 0x00, 0x01,
    0x00, 0x00, 0x00, 0x14, 0x00, 0x00, 0x00, 0x01, 0x00, 0x00, 0x00, 0x15, 0x00,
    0x00, 0x00, 0x01, 0x00, 0x00, 0x00, 0x14, 0x00, 0x00, 0x00, 0x16, 0x00, 0x00,
    0x00, 0x9c, 0x0d, 0x00, 0x00, 0xa8, 0x0c, 0x00, 0x00, 0xc8, 0x0b, 0x00, 0x00,
    0x4c, 0x0b, 0x00, 0x00, 0xd0, 0x0a, 0x00, 0x00, 0x54, 0x0a, 0x00, 0x00, 0x08,
    0x0a, 0x00, 0x00, 0x8c, 0x09, 0x00, 0x00, 0x08, 0x09, 0x00, 0x00, 0x84, 0x08,
    0x00, 0x00, 0x70, 0x07, 0x00, 0x00, 0x5c, 0x06, 0x00, 0x00, 0x40, 0x05, 0x00,
    0x00, 0x34, 0x04, 0x00, 0x00, 0x88, 0x03, 0x00, 0x00, 0xf4, 0x02, 0x00, 0x00,
    0x50, 0x02, 0x00, 0x00, 0xa4, 0x01, 0x00, 0x00, 0x10, 0x01, 0x00, 0x00, 0xa4,
    0x00, 0x00, 0x00, 0x54, 0x00, 0x00, 0x00, 0x04, 0x00, 0x00, 0x00, 0xc8, 0xff,
    0xff, 0xff, 0x28, 0x00, 0x00, 0x00, 0x14, 0x00, 0x00, 0x00, 0x04, 0x00, 0x00,
    0x00, 0x02, 0x00, 0x00, 0x00, 0xff, 0xff, 0xff, 0xff, 0x04, 0x00, 0x00, 0x00,
    0x08, 0x00, 0x00, 0x00, 0x49, 0x64, 0x65, 0x6e, 0x74, 0x69, 0x74, 0x79, 0x00,
    0x00, 0x00, 0x00, 0x02, 0x00, 0x00, 0x00, 0x01, 0x00, 0x00, 0x00, 0x04, 0x00,
    0x00, 0x00, 0x14, 0x00, 0x10, 0x00, 0x04, 0x00, 0x00, 0x00, 0x00, 0x00, 0x08,
    0x00, 0x00, 0x00, 0x00, 0x00, 0x00, 0x00, 0x0c, 0x00, 0x14, 0x00, 0x00, 0x00,
    0x34, 0x00, 0x00, 0x00, 0x1c, 0x00, 0x00, 0x00, 0x04, 0x00, 0x00, 0x00, 0x04,
    0x00, 0x00, 0x00, 0xff, 0xff, 0xff, 0xff, 0x80, 0x00, 0x00, 0x00, 0x01, 0x00,
    0x00, 0x00, 0x03, 0x00, 0x00, 0x00, 0x0c, 0x00, 0x00, 0x00, 0x61, 0x63, 0x63,
    0x65, 0x6c, 0x65, 0x72, 0x61, 0x74, 0x69, 0x6f, 0x6e, 0x00, 0x00, 0x00, 0x00,
    0x04, 0x00, 0x00, 0x00, 0x01, 0x00, 0x00, 0x00, 0x80, 0x00, 0x00, 0x00, 0x01,
    0x00, 0x00, 0x00, 0x03, 0x00, 0x00, 0x00, 0x68, 0xf3, 0xff, 0xff, 0x00, 0x00,
    0x00, 0x09, 0x54, 0x00, 0x00, 0x00, 0x14, 0x00, 0x00, 0x00, 0x38, 0x00, 0x00,
    0x00, 0x14, 0x00, 0x00, 0x00, 0x04, 0x00, 0x00, 0x00, 0x02, 0x00, 0x00, 0x00,
    0xff, 0xff, 0xff, 0xff, 0x04, 0x00, 0x00, 0x00, 0x54, 0xf4, 0xff, 0xff, 0x14,
    0x00, 0x00, 0x00, 0x04, 0x00, 0x00, 0x00, 0x01, 0x00, 0x00, 0x00, 0x80, 0xff,
    0xff, 0xff, 0xff, 0xff, 0xff, 0xff, 0x01, 0x00, 0x00, 0x00, 0x00, 0x00, 0x80,
    0x3b, 0x0d, 0x00, 0x00, 0x00, 0x49, 0x64, 0x65, 0x6e, 0x74, 0x69, 0x74, 0x79,
    0x5f, 0x69, 0x6e, 0x74, 0x38, 0x00, 0x00, 0x00, 0x02, 0x00, 0x00, 0x00, 0x01,
    0x00, 0x00, 0x00, 0x04, 0x00, 0x00, 0x00, 0xd0, 0xf3, 0xff, 0xff, 0x00, 0x00,
    0x00, 0x09, 0x7c, 0x00, 0x00, 0x00, 0x13, 0x00, 0x00, 0x00, 0x54, 0x00, 0x00,
    0x00, 0x14, 0x00, 0x00, 0x00, 0x04, 0x00, 0x00, 0x00, 0x02, 0x00, 0x00, 0x00,
    0xff, 0xff, 0xff, 0xff, 0x04, 0x00, 0x00, 0x00, 0xb4, 0xf3, 0xff, 0xff, 0x30,
    0x00, 0x00, 0x00, 0x24, 0x00, 0x00, 0x00, 0x18, 0x00, 0x00, 0x00, 0x04, 0x00,
    0x00, 0x00, 0x01, 0x00, 0x00, 0x00, 0x6e, 0x00, 0x00, 0x00, 0x00, 0x00, 0x00,
    0x00, 0x00, 0x00, 0x00, 0x00, 0x01, 0x00, 0x00, 0x00, 0xe5, 0xef, 0xab, 0x3e,
    0x01, 0x00, 0x00, 0x00, 0x84, 0x84, 0xb6, 0x40, 0x01, 0x00, 0x00, 0x00, 0xad,
    0xdb, 0x9f, 0xc2, 0x1a, 0x00, 0x00, 0x00, 0x73, 0x65, 0x71, 0x75, 0x65, 0x6e,
    0x74, 0x69, 0x61, 0x6c, 0x2f, 0x64, 0x65, 0x6e, 0x73, 0x65, 0x5f, 0x32, 0x2f,
    0x42, 0x69, 0x61, 0x73, 0x41, 0x64, 0x64, 0x00, 0x00, 0x02, 0x00, 0x00, 0x00,
    0x01, 0x00, 0x00, 0x00, 0x04, 0x00, 0x00, 0x00, 0x60, 0xf4, 0xff, 0xff, 0x00,
    0x00, 0x00, 0x09, 0x94, 0x00, 0x00, 0x00, 0x12, 0x00, 0x00, 0x00, 0x54, 0x00,
    0x00, 0x00, 0x14, 0x00, 0x00, 0x00, 0x04, 0x00, 0x00, 0x00, 0x02, 0x00, 0x00,
    0x00, 0xff, 0xff, 0xff, 0xff, 0x20, 0x00, 0x00, 0x00, 0x44, 0xf4, 0xff, 0xff,
    0x30, 0x00, 0x00, 0x00, 0x24, 0x00, 0x00, 0x00, 0x18, 0x00, 0x00, 0x00, 0x04,
    0x00, 0x00, 0x00, 0x01, 0x00, 0x00, 0x00, 0x80, 0xff, 0xff, 0xff, 0xff, 0xff,
    0xff, 0xff, 0x00, 0x00, 0x00, 0x00, 0x01, 0x00, 0x00, 0x00, 0xac, 0x12, 0x64,
    0x3b, 0x01, 0x00, 0x00, 0x00, 0x99, 0x2e, 0x63, 0x3f, 0x01, 0x00, 0x00, 0x00,
    0x00, 0x00, 0x00, 0x00, 0x32, 0x00, 0x00, 0x00, 0x73, 0x65, 0x71, 0x75, 0x65,
    0x6e, 0x74, 0x69, 0x61, 0x6c, 0x2f, 0x64, 0x65, 0x6e, 0x73, 0x65, 0x5f, 0x31,
    0x2f, 0x52, 0x65, 0x6c, 0x75, 0x3b, 0x73, 0x65, 0x71, 0x75, 0x65, 0x6e, 0x74,
    0x69, 0x61, 0x6c, 0x2f, 0x64, 0x65, 0x6e, 0x73, 0x65, 0x5f, 0x31, 0x2f, 0x42,
    0x69, 0x61, 0x73, 0x41, 0x64, 0x64, 0x00, 0x00, 0x02, 0x00, 0x00, 0x00, 0x01,
    0x00, 0x00, 0x00, 0x20, 0x00, 0x00, 0x00, 0x08, 0xf5, 0xff, 0xff, 0x00, 0x00,
    0x00, 0x09, 0x8c, 0x00, 0x00, 0x00, 0x11, 0x00, 0x00, 0x00, 0x50, 0x00, 0x00,
    0x00, 0x14, 0x00, 0x00, 0x00, 0x04, 0x00, 0x00, 0x00, 0x02, 0x00, 0x00, 0x00,
    0xff, 0xff, 0xff, 0xff, 0x40, 0x00, 0x00, 0x00, 0xec, 0xf4, 0xff, 0xff, 0x2c,
    0x00, 0x00, 0x00, 0x20, 0x00, 0x00, 0x00, 0x14, 0x00, 0x00, 0x00, 0x04, 0x00,
    0x00, 0x00, 0x01, 0x00, 0x00, 0x00, 0x80, 0xff, 0xff, 0xff, 0xff, 0xff, 0xff,
    0xff, 0x01, 0x00, 0x00, 0x00, 0x26, 0x00, 0x16, 0x3b, 0x01, 0x00, 0x00, 0x00,
    0x26, 0x6a, 0x15, 0x3f, 0x01, 0x00, 0x00, 0x00, 0x00, 0x00, 0x00, 0x00, 0x2e,
    0x00, 0x00, 0x00, 0x73, 0x65, 0x71, 0x75, 0x65, 0x6e, 0x74, 0x69, 0x61, 0x6c,
    0x2f, 0x64, 0x65, 0x6e, 0x73, 0x65, 0x2f, 0x52, 0x65, 0x6c, 0x75, 0x3b, 0x73,
    0x65, 0x71, 0x75, 0x65, 0x6e, 0x74, 0x69, 0x61, 0x6c, 0x2f, 0x64, 0x65, 0x6e,
    0x73, 0x65, 0x2f, 0x42, 0x69, 0x61, 0x73, 0x41, 0x64, 0x64, 0x00, 0x00, 0x02,
    0x00, 0x00, 0x00, 0x01, 0x00, 0x00, 0x00, 0x40, 0x00, 0x00, 0x00, 0xa8, 0xf5,
    0xff, 0xff, 0x00, 0x00, 0x00, 0x09, 0x7c, 0x00, 0x00, 0x00, 0x10, 0x00, 0x00,
    0x00, 0x54, 0x00, 0x00, 0x00, 0x14, 0x00, 0x00, 0x00, 0x04, 0x00, 0x00, 0x00,
    0x02, 0x00, 0x00, 0x00, 0xff, 0xff, 0xff, 0xff, 0x78, 0x00, 0x00, 0x00, 0x8c,
    0xf5, 0xff, 0xff, 0x30, 0x00, 0x00, 0x00, 0x24, 0x00, 0x00, 0x00, 0x18, 0x00,
    0x00, 0x00, 0x04, 0x00, 0x00, 0x00, 0x01, 0x00, 0x00, 0x00, 0x80, 0xff, 0xff,
    0xff, 0xff, 0xff, 0xff, 0xff, 0x00, 0x00, 0x00, 0x00, 0x01, 0x00, 0x00, 0x00,
    0x4b, 0x15, 0x7a, 0x3a, 0x01, 0x00, 0x00, 0x00, 0x36, 0x1b, 0x79, 0x3e, 0x01,
    0x00, 0x00, 0x00, 0x00, 0x00, 0x00, 0x00, 0x1a, 0x00, 0x00, 0x00, 0x73, 0x65,
    0x71, 0x75, 0x65, 0x6e, 0x74, 0x69, 0x61, 0x6c, 0x2f, 0x66, 0x6c, 0x61, 0x74,
    0x74, 0x65, 0x6e, 0x2f, 0x52, 0x65, 0x73, 0x68, 0x61, 0x70, 0x65, 0x00, 0x00,
    0x02, 0x00, 0x00, 0x00, 0x01, 0x00, 0x00, 0x00, 0x78, 0x00, 0x00, 0x00, 0x38,
    0xf6, 0xff, 0xff, 0x00, 0x00, 0x00, 0x09, 0x8c, 0x00, 0x00, 0x00, 0x0f, 0x00,
    0x00, 0x00, 0x5c, 0x00, 0x00, 0x00, 0x1c, 0x00, 0x00, 0x00, 0x04, 0x00, 0x00,
    0x00, 0x04, 0x00, 0x00, 0x00, 0xff, 0xff, 0xff, 0xff, 0x0f, 0x00, 0x00, 0x00,
    0x01, 0x00, 0x00, 0x00, 0x08, 0x00, 0x00, 0x00, 0x24, 0xf6, 0xff, 0xff, 0x30,
    0x00, 0x00, 0x00, 0x24, 0x00, 0x00, 0x00, 0x18, 0x00, 0x00, 0x00, 0x04, 0x00,
    0x00, 0x00, 0x01, 0x00, 0x00, 0x00, 0x80, 0xff, 0xff, 0xff, 0xff, 0xff, 0xff,
    0xff, 0x00, 0x00, 0x00, 0x00, 0x01, 0x00, 0x00, 0x00, 0x4b, 0x15, 0x7a, 0x3a,
    0x01, 0x00, 0x00, 0x00, 0x36, 0x1b, 0x79, 0x3e, 0x01, 0x00, 0x00, 0x00, 0x00,
    0x00, 0x00, 0x00, 0x20, 0x00, 0x00, 0x00, 0x73, 0x65, 0x71, 0x75, 0x65, 0x6e,
    0x74, 0x69, 0x61, 0x6c, 0x2f, 0x6d, 0x61, 0x78, 0x5f, 0x70, 0x6f, 0x6f, 0x6c,
    0x69, 0x6e, 0x67, 0x32, 0x64, 0x2f, 0x4d, 0x61, 0x78, 0x50, 0x6f, 0x6f, 0x6c,
    0x00, 0x00, 0x00, 0x00, 0x04, 0x00, 0x00, 0x00, 0x01, 0x00, 0x00, 0x00, 0x0f,
    0x00, 0x00, 0x00, 0x01, 0x00, 0x00, 0x00, 0x08, 0x00, 0x00, 0x00, 0xe0, 0xf6,
    0xff, 0xff, 0x00, 0x00, 0x00, 0x09, 0xec, 0x00, 0x00, 0x00, 0x0e, 0x00, 0x00,
    0x00, 0x5c, 0x00, 0x00, 0x00, 0x1c, 0x00, 0x00, 0x00, 0x04, 0x00, 0x00, 0x00,
    0x04, 0x00, 0x00, 0x00, 0xff, 0xff, 0xff, 0xff, 0x7a, 0x00, 0x00, 0x00, 0x01,
    0x00, 0x00, 0x00, 0x08, 0x00, 0x00, 0x00, 0xcc, 0xf6, 0xff, 0xff, 0x30, 0x00,
    0x00, 0x00, 0x24, 0x00, 0x00, 0x00, 0x18, 0x00, 0x00, 0x00, 0x04, 0x00, 0x00,
    0x00, 0x01, 0x00, 0x00, 0x00, 0x80, 0xff, 0xff, 0xff, 0xff, 0xff, 0xff, 0xff,
    0x00, 0x00, 0x00, 0x00, 0x01, 0x00, 0x00, 0x00, 0x4b, 0x15, 0x7a, 0x3a, 0x01,
    0x00, 0x00, 0x00, 0x36, 0x1b, 0x79, 0x3e, 0x01, 0x00, 0x00, 0x00, 0x00, 0x00,
    0x00, 0x00, 0x83, 0x00, 0x00, 0x00, 0x73, 0x65, 0x71, 0x75, 0x65, 0x6e, 0x74,
    0x69, 0x61, 0x6c, 0x2f, 0x63, 0x6f, 0x6e, 0x76, 0x32, 0x64, 0x5f, 0x31, 0x2f,
    0x52, 0x65, 0x6c, 0x75, 0x3b, 0x73, 0x65, 0x71, 0x75, 0x65, 0x6e, 0x74, 0x69,
    0x61, 0x6c, 0x2f, 0x63, 0x6f, 0x6e, 0x76, 0x32, 0x64, 0x5f, 0x31, 0x2f, 0x42,
    0x69, 0x61, 0x73, 0x41, 0x64, 0x64, 0x3b, 0x73, 0x65, 0x71, 0x75, 0x65, 0x6e,
    0x74, 0x69, 0x61, 0x6c, 0x2f, 0x63, 0x6f, 0x6e, 0x76, 0x32, 0x64, 0x5f, 0x31,
    0x2f, 0x43, 0x6f, 0x6e, 0x76, 0x32, 0x44, 0x3b, 0x73, 0x65, 0x71, 0x75, 0x65,
    0x6e, 0x74, 0x69, 0x61, 0x6c, 0x2f, 0x63, 0x6f, 0x6e, 0x76, 0x32, 0x64, 0x5f,
    0x31, 0x2f, 0x42, 0x69, 0x61, 0x73, 0x41, 0x64, 0x64, 0x2f, 0x52, 0x65, 0x61,
    0x64, 0x56, 0x61, 0x72, 0x69, 0x61, 0x62, 0x6c, 0x65, 0x4f, 0x70, 0x2f, 0x72,
    0x65, 0x73, 0x6f, 0x75, 0x72, 0x63, 0x65, 0x00, 0x04, 0x00, 0x00, 0x00, 0x01,
    0x00, 0x00, 0x00, 0x7a, 0x00, 0x00, 0x00, 0x01, 0x00, 0x00, 0x00, 0x08, 0x00,
    0x00, 0x00, 0xe8, 0xf7, 0xff, 0xff, 0x00, 0x00, 0x00, 0x09, 0xfc, 0x00, 0x00,
    0x00, 0x0d, 0x00, 0x00, 0x00, 0x58, 0x00, 0x00, 0x00, 0x1c, 0x00, 0x00, 0x00,
    0x04, 0x00, 0x00, 0x00, 0x04, 0x00, 0x00, 0x00, 0xff, 0xff, 0xff, 0xff, 0x7d,
    0x00, 0x00, 0x00, 0x01, 0x00, 0x00, 0x00, 0x08, 0x00, 0x00, 0x00, 0xd4, 0xf7,
    0xff, 0xff, 0x2c, 0x00, 0x00, 0x00, 0x20, 0x00, 0x00, 0x00, 0x14, 0x00, 0x00,
    0x00, 0x04, 0x00, 0x00, 0x00, 0x01, 0x00, 0x00, 0x00, 0x80, 0xff, 0xff, 0xff,
    0xff, 0xff, 0xff, 0xff, 0x01, 0x00, 0x00, 0x00, 0x0f, 0xa7, 0xb2, 0x3a, 0x01,
    0x00, 0x00, 0x00, 0x68, 0xf4, 0xb1, 0x3e, 0x01, 0x00, 0x00, 0x00, 0x00, 0x00,
    0x00, 0x00, 0x96, 0x00, 0x00, 0x00, 0x73, 0x65, 0x71, 0x75, 0x65, 0x6e, 0x74,
    0x69, 0x61, 0x6c, 0x2f, 0x63, 0x6f, 0x6e, 0x76, 0x32, 0x64, 0x2f, 0x52, 0x65,
    0x6c, 0x75, 0x3b, 0x73, 0x65, 0x71, 0x75, 0x65, 0x6e, 0x74, 0x69, 0x61, 0x6c,
    0x2f, 0x63, 0x6f, 0x6e, 0x76, 0x32, 0x64, 0x2f, 0x42, 0x69, 0x61, 0x73, 0x41,
    0x64, 0x64, 0x3b, 0x73, 0x65, 0x71, 0x75, 0x65, 0x6e, 0x74, 0x69, 0x61, 0x6c,
    0x2f, 0x63, 0x6f, 0x6e, 0x76, 0x32, 0x64, 0x5f, 0x31, 0x2f, 0x43, 0x6f, 0x6e,
    0x76, 0x32, 0x44, 0x3b, 0x73, 0x65, 0x71, 0x75, 0x65, 0x6e, 0x74, 0x69, 0x61,
    0x6c, 0x2f, 0x63, 0x6f, 0x6e, 0x76, 0x32, 0x64, 0x2f, 0x43, 0x6f, 0x6e, 0x76,
    0x32, 0x44, 0x3b, 0x73, 0x65, 0x71, 0x75, 0x65, 0x6e, 0x74, 0x69, 0x61, 0x6c,
    0x2f, 0x63, 0x6f, 0x6e, 0x76, 0x32, 0x64, 0x2f, 0x42, 0x69, 0x61, 0x73, 0x41,
    0x64, 0x64, 0x2f, 0x52, 0x65, 0x61, 0x64, 0x56, 0x61, 0x72, 0x69, 0x61, 0x62,
    0x6c, 0x65, 0x4f, 0x70, 0x2f, 0x72, 0x65, 0x73, 0x6f, 0x75, 0x72, 0x63, 0x65,
    0x00, 0x00, 0x04, 0x00, 0x00, 0x00, 0x01, 0x00, 0x00, 0x00, 0x7d, 0x00, 0x00,
    0x00, 0x01, 0x00, 0x00, 0x00, 0x08, 0x00, 0x00, 0x00, 0xea, 0xf9, 0xff, 0xff,
    0x00, 0x00, 0x00, 0x09, 0xf4, 0x00, 0x00, 0x00, 0x0c, 0x00, 0x00, 0x00, 0xcc,
    0x00, 0x00, 0x00, 0x04, 0x00, 0x00, 0x00, 0xd4, 0xf8, 0xff, 0xff, 0x9c, 0x00,
    0x00, 0x00, 0x74, 0x00, 0x00, 0x00, 0x4c, 0x00, 0x00, 0x00, 0x04, 0x00, 0x00,
    0x00, 0x08, 0x00, 0x00, 0x00, 0x00, 0x00, 0x00, 0x00, 0x00, 0x00, 0x00, 0x00,
    0x00, 0x00, 0x00, 0x00, 0x00, 0x00, 0x00, 0x00, 0x00, 0x00, 0x00, 0x00, 0x00,
    0x00, 0x00, 0x00, 0x00, 0x00, 0x00, 0x00, 0x00, 0x00, 0x00, 0x00, 0x00, 0x00,
    0x00, 0x00, 0x00, 0x00, 0x00, 0x00, 0x00, 0x00, 0x00, 0x00, 0x00, 0x00, 0x00,
    0x00, 0x00, 0x00, 0x00, 0x00, 0x00, 0x00, 0x00, 0x00, 0x00, 0x00, 0x00, 0x00,
    0x00, 0x00, 0x00, 0x00, 0x08, 0x00, 0x00, 0x00, 0x83, 0xd7, 0x2b, 0x3c, 0xd0,
    0xea, 0x6c, 0x3c, 0x32, 0xbc, 0x7f, 0x3c, 0x3f, 0x22, 0x44, 0x3c, 0x67, 0x5c,
    0x89, 0x3c, 0x87, 0x3e, 0x26, 0x3d, 0xfd, 0x0d, 0x1d, 0x3c, 0x5c, 0x81, 0x2b,
    0x3c, 0x08, 0x00, 0x00, 0x00, 0xcf, 0x72, 0x3c, 0x3f, 0x36, 0xd9, 0x5b, 0x3f,
    0x07, 0xc0, 0xe3, 0x3f, 0x0a, 0x84, 0x51, 0x3f, 0xae, 0x49, 0x08, 0x40, 0xae,
    0x86, 0xd3, 0x3f, 0xf6, 0xf2, 0x93, 0x3f, 0x59, 0x2a, 0xaa, 0x3f, 0x08, 0x00,
    0x00, 0x00, 0xd4, 0x7f, 0xaa, 0xbf, 0xfa, 0x10, 0xeb, 0xbf, 0xba, 0xbc, 0xfd,
    0xbf, 0xfb, 0x99, 0xc2, 0xbf, 0x51, 0xbb, 0xe0, 0xbf, 0x0a, 0xf2, 0xa4, 0xc0,
    0xe1, 0xd3, 0x9b, 0xbf, 0x0b, 0x2a, 0x8c, 0xbf, 0x1a, 0x00, 0x00, 0x00, 0x73,
    0x65, 0x71, 0x75, 0x65, 0x6e, 0x74, 0x69, 0x61, 0x6c, 0x2f, 0x63, 0x6f, 0x6e,
    0x76, 0x32, 0x64, 0x5f, 0x31, 0x2f, 0x43, 0x6f, 0x6e, 0x76, 0x32, 0x44, 0x00,
    0x00, 0x04, 0x00, 0x00, 0x00, 0x08, 0x00, 0x00, 0x00, 0x04, 0x00, 0x00, 0x00,
    0x01, 0x00, 0x00, 0x00, 0x08, 0x00, 0x00, 0x00, 0xfa, 0xfa, 0xff, 0xff, 0x00,
    0x00, 0x00, 0x09, 0xf4, 0x00, 0x00, 0x00, 0x0b, 0x00, 0x00, 0x00, 0xcc, 0x00,
    0x00, 0x00, 0x04, 0x00, 0x00, 0x00, 0xe4, 0xf9, 0xff, 0xff, 0x9c, 0x00, 0x00,
    0x00, 0x74, 0x00, 0x00, 0x00, 0x4c, 0x00, 0x00, 0x00, 0x04, 0x00, 0x00, 0x00,
    0x08, 0x00, 0x00, 0x00, 0x00, 0x00, 0x00, 0x00, 0x00, 0x00, 0x00, 0x00, 0x00,
    0x00, 0x00, 0x00, 0x00, 0x00, 0x00, 0x00, 0x00, 0x00, 0x00, 0x00, 0x00, 0x00,
    0x00, 0x00, 0x00, 0x00, 0x00, 0x00, 0x00, 0x00, 0x00, 0x00, 0x00, 0x00, 0x00,
    0x00, 0x00, 0x00, 0x00, 0x00, 0x00, 0x00, 0x00, 0x00, 0x00, 0x00, 0x00, 0x00,
    0x00, 0x00, 0x00, 0x00, 0x00, 0x00, 0x00, 0x00, 0x00, 0x00, 0x00, 0x00, 0x00,
    0x00, 0x00, 0x00, 0x08, 0x00, 0x00, 0x00, 0xee, 0x40, 0x28, 0x3b, 0x8e, 0xac,
    0x1b, 0x3b, 0xfd, 0x31, 0x13, 0x3b, 0xfa, 0xdf, 0x3a, 0x3b, 0x28, 0xab, 0x20,
    0x3d, 0x74, 0xdc, 0x27, 0x3b, 0x29, 0x54, 0x35, 0x3b, 0xd5, 0x2a, 0xdc, 0x3c,
    0x08, 0x00, 0x00, 0x00, 0x62, 0x79, 0x67, 0x3e, 0x35, 0x75, 0x9a, 0x3e, 0x99,
    0x0b, 0x92, 0x3e, 0x91, 0x59, 0x9e, 0x3e, 0xd2, 0x69, 0x9f, 0x40, 0x17, 0x3e,
    0xa2, 0x3e, 0x81, 0xe9, 0xb3, 0x3e, 0x59, 0x7a, 0x54, 0x40, 0x08, 0x00, 0x00,
    0x00, 0x6c, 0xf0, 0xa6, 0xbe, 0xfd, 0x10, 0x6d, 0xbe, 0x10, 0xe5, 0x7f, 0xbe,
    0x3a, 0x6a, 0xb9, 0xbe, 0xc0, 0x48, 0x05, 0xc0, 0xbb, 0x8c, 0xa6, 0xbe, 0x72,
    0x2f, 0xa2, 0xbe, 0x7f, 0x72, 0x5a, 0xc0, 0x18, 0x00, 0x00, 0x00, 0x73, 0x65,
    0x71, 0x75, 0x65, 0x6e, 0x74, 0x69, 0x61, 0x6c, 0x2f, 0x63, 0x6f, 0x6e, 0x76,
    0x32, 0x64, 0x2f, 0x43, 0x6f, 0x6e, 0x76, 0x32, 0x44, 0x00, 0x00, 0x00, 0x00,
    0x04, 0x00, 0x00, 0x00, 0x08, 0x00, 0x00, 0x00, 0x04, 0x00, 0x00, 0x00, 0x01,
    0x00, 0x00, 0x00, 0x03, 0x00, 0x00, 0x00, 0x0a, 0xfc, 0xff, 0xff, 0x00, 0x00,
    0x00, 0x09, 0x6c, 0x00, 0x00, 0x00, 0x0a, 0x00, 0x00, 0x00, 0x44, 0x00, 0x00,
    0x00, 0x04, 0x00, 0x00, 0x00, 0xf4, 0xfa, 0xff, 0xff, 0x30, 0x00, 0x00, 0x00,
    0x24, 0x00, 0x00, 0x00, 0x18, 0x00, 0x00, 0x00, 0x04, 0x00, 0x00, 0x00, 0x01,
    0x00, 0x00, 0x00, 0x00, 0x00, 0x00, 0x00, 0x00, 0x00, 0x00, 0x00, 0x00, 0x00,
    0x00, 0x00, 0x01, 0x00, 0x00, 0x00, 0x27, 0x5e, 0xd4, 0x3d, 0x01, 0x00, 0x00,
    0x00, 0xef, 0x8d, 0x00, 0x41, 0x01, 0x00, 0x00, 0x00, 0x6b, 0xb5, 0x52, 0xc1,
    0x19, 0x00, 0x00, 0x00, 0x73, 0x65, 0x71, 0x75, 0x65, 0x6e, 0x74, 0x69, 0x61,
    0x6c, 0x2f, 0x64, 0x65, 0x6e, 0x73, 0x65, 0x5f, 0x32, 0x2f, 0x4d, 0x61, 0x74,
    0x4d, 0x75, 0x6c, 0x00, 0x00, 0x00, 0x02, 0x00, 0x00, 0x00, 0x04, 0x00, 0x00,
    0x00, 0x20, 0x00, 0x00, 0x00, 0x8a, 0xfc, 0xff, 0xff, 0x00, 0x00, 0x00, 0x09,
    0x6c, 0x00, 0x00, 0x00, 0x09, 0x00, 0x00, 0x00, 0x44, 0x00, 0x00, 0x00, 0x04,
    0x00, 0x00, 0x00, 0x74, 0xfb, 0xff, 0xff, 0x30, 0x00, 0x00, 0x00, 0x24, 0x00,
    0x00, 0x00, 0x18, 0x00, 0x00, 0x00, 0x04, 0x00, 0x00, 0x00, 0x01, 0x00, 0x00,
    0x00, 0x00, 0x00, 0x00, 0x00, 0x00, 0x00, 0x00, 0x00, 0x00, 0x00, 0x00, 0x00,
    0x01, 0x00, 0x00, 0x00, 0x02, 0x65, 0xdc, 0x3a, 0x01, 0x00, 0x00, 0x00, 0x38,
    0xac, 0x5a, 0x3e, 0x01, 0x00, 0x00, 0x00, 0x21, 0x02, 0x3a, 0xbe, 0x19, 0x00,
    0x00, 0x00, 0x73, 0x65, 0x71, 0x75, 0x65, 0x6e, 0x74, 0x69, 0x61, 0x6c, 0x2f,
    0x64, 0x65, 0x6e, 0x73, 0x65, 0x5f, 0x31, 0x2f, 0x4d, 0x61, 0x74, 0x4d, 0x75,
    0x6c, 0x00, 0x00, 0x00, 0x02, 0x00, 0x00, 0x00, 0x20, 0x00, 0x00, 0x00, 0x40,
    0x00, 0x00, 0x00, 0x0a, 0xfd, 0xff, 0xff, 0x00, 0x00, 0x00, 0x09, 0x64, 0x00,
    0x00, 0x00, 0x08, 0x00, 0x00, 0x00, 0x40, 0x00, 0x00, 0x00, 0x04, 0x00, 0x00,
    0x00, 0xf4, 0xfb, 0xff, 0xff, 0x2c, 0x00, 0x00, 0x00, 0x20, 0x00, 0x00, 0x00,
    0x14, 0x00, 0x00, 0x00, 0x04, 0x00, 0x00, 0x00, 0x01, 0x00, 0x00, 0x00, 0x00,
    0x00, 0x00, 0x00, 0x00, 0x00, 0x00, 0x00, 0x01, 0x00, 0x00, 0x00, 0x1a, 0x24,
    0xcf, 0x3a, 0x01, 0x00, 0x00, 0x00, 0xd2, 0x85, 0x4d, 0x3e, 0x01, 0x00, 0x00,
    0x00, 0xc0, 0x0b, 0x4b, 0xbe, 0x17, 0x00, 0x00, 0x00, 0x73, 0x65, 0x71, 0x75,
    0x65, 0x6e, 0x74, 0x69, 0x61, 0x6c, 0x2f, 0x64, 0x65, 0x6e, 0x73, 0x65, 0x2f,
    0x4d, 0x61, 0x74, 0x4d, 0x75, 0x6c, 0x00, 0x02, 0x00, 0x00, 0x00, 0x40, 0x00,
    0x00, 0x00, 0x78, 0x00, 0x00, 0x00, 0x82, 0xfd, 0xff, 0xff, 0x00, 0x00, 0x00,
    0x02, 0x38, 0x00, 0x00, 0x00, 0x07, 0x00, 0x00, 0x00, 0x10, 0x00, 0x00, 0x00,
    0x08, 0x00, 0x00, 0x00, 0x04, 0x00, 0x04, 0x00, 0x04, 0x00, 0x00, 0x00, 0x18,
    0x00, 0x00, 0x00, 0x73, 0x65, 0x71, 0x75, 0x65, 0x6e, 0x74, 0x69, 0x61, 0x6c,
    0x2f, 0x66, 0x6c, 0x61, 0x74, 0x74, 0x65, 0x6e, 0x2f, 0x43, 0x6f, 0x6e, 0x73,
    0x74, 0x00, 0x00, 0x00, 0x00, 0x01, 0x00, 0x00, 0x00, 0x02, 0x00, 0x00, 0x00,
    0xca, 0xfd, 0xff, 0xff, 0x00, 0x00, 0x00, 0x02, 0x68, 0x00, 0x00, 0x00, 0x06,
    0x00, 0x00, 0x00, 0x28, 0x00, 0x00, 0x00, 0x04, 0x00, 0x00, 0x00, 0xbc, 0xfd,
    0xff, 0xff, 0x14, 0x00, 0x00, 0x00, 0x04, 0x00, 0x00, 0x00, 0x01, 0x00, 0x00,
    0x00, 0x00, 0x00, 0x00, 0x00, 0x00, 0x00, 0x00, 0x00, 0x01, 0x00, 0x00, 0x00,
    0x58, 0x33, 0xbd, 0x39, 0x32, 0x00, 0x00, 0x00, 0x73, 0x65, 0x71, 0x75, 0x65,
    0x6e, 0x74, 0x69, 0x61, 0x6c, 0x2f, 0x64, 0x65, 0x6e, 0x73, 0x65, 0x5f, 0x32,
    0x2f, 0x42, 0x69, 0x61, 0x73, 0x41, 0x64, 0x64, 0x2f, 0x52, 0x65, 0x61, 0x64,
    0x56, 0x61, 0x72, 0x69, 0x61, 0x62, 0x6c, 0x65, 0x4f, 0x70, 0x2f, 0x72, 0x65,
    0x73, 0x6f, 0x75, 0x72, 0x63, 0x65, 0x00, 0x00, 0x01, 0x00, 0x00, 0x00, 0x04,
    0x00, 0x00, 0x00, 0x42, 0xfe, 0xff, 0xff, 0x00, 0x00, 0x00, 0x02, 0x68, 0x00,
    0x00, 0x00, 0x05, 0x00, 0x00, 0x00, 0x28, 0x00, 0x00, 0x00, 0x04, 0x00, 0x00,
    0x00, 0x34, 0xfe, 0xff, 0xff, 0x14, 0x00, 0x00, 0x00, 0x04, 0x00, 0x00, 0x00,
    0x01, 0x00, 0x00, 0x00, 0x00, 0x00, 0x00, 0x00, 0x00, 0x00, 0x00, 0x00, 0x01,
    0x00, 0x00, 0x00, 0x50, 0x23, 0x81, 0x36, 0x32, 0x00, 0x00, 0x00, 0x73, 0x65,
    0x71, 0x75, 0x65, 0x6e, 0x74, 0x69, 0x61, 0x6c, 0x2f, 0x64, 0x65, 0x6e, 0x73,
    0x65, 0x5f, 0x31, 0x2f, 0x42, 0x69, 0x61, 0x73, 0x41, 0x64, 0x64, 0x2f, 0x52,
    0x65, 0x61, 0x64, 0x56, 0x61, 0x72, 0x69, 0x61, 0x62, 0x6c, 0x65, 0x4f, 0x70,
    0x2f, 0x72, 0x65, 0x73, 0x6f, 0x75, 0x72, 0x63, 0x65, 0x00, 0x00, 0x01, 0x00,
    0x00, 0x00, 0x20, 0x00, 0x00, 0x00, 0xba, 0xfe, 0xff, 0xff, 0x00, 0x00, 0x00,
    0x02, 0x68, 0x00, 0x00, 0x00, 0x04, 0x00, 0x00, 0x00, 0x28, 0x00, 0x00, 0x00,
    0x04, 0x00, 0x00, 0x00, 0xac, 0xfe, 0xff, 0xff, 0x14, 0x00, 0x00, 0x00, 0x04,
    0x00, 0x00, 0x00, 0x01, 0x00, 0x00, 0x00, 0x00, 0x00, 0x00, 0x00, 0x00, 0x00,
    0x00, 0x00, 0x01, 0x00, 0x00, 0x00, 0x7c, 0x5a, 0xca, 0x35, 0x30, 0x00, 0x00,
    0x00, 0x73, 0x65, 0x71, 0x75, 0x65, 0x6e, 0x74, 0x69, 0x61, 0x6c, 0x2f, 0x64,
    0x65, 0x6e, 0x73, 0x65, 0x2f, 0x42, 0x69, 0x61, 0x73, 0x41, 0x64, 0x64, 0x2f,
    0x52, 0x65, 0x61, 0x64, 0x56, 0x61, 0x72, 0x69, 0x61, 0x62, 0x6c, 0x65, 0x4f,
    0x70, 0x2f, 0x72, 0x65, 0x73, 0x6f, 0x75, 0x72, 0x63, 0x65, 0x00, 0x00, 0x00,
    0x00, 0x01, 0x00, 0x00, 0x00, 0x40, 0x00, 0x00, 0x00, 0x32, 0xff, 0xff, 0xff,
    0x00, 0x00, 0x00, 0x02, 0xbc, 0x00, 0x00, 0x00, 0x03, 0x00, 0x00, 0x00, 0x7c,
    0x00, 0x00, 0x00, 0x04, 0x00, 0x00, 0x00, 0x24, 0xff, 0xff, 0xff, 0x4c, 0x00,
    0x00, 0x00, 0x04, 0x00, 0x00, 0x00, 0x08, 0x00, 0x00, 0x00, 0x00, 0x00, 0x00,
    0x00, 0x00, 0x00, 0x00, 0x00, 0x00, 0x00, 0x00, 0x00, 0x00, 0x00, 0x00, 0x00,
    0x00, 0x00, 0x00, 0x00, 0x00, 0x00, 0x00, 0x00, 0x00, 0x00, 0x00, 0x00, 0x00,
    0x00, 0x00, 0x00, 0x00, 0x00, 0x00, 0x00, 0x00, 0x00, 0x00, 0x00, 0x00, 0x00,
    0x00, 0x00, 0x00, 0x00, 0x00, 0x00, 0x00, 0x00, 0x00, 0x00, 0x00, 0x00, 0x00,
    0x00, 0x00, 0x00, 0x00, 0x00, 0x00, 0x00, 0x00, 0x00, 0x08, 0x00, 0x00, 0x00,
    0xf9, 0xd7, 0x6f, 0x37, 0xe0, 0x55, 0xa5, 0x37, 0xbe, 0x77, 0xb2, 0x37, 0xce,
    0xdf, 0x88, 0x37, 0xc6, 0xb7, 0xbf, 0x37, 0xed, 0x07, 0x68, 0x38, 0x6e, 0x34,
    0x5b, 0x37, 0xbb, 0x5f, 0x6f, 0x37, 0x33, 0x00, 0x00, 0x00, 0x73, 0x65, 0x71,
    0x75, 0x65, 0x6e, 0x74, 0x69, 0x61, 0x6c, 0x2f, 0x63, 0x6f, 0x6e, 0x76, 0x32,
    0x64, 0x5f, 0x31, 0x2f, 0x42, 0x69, 0x61, 0x73, 0x41, 0x64, 0x64, 0x2f, 0x52,
    0x65, 0x61, 0x64, 0x56, 0x61, 0x72, 0x69, 0x61, 0x62, 0x6c, 0x65, 0x4f, 0x70,
    0x2f, 0x72, 0x65, 0x73, 0x6f, 0x75, 0x72, 0x63, 0x65, 0x00, 0x01, 0x00, 0x00,
    0x00, 0x08, 0x00, 0x00, 0x00, 0x00, 0x00, 0x0e, 0x00, 0x18, 0x00, 0x08, 0x00,
    0x07, 0x00, 0x0c, 0x00, 0x10, 0x00, 0x14, 0x00, 0x0e, 0x00, 0x00, 0x00, 0x00,
    0x00, 0x00, 0x02, 0xcc, 0x00, 0x00, 0x00, 0x02, 0x00, 0x00, 0x00, 0x8c, 0x00,
    0x00, 0x00, 0x10, 0x00, 0x00, 0x00, 0x0c, 0x00, 0x0c, 0x00, 0x00, 0x00, 0x00,
    0x00, 0x04, 0x00, 0x08, 0x00, 0x0c, 0x00, 0x00, 0x00, 0x50, 0x00, 0x00, 0x00,
    0x04, 0x00, 0x00, 0x00, 0x08, 0x00, 0x00, 0x00, 0x00, 0x00, 0x00, 0x00, 0x00,
    0x00, 0x00, 0x00, 0x00, 0x00, 0x00, 0x00, 0x00, 0x00, 0x00, 0x00, 0x00, 0x00,
    0x00, 0x00, 0x00, 0x00, 0x00, 0x00, 0x00, 0x00, 0x00, 0x00, 0x00, 0x00, 0x00,
    0x00, 0x00, 0x00, 0x00, 0x00, 0x00, 0x00, 0x00, 0x00, 0x00, 0x00, 0x00, 0x00,
    0x00, 0x00, 0x00, 0x00, 0x00, 0x00, 0x00, 0x00, 0x00, 0x00, 0x00, 0x00, 0x00,
    0x00, 0x00, 0x00, 0x00, 0x00, 0x00, 0x00, 0x00, 0x00, 0x00, 0x00, 0x08, 0x00,
    0x00, 0x00, 0x11, 0xe2, 0xb7, 0x36, 0x8c, 0x22, 0xaa, 0x36, 0x5a, 0xde, 0xa0,
    0x36, 0xf0, 0x3b, 0xcc, 0x36, 0xeb, 0x97, 0xaf, 0x38, 0x42, 0x74, 0xb7, 0x36,
    0x3b, 0x2c, 0xc6, 0x36, 0x7f, 0x9e, 0x70, 0x38, 0x31, 0x00, 0x00, 0x00, 0x73,
    0x65, 0x71, 0x75, 0x65, 0x6e, 0x74, 0x69, 0x61, 0x6c, 0x2f, 0x63, 0x6f, 0x6e,
    0x76, 0x32, 0x64, 0x2f, 0x42, 0x69, 0x61, 0x73, 0x41, 0x64, 0x64, 0x2f, 0x52,
    0x65, 0x61, 0x64, 0x56, 0x61, 0x72, 0x69, 0x61, 0x62, 0x6c, 0x65, 0x4f, 0x70,
    0x2f, 0x72, 0x65, 0x73, 0x6f, 0x75, 0x72, 0x63, 0x65, 0x00, 0x00, 0x00, 0x01,
    0x00, 0x00, 0x00, 0x08, 0x00, 0x00, 0x00, 0x14, 0x00, 0x1c, 0x00, 0x08, 0x00,
    0x07, 0x00, 0x0c, 0x00, 0x10, 0x00, 0x14, 0x00, 0x00, 0x00, 0x00, 0x00, 0x18,
    0x00, 0x14, 0x00, 0x00, 0x00, 0x00, 0x00, 0x00, 0x09, 0x88, 0x00, 0x00, 0x00,
    0x01, 0x00, 0x00, 0x00, 0x68, 0x00, 0x00, 0x00, 0x28, 0x00, 0x00, 0x00, 0x04,
    0x00, 0x00, 0x00, 0x04, 0x00, 0x00, 0x00, 0xff, 0xff, 0xff, 0xff, 0x80, 0x00,
    0x00, 0x00, 0x01, 0x00, 0x00, 0x00, 0x03, 0x00, 0x00, 0x00, 0x0c, 0x00, 0x14,
    0x00, 0x04, 0x00, 0x08, 0x00, 0x0c, 0x00, 0x10, 0x00, 0x0c, 0x00, 0x00, 0x00,
    0x30, 0x00, 0x00, 0x00, 0x24, 0x00, 0x00, 0x00, 0x18, 0x00, 0x00, 0x00, 0x04,
    0x00, 0x00, 0x00, 0x01, 0x00, 0x00, 0x00, 0x8f, 0xff, 0xff, 0xff, 0xff, 0xff,
    0xff, 0xff, 0x00, 0x00, 0x00, 0x00, 0x01, 0x00, 0x00, 0x00, 0xe4, 0xe3, 0x0b,
    0x3b, 0x01, 0x00, 0x00, 0x00, 0x00, 0x20, 0x03, 0x3f, 0x01, 0x00, 0x00, 0x00,
    0x00, 0x80, 0x03, 0xbd, 0x11, 0x00, 0x00, 0x00, 0x61, 0x63, 0x63, 0x65, 0x6c,
    0x65, 0x72, 0x61, 0x74, 0x69, 0x6f, 0x6e, 0x5f, 0x69, 0x6e, 0x74, 0x38, 0x00,
    0x00, 0x00, 0x04, 0x00, 0x00, 0x00, 0x01, 0x00, 0x00, 0x00, 0x80, 0x00, 0x00,
    0x00, 0x01, 0x00, 0x00, 0x00, 0x03, 0x00, 0x00, 0x00, 0x07, 0x00, 0x00, 0x00,
    0x80, 0x00, 0x00, 0x00, 0x64, 0x00, 0x00, 0x00, 0x50, 0x00, 0x00, 0x00, 0x38,
    0x00, 0x00, 0x00, 0x28, 0x00, 0x00, 0x00, 0x1c, 0x00, 0x00, 0x00, 0x04, 0x00,
    0x00, 0x00, 0xbe, 0xff, 0xff, 0xff, 0x00, 0x00, 0x00, 0x06, 0x02, 0x00, 0x00,
    0x00, 0x00, 0x00, 0x06, 0x00, 0x08, 0x00, 0x07, 0x00, 0x06, 0x00, 0x00, 0x00,
    0x00, 0x00, 0x00, 0x72, 0xc2, 0xff, 0xff, 0xff, 0x00, 0x00, 0x00, 0x19, 0x02,
    0x00, 0x00, 0x00, 0xe6, 0xff, 0xff, 0xff, 0x00, 0x00, 0x00, 0x09, 0x04, 0x00,
