// Copyright 2022, 2024 NXP.
// All rights reserved.
// SPDX-License-Identifier: BSD-3-Clause

// Neutron Converter Version: 1.2.0+0X84d37e1f
// Neutron Microcode Version: 0X84d37e1f

/*
// Register operators for TFLite Micro.
microOpResolver.AddQuantize();
microOpResolver.AddMul();
microOpResolver.AddAdd();
microOpResolver.AddSoftmax();
microOpResolver.AddDequantize();
microOpResolver.AddCustom(tflite::GetString_NEUTRON_GRAPH(), tflite::Register_NEUTRON_GRAPH());
*/

#include "tensorflow_model_lresnet_quant_neutron.h"

#define MODEL_NAME "tensorflow_model_lresnet_quant_neutron.tflite"
#define MODEL_SIZE 12512

const unsigned char tensorflow_model_lresnet_quant_neutron[] __attribute__((aligned(16))) = {
  0x14, 0x00, 0x00, 0x00, 0x54, 0x46, 0x4c, 0x33, 0x00, 0x00, 0x00, 0x00,
  0x00, 0x00, 0x00, 0x00, 0x00, 0x00, 0x00, 0x00, 0x16, 0xe2, 0xff, 0xff,
  0x03, 0x00, 0x00, 0x00, 0x14, 0x30, 0x00, 0x00, 0xd4, 0x1d, 0x00, 0x00,
  0x68, 0x1d, 0x00, 0x00, 0x04, 0x00, 0x00, 0x00, 0x0d, 0x00, 0x00, 0x00,
  0x58, 0x1d, 0x00, 0x00, 0x40, 0x1d, 0x00, 0x00, 0x2c, 0x1d, 0x00, 0x00,
  0x08, 0x1d, 0x00, 0x00, 0xe4, 0x1c, 0x00, 0x00, 0xc0, 0x1b, 0x00, 0x00,
  0xac, 0x1a, 0x00, 0x00, 0xb8, 0x19, 0x00, 0x00, 0x64, 0x16, 0x00, 0x00,
  0x40, 0x15, 0x00, 0x00, 0xdc, 0x11, 0x00, 0x00, 0x78, 0x10, 0x00, 0x00,
  0x04, 0x00, 0x00, 0x00, 0x9e, 0xe1, 0xff, 0xff, 0x04, 0x00, 0x00, 0x00,
  0x60, 0x10, 0x00, 0x00, 0x00, 0x00, 0x00, 0x00, 0x00, 0x00, 0x00, 0x00,
  0x00, 0x00, 0x00, 0x00, 0x00, 0x00, 0x00, 0x00, 0x00, 0x00, 0x00, 0x00,
  0x00, 0x00, 0x00, 0x00, 0x01, 0x01, 0x01, 0x01, 0x01, 0x01, 0x01, 0x01,
  0x01, 0x01, 0x01, 0x01, 0x01, 0x01, 0x01, 0x01, 0x01, 0x01, 0x01, 0x01,
  0x01, 0x01, 0x01, 0x01, 0x01, 0x01, 0x01, 0x01, 0x01, 0x01, 0x01, 0x01,
  0x00, 0x01, 0x00, 0x01, 0x00, 0x01, 0x00, 0x01, 0x00, 0x01, 0x00, 0x01,
  0x00, 0x01, 0x00, 0x01, 0x00, 0x01, 0x00, 0x01, 0x00, 0x01, 0x00, 0x01,
  0x00, 0x01, 0x00, 0x01, 0x00, 0x01, 0x00, 0x01, 0xfb, 0x0b, 0x09, 0xf5,
  0xc8, 0x17, 0xf3, 0x1e, 0x37, 0xe3, 0xc5, 0xe3, 0x0a, 0xb4, 0x03, 0xe9,
  0xf7, 0x04, 0x23, 0x05, 0xfd, 0x08, 0xf6, 0xcf, 0xc9, 0xf6, 0xc4, 0xcb,
  0x27, 0xe2, 0x0d, 0x1a, 0x05, 0x04, 0x15, 0xf8, 0x0a, 0x13, 0x14, 0x2f,
  0xa4, 0xb8, 0xee, 0x05, 0x06, 0x00, 0xea, 0xf1, 0x13, 0x18, 0xf2, 0x0b,
  0xe8, 0x04, 0x16, 0x1a, 0xf0, 0xd7, 0xde, 0xfe, 0xf0, 0xc6, 0xef, 0xed,
  0x0e, 0x1a, 0x13, 0xcb, 0xcd, 0x25, 0xeb, 0x27, 0x4c, 0xdc, 0xd5, 0xec,
  0x1c, 0xb8, 0x38, 0xfc, 0xf8, 0x18, 0x1b, 0x00, 0xfc, 0x20, 0x17, 0xee,
  0xa6, 0xf6, 0xc7, 0xbb, 0x33, 0xb0, 0x24, 0x51, 0x18, 0xff, 0x1f, 0xdd,
  0x1f, 0x0a, 0xe6, 0x06, 0xc0, 0xc8, 0xdf, 0xec, 0x0f, 0xfb, 0xe1, 0xcd,
  0xf3, 0x15, 0x17, 0x17, 0x00, 0x1c, 0x05, 0x08, 0xf1, 0xe5, 0x04, 0xef,
  0x24, 0xc1, 0xd7, 0xc8, 0x14, 0x20, 0x0b, 0xc9, 0xb8, 0x13, 0x09, 0x0a,
  0x49, 0xc5, 0xcb, 0xe4, 0x12, 0xdc, 0x16, 0x18, 0xe4, 0xef, 0x19, 0x06,
  0xf0, 0x24, 0xfe, 0xd5, 0xbb, 0xd1, 0xc1, 0xcd, 0x41, 0xb2, 0x07, 0x32,
  0xf1, 0x08, 0x45, 0xcc, 0x06, 0xfe, 0xd2, 0x1e, 0xd1, 0xde, 0xb9, 0x0e,
  0x03, 0x0f, 0xd3, 0xf2, 0xe6, 0x21, 0x12, 0x05, 0x04, 0x20, 0x09, 0x19,
  0xdd, 0xbe, 0xf6, 0xf4, 0xf2, 0xc2, 0xe7, 0xb2, 0xf6, 0x0e, 0xff, 0xdc,
  0xaf, 0x27, 0xe1, 0x1b, 0x4d, 0xdf, 0xd6, 0xef, 0xfc, 0xce, 0x2b, 0x02,
  0xdd, 0x03, 0x0f, 0xe5, 0x1c, 0xfe, 0x01, 0xdb, 0xc4, 0xd6, 0xb9, 0xc3,
  0x40, 0xc0, 0x10, 0x42, 0x1e, 0x12, 0x18, 0xef, 0xf4, 0x08, 0x02, 0x13,
  0xca, 0xd4, 0xdb, 0x12, 0xec, 0xfc, 0xd9, 0xc9, 0xd5, 0x1a, 0x06, 0xf9,
  0xfc, 0x19, 0x11, 0x12, 0xf9, 0xcf, 0xee, 0xd9, 0x1d, 0xc6, 0xea, 0xd3,
  0xfe, 0x1f, 0x0f, 0xd9, 0xae, 0xf7, 0xdf, 0x0f, 0x44, 0xdd, 0xe2, 0xf7,
  0x13, 0xd8, 0x19, 0x2c, 0xf6, 0x1d, 0xfc, 0xef, 0x0e, 0x10, 0x00, 0xeb,
  0xd1, 0xe6, 0xd7, 0xec, 0x3d, 0xcb, 0x23, 0x2e, 0xff, 0xf8, 0x28, 0xce,
  0x00, 0x1e, 0x08, 0x32, 0xc7, 0xc8, 0xe1, 0xed, 0xf9, 0x12, 0xed, 0xda,
  0xf0, 0x03, 0xf3, 0x21, 0x05, 0xfe, 0xf4, 0xfc, 0xd2, 0xc2, 0xfc, 0xed,
  0x21, 0xed, 0xcc, 0xc1, 0xee, 0x11, 0xfb, 0xdc, 0xd0, 0x27, 0xdc, 0xff,
  0x35, 0xd4, 0xe8, 0x06, 0x00, 0xbc, 0x0e, 0xf6, 0xfb, 0x04, 0x23, 0xcd,
  0x19, 0x18, 0xf9, 0xdc, 0xbc, 0xeb, 0xe0, 0xad, 0x2e, 0xb1, 0x17, 0x52,
  0xf3, 0x18, 0x17, 0xeb, 0x16, 0x04, 0xdd, 0x05, 0xa7, 0xb9, 0xcc, 0xf8,
  0xe1, 0xe3, 0xda, 0xe4, 0xf0, 0x2d, 0xfc, 0x15, 0xf4, 0x1e, 0x13, 0x0a,
  0xf0, 0xb1, 0xd6, 0xdd, 0x12, 0xd8, 0xdc, 0xb1, 0xe7, 0xf8, 0xff, 0xc7,
  0xae, 0x05, 0xde, 0x0f, 0x4b, 0xeb, 0xc8, 0xe1, 0xf3, 0xc7, 0x36, 0x1c,
  0xe0, 0xf3, 0x12, 0xff, 0x0f, 0x13, 0xfc, 0xfe, 0xd5, 0xf8, 0xd5, 0xd6,
  0x3a, 0xc3, 0x2f, 0x3f, 0x20, 0xf9, 0x47, 0xe8, 0x06, 0xf3, 0xe5, 0x31,
  0xcb, 0xdf, 0xc3, 0x06, 0xe7, 0x0d, 0xde, 0xcf, 0x00, 0xf7, 0xe7, 0x26,
  0xfa, 0x08, 0x10, 0xf3, 0xde, 0xc5, 0x05, 0x07, 0xfe, 0xbd, 0xdd, 0xc7,
  0x0c, 0xff, 0x0e, 0xc2, 0xb7, 0xfb, 0xdb, 0x0c, 0x4a, 0xe2, 0xd2, 0xe9,
  0x0a, 0xc5, 0x41, 0xf9, 0xe1, 0x08, 0x09, 0xfd, 0xf0, 0x16, 0x11, 0xe3,
  0xc7, 0xfb, 0xb5, 0xd1, 0x38, 0xc6, 0x2f, 0x47, 0x11, 0x05, 0x39, 0xe1,
  0x25, 0x0e, 0xe1, 0x11, 0xb9, 0xc3, 0xc4, 0xee, 0xf9, 0xe8, 0xf3, 0xeb,
  0xf7, 0x27, 0x1d, 0x01, 0x0e, 0x17, 0x12, 0x06, 0x04, 0xf3, 0xde, 0xf1,
  0x1c, 0xc2, 0xf3, 0xb5, 0x06, 0x1a, 0x15, 0xd8, 0xcf, 0x22, 0x09, 0x1a,
  0x4b, 0xd6, 0xe0, 0xe4, 0x05, 0xc6, 0x29, 0x2c, 0xd7, 0xf9, 0x1a, 0xe8,
  0x1e, 0x28, 0xe7, 0xe7, 0x98, 0xf8, 0xe2, 0xcc, 0x22, 0xc7, 0x12, 0x43,
  0xfb, 0x2b, 0x27, 0xfb, 0x02, 0xe8, 0xf8, 0x2d, 0xc8, 0xb5, 0xe8, 0xdf,
  0xf3, 0xfa, 0xed, 0xd1, 0xf5, 0x05, 0x19, 0x18, 0x19, 0x05, 0xf7, 0x00,
  0xef, 0xf8, 0xe5, 0xd6, 0x04, 0xea, 0xff, 0xda, 0xe5, 0xf1, 0xe5, 0xfc,
  0xd6, 0x28, 0x0e, 0x25, 0x2f, 0xe8, 0xd9, 0x01, 0x12, 0xd9, 0x28, 0xfe,
  0xdc, 0xf7, 0xfd, 0xdb, 0xfe, 0x2b, 0xf8, 0xe3, 0x94, 0xf9, 0xc5, 0xc4,
  0x30, 0xc1, 0x29, 0x27, 0x18, 0x03, 0x4b, 0xd6, 0x1e, 0x18, 0xcf, 0x27,
  0xad, 0xe9, 0xe9, 0xe2, 0xe2, 0x14, 0xc7, 0xd0, 0xe1, 0x29, 0xf8, 0x03,
  0x19, 0x05, 0x1c, 0x0a, 0xd6, 0xca, 0x01, 0xf8, 0x27, 0xc0, 0xd8, 0xcf,
  0xfc, 0x06, 0xe9, 0xcc, 0xbe, 0x1c, 0xdb, 0x2e, 0x2e, 0xf2, 0xe1, 0x05,
  0x03, 0xb6, 0x2a, 0xed, 0xf1, 0xff, 0x0e, 0x0b, 0x05, 0xfe, 0x12, 0xdf,
  0xa4, 0xeb, 0xc5, 0xaf, 0x30, 0xd7, 0x03, 0x3a, 0xf3, 0x09, 0x1e, 0xf6,
  0xfb, 0x17, 0xe2, 0x18, 0xab, 0xdf, 0xbc, 0xfe, 0x1b, 0xed, 0xec, 0xc8,
  0xe3, 0x1f, 0xf0, 0x1d, 0x0f, 0xfd, 0x0c, 0x03, 0xf8, 0xd2, 0xd1, 0xe1,
  0x10, 0xd6, 0xca, 0xe6, 0xf6, 0x07, 0xef, 0xcd, 0xd2, 0x28, 0xea, 0x34,
  0x41, 0xcb, 0xd1, 0xdb, 0x26, 0xcc, 0x3b, 0xe8, 0xdb, 0x06, 0x18, 0xfb,
  0x05, 0x14, 0xf7, 0xf6, 0xb8, 0x02, 0xb1, 0xe1, 0x3b, 0xbd, 0x0d, 0x36,
  0x05, 0xf6, 0x36, 0xd8, 0x10, 0x04, 0xf0, 0x0f, 0xa5, 0xde, 0xd4, 0xec,
  0x04, 0x12, 0xf0, 0xec, 0x04, 0x24, 0xee, 0x1a, 0x13, 0x03, 0xf9, 0xf1,
  0xe7, 0xd0, 0xdf, 0xcc, 0x0e, 0xe5, 0xf5, 0xd2, 0xe5, 0x1c, 0x09, 0xf1,
  0xb6, 0x18, 0x08, 0x31, 0x4a, 0xdd, 0xd2, 0xfc, 0x06, 0xc1, 0x49, 0x0d,
  0xf3, 0x14, 0x0b, 0xf4, 0x09, 0x0c, 0x0e, 0xf8, 0xd6, 0xe1, 0xc0, 0xc3,
  0x32, 0xbd, 0x0d, 0x1b, 0xf7, 0x11, 0x10, 0xec, 0x07, 0xec, 0xf0, 0x08,
  0x9c, 0xb0, 0xc1, 0x04, 0xf3, 0x0a, 0xe5, 0xc6, 0xfe, 0x09, 0xfa, 0x13,
  0x0f, 0x1b, 0x24, 0x1b, 0xf9, 0xce, 0xfd, 0xd3, 0x2d, 0xe3, 0xe4, 0xcf,
  0x01, 0x16, 0xee, 0xec, 0xad, 0x02, 0xdf, 0x12, 0x41, 0xf3, 0xd4, 0xd9,
  0x07, 0xd0, 0x2b, 0x03, 0xf3, 0x21, 0xfe, 0xeb, 0x10, 0x11, 0x16, 0xe8,
  0xaa, 0x03, 0xe7, 0xc6, 0x33, 0xd5, 0x07, 0x49, 0x27, 0xfc, 0x12, 0xf7,
  0x21, 0xf7, 0xd1, 0x2d, 0xac, 0xc1, 0xed, 0xe0, 0xf0, 0x16, 0xe9, 0xd8,
  0xe2, 0xfd, 0xfb, 0xf6, 0x27, 0x1c, 0x05, 0x10, 0xf8, 0xee, 0xed, 0x08,
  0x15, 0xc4, 0xe6, 0xdb, 0xfe, 0x1c, 0xde, 0xd5, 0xac, 0xfa, 0xe4, 0x08,
  0x31, 0xe4, 0xf0, 0xec, 0xed, 0xde, 0x12, 0x04, 0xee, 0x08, 0x09, 0x05,
  0x17, 0x17, 0xee, 0x02, 0x97, 0xf1, 0xd5, 0xeb, 0x19, 0xb4, 0x0b, 0x3d,
  0x14, 0x1b, 0x34, 0xe3, 0x21, 0x19, 0xec, 0x06, 0xbe, 0xe7, 0xd9, 0xe5,
  0x08, 0xed, 0xea, 0xc6, 0xdb, 0xfe, 0x06, 0x27, 0x16, 0x04, 0x0b, 0x27,
  0xe4, 0xec, 0xf1, 0xec, 0xf5, 0xec, 0xdd, 0xdd, 0xfd, 0x05, 0x17, 0xfa,
  0xbb, 0x03, 0xf8, 0x0b, 0x46, 0xfa, 0xd5, 0x02, 0x10, 0xc3, 0x28, 0xfd,
  0xf4, 0x15, 0x09, 0x15, 0x0a, 0x0a, 0xee, 0xff, 0xc1, 0xde, 0xb1, 0xe0,
  0x0d, 0xc7, 0x1d, 0x2e, 0x0e, 0xf8, 0x1d, 0xf9, 0x19, 0xef, 0xeb, 0x0c,
  0x9c, 0xbd, 0xf0, 0xe6, 0x08, 0xee, 0xe9, 0xd2, 0x04, 0x0f, 0xed, 0xf6,
  0x0d, 0xff, 0x20, 0xfe, 0xd9, 0xcb, 0xe6, 0xf5, 0x1f, 0xcb, 0xe3, 0xb7,
  0xf4, 0xf6, 0x01, 0xce, 0xd0, 0x17, 0x05, 0x04, 0x47, 0xfe, 0xf8, 0xe4,
  0x06, 0xc1, 0x42, 0xf9, 0xd9, 0x01, 0x1e, 0x0c, 0xf0, 0xfa, 0x02, 0x02,
  0xb3, 0xdc, 0xaf, 0xd5, 0x3b, 0xe3, 0x26, 0x34, 0xfe, 0x06, 0x2e, 0xe6,
  0x0b, 0x13, 0x12, 0x32, 0xbc, 0xdb, 0xdf, 0x0c, 0xf0, 0xf8, 0xe6, 0xeb,
  0xfe, 0x11, 0x11, 0x10, 0x02, 0x11, 0x09, 0x06, 0xed, 0xec, 0xee, 0xe1,
  0x06, 0xf2, 0xdf, 0xdc, 0xd9, 0x13, 0xec, 0xcf, 0xb7, 0x22, 0xe7, 0x0f,
  0x52, 0xf8, 0xec, 0xdc, 0x03, 0xc7, 0x36, 0xf4, 0xe6, 0x12, 0x10, 0xf3,
  0xf1, 0x0f, 0x02, 0xdf, 0xb6, 0x01, 0xdc, 0xf5, 0x3e, 0xb9, 0x22, 0x37,
  0x1b, 0x0e, 0x2e, 0xde, 0x15, 0x12, 0x0b, 0x0c, 0xb5, 0xc4, 0xdf, 0x10,
  0x11, 0x03, 0xee, 0xed, 0xd8, 0xfc, 0x18, 0xff, 0xf4, 0x0b, 0xff, 0x1f,
  0xff, 0xc4, 0xde, 0xd1, 0x23, 0xbf, 0xe7, 0xd2, 0xf5, 0x04, 0x03, 0xda,
  0xb6, 0xf8, 0xdc, 0x25, 0x4f, 0xd7, 0xf2, 0xfe, 0x00, 0xb9, 0x2b, 0xe3,
  0x02, 0x12, 0xf0, 0x12, 0x1c, 0x20, 0xf8, 0xf9, 0xc4, 0xed, 0xc4, 0xcf,
  0x31, 0xd6, 0x14, 0x2e, 0x17, 0x20, 0x25, 0xd8, 0x0f, 0x1f, 0xf8, 0x22,
  0xb5, 0xbe, 0xd2, 0x06, 0xe8, 0x0a, 0xfe, 0xdc, 0xfa, 0x0d, 0x09, 0x1e,
  0xfe, 0x0a, 0x1f, 0x1d, 0xd4, 0xeb, 0xdc, 0xe6, 0xe0, 0xd2, 0xc6, 0xc9,
  0xfb, 0xf8, 0x11, 0xe5, 0xaf, 0x0d, 0xf2, 0x04, 0x2c, 0xcd, 0xd0, 0xf0,
  0x1f, 0xb6, 0x1f, 0xef, 0xf6, 0x03, 0x1c, 0xe8, 0x11, 0x0a, 0xe5, 0xdb,
  0xbc, 0x03, 0xaa, 0xd0, 0x28, 0xc7, 0x02, 0x26, 0x04, 0x24, 0x1a, 0xf5,
  0x02, 0x06, 0xda, 0x0f, 0xd8, 0xdf, 0xe7, 0x08, 0xee, 0x01, 0xca, 0xe0,
  0x03, 0x0e, 0xed, 0x0c, 0x0f, 0x12, 0x1a, 0x08, 0xd7, 0xf1, 0xd7, 0xd2,
  0x09, 0xca, 0xd3, 0xdc, 0x00, 0x18, 0xf2, 0xed, 0xb7, 0x02, 0xe6, 0x22,
  0x2b, 0xd4, 0xdf, 0xfa, 0x14, 0xcd, 0x3f, 0xf9, 0xfb, 0xf1, 0x16, 0xde,
  0xf7, 0x26, 0x17, 0x05, 0xa3, 0xdc, 0xcb, 0xda, 0x34, 0xe9, 0x00, 0x17,
  0x1b, 0x02, 0x2b, 0xd6, 0x00, 0x09, 0x0c, 0x10, 0xd5, 0xbf, 0xc7, 0x04,
  0x09, 0x1a, 0xfa, 0xd0, 0xec, 0x24, 0x19, 0x1a, 0x23, 0x0f, 0x27, 0x05,
  0xc7, 0xf6, 0xf9, 0xce, 0x09, 0xd6, 0xe7, 0xe4, 0xf3, 0x0b, 0x18, 0xfc,
  0xcf, 0xff, 0x03, 0x2a, 0x3b, 0xe7, 0xcd, 0xde, 0x23, 0xc6, 0x10, 0x19,
  0xd5, 0x1c, 0x0c, 0xef, 0x0f, 0x27, 0xe8, 0xdf, 0xdf, 0xf1, 0xbb, 0xa7,
  0x3a, 0xd6, 0x15, 0x43, 0x1f, 0x18, 0x1b, 0xcf, 0x1e, 0xf3, 0xf2, 0x04,
  0xb8, 0xf4, 0xc8, 0x13, 0x0d, 0x05, 0xee, 0xdd, 0xd6, 0x02, 0x02, 0x04,
  0x1c, 0xf7, 0x0a, 0x0f, 0xcf, 0xc4, 0xda, 0xeb, 0xfc, 0xf2, 0xe7, 0xd2,
  0x07, 0x22, 0x0a, 0xfb, 0xd3, 0x09, 0x0a, 0x1c, 0x50, 0xe0, 0xda, 0xe4,
  0x17, 0xcf, 0x25, 0x0e, 0xd8, 0x12, 0x12, 0xf6, 0x21, 0x05, 0xf9, 0x0d,
  0x9f, 0xf5, 0xb8, 0xb9, 0x28, 0xda, 0x0b, 0x0a, 0x14, 0x01, 0x3a, 0xe9,
  0xfa, 0xf2, 0x06, 0x0b, 0xb2, 0xa3, 0xe4, 0xfe, 0xfd, 0xfe, 0x02, 0xf7,
  0xf1, 0x07, 0xee, 0x0c, 0xfb, 0xfe, 0x18, 0x1d, 0xe2, 0xcf, 0xe7, 0xff,
  0x0f, 0xe3, 0xda, 0xc9, 0xed, 0x05, 0x0d, 0xc9, 0xc4, 0x21, 0xe5, 0x30,
  0x2d, 0xe2, 0xe9, 0x05, 0x1e, 0xce, 0x05, 0xfd, 0xf5, 0x0c, 0x26, 0x07,
  0xf3, 0x0f, 0xfb, 0x03, 0x92, 0x06, 0xd8, 0xb9, 0x19, 0xc2, 0x19, 0x33,
  0x06, 0x0a, 0x3c, 0xd4, 0x04, 0x1a, 0xe6, 0x02, 0xbc, 0xba, 0xe3, 0x01,
  0x1b, 0x06, 0xe4, 0xfb, 0xf8, 0xfc, 0xe3, 0x13, 0x08, 0xfa, 0x09, 0x24,
  0xdc, 0xc8, 0xf5, 0x00, 0x1e, 0xea, 0xd0, 0xcd, 0x04, 0x10, 0x15, 0xde,
  0xcb, 0x23, 0xf2, 0x25, 0x3c, 0xea, 0xe5, 0xf4, 0xf8, 0xd1, 0x2c, 0x09,
  0xf8, 0x02, 0x17, 0xff, 0x14, 0x20, 0xe4, 0xfc, 0x97, 0xe7, 0xc0, 0xce,
  0x25, 0xc4, 0x25, 0x18, 0x06, 0x05, 0x1c, 0xee, 0x14, 0x06, 0x02, 0x19,
  0xd6, 0xc7, 0xce, 0xe8, 0x1c, 0xf9, 0x07, 0xde, 0xf1, 0x04, 0xf6, 0x15,
  0x0f, 0x0b, 0x13, 0x1d, 0xf4, 0xd2, 0xd2, 0xe9, 0xec, 0x05, 0xde, 0xee,
  0xf5, 0x08, 0x17, 0xc1, 0xd9, 0x16, 0xf6, 0x2d, 0x52, 0xfd, 0xc4, 0xe5,
  0x0e, 0xc5, 0x0a, 0x1c, 0xd3, 0x01, 0x13, 0xec, 0x22, 0x28, 0xfb, 0x0f,
  0xa7, 0x06, 0xa7, 0xe4, 0x10, 0xc1, 0x23, 0x54, 0xfa, 0x18, 0x35, 0xe6,
  0x21, 0x02, 0xed, 0x32, 0xb9, 0xb2, 0xd1, 0xf0, 0xff, 0x22, 0x01, 0xd5,
  0xed, 0x14, 0xfc, 0x0e, 0x13, 0xf3, 0x00, 0x06, 0xca, 0xc7, 0xf7, 0xff,
  0x16, 0xfb, 0xf0, 0xe9, 0xda, 0xfd, 0xff, 0xf0, 0xae, 0x10, 0xf7, 0x2e,
  0x2f, 0xed, 0xc4, 0xdd, 0xf7, 0xc7, 0x2c, 0x02, 0xf6, 0x02, 0xf5, 0xe3,
  0x05, 0x01, 0x0a, 0x06, 0xa9, 0x07, 0xc9, 0xd9, 0x31, 0xba, 0x06, 0x46,
  0x1d, 0x00, 0x45, 0xf4, 0xf1, 0xeb, 0xd4, 0x24, 0xd8, 0xb8, 0xd6, 0x01,
  0xfa, 0x0a, 0xd7, 0xd4, 0xf3, 0x05, 0xf2, 0x13, 0xf7, 0x01, 0xf6, 0x11,
  0xf0, 0xea, 0xfe, 0xc9, 0xed, 0xdf, 0xc5, 0xe6, 0xe2, 0x10, 0x04, 0xcf,
  0xda, 0x18, 0xe2, 0xff, 0x30, 0xd4, 0xd8, 0x10, 0x0d, 0xd6, 0x21, 0xf8,
  0xd8, 0x21, 0x06, 0xfd, 0x09, 0x2c, 0xfc, 0x0a, 0xbe, 0xdb, 0xb7, 0xad,
  0x2d, 0xc1, 0x00, 0x50, 0x06, 0x1e, 0x2f, 0xe1, 0x19, 0x14, 0xe1, 0x12,
  0xdd, 0xbd, 0xbc, 0xf3, 0x00, 0xff, 0xc4, 0xde, 0xd6, 0x18, 0xf0, 0xfd,
  0x1c, 0x04, 0x26, 0xf9, 0xe1, 0xcc, 0xeb, 0xfb, 0x23, 0xd7, 0xda, 0xbb,
  0xfc, 0x05, 0x0c, 0xc6, 0xbe, 0x15, 0xdf, 0x26, 0x40, 0xcc, 0xe8, 0xf8,
  0xfa, 0xb8, 0x2c, 0x11, 0xf7, 0xec, 0x17, 0xdc, 0xfe, 0x12, 0x16, 0xf2,
  0xb7, 0xe5, 0xb1, 0xc9, 0x23, 0xe9, 0x25, 0x1c, 0x01, 0x1a, 0x18, 0xe4,
  0x13, 0xf7, 0xe6, 0x28, 0xc0, 0xcf, 0xe6, 0x14, 0xf6, 0x13, 0x0b, 0xd4,
  0xdc, 0x26, 0xed, 0xfd, 0x0f, 0x1f, 0x03, 0x06, 0xe2, 0xe2, 0xee, 0xf1,
  0xf7, 0xf0, 0xc8, 0xe5, 0xfd, 0x01, 0xed, 0xd7, 0xb1, 0x28, 0xf8, 0x17,
  0x2b, 0xdb, 0xee, 0x0b, 0xff, 0xc9, 0x0e, 0xfb, 0xff, 0xf0, 0xfb, 0xf4,
  0x05, 0x1b, 0x0f, 0x0c, 0xb6, 0xe0, 0xba, 0xdd, 0x25, 0xc5, 0x29, 0x33,
  0x05, 0x1c, 0x2c, 0xff, 0x07, 0x1c, 0xf0, 0x16, 0x9e, 0xa9, 0xe5, 0x0b,
  0xe8, 0x1e, 0xf1, 0xea, 0xf1, 0x1c, 0x03, 0x0c, 0xf9, 0x04, 0x1b, 0x07,
  0xf2, 0xd6, 0xc9, 0xf5, 0x18, 0xfb, 0xdc, 0xc3, 0xe6, 0x07, 0xfc, 0xcb,
  0xcc, 0x0d, 0xe5, 0x32, 0x47, 0xfb, 0xd2, 0xf1, 0x1e, 0xcd, 0x08, 0xf7,
  0xf4, 0x03, 0x16, 0xf5, 0x01, 0x04, 0xea, 0xe8, 0x81, 0xe4, 0xc2, 0xbc,
  0x18, 0xed, 0x0a, 0x24, 0x15, 0x03, 0x1d, 0xd5, 0xfa, 0x06, 0x02, 0x23,
  0x9b, 0xe4, 0xee, 0xfe, 0xef, 0x09, 0xf8, 0xcd, 0x13, 0x0b, 0x05, 0x1d,
  0x24, 0x05, 0x00, 0x17, 0xf2, 0xd7, 0xec, 0xcd, 0xf8, 0xdb, 0xed, 0xf7,
  0x08, 0xf3, 0xfa, 0xf2, 0xc6, 0x1e, 0xe4, 0x04, 0x3e, 0xe3, 0xf1, 0xeb,
  0x1b, 0xc9, 0xfb, 0xfd, 0x00, 0xf4, 0x19, 0xda, 0x1a, 0x18, 0xff, 0xe7,
  0xb0, 0xdc, 0xd1, 0xd4, 0x29, 0xbd, 0x1c, 0x35, 0x19, 0xf5, 0x3a, 0xce,
  0x1f, 0xf8, 0x06, 0x16, 0xc0, 0xd0, 0xf1, 0x04, 0x14, 0x13, 0xd1, 0xe6,
  0xeb, 0x10, 0x01, 0x25, 0x25, 0x0d, 0x11, 0x1b, 0xda, 0xea, 0xcd, 0xd0,
  0x20, 0xe6, 0xd4, 0xd7, 0xfb, 0x0c, 0xf0, 0xeb, 0xc4, 0x05, 0x12, 0x11,
  0x55, 0xe0, 0xe5, 0xec, 0x03, 0xbb, 0x17, 0xfc, 0xe7, 0xf2, 0x26, 0xf6,
  0x12, 0x0f, 0x04, 0xf9, 0xc6, 0x04, 0xd1, 0xb7, 0x13, 0xd6, 0x18, 0x43,
  0x1c, 0xf7, 0x38, 0xd4, 0x01, 0xf3, 0xff, 0x09, 0xc1, 0xbf, 0xf4, 0xf1,
  0xe9, 0x0d, 0xdc, 0xea, 0x0b, 0x09, 0x13, 0xff, 0x18, 0x1c, 0x0d, 0x1c,
  0xe9, 0xdb, 0xef, 0xea, 0x01, 0xd1, 0xd3, 0xc9, 0xf0, 0x08, 0x11, 0xc5,
  0xac, 0x20, 0x08, 0x2c, 0x3c, 0xf5, 0xf2, 0xe5, 0x1b, 0xac, 0xf6, 0x1f,
  0xe2, 0x16, 0x11, 0xd8, 0xf1, 0xfa, 0x0e, 0xe7, 0x9e, 0xf6, 0xd6, 0xe6,
  0x26, 0xd3, 0x29, 0x34, 0xf9, 0x14, 0x25, 0xf1, 0x23, 0x0c, 0xe0, 0x2e,
  0xc1, 0xc5, 0xe8, 0x10, 0x09, 0x18, 0xe8, 0xef, 0xf6, 0x1e, 0x16, 0x10,
  0x05, 0xf7, 0x14, 0x18, 0xdb, 0xde, 0xce, 0xe9, 0xf5, 0xe9, 0xf3, 0xc3,
  0xf1, 0x21, 0x03, 0xcd, 0xd5, 0xfc, 0xe3, 0x14, 0x3d, 0xe9, 0xcc, 0x09,
  0x05, 0xd6, 0x34, 0xf6, 0x01, 0x00, 0x00, 0xfe, 0x01, 0x07, 0x12, 0x10,
  0xb0, 0x02, 0xae, 0xdd, 0x28, 0xcc, 0x28, 0x36, 0x01, 0x28, 0x1b, 0xe9,
  0x24, 0xea, 0x01, 0x09, 0xa4, 0xb8, 0xdb, 0x0d, 0xfa, 0x10, 0xcd, 0xde,
  0x01, 0x01, 0xef, 0xfa, 0x0d, 0xf6, 0x0a, 0x24, 0xed, 0xbf, 0xef, 0xf1,
  0x11, 0xe0, 0xbe, 0xc7, 0xec, 0x03, 0x23, 0xf1, 0xaf, 0x1f, 0x0d, 0x0f,
  0x47, 0xdc, 0xc2, 0x09, 0x01, 0xba, 0x04, 0x00, 0x05, 0x00, 0x25, 0xda,
  0x14, 0x01, 0xe8, 0xde, 0xa4, 0xfe, 0xbb, 0xb1, 0x1e, 0xcc, 0x21, 0x21,
  0xf9, 0x10, 0x17, 0xf5, 0x21, 0x0a, 0xf4, 0x1e, 0xc1, 0xb9, 0xd2, 0xfd,
  0x06, 0x0d, 0xca, 0xf4, 0xe0, 0x26, 0x09, 0xf6, 0x1d, 0x12, 0x21, 0xf2,
  0xef, 0xe4, 0xe1, 0xcd, 0xff, 0xc3, 0xd1, 0xbd, 0xf0, 0x11, 0x02, 0xd6,
  0xca, 0x08, 0xe4, 0x15, 0x33, 0xe5, 0xbc, 0xdf, 0x22, 0xc0, 0x2d, 0x19,
  0x0c, 0xf4, 0x17, 0xe7, 0xf5, 0x04, 0xf2, 0x0f, 0xb4, 0x00, 0xcc, 0xcf,
  0x2c, 0xbe, 0x12, 0x39, 0xfa, 0x21, 0x0c, 0xe6, 0x15, 0xf0, 0x05, 0x2c,
  0xb1, 0xe2, 0xac, 0x03, 0xff, 0xef, 0xea, 0xf6, 0xdf, 0x0b, 0xef, 0x1a,
  0xfa, 0x20, 0x00, 0xf1, 0xf3, 0xc8, 0x02, 0xef, 0xfe, 0xca, 0xce, 0xc7,
  0xf9, 0xfd, 0x18, 0xee, 0xa7, 0x27, 0xfe, 0x21, 0x29, 0xf3, 0xd9, 0xd7,
  0x12, 0xda, 0x26, 0x03, 0xeb, 0x0c, 0x22, 0xcd, 0xfd, 0x19, 0x0a, 0x09,
  0xa6, 0xdf, 0xb2, 0xb9, 0x29, 0xe5, 0x06, 0x3a, 0x07, 0x10, 0x1f, 0xfd,
  0x10, 0x1d, 0xfc, 0x2c, 0xb4, 0xc1, 0xe2, 0x14, 0xf3, 0x22, 0xef, 0xdb,
  0xdd, 0x27, 0x14, 0x14, 0x18, 0xfd, 0x18, 0x01, 0xd3, 0xb5, 0xf8, 0xd2,
  0x15, 0xe5, 0xfa, 0xc9, 0xfb, 0xf6, 0xfc, 0xd1, 0xb0, 0x1d, 0xe6, 0x1f,
  0x42, 0xe7, 0xca, 0xe7, 0x06, 0xd6, 0x35, 0xfb, 0xfd, 0x17, 0x00, 0xf4,
  0xf1, 0xf8, 0xf2, 0xe4, 0xab, 0xef, 0xd2, 0xb2, 0x25, 0xbf, 0x24, 0x21,
  0x0d, 0x0a, 0x1b, 0xf8, 0x0f, 0x0e, 0xdf, 0x16, 0xa6, 0xde, 0xcf, 0xeb,
  0x03, 0xf5, 0xf6, 0xfc, 0x08, 0x17, 0xff, 0x23, 0xf8, 0xfa, 0x13, 0x19,
  0xcc, 0xe3, 0xe1, 0xe3, 0xf5, 0xe6, 0xdd, 0xd0, 0x0e, 0x1f, 0xfb, 0xc5,
  0xcd, 0x0e, 0x00, 0x1a, 0x24, 0xe9, 0xdb, 0xf4, 0x02, 0xd0, 0x19, 0x1f,
  0xfd, 0xf0, 0x1b, 0xd8, 0x1e, 0x08, 0xef, 0xd7, 0xc3, 0xf9, 0xd5, 0xe2,
  0x15, 0xda, 0x26, 0x3f, 0x15, 0xef, 0x17, 0xfc, 0x09, 0x03, 0xdb, 0x08,
  0xa5, 0xd6, 0xc4, 0x01, 0x04, 0x13, 0xfc, 0xf7, 0xfe, 0x29, 0x00, 0x0a,
  0x12, 0x22, 0x1f, 0x26, 0xee, 0xcc, 0xe1, 0xce, 0x02, 0xd6, 0xf1, 0xc3,
  0x05, 0x04, 0xf8, 0xcd, 0xcc, 0x1d, 0xe3, 0x14, 0x50, 0xd4, 0xee, 0xf3,
  0x1b, 0xe6, 0x2c, 0xfa, 0x04, 0xf8, 0xf6, 0xed, 0x0c, 0x0b, 0xea, 0x03,
  0xbc, 0xf8, 0xc5, 0xcd, 0x10, 0xda, 0x1b, 0x4b, 0x06, 0x02, 0x21, 0xff,
  0x11, 0xfd, 0xfc, 0x25, 0xbf, 0xe3, 0xbd, 0x0a, 0xf9, 0x04, 0xf0, 0xd3,
  0x0f, 0x0d, 0x16, 0x05, 0xff, 0xf9, 0x17, 0xf8, 0xde, 0xea, 0xe4, 0xce,
  0x0e, 0xee, 0xd4, 0xda, 0xed, 0xee, 0xff, 0xdc, 0xb8, 0x13, 0xee, 0x1b,
  0x47, 0xea, 0xdd, 0xe7, 0xfe, 0xe4, 0x10, 0xfc, 0xe4, 0xf9, 0x16, 0x0c,
  0x06, 0xfc, 0xe9, 0x0b, 0xd3, 0xf1, 0xcf, 0xb3, 0x3e, 0xca, 0x03, 0x27,
  0x18, 0x02, 0x30, 0xed, 0x0b, 0xf4, 0xf2, 0x0a, 0xc5, 0xcd, 0xb8, 0x14,
  0x1c, 0x2e, 0xd7, 0xde, 0xe0, 0x22, 0x14, 0x09, 0xf6, 0x0b, 0xfb, 0x13,
  0xed, 0xbd, 0xd3, 0xce, 0x03, 0xf7, 0xe1, 0xf3, 0x0d, 0x07, 0xf1, 0xd1,
  0xd9, 0xf6, 0xfd, 0x13, 0x22, 0xc9, 0xcb, 0xdf, 0x06, 0xeb, 0x41, 0x03,
  0xf1, 0x01, 0x1e, 0xe7, 0x11, 0x23, 0xf2, 0xdd, 0xc8, 0xdf, 0xd5, 0xe4,
  0x3d, 0xd9, 0x0b, 0x14, 0x1b, 0x11, 0x2d, 0xd5, 0x0d, 0x01, 0x0a, 0x16,
  0xc4, 0xcc, 0xd3, 0x0c, 0x18, 0x1a, 0xe5, 0xe5, 0xe6, 0xf1, 0x18, 0x23,
  0x1e, 0x05, 0x21, 0x01, 0xca, 0xf2, 0xd4, 0xe9, 0x24, 0x04, 0x04, 0xd2,
  0x0a, 0x06, 0x1e, 0xd0, 0xb8, 0x28, 0xef, 0x0f, 0x34, 0xd1, 0xde, 0x10,
  0x1c, 0xcc, 0x03, 0x2d, 0xe7, 0xf9, 0x12, 0xff, 0x23, 0x18, 0xfd, 0x0c,
  0x93, 0x04, 0xe7, 0xbe, 0x1a, 0xc7, 0x15, 0x19, 0x0b, 0x17, 0x33, 0xdd,
  0x0f, 0x0a, 0xcd, 0x30, 0xc0, 0xdd, 0xd3, 0xfd, 0x15, 0x2e, 0xe3, 0x00,
  0xfb, 0x1d, 0x10, 0x08, 0x12, 0xfc, 0x02, 0x15, 0xee, 0xc7, 0xf4, 0xf6,
  0xf4, 0xda, 0x0c, 0xd8, 0xf6, 0x08, 0x08, 0xcf, 0xbd, 0x21, 0x0f, 0x30,
  0x28, 0xdc, 0xc8, 0xf8, 0x00, 0xce, 0x2b, 0x19, 0x00, 0x11, 0x13, 0xe9,
  0xf5, 0x2a, 0xf6, 0x08, 0xad, 0xd5, 0xac, 0xdb, 0x35, 0xf4, 0x0e, 0x1a,
  0x17, 0x0f, 0x06, 0xef, 0x10, 0x08, 0xe3, 0x1a, 0xad, 0xe5, 0xd9, 0xf8,
  0x13, 0x11, 0xd8, 0xd8, 0xd1, 0x08, 0xee, 0x01, 0x11, 0x03, 0x21, 0xf3,
  0xf3, 0xce, 0xfe, 0xe5, 0x02, 0x02, 0x02, 0x08, 0xe2, 0x1d, 0xf3, 0xd7,
  0xce, 0x1b, 0xfc, 0x09, 0x55, 0xdb, 0xdf, 0xec, 0x0b, 0xdf, 0x1e, 0x11,
  0xec, 0xed, 0x09, 0x05, 0xf0, 0x29, 0x11, 0xe7, 0xba, 0xfa, 0xc9, 0xd9,
  0x38, 0xd2, 0x2d, 0x1a, 0x1e, 0x0d, 0x2a, 0xd2, 0x05, 0xee, 0xce, 0x30,
  0xb8, 0xe7, 0xcb, 0x0c, 0x13, 0x0d, 0xf2, 0xdb, 0xe7, 0x11, 0xe7, 0x19,
  0xf7, 0xf4, 0x09, 0x23, 0xdb, 0xc8, 0xdb, 0xd2, 0x14, 0xf3, 0xea, 0xd0,
  0xdc, 0xfd, 0xe1, 0xe0, 0xb5, 0x08, 0x06, 0x00, 0x3f, 0x02, 0xec, 0xf5,
  0x04, 0xb6, 0x1d, 0x05, 0xe5, 0x12, 0x1b, 0xe5, 0x0e, 0x00, 0xe3, 0xee,
  0xe1, 0xf6, 0xad, 0xc3, 0x34, 0xd4, 0x04, 0x4a, 0x1c, 0x17, 0x03, 0xd2,
  0x09, 0xff, 0x03, 0x2e, 0x9e, 0xbd, 0xe2, 0xf2, 0xe9, 0xed, 0xdf, 0xe5,
  0xda, 0x09, 0xf9, 0x0e, 0x0a, 0x16, 0x1d, 0x01, 0xe4, 0xd6, 0xe4, 0xfd,
  0x03, 0xdb, 0xe3, 0xc8, 0xf8, 0xfa, 0xe4, 0xeb, 0xcc, 0x00, 0x01, 0x0f,
  0x32, 0xff, 0xec, 0xf7, 0x15, 0xe0, 0x20, 0xe6, 0x00, 0x19, 0x23, 0xf6,
  0xfa, 0x1a, 0xff, 0x0a, 0xa3, 0xf3, 0xb0, 0xd1, 0x38, 0xde, 0x1c, 0x38,
  0x0f, 0x1e, 0x23, 0xe6, 0x15, 0x06, 0xe0, 0x06, 0xa4, 0xd6, 0xf1, 0xef,
  0xfc, 0x0a, 0xf3, 0xdb, 0xed, 0xfc, 0xff, 0x09, 0xfb, 0xfc, 0x11, 0xfa,
  0xd7, 0xda, 0xdc, 0xce, 0xf2, 0xe7, 0xcc, 0xdb, 0x06, 0x1d, 0x09, 0xd7,
  0xd3, 0x13, 0x16, 0x13, 0x41, 0xdd, 0xed, 0x03, 0xfa, 0xc9, 0x2c, 0x18,
  0xef, 0x16, 0xf4, 0xdf, 0x0b, 0x2a, 0xeb, 0xe5, 0xd1, 0xf6, 0xcf, 0xca,
  0x40, 0xdb, 0x01, 0x4a, 0x0e, 0x19, 0x03, 0xdd, 0x0f, 0x19, 0xe9, 0x21,
  0xa9, 0xbf, 0xe4, 0x03, 0x0b, 0x03, 0xfd, 0xed, 0xdd, 0x0b, 0x08, 0x0e,
  0x18, 0x15, 0xff, 0x08, 0xe2, 0xe4, 0x04, 0xfe, 0xf7, 0xe0, 0xf2, 0xf0,
  0x13, 0x24, 0x16, 0xef, 0xc3, 0x09, 0xeb, 0x0c, 0x34, 0xe1, 0xf7, 0xdf,
  0xee, 0xdc, 0x35, 0x00, 0xd3, 0xfd, 0xfe, 0x05, 0x00, 0x0c, 0x03, 0xfe,
  0xa7, 0xd5, 0xc6, 0xe3, 0x21, 0xbf, 0x1e, 0x1d, 0x25, 0xfc, 0x45, 0xde,
  0x04, 0x0b, 0xde, 0x21, 0xcf, 0xf2, 0xc7, 0xe5, 0x15, 0x00, 0xdc, 0xcd,
  0xdf, 0x00, 0x0b, 0x02, 0xfd, 0x1e, 0xfd, 0xfa, 0xe3, 0xd6, 0x03, 0xf8,
  0x07, 0xd7, 0xc8, 0xe2, 0x08, 0x18, 0xdc, 0xd9, 0xb3, 0x11, 0xf5, 0x22,
  0x3d, 0xcf, 0xd6, 0xfa, 0x21, 0xc4, 0x22, 0xfb, 0xe1, 0x1d, 0x21, 0xf4,
  0x1b, 0x05, 0xe3, 0xe8, 0xc0, 0xe2, 0xd7, 0xcf, 0x36, 0xb1, 0x2a, 0x34,
  0x05, 0x08, 0x1f, 0xde, 0xfd, 0x10, 0x02, 0x2d, 0xc1, 0xe1, 0xaf, 0x06,
  0xf1, 0xe2, 0xf7, 0xc5, 0xe1, 0x06, 0xec, 0x2b, 0x06, 0x11, 0x18, 0x08,
  0xed, 0xd1, 0xcb, 0xec, 0xfb, 0xe6, 0xed, 0xc9, 0x0c, 0xf1, 0x04, 0xe7,
  0xc6, 0xf8, 0x00, 0x00, 0x4e, 0xd5, 0xeb, 0xfd, 0x21, 0xe9, 0x34, 0x01,
  0xff, 0xf3, 0xf5, 0xee, 0xfe, 0x00, 0xeb, 0xe1, 0xc6, 0x01, 0xbb, 0xe0,
  0x36, 0xda, 0x21, 0x36, 0x0d, 0x15, 0x2f, 0xd7, 0x14, 0xff, 0xdf, 0x2a,
  0xad, 0xba, 0xc0, 0xe9, 0xfa, 0xf9, 0xe2, 0xcc, 0xf1, 0xfd, 0x0f, 0x1e,
  0x0a, 0x05, 0x25, 0x19, 0xd7, 0xc9, 0x02, 0xfa, 0x20, 0xcc, 0xd1, 0xd5,
  0xf7, 0x10, 0xf2, 0xcc, 0xc3, 0xfc, 0x03, 0x34, 0x3c, 0xf8, 0xc9, 0xe9,
  0xff, 0xcb, 0x29, 0x08, 0xf7, 0x18, 0x1c, 0xf2, 0xf2, 0x1f, 0xfc, 0xf0,
  0xb4, 0xf5, 0xd5, 0xde, 0x15, 0xd3, 0x09, 0x38, 0x13, 0xff, 0x1b, 0xdd,
  0x0e, 0x07, 0x0e, 0x1f, 0xbd, 0xd3, 0xa9, 0xe0, 0xfe, 0xf5, 0xdd, 0xfc,
  0xfc, 0x20, 0xf7, 0x05, 0xf9, 0x18, 0x1c, 0xf6, 0xf6, 0xcf, 0xe8, 0xd4,
  0x29, 0xd8, 0xd9, 0xd3, 0xfc, 0xf8, 0xe6, 0xf8, 0xd2, 0x1c, 0x10, 0x27,
  0x4a, 0xd4, 0xf8, 0xf5, 0xed, 0xca, 0x28, 0xf8, 0xe0, 0xef, 0x23, 0xe2,
  0x22, 0x07, 0xe5, 0x06, 0xb0, 0x02, 0xd1, 0xd2, 0x29, 0xb8, 0x25, 0x1b,
  0xf3, 0x18, 0x4a, 0xf7, 0x0e, 0x02, 0xe9, 0x03, 0x9c, 0xc3, 0xbd, 0x09,
  0x07, 0x1e, 0xdd, 0xd5, 0xe0, 0x2d, 0x03, 0x14, 0x29, 0xf9, 0x28, 0xff,
  0xe9, 0xc8, 0xf7, 0xda, 0x0f, 0xc5, 0xd5, 0xce, 0xe9, 0x23, 0xf2, 0xfc,
  0xae, 0x16, 0xe8, 0x11, 0x2e, 0xe9, 0xdc, 0xdf, 0x1d, 0xc9, 0x25, 0xf8,
  0xdb, 0xf1, 0xf9, 0xe1, 0xf0, 0x1b, 0xf9, 0xf5, 0xad, 0xd4, 0xbb, 0xec,
  0x1a, 0xd7, 0x25, 0x3d, 0x15, 0x28, 0x0f, 0xf0, 0xf5, 0xf5, 0xe3, 0x18,
  0xae, 0xcf, 0xe6, 0xf0, 0xeb, 0xec, 0xe0, 0xd0, 0xfe, 0x04, 0x04, 0x11,
  0x16, 0x1a, 0x19, 0x09, 0xce, 0xd0, 0xde, 0xff, 0xfb, 0xe0, 0xe4, 0xc6,
  0x0e, 0xf5, 0x07, 0xd2, 0xae, 0x1c, 0x0c, 0x01, 0x4e, 0xeb, 0xdc, 0xe5,
  0x11, 0xc2, 0x3a, 0x01, 0xfa, 0xf1, 0x00, 0xf8, 0x05, 0x01, 0xec, 0xfa,
  0xb2, 0xe4, 0xb4, 0xa9, 0x47, 0xa7, 0x03, 0x0f, 0xff, 0x12, 0x26, 0xf5,
  0xf6, 0x0d, 0xfb, 0x34, 0xd3, 0xe3, 0xcc, 0xde, 0xf0, 0x22, 0xf9, 0xc5,
  0xd7, 0x26, 0xf3, 0x13, 0x05, 0xf7, 0x2a, 0x21, 0xe9, 0xf4, 0xe5, 0xcd,
  0x1c, 0xf5, 0xea, 0xdd, 0x03, 0xfe, 0xe8, 0xc5, 0xb0, 0xf8, 0xef, 0x24,
  0x4e, 0xf0, 0xdc, 0xde, 0x09, 0xcb, 0x1c, 0x1d, 0xf5, 0x02, 0x0c, 0xd0,
  0x15, 0x1f, 0x03, 0xf1, 0xaf, 0xfe, 0xbe, 0xdf, 0x21, 0xca, 0x06, 0x42,
  0x0a, 0x16, 0x36, 0xf8, 0x10, 0x13, 0xe5, 0x22, 0xc9, 0xdb, 0xc9, 0x08,
  0x03, 0xdf, 0xf6, 0xcd, 0xed, 0x2c, 0x15, 0x1f, 0x28, 0xf7, 0x20, 0x05,
  0xfe, 0xe1, 0xf1, 0xef, 0x15, 0xc2, 0xde, 0xb2, 0xe7, 0x23, 0xe1, 0xf0,
  0xc4, 0xf7, 0x08, 0x03, 0x4f, 0xe8, 0xf8, 0xf9, 0x14, 0xa9, 0x35, 0x17,
  0xf2, 0x05, 0x00, 0xe9, 0x19, 0x25, 0x15, 0xea, 0xa8, 0xdc, 0xc4, 0xd8,
  0x30, 0xb9, 0x1b, 0x35, 0x1f, 0x11, 0x3a, 0xeb, 0x14, 0x1a, 0x02, 0x2b,
  0xbc, 0xca, 0xe4, 0xe6, 0x00, 0xe9, 0xeb, 0xd1, 0xd3, 0x1f, 0x08, 0x00,
  0x11, 0xf8, 0x27, 0x1f, 0xec, 0xdc, 0x04, 0xe9, 0x27, 0xad, 0xb3, 0xba,
  0x0e, 0x22, 0xfc, 0xd2, 0xc0, 0x26, 0xf8, 0x20, 0x46, 0xea, 0xf3, 0xef,
  0xf4, 0x9c, 0x20, 0x20, 0xda, 0x17, 0x1f, 0xfa, 0x14, 0x15, 0xeb, 0xef,
  0xbf, 0xfe, 0xe2, 0xdd, 0x3a, 0xa5, 0x21, 0x3e, 0x26, 0x24, 0x1c, 0xeb,
  0x0d, 0x0f, 0xf0, 0x27, 0xae, 0xd1, 0xe8, 0x00, 0xf3, 0xf6, 0xe4, 0xdf,
  0xdf, 0x26, 0x02, 0x1d, 0x11, 0xf4, 0x25, 0xfd, 0xef, 0xc2, 0xdd, 0xf2,
  0x08, 0xda, 0xf5, 0xc0, 0x03, 0x26, 0x0e, 0xcb, 0xcb, 0x29, 0xf7, 0x0b,
  0x2a, 0xf9, 0xf0, 0xdf, 0x0c, 0xce, 0x2e, 0xf9, 0xd5, 0x21, 0x08, 0xe8,
  0x06, 0x07, 0xeb, 0xe2, 0xb4, 0xd8, 0xb3, 0xdc, 0x38, 0xe0, 0x25, 0x4e,
  0x1f, 0x00, 0x4b, 0xf2, 0x1f, 0xf1, 0xf7, 0x0e, 0xb5, 0xd7, 0xe6, 0xf3,
  0x05, 0x1a, 0xd5, 0xfa, 0xe2, 0x08, 0x14, 0x0e, 0x0c, 0x12, 0x28, 0x19,
  0xf0, 0xec, 0xea, 0xe3, 0x20, 0xed, 0xf0, 0xd7, 0x0c, 0x22, 0xdb, 0xd5,
  0xaf, 0x18, 0xee, 0x33, 0x38, 0x02, 0xe3, 0xfc, 0xf3, 0xb9, 0x44, 0x1a,
  0xd5, 0x09, 0x05, 0x00, 0x10, 0x29, 0x09, 0xdb, 0xaa, 0xf3, 0xb8, 0xc2,
  0x41, 0xae, 0x30, 0x3b, 0xfb, 0xfc, 0x14, 0xe8, 0xf1, 0xed, 0xe2, 0x2b,
  0xc2, 0xcb, 0xd8, 0xe7, 0xf4, 0xe6, 0x00, 0xe1, 0xe2, 0x06, 0x16, 0xff,
  0x27, 0x11, 0x29, 0x0f, 0xed, 0xce, 0xdd, 0x02, 0x30, 0xd7, 0xdc, 0xe2,
  0xfa, 0x06, 0xda, 0xd8, 0xbb, 0x00, 0xf2, 0x05, 0x2c, 0xe7, 0xd0, 0xf0,
  0x1e, 0xcb, 0x1c, 0xf8, 0x05, 0x12, 0x29, 0xdf, 0xef, 0x22, 0xff, 0x04,
  0xae, 0x07, 0xd1, 0xdb, 0x19, 0xda, 0x04, 0x1e, 0x14, 0x0f, 0x1c, 0xfe,
  0x1d, 0xf0, 0xdd, 0x0f, 0xae, 0xe7, 0xe1, 0xe1, 0x18, 0x0d, 0xf3, 0xd0,
  0xf9, 0x15, 0x0c, 0xfb, 0x14, 0x04, 0xf8, 0x16, 0xea, 0xe3, 0xe6, 0xda,
  0xfd, 0xe3, 0xd8, 0xed, 0xfc, 0x1c, 0xf8, 0xd8, 0xb1, 0xf6, 0xf7, 0x25,
  0x39, 0xd9, 0xd0, 0xf8, 0x19, 0xc2, 0x44, 0xf2, 0x00, 0x00, 0x03, 0xf9,
  0x03, 0x1a, 0xfc, 0xea, 0xa1, 0xd3, 0xb4, 0xbc, 0x3e, 0xba, 0x2a, 0x29,
  0x1b, 0x1d, 0x24, 0xf1, 0x0c, 0x0a, 0xfc, 0x06, 0xd1, 0xd6, 0xb6, 0xfe,
  0xeb, 0xe8, 0xdd, 0xdd, 0xdf, 0x0c, 0xf9, 0x0c, 0x1e, 0xf8, 0xf6, 0xfa,
  0xd3, 0xd4, 0xe7, 0xe8, 0x07, 0xdb, 0xfc, 0xdd, 0x01, 0xf9, 0x1c, 0xf4,
  0xc1, 0x06, 0xdd, 0xfb, 0x47, 0xf7, 0xdc, 0xf8, 0x1f, 0xb0, 0x14, 0xf9,
  0xe2, 0xff, 0x0f, 0xe7, 0x03, 0x2a, 0xed, 0xe8, 0xb7, 0xe2, 0xbc, 0xde,
  0x25, 0xb9, 0x22, 0x26, 0x08, 0x24, 0x16, 0xce, 0x15, 0x08, 0xf3, 0x1f,
  0xc2, 0xd9, 0xe3, 0xed, 0x0c, 0x02, 0xe0, 0xc9, 0xf4, 0x09, 0xf8, 0xfc,
  0x0c, 0x19, 0x27, 0x21, 0xda, 0xd2, 0x0b, 0xe9, 0x16, 0xe5, 0xee, 0xcd,
  0x4e, 0x1e, 0x50, 0x27, 0xef, 0xb3, 0xea, 0xaa, 0x00, 0x00, 0x00, 0x00,
  0x0e, 0xf2, 0xff, 0xff, 0x04, 0x00, 0x00, 0x00, 0x48, 0x01, 0x00, 0x00,
  0x6e, 0x4d, 0x43, 0x64, 0x1f, 0x7e, 0xd3, 0x84, 0x00, 0x01, 0x00, 0x00,
  0x00, 0x00, 0x00, 0x00, 0x00, 0x01, 0x00, 0x00, 0x08, 0x00, 0x00, 0x00,
  0x48, 0x01, 0x00, 0x00, 0x60, 0x10, 0x00, 0x00, 0x00, 0x04, 0x00, 0x00,
  0x01, 0x00, 0x00, 0x00, 0x01, 0x00, 0x00, 0x00, 0x02, 0x00, 0x00, 0x00,
  0x42, 0x01, 0x00, 0x00, 0x00, 0x00, 0x00, 0x00, 0x00, 0x00, 0x00, 0x00,
  0x00, 0x00, 0x00, 0x00, 0x03, 0x05, 0x03, 0x00, 0x01, 0x01, 0x07, 0x00,
  0x02, 0x18, 0x00, 0x00, 0x00, 0x00, 0x00, 0x00, 0x00, 0x00, 0x18, 0x00,
  0x00, 0x00, 0x38, 0x00, 0x00, 0x00, 0x00, 0x00, 0x00, 0x00, 0x01, 0x00,
  0x00, 0x00, 0x40, 0x00, 0x00, 0x00, 0x01, 0x00, 0x00, 0x00, 0x10, 0x00,
  0x00, 0x00, 0x01, 0x00, 0x00, 0x00, 0x80, 0x00, 0x00, 0x00, 0x01, 0x00,
  0x00, 0x00, 0x10, 0x00, 0x00, 0x00, 0x02, 0x00, 0x00, 0x00, 0x01, 0x00,
  0x00, 0x00, 0x02, 0x00, 0x00, 0x00, 0x01, 0x00, 0x00, 0x00, 0x00, 0x00,
  0x00, 0x00, 0x00, 0x00, 0x00, 0x00, 0x00, 0x00, 0x00, 0x00, 0x00, 0x00,
  0x00, 0x00, 0x01, 0x00, 0x00, 0x00, 0x01, 0x00, 0x00, 0x00, 0x10, 0x01,
  0x0f, 0x07, 0x00, 0x00, 0x00, 0x00, 0x00, 0x00, 0x00, 0x00, 0x01, 0x00,
  0x00, 0x00, 0x01, 0x00, 0x00, 0x00, 0x80, 0xff, 0xff, 0xff, 0x30, 0x80,
  0x00, 0x25, 0x00, 0x00, 0x00, 0x00, 0x05, 0x18, 0x03, 0x05, 0x02, 0x03,
  0x01, 0x01, 0x07, 0x00, 0x04, 0x47, 0x08, 0x00, 0x00, 0x00, 0x04, 0x04,
  0x04, 0x04, 0x04, 0x04, 0x04, 0x04, 0x02, 0x03, 0x06, 0x08, 0x0a, 0x0c,
  0x0d, 0x0f, 0x58, 0x00, 0x00, 0x00, 0x58, 0x10, 0x00, 0x00, 0x01, 0x00,
  0x00, 0x00, 0x04, 0x00, 0x00, 0x00, 0x01, 0x00, 0x00, 0x00, 0x00, 0x04,
  0x00, 0x00, 0x01, 0x00, 0x00, 0x00, 0x01, 0x00, 0x00, 0x00, 0x04, 0x47,
  0x01, 0x00, 0x00, 0x00, 0x04, 0x00, 0x00, 0x00, 0x00, 0x00, 0x00, 0x00,
  0x1d, 0x00, 0x00, 0x00, 0x00, 0x00, 0x00, 0x00, 0x30, 0x44, 0x62, 0x5f,
  0x00, 0x00, 0x00, 0x00, 0x00, 0x00, 0x00, 0x00, 0x00, 0x00, 0x00, 0x00,
  0x00, 0x00, 0x00, 0x00, 0x00, 0x00, 0x00, 0x00, 0x00, 0x00, 0x00, 0x00,
  0x00, 0x00, 0x00, 0x00, 0x05, 0x47, 0x01, 0x00, 0x00, 0x08, 0x00, 0x00,
  0x04, 0x00, 0x00, 0x00, 0x00, 0x00, 0x00, 0x00, 0x00, 0x00, 0x00, 0x00,
  0x00, 0x00, 0x00, 0x00, 0x6e, 0xf3, 0xff, 0xff, 0x04, 0x00, 0x00, 0x00,
  0x4c, 0x03, 0x00, 0x00, 0x14, 0x56, 0x09, 0xb7, 0x7a, 0xc2, 0x31, 0x6f,
  0x04, 0x11, 0xe7, 0x9f, 0x24, 0xf8, 0x74, 0x27, 0xcc, 0x4e, 0xd1, 0xb3,
  0x66, 0x43, 0x22, 0x7f, 0xe4, 0x5d, 0xb0, 0x25, 0xfa, 0x02, 0x1a, 0x96,
  0x0d, 0x07, 0x13, 0xa9, 0xe6, 0xd2, 0x2a, 0x11, 0x0f, 0x1a, 0xed, 0x9f,
  0xec, 0xe2, 0x76, 0x1d, 0xe1, 0xfd, 0xea, 0xb0, 0x59, 0xf3, 0x36, 0x71,
  0xb2, 0x2f, 0x31, 0x17, 0xe3, 0x3b, 0xe7, 0xb3, 0xf2, 0x58, 0x1f, 0xbc,
  0x5c, 0x1a, 0xfd, 0x67, 0x2d, 0x0b, 0xb7, 0x98, 0xdf, 0xe9, 0x02, 0x25,
  0x11, 0x4c, 0x22, 0xf1, 0x5f, 0x19, 0x39, 0x59, 0x88, 0x4c, 0x18, 0xad,
  0xb1, 0x32, 0xdf, 0x92, 0x3d, 0x28, 0x11, 0xce, 0x66, 0xdb, 0x37, 0x47,
  0x1e, 0x48, 0x04, 0x14, 0x49, 0x57, 0xb0, 0x15, 0x38, 0x2a, 0x4d, 0x50,
  0xe7, 0x09, 0xea, 0xda, 0xd9, 0xee, 0x04, 0xd4, 0x16, 0x4e, 0x4d, 0x4a,
  0xd5, 0x02, 0x50, 0xc1, 0x38, 0x1d, 0x42, 0xcf, 0x17, 0x3d, 0xd4, 0x18,
  0x5d, 0x26, 0xc1, 0x35, 0x0b, 0x35, 0x3f, 0x09, 0x21, 0xff, 0xcf, 0x37,
  0xce, 0xd1, 0x24, 0x4f, 0x01, 0xe5, 0xf9, 0x2d, 0x31, 0x53, 0x44, 0xcd,
  0x2a, 0xb9, 0x16, 0x22, 0x14, 0x11, 0x43, 0x33, 0xc4, 0x68, 0x22, 0x43,
  0x41, 0x46, 0xef, 0x25, 0x57, 0x20, 0x3c, 0x36, 0x7d, 0x9e, 0xe2, 0x63,
  0xcf, 0x2a, 0xf2, 0xf1, 0x3f, 0x2c, 0x1d, 0xd3, 0xfc, 0x09, 0x33, 0x6a,
  0x35, 0x3b, 0x21, 0xd8, 0xb3, 0xb6, 0x11, 0x57, 0x23, 0x1e, 0x36, 0xac,
  0xe6, 0x29, 0x45, 0x36, 0xec, 0xe8, 0x24, 0x88, 0x33, 0x4a, 0xa8, 0x8b,
  0x5e, 0x51, 0xb4, 0xd6, 0xba, 0x3a, 0x1d, 0x7f, 0x3a, 0x63, 0xb3, 0x0e,
  0x39, 0x33, 0x3a, 0xfd, 0xfc, 0x56, 0xfb, 0xe0, 0x0c, 0xff, 0x15, 0x25,
  0x4d, 0x66, 0x98, 0xef, 0xd5, 0x26, 0xf6, 0xb8, 0x46, 0xf9, 0xd7, 0xcc,
  0xe0, 0xe2, 0x6f, 0x5b, 0xbe, 0x62, 0xc4, 0x9c, 0x20, 0xc0, 0x1a, 0x33,
  0xd5, 0x44, 0xfa, 0xde, 0xea, 0xf4, 0x56, 0x61, 0x2f, 0x7f, 0xe1, 0xf6,
  0xd4, 0x1d, 0xa2, 0xe9, 0xfa, 0x0d, 0x6c, 0x6e, 0xf8, 0xc8, 0x09, 0xbe,
  0x12, 0x28, 0xbf, 0xe8, 0x28, 0x44, 0x81, 0xc8, 0x04, 0x30, 0x98, 0xcd,
  0xf6, 0xb6, 0x1d, 0xcd, 0x5e, 0x12, 0xd6, 0xa3, 0xff, 0x09, 0xe7, 0xd5,
  0xc0, 0x2a, 0x76, 0x60, 0x48, 0x01, 0x74, 0xd8, 0x59, 0x1e, 0xe0, 0x37,
  0xb5, 0x40, 0xaf, 0xf2, 0x0c, 0x08, 0xa5, 0x29, 0x1a, 0xf4, 0xeb, 0xc2,
  0x5c, 0x55, 0x52, 0x1b, 0x21, 0x7f, 0x9e, 0x3b, 0xcc, 0xcc, 0x11, 0x7f,
  0x34, 0x0b, 0x35, 0xf2, 0x4a, 0x5c, 0x81, 0xcf, 0xc6, 0xf1, 0xf8, 0x97,
  0x4d, 0x7f, 0xad, 0xd2, 0x36, 0x1e, 0x2c, 0xfd, 0x73, 0x41, 0x1a, 0xf1,
  0x2d, 0x1b, 0xa9, 0xf1, 0x56, 0x5d, 0xb8, 0x2b, 0xd0, 0xa7, 0xbb, 0x53,
  0xd0, 0x23, 0xa1, 0x5c, 0xd4, 0x4b, 0x5e, 0x35, 0xfc, 0x5d, 0x7c, 0xc9,
  0x03, 0x03, 0xf0, 0x13, 0x1f, 0xf2, 0x08, 0x77, 0x03, 0x4a, 0x4b, 0x3b,
  0x30, 0x55, 0x3d, 0x0d, 0xf1, 0x2a, 0xfa, 0xed, 0xcb, 0xea, 0xc1, 0xfa,
  0x67, 0x18, 0x61, 0x53, 0x41, 0xfc, 0x3a, 0x1c, 0xec, 0x19, 0x49, 0x74,
  0x57, 0x16, 0xcc, 0xfe, 0x07, 0xd4, 0xbf, 0x7f, 0xad, 0x6f, 0xf6, 0x74,
  0xb2, 0x5b, 0xf0, 0xd2, 0xef, 0xed, 0x1c, 0xf0, 0x4c, 0x5d, 0x38, 0x42,
  0x1c, 0x10, 0x2b, 0xdd, 0x54, 0x07, 0xd5, 0x7f, 0xc9, 0x2d, 0x77, 0x22,
  0xf6, 0xd9, 0x21, 0x7f, 0xe1, 0xc7, 0x7d, 0x3f, 0x53, 0xf1, 0xf5, 0x52,
  0xd7, 0xa7, 0x01, 0xff, 0x57, 0xba, 0x54, 0x3e, 0xa9, 0x61, 0x52, 0xe7,
  0x54, 0xde, 0xfe, 0xdb, 0xf6, 0xc2, 0xff, 0x7f, 0x1a, 0xbd, 0x36, 0x16,
  0x7f, 0x38, 0xef, 0x5e, 0x6f, 0x20, 0x3b, 0xd6, 0x52, 0xa3, 0x05, 0x24,
  0x02, 0xcd, 0x57, 0x46, 0x28, 0xc9, 0xd6, 0x23, 0x32, 0xa3, 0x15, 0x03,
  0x69, 0x5b, 0x58, 0x52, 0xee, 0xd4, 0x1e, 0xd3, 0x4a, 0xbf, 0x1e, 0x44,
  0x50, 0xdf, 0x06, 0x43, 0x25, 0xe2, 0x54, 0x12, 0x19, 0x2a, 0xb2, 0x11,
  0xae, 0x5a, 0x1c, 0x23, 0x2f, 0x1a, 0xd2, 0xee, 0x62, 0xf2, 0xa0, 0x4c,
  0xd9, 0xd8, 0xce, 0x0c, 0xc3, 0x3d, 0x74, 0x36, 0xe5, 0xf6, 0x9a, 0x4b,
  0x2e, 0xf0, 0x08, 0xdf, 0x04, 0xbb, 0x0e, 0x64, 0x9c, 0x72, 0x54, 0xef,
  0x05, 0x34, 0xea, 0x1b, 0x2e, 0xce, 0x71, 0x06, 0x26, 0x00, 0x5d, 0x1f,
  0x01, 0xc5, 0xe0, 0x4c, 0xa8, 0xed, 0x24, 0xd4, 0xed, 0x00, 0xfc, 0xf0,
  0xd4, 0xd0, 0x2e, 0x68, 0x1c, 0x78, 0x30, 0xf9, 0xc8, 0xe1, 0x48, 0x5f,
  0x10, 0xa0, 0x32, 0x04, 0x26, 0xcc, 0x66, 0x41, 0xa1, 0x4e, 0xe8, 0x07,
  0x24, 0xea, 0xe1, 0x51, 0x9b, 0x1a, 0xbb, 0x13, 0xd5, 0xb6, 0x10, 0x01,
  0x3c, 0x02, 0x18, 0xe3, 0xaf, 0x06, 0x4d, 0xfd, 0x86, 0x0e, 0x0d, 0xdd,
  0xc7, 0x00, 0x55, 0x2f, 0x6d, 0x0a, 0x76, 0xcd, 0xb7, 0xf0, 0x7f, 0xdc,
  0xdb, 0xba, 0xcb, 0x1c, 0xdc, 0xb7, 0x81, 0xda, 0x9e, 0x60, 0x8e, 0x1a,
  0xf6, 0xe7, 0x68, 0x36, 0xd2, 0xbd, 0xbb, 0x9c, 0x0f, 0xbc, 0x57, 0xbc,
  0x3c, 0xe1, 0xea, 0xd0, 0xd4, 0x49, 0x1d, 0x48, 0xb3, 0x93, 0x44, 0x10,
  0xfe, 0x55, 0xc0, 0x93, 0xda, 0x65, 0x81, 0x3a, 0x17, 0xcd, 0x1b, 0x27,
  0xe7, 0x05, 0x18, 0xed, 0xdf, 0x2e, 0x1d, 0x14, 0x75, 0xf2, 0x05, 0x54,
  0x08, 0x48, 0xe9, 0xd4, 0xce, 0x9e, 0x7f, 0xe8, 0x22, 0x00, 0xca, 0x87,
  0x0e, 0x5b, 0xd6, 0xd8, 0x33, 0xe8, 0x55, 0xff, 0xca, 0xc2, 0x59, 0x05,
  0x3c, 0x0d, 0x37, 0x0d, 0x7a, 0x1f, 0x73, 0x22, 0x4f, 0x17, 0xd1, 0x1a,
  0x70, 0x1b, 0x82, 0x22, 0x7c, 0x1b, 0xdd, 0x9a, 0xb2, 0x22, 0x09, 0x1a,
  0x82, 0x9e, 0x83, 0x1b, 0xa8, 0x1e, 0xdb, 0x1e, 0xf3, 0x1a, 0xc8, 0x1e,
  0xb5, 0x4e, 0x37, 0x4e, 0x7d, 0x4e, 0xbd, 0x53, 0xca, 0x4e, 0x9a, 0x4e,
  0x7c, 0x53, 0x86, 0x4e, 0x8d, 0x53, 0xcd, 0x53, 0x7c, 0x4e, 0xd3, 0x53,
  0xbd, 0x53, 0x7b, 0x4e, 0x34, 0x53, 0x85, 0x4e, 0x33, 0xff, 0x00, 0x00,
  0x00, 0x00, 0x33, 0xff, 0x42, 0x16, 0x42, 0x16, 0x00, 0x00, 0x00, 0x00,
  0x00, 0x00, 0x00, 0x00, 0xce, 0xf6, 0xff, 0xff, 0x04, 0x00, 0x00, 0x00,
  0x0c, 0x01, 0x00, 0x00, 0x6e, 0x4d, 0x43, 0x64, 0x1f, 0x7e, 0xd3, 0x84,
  0xbe, 0x00, 0x00, 0x00, 0x00, 0x00, 0x00, 0x00, 0xbe, 0x00, 0x00, 0x00,
  0x0c, 0x00, 0x00, 0x00, 0x0c, 0x01, 0x00, 0x00, 0x4c, 0x03, 0x00, 0x00,
  0x00, 0x08, 0x00, 0x00, 0x02, 0x00, 0x00, 0x00, 0x01, 0x00, 0x00, 0x00,
  0x02, 0x00, 0x00, 0x00, 0x01, 0x01, 0x00, 0x00, 0x00, 0x00, 0x00, 0x00,
  0x00, 0x00, 0x00, 0x00, 0x00, 0x00, 0x00, 0x00, 0x03, 0x05, 0x04, 0x00,
  0x02, 0x02, 0x02, 0x00, 0x02, 0x01, 0x00, 0x00, 0x00, 0x00, 0x00, 0x00,
  0x00, 0x00, 0x00, 0x00, 0x00, 0x00, 0x00, 0x03, 0x00, 0x00, 0x20, 0x03,
  0x00, 0x00, 0x01, 0x00, 0x00, 0x00, 0x80, 0x00, 0x00, 0x00, 0x01, 0x00,
  0x00, 0x00, 0x10, 0x00, 0x00, 0x00, 0x01, 0x00, 0x00, 0x00, 0x80, 0x00,
  0x00, 0x00, 0x01, 0x00, 0x00, 0x00, 0x10, 0x00, 0x00, 0x00, 0x03, 0x00,
  0x00, 0x00, 0x01, 0x00, 0x00, 0x00, 0x01, 0x00, 0x00, 0x00, 0x01, 0x00,
  0x00, 0x00, 0x01, 0x00, 0x00, 0x00, 0x00, 0x00, 0x00, 0x00, 0x01, 0x00,
  0x00, 0x00, 0x00, 0x00, 0x00, 0x00, 0x01, 0x00, 0x00, 0x00, 0x01, 0x00,
  0x00, 0x00, 0x10, 0x01, 0x0f, 0x07, 0x00, 0x00, 0x00, 0x00, 0x00, 0x00,
  0x00, 0x00, 0x01, 0x00, 0x00, 0x00, 0x01, 0x00, 0x00, 0x00, 0x80, 0xff,
  0xff, 0xff, 0x30, 0xd1, 0x00, 0x00, 0x00, 0x00, 0x00, 0x00, 0x05, 0x01,
  0x03, 0x05, 0x03, 0x01, 0x04, 0x02, 0x02, 0x00, 0x02, 0x2e, 0x00, 0x00,
  0x00, 0x00, 0x00, 0x00, 0x00, 0x00, 0x00, 0x00, 0x00, 0x00, 0x40, 0x03,
  0x00, 0x00, 0x48, 0x03, 0x00, 0x00, 0x00, 0x08, 0x00, 0x00, 0x10, 0x03,
  0x0a, 0x07, 0x30, 0x80, 0xca, 0x46, 0x00, 0x00, 0x00, 0x00, 0x00, 0x00,
  0x00, 0x00, 0x05, 0x2e, 0x01, 0x00, 0x00, 0x00, 0x00, 0x08, 0x00, 0x00,
  0x00, 0x08, 0x00, 0x00, 0x00, 0x08, 0x00, 0x00, 0x00, 0x00, 0x00, 0x00,
  0x00, 0x00, 0x00, 0x00, 0xee, 0xf7, 0xff, 0xff, 0x04, 0x00, 0x00, 0x00,
  0x40, 0x03, 0x00, 0x00, 0xee, 0x38, 0x20, 0xd4, 0x30, 0x4a, 0x1e, 0x52,
  0x45, 0x14, 0xd9, 0x4b, 0x18, 0x48, 0x30, 0x26, 0xeb, 0xe7, 0x71, 0xd4,
  0x6e, 0xaf, 0xd0, 0x0f, 0x47, 0xab, 0xc7, 0xdd, 0x01, 0x21, 0x3c, 0x7f,
  0xd3, 0x3c, 0x27, 0xb8, 0x71, 0x2a, 0x79, 0x5a, 0xfb, 0xe2, 0x14, 0x7e,
  0xb1, 0xed, 0xe4, 0x23, 0x22, 0x79, 0xeb, 0x48, 0x39, 0xb3, 0x25, 0x3c,
  0x2d, 0xc4, 0xc7, 0xe3, 0xd5, 0x51, 0x4e, 0x7c, 0x27, 0xd8, 0xdd, 0x4e,
  0xcd, 0xdc, 0xf4, 0x38, 0xf0, 0xda, 0x6e, 0x51, 0x47, 0x21, 0x39, 0x9d,
  0xe8, 0x40, 0x4f, 0xe6, 0xcb, 0x10, 0xa0, 0x11, 0x51, 0xdf, 0x03, 0x35,
  0xee, 0x60, 0x29, 0x02, 0x44, 0xc4, 0x5b, 0xfc, 0x7a, 0x1b, 0x53, 0x15,
  0x18, 0xc9, 0x55, 0xc8, 0x18, 0x42, 0x7f, 0xed, 0xec, 0x59, 0x22, 0x43,
  0x21, 0xfb, 0x27, 0x00, 0x52, 0x27, 0x5f, 0xcd, 0xdc, 0x12, 0x3c, 0x39,
  0xbb, 0x35, 0x5f, 0x6d, 0x61, 0x21, 0x08, 0xd1, 0x5a, 0xdc, 0x43, 0x6d,
  0x19, 0x66, 0xff, 0xd6, 0x11, 0x67, 0x42, 0x30, 0x04, 0xe0, 0x1d, 0xd5,
  0x04, 0xd7, 0x18, 0x25, 0x42, 0xde, 0xd3, 0x13, 0xbd, 0xe3, 0x2e, 0x25,
  0x36, 0x13, 0xe2, 0x2d, 0x26, 0x12, 0x6c, 0x17, 0xcc, 0x4d, 0xed, 0x2d,
  0xe4, 0x7f, 0x27, 0x3d, 0xe1, 0x81, 0x33, 0xec, 0x29, 0x74, 0x64, 0x29,
  0x7a, 0x0c, 0x22, 0x25, 0x27, 0x53, 0x0b, 0x71, 0xdf, 0x49, 0x2f, 0xb6,
  0x02, 0x34, 0x1c, 0x35, 0x67, 0x3c, 0x6c, 0x4b, 0x11, 0x05, 0x6c, 0xf2,
  0xa4, 0xfb, 0xd3, 0xdf, 0x40, 0x43, 0xaf, 0xfd, 0xe6, 0xd3, 0x2c, 0x06,
  0x43, 0x51, 0x33, 0x4f, 0xe0, 0x0b, 0x07, 0xcd, 0x16, 0x0c, 0x1d, 0x7f,
  0x6d, 0xfa, 0xdc, 0xe0, 0x1d, 0x23, 0x43, 0xe2, 0x19, 0xae, 0xa1, 0x40,
  0x31, 0x2b, 0xf6, 0x0b, 0x57, 0x34, 0x41, 0xec, 0x40, 0xe2, 0xbe, 0xc9,
  0x33, 0x06, 0xda, 0x81, 0xef, 0x3e, 0xcd, 0x11, 0xcd, 0xc2, 0x14, 0x48,
  0x1b, 0x60, 0x1d, 0x71, 0xf1, 0xe4, 0x4c, 0x48, 0x1e, 0xdf, 0x81, 0xd0,
  0x64, 0x55, 0x1a, 0x3a, 0x37, 0x67, 0xba, 0x51, 0x67, 0x56, 0x68, 0xac,
  0x11, 0x28, 0xe3, 0xe5, 0xfb, 0xf2, 0x0f, 0xfd, 0xd8, 0xd4, 0xd7, 0xf9,
  0x44, 0x32, 0x2b, 0xe0, 0x26, 0x0c, 0xf9, 0xea, 0x73, 0x6b, 0x0b, 0x55,
  0x7f, 0x6a, 0xc8, 0x1a, 0xe9, 0xe3, 0xcd, 0x52, 0x30, 0xe5, 0x59, 0x36,
  0xd3, 0x76, 0x00, 0x1d, 0x16, 0x4f, 0xe0, 0xcb, 0x17, 0x52, 0xc5, 0xfc,
  0x01, 0x75, 0x6e, 0x9b, 0x45, 0x30, 0x2e, 0x6c, 0xb8, 0x7e, 0xb2, 0x29,
  0x41, 0x00, 0x40, 0xde, 0xf8, 0x0b, 0xff, 0xe8, 0xcf, 0xf7, 0x1a, 0x3b,
  0x24, 0x16, 0x65, 0xea, 0x66, 0xbb, 0x2b, 0xfa, 0x6b, 0xbe, 0x44, 0x42,
  0x5b, 0x12, 0x4f, 0xe3, 0x66, 0x20, 0xc5, 0x58, 0xbd, 0x2e, 0x0a, 0x5a,
  0xca, 0x7f, 0x6f, 0x57, 0xd3, 0x22, 0xd8, 0x01, 0xfe, 0x3d, 0xf3, 0x20,
  0xbf, 0x41, 0x23, 0xf9, 0x60, 0x3f, 0xf7, 0x81, 0x7f, 0xc1, 0x0c, 0xc8,
  0x6d, 0xe0, 0x46, 0xd2, 0xdf, 0xeb, 0x60, 0xf1, 0xe7, 0x66, 0x25, 0xdc,
  0xfd, 0x51, 0x19, 0xe9, 0xfc, 0xe0, 0x72, 0xe9, 0x20, 0xb6, 0xa8, 0x32,
  0xdd, 0x10, 0x99, 0xa5, 0x5a, 0x30, 0x1a, 0xa5, 0x7f, 0xed, 0x03, 0x1a,
  0x24, 0xec, 0xf2, 0x26, 0x2c, 0x32, 0x6c, 0x00, 0x27, 0x7f, 0xd9, 0x0d,
  0x0e, 0x3c, 0xdf, 0xf4, 0x2b, 0xae, 0x7f, 0x29, 0xcf, 0xf3, 0xa7, 0xee,
  0x3f, 0x41, 0x43, 0x98, 0xef, 0x4a, 0x9b, 0xd2, 0x40, 0xf8, 0xe2, 0xde,
  0x0b, 0x31, 0x0e, 0xc4, 0xd4, 0x23, 0x38, 0xf1, 0x7f, 0x66, 0x71, 0xa8,
  0x0f, 0xeb, 0x3e, 0xb8, 0x90, 0x34, 0x67, 0x3f, 0xd2, 0x4d, 0x54, 0xdf,
  0x46, 0xf1, 0xc0, 0x36, 0x31, 0x2d, 0x58, 0xb5, 0x3a, 0xef, 0x46, 0xee,
  0x1a, 0x3f, 0x2b, 0xd3, 0x77, 0x4f, 0x72, 0xd2, 0xdd, 0xfd, 0x15, 0x42,
  0xeb, 0x4e, 0x64, 0x43, 0x09, 0x5b, 0xc6, 0x1e, 0xfd, 0x2b, 0x88, 0x40,
  0x6d, 0x56, 0x07, 0xcb, 0xff, 0xbb, 0xdb, 0x5a, 0xd7, 0x3b, 0x62, 0x68,
  0x11, 0xd6, 0xb7, 0x5b, 0x2e, 0x18, 0xc9, 0xcb, 0x29, 0x70, 0x4b, 0xd2,
  0xee, 0xeb, 0x31, 0x37, 0xc9, 0xd1, 0x8e, 0xea, 0xe9, 0x0b, 0x2e, 0xb8,
  0x58, 0x32, 0x44, 0x50, 0x1a, 0xf3, 0x4a, 0xd6, 0x3f, 0xc7, 0x95, 0xea,
  0xd6, 0x04, 0x51, 0xc0, 0x0f, 0x8a, 0x73, 0x21, 0x4d, 0x02, 0x09, 0xf2,
  0x34, 0xb0, 0xb7, 0x2c, 0xf1, 0xdb, 0x0c, 0x81, 0x22, 0xdb, 0xd4, 0xea,
  0x4d, 0x34, 0x3f, 0x35, 0x70, 0x7a, 0xb2, 0xbe, 0xa3, 0xda, 0x1f, 0xe6,
  0x2b, 0x0a, 0xb2, 0x35, 0x2e, 0x08, 0xbd, 0x15, 0x99, 0xf0, 0x38, 0x8e,
  0x38, 0x05, 0xd9, 0x15, 0x37, 0xd1, 0x79, 0x5c, 0x38, 0x5b, 0x44, 0x7c,
  0x04, 0x34, 0x3c, 0xa0, 0x05, 0x90, 0x11, 0xd7, 0xf3, 0x3b, 0x97, 0x00,
  0x2d, 0xc4, 0xd9, 0xf0, 0x47, 0x13, 0x2e, 0xf1, 0x2f, 0x0a, 0x26, 0xa3,
  0x03, 0xec, 0x50, 0x6c, 0x42, 0x58, 0x0c, 0x1c, 0x3a, 0x32, 0xd6, 0xdf,
  0xca, 0x3e, 0xd6, 0xa8, 0xc1, 0xe9, 0xb4, 0x21, 0xdf, 0xff, 0x3d, 0xea,
  0xef, 0xa4, 0x4b, 0x0b, 0x65, 0x23, 0x61, 0xc2, 0x48, 0xd5, 0x4f, 0xfe,
  0xca, 0xfa, 0xdd, 0x65, 0x1e, 0x0b, 0x50, 0xe3, 0xf9, 0xe2, 0x76, 0xfb,
  0xf2, 0x33, 0xe1, 0xfc, 0xef, 0x03, 0xb2, 0x30, 0xea, 0x01, 0xb3, 0x41,
  0x52, 0x09, 0xdc, 0xe3, 0xf9, 0xf8, 0x0e, 0x5f, 0x4c, 0x2d, 0x1a, 0x4b,
  0x6d, 0xc4, 0x06, 0x5a, 0x6a, 0x45, 0x8e, 0xad, 0xd9, 0x02, 0x20, 0xf3,
  0xf3, 0x9a, 0xe8, 0xc5, 0x04, 0x22, 0x3d, 0x22, 0x1a, 0x22, 0x3f, 0x1f,
  0xb3, 0x22, 0x51, 0x8f, 0xb9, 0x1e, 0x03, 0x26, 0x48, 0x12, 0xd6, 0x1b,
  0x90, 0x22, 0xcd, 0x22, 0x87, 0x1f, 0x18, 0x9a, 0x1b, 0x13, 0xef, 0x1a,
  0xfb, 0x4e, 0x1c, 0x4f, 0xfb, 0x4e, 0x75, 0x4f, 0xb6, 0x4f, 0x6f, 0x4f,
  0x01, 0x4f, 0x97, 0x4f, 0x48, 0x4f, 0xc7, 0x4f, 0x50, 0x4f, 0x93, 0x4f,
  0xb7, 0x4e, 0x2f, 0x4f, 0x00, 0x4a, 0x97, 0x4f, 0x00, 0x00, 0x00, 0x00,
  0x3e, 0xfb, 0xff, 0xff, 0x04, 0x00, 0x00, 0x00, 0xd8, 0x00, 0x00, 0x00,
  0x6e, 0x4d, 0x43, 0x64, 0x1f, 0x7e, 0xd3, 0x84, 0x8a, 0x00, 0x00, 0x00,
  0x00, 0x00, 0x00, 0x00, 0x8a, 0x00, 0x00, 0x00, 0x08, 0x00, 0x00, 0x00,
  0xd8, 0x00, 0x00, 0x00, 0x40, 0x03, 0x00, 0x00, 0x00, 0x00, 0x00, 0x00,
  0x01, 0x00, 0x00, 0x00, 0x01, 0x00, 0x00, 0x00, 0x01, 0x00, 0x00, 0x00,
  0x81, 0x00, 0x00, 0x00, 0x00, 0x00, 0x00, 0x00, 0x00, 0x00, 0x00, 0x00,
  0x00, 0x00, 0x00, 0x00, 0x03, 0x05, 0x02, 0x00, 0x01, 0x01, 0x01, 0x00,
  0x02, 0x01, 0x00, 0x00, 0x00, 0x00, 0x00, 0x00, 0x00, 0x00, 0x00, 0x00,
  0x00, 0x00, 0x00, 0x03, 0x00, 0x00, 0x20, 0x03, 0x00, 0x00, 0x01, 0x00,
  0x00, 0x00, 0x80, 0x00, 0x00, 0x00, 0x01, 0x00, 0x00, 0x00, 0x10, 0x00,
  0x00, 0x00, 0x01, 0x00, 0x00, 0x00, 0x80, 0x00, 0x00, 0x00, 0x01, 0x00,
  0x00, 0x00, 0x10, 0x00, 0x00, 0x00, 0x03, 0x00, 0x00, 0x00, 0x01, 0x00,
  0x00, 0x00, 0x01, 0x00, 0x00, 0x00, 0x01, 0x00, 0x00, 0x00, 0x01, 0x00,
  0x00, 0x00, 0x00, 0x00, 0x00, 0x00, 0x01, 0x00, 0x00, 0x00, 0x00, 0x00,
  0x00, 0x00, 0x01, 0x00, 0x00, 0x00, 0x01, 0x00, 0x00, 0x00, 0x10, 0x01,
  0x0f, 0x07, 0x00, 0x00, 0x00, 0x00, 0x00, 0x00, 0x00, 0x00, 0x01, 0x00,
  0x00, 0x00, 0x01, 0x00, 0x00, 0x00, 0x80, 0xff, 0xff, 0xff, 0x30, 0x80,
  0x00, 0x00, 0x00, 0x00, 0x00, 0x00, 0x05, 0x01, 0x01, 0x00, 0x00, 0x00,
  0x00, 0x00, 0x00, 0x00, 0x00, 0x08, 0x00, 0x00, 0x00, 0x08, 0x00, 0x00,
  0x00, 0x00, 0x00, 0x00, 0x00, 0x00, 0x00, 0x00, 0x00, 0x00, 0x00, 0x00,
  0x2e, 0xfc, 0xff, 0xff, 0x04, 0x00, 0x00, 0x00, 0x04, 0x01, 0x00, 0x00,
  0x01, 0x01, 0x01, 0x00, 0xac, 0x7f, 0xdf, 0x00, 0x28, 0x55, 0x9d, 0x00,
  0x2a, 0x4e, 0xb0, 0x00, 0x27, 0x81, 0xe5, 0x00, 0xe9, 0x7f, 0x07, 0x00,
  0x1d, 0xcc, 0x47, 0x00, 0x81, 0xbe, 0x98, 0x00, 0xb8, 0x0b, 0xbd, 0x00,
  0x4a, 0xea, 0xf1, 0x00, 0xcf, 0xdd, 0x12, 0x00, 0x6c, 0xbe, 0xfc, 0x00,
  0x31, 0xac, 0xde, 0x00, 0x45, 0x57, 0x7c, 0x00, 0x0a, 0xf4, 0x7f, 0x00,
  0xca, 0xf6, 0x71, 0x00, 0x93, 0xc3, 0x81, 0x00, 0xb3, 0x8a, 0x0d, 0x00,
  0x7f, 0xf8, 0xca, 0x00, 0x81, 0x09, 0xa8, 0x00, 0x50, 0xb6, 0xb4, 0x00,
  0xc4, 0x4d, 0x18, 0x00, 0xee, 0x3b, 0x86, 0x00, 0x63, 0x06, 0x53, 0x00,
  0xa0, 0x9a, 0x3e, 0x00, 0xcf, 0x9e, 0xcd, 0x00, 0x99, 0x85, 0x7f, 0x00,
  0xf5, 0x61, 0xf0, 0x00, 0x7f, 0x29, 0xfc, 0x00, 0x8f, 0x5f, 0xdb, 0x00,
  0x8a, 0xea, 0xa5, 0x00, 0xed, 0xcd, 0x58, 0x00, 0xe0, 0x49, 0x4b, 0x00,
  0x1d, 0xbe, 0x39, 0x00, 0x76, 0xe1, 0x7f, 0x00, 0xde, 0xa6, 0x8a, 0x00,
  0x33, 0xcd, 0x1d, 0x00, 0x1d, 0x5f, 0x38, 0x00, 0x8b, 0xa6, 0x7f, 0x00,
  0x1b, 0x67, 0x37, 0x00, 0xee, 0xef, 0x8f, 0x00, 0x19, 0x7f, 0x56, 0x00,
  0x0f, 0x06, 0x1d, 0x00, 0x38, 0x21, 0x81, 0x00, 0x55, 0xdd, 0xe6, 0x00,
  0x9f, 0x7f, 0xf5, 0x00, 0x8d, 0x38, 0x9e, 0x00, 0x7f, 0xb4, 0x0a, 0x00,
  0x87, 0xab, 0x81, 0x00, 0x51, 0x13, 0xe8, 0x81, 0xdd, 0x80, 0xbc, 0x83,
  0x7a, 0x80, 0x35, 0x00, 0x47, 0x87, 0x6e, 0x07, 0xbb, 0x86, 0xe5, 0x86,
  0x3b, 0x87, 0xa9, 0x8b, 0xb1, 0x80, 0x47, 0x86, 0x96, 0x82, 0x75, 0x8e,
  0xe1, 0x46, 0x63, 0x42, 0x9a, 0x42, 0xdb, 0x47, 0x09, 0x42, 0xc5, 0x47,
  0x77, 0x47, 0xb8, 0x47, 0x9a, 0x47, 0xdb, 0x47, 0x07, 0x42, 0xcd, 0x47,
  0x4f, 0x47, 0x03, 0x42, 0x1b, 0x42, 0xcc, 0x47, 0x3e, 0xfd, 0xff, 0xff,
  0x04, 0x00, 0x00, 0x00, 0x08, 0x01, 0x00, 0x00, 0x6e, 0x4d, 0x43, 0x64,
  0x1f, 0x7e, 0xd3, 0x84, 0xb4, 0x00, 0x00, 0x00, 0x00, 0x00, 0x00, 0x00,
  0xb4, 0x00, 0x00, 0x00, 0x08, 0x00, 0x00, 0x00, 0x08, 0x01, 0x00, 0x00,
  0x04, 0x01, 0x00, 0x00, 0x00, 0x02, 0x00, 0x00, 0x01, 0x00, 0x00, 0x00,
  0x01, 0x00, 0x00, 0x00, 0x02, 0x00, 0x00, 0x00, 0x41, 0x00, 0x00, 0x00,
  0x00, 0x00, 0x00, 0x00, 0x00, 0x00, 0x00, 0x00, 0x00, 0x00, 0x00, 0x00,
  0x03, 0x03, 0x03, 0x00, 0x01, 0x00, 0x02, 0x2d, 0x00, 0x00, 0x00, 0x00,
  0x00, 0x00, 0x00, 0x00, 0x00, 0x00, 0x00, 0x00, 0x80, 0x00, 0x00, 0x00,
  0x03, 0x00, 0x00, 0x00, 0x04, 0x00, 0x00, 0x00, 0x10, 0x01, 0x09, 0x40,
  0x00, 0x00, 0x00, 0x00, 0x05, 0x2d, 0x03, 0x05, 0x02, 0x03, 0x01, 0x01,
  0x01, 0x00, 0x02, 0x01, 0x00, 0x00, 0x00, 0x00, 0x00, 0x00, 0x00, 0x00,
  0x04, 0x00, 0x00, 0x00, 0xc4, 0x00, 0x00, 0x00, 0xe4, 0x00, 0x00, 0x00,
  0x01, 0x00, 0x00, 0x00, 0x80, 0x00, 0x00, 0x00, 0x01, 0x00, 0x00, 0x00,
  0x10, 0x00, 0x00, 0x00, 0x01, 0x00, 0x00, 0x00, 0x80, 0x00, 0x00, 0x00,
  0x01, 0x00, 0x00, 0x00, 0x04, 0x00, 0x00, 0x00, 0x03, 0x00, 0x00, 0x00,
  0x01, 0x00, 0x00, 0x00, 0x01, 0x00, 0x00, 0x00, 0x01, 0x00, 0x00, 0x00,
  0x01, 0x00, 0x00, 0x00, 0x00, 0x00, 0x00, 0x00, 0x01, 0x00, 0x00, 0x00,
  0x00, 0x00, 0x00, 0x00, 0x01, 0x00, 0x00, 0x00, 0x01, 0x00, 0x00, 0x00,
  0x10, 0x01, 0x0f, 0x07, 0x00, 0x00, 0x00, 0x00, 0x00, 0x00, 0x00, 0x00,
  0x01, 0x00, 0x00, 0x00, 0x01, 0x00, 0x00, 0x00, 0x00, 0x00, 0x00, 0x00,
  0x30, 0x80, 0x00, 0x00, 0x00, 0x00, 0x00, 0x00, 0x05, 0x01, 0x01, 0x00,
  0x00, 0x00, 0x00, 0x00, 0x00, 0x00, 0x00, 0x00, 0x00, 0x00, 0x00, 0x00,
  0x80, 0x01, 0x00, 0x00, 0x00, 0x08, 0x00, 0x00, 0x00, 0x00, 0x00, 0x00,
  0x00, 0x00, 0x00, 0x00, 0x00, 0x00, 0x00, 0x00, 0x5e, 0xfe, 0xff, 0xff,
  0x04, 0x00, 0x00, 0x00, 0x10, 0x00, 0x00, 0x00, 0x00, 0x00, 0x00, 0x00,
  0x00, 0x00, 0x00, 0x00, 0x00, 0x00, 0x00, 0x00, 0x00, 0x00, 0x00, 0x00,
  0x00, 0x00, 0x00, 0x00, 0x7e, 0xfe, 0xff, 0xff, 0x04, 0x00, 0x00, 0x00,
  0x10, 0x00, 0x00, 0x00, 0x7f, 0x7f, 0x7f, 0x7f, 0x7f, 0x7f, 0x7f, 0x7f,
  0x7f, 0x7f, 0x7f, 0x7f, 0x7f, 0x7f, 0x7f, 0x7f, 0x00, 0x00, 0x00, 0x00,
  0x9e, 0xfe, 0xff, 0xff, 0x04, 0x00, 0x00, 0x00, 0x03, 0x00, 0x00, 0x00,
  0x00, 0x00, 0x00, 0x00, 0xae, 0xfe, 0xff, 0xff, 0x04, 0x00, 0x00, 0x00,
  0x03, 0x00, 0x00, 0x00, 0x7f, 0x7f, 0x7f, 0x00, 0x00, 0x00, 0x00, 0x00,
  0x80, 0xed, 0xff, 0xff, 0x62, 0x00, 0x00, 0x00, 0x4d, 0x4c, 0x49, 0x52,
  0x20, 0x43, 0x6f, 0x6e, 0x76, 0x65, 0x72, 0x74, 0x65, 0x64, 0x2e, 0x0a,
  0x43, 0x6f, 0x6e, 0x76, 0x65, 0x72, 0x74, 0x65, 0x64, 0x20, 0x77, 0x69,
  0x74, 0x68, 0x20, 0x65, 0x49, 0x51, 0x20, 0x6e, 0x65, 0x75, 0x74, 0x72,
  0x6f, 0x6e, 0x2d, 0x63, 0x6f, 0x6e, 0x76, 0x65, 0x72, 0x74, 0x65, 0x72,
  0x20, 0x31, 0x2e, 0x32, 0x2e, 0x30, 0x2b, 0x30, 0x58, 0x38, 0x34, 0x64,
  0x33, 0x37, 0x65, 0x31, 0x66, 0x20, 0x66, 0x6f, 0x72, 0x20, 0x4e, 0x58,
  0x50, 0x20, 0x4d, 0x43, 0x58, 0x20, 0x4e, 0x39, 0x34, 0x78, 0x20, 0x4d,
  0x43, 0x55, 0x20, 0x74, 0x61, 0x72, 0x67, 0x65, 0x74, 0x2e, 0x00, 0x00,
  0x01, 0x00, 0x00, 0x00, 0x14, 0x00, 0x00, 0x00, 0x00, 0x00, 0x0e, 0x00,
  0x18, 0x00, 0x04, 0x00, 0x08, 0x00, 0x0c, 0x00, 0x10, 0x00, 0x14, 0x00,
  0x0e, 0x00, 0x00, 0x00, 0x00, 0x04, 0x00, 0x00, 0xf4, 0x03, 0x00, 0x00,
  0xe8, 0x03, 0x00, 0x00, 0x14, 0x00, 0x00, 0x00, 0x04, 0x00, 0x00, 0x00,
  0x04, 0x00, 0x00, 0x00, 0x6d, 0x61, 0x69, 0x6e, 0x00, 0x00, 0x00, 0x00,
  0x0f, 0x00, 0x00, 0x00, 0xb0, 0x03, 0x00, 0x00, 0x70, 0x03, 0x00, 0x00,
  0x2c, 0x03, 0x00, 0x00, 0xd4, 0x02, 0x00, 0x00, 0x90, 0x02, 0x00, 0x00,
  0x5c, 0x02, 0x00, 0x00, 0x04, 0x02, 0x00, 0x00, 0xd0, 0x01, 0x00, 0x00,
  0x9c, 0x01, 0x00, 0x00, 0x40, 0x01, 0x00, 0x00, 0x0c, 0x01, 0x00, 0x00,
  0xd8, 0x00, 0x00, 0x00, 0x80, 0x00, 0x00, 0x00, 0x44, 0x00, 0x00, 0x00,
  0x10, 0x00, 0x00, 0x00, 0x00, 0x00, 0x0a, 0x00, 0x10, 0x00, 0x04, 0x00,
  0x08, 0x00, 0x0c, 0x00, 0x0a, 0x00, 0x00, 0x00, 0x05, 0x00, 0x00, 0x00,
  0x10, 0x00, 0x00, 0x00, 0x04, 0x00, 0x00, 0x00, 0x01, 0x00, 0x00, 0x00,
  0x12, 0x00, 0x00, 0x00, 0x01, 0x00, 0x00, 0x00, 0x11, 0x00, 0x00, 0x00,
  0x00, 0x00, 0x0e, 0x00, 0x1a, 0x00, 0x08, 0x00, 0x0c, 0x00, 0x10, 0x00,
  0x07, 0x00, 0x14, 0x00, 0x0e, 0x00, 0x00, 0x00, 0x00, 0x00, 0x00, 0x09,
  0x04, 0x00, 0x00, 0x00, 0x24, 0x00, 0x00, 0x00, 0x18, 0x00, 0x00, 0x00,
  0x0c, 0x00, 0x00, 0x00, 0x00, 0x00, 0x06, 0x00, 0x08, 0x00, 0x04, 0x00,
  0x06, 0x00, 0x00, 0x00, 0x00, 0x00, 0x80, 0x3f, 0x01, 0x00, 0x00, 0x00,
  0x11, 0x00, 0x00, 0x00, 0x01, 0x00, 0x00, 0x00, 0x13, 0x00, 0x00, 0x00,
  0xe0, 0xfd, 0xff, 0xff, 0x03, 0x00, 0x00, 0x00, 0x3c, 0x00, 0x00, 0x00,
  0x2c, 0x00, 0x00, 0x00, 0x04, 0x00, 0x00, 0x00, 0x1f, 0x00, 0x00, 0x00,
  0x73, 0x75, 0x62, 0x67, 0x72, 0x61, 0x70, 0x68, 0x00, 0x0a, 0x73, 0x75,
  0x62, 0x67, 0x72, 0x61, 0x70, 0x68, 0x31, 0x31, 0x00, 0x01, 0x16, 0x01,
  0x01, 0x01, 0x10, 0x14, 0x02, 0x24, 0x01, 0x00, 0x02, 0x00, 0x00, 0x00,
  0x13, 0x00, 0x00, 0x00, 0x1d, 0x00, 0x00, 0x00, 0x03, 0x00, 0x00, 0x00,
  0x10, 0x00, 0x00, 0x00, 0x1e, 0x00, 0x00, 0x00, 0x1f, 0x00, 0x00, 0x00,
  0x9e, 0xfd, 0xff, 0xff, 0x00, 0x00, 0x00, 0x0b, 0x02, 0x00, 0x00, 0x00,
  0x18, 0x00, 0x00, 0x00, 0x0c, 0x00, 0x00, 0x00, 0x04, 0x00, 0x00, 0x00,
  0x48, 0xef, 0xff, 0xff, 0x01, 0x00, 0x00, 0x00, 0x10, 0x00, 0x00, 0x00,
  0x02, 0x00, 0x00, 0x00, 0x0f, 0x00, 0x00, 0x00, 0x04, 0x00, 0x00, 0x00,
  0xce, 0xfd, 0xff, 0xff, 0x00, 0x00, 0x00, 0x15, 0x01, 0x00, 0x00, 0x00,
  0x18, 0x00, 0x00, 0x00, 0x0c, 0x00, 0x00, 0x00, 0x04, 0x00, 0x00, 0x00,
  0x78, 0xef, 0xff, 0xff, 0x01, 0x00, 0x00, 0x00, 0x0f, 0x00, 0x00, 0x00,
  0x02, 0x00, 0x00, 0x00, 0x0e, 0x00, 0x00, 0x00, 0x03, 0x00, 0x00, 0x00,
  0x94, 0xfe, 0xff, 0xff, 0x03, 0x00, 0x00, 0x00, 0x3c, 0x00, 0x00, 0x00,
  0x2c, 0x00, 0x00, 0x00, 0x04, 0x00, 0x00, 0x00, 0x1f, 0x00, 0x00, 0x00,
  0x73, 0x75, 0x62, 0x67, 0x72, 0x61, 0x70, 0x68, 0x00, 0x0a, 0x73, 0x75,
  0x62, 0x67, 0x72, 0x61, 0x70, 0x68, 0x31, 0x30, 0x00, 0x01, 0x16, 0x01,
  0x01, 0x01, 0x10, 0x14, 0x02, 0x24, 0x01, 0x00, 0x02, 0x00, 0x00, 0x00,
  0x0e, 0x00, 0x00, 0x00, 0x1a, 0x00, 0x00, 0x00, 0x04, 0x00, 0x00, 0x00,
  0x0d, 0x00, 0x00, 0x00, 0x0a, 0x00, 0x00, 0x00, 0x1b, 0x00, 0x00, 0x00,
  0x1c, 0x00, 0x00, 0x00, 0x56, 0xfe, 0xff, 0xff, 0x00, 0x00, 0x00, 0x0b,
  0x02, 0x00, 0x00, 0x00, 0x18, 0x00, 0x00, 0x00, 0x0c, 0x00, 0x00, 0x00,
  0x04, 0x00, 0x00, 0x00, 0x00, 0xf0, 0xff, 0xff, 0x01, 0x00, 0x00, 0x00,
  0x0d, 0x00, 0x00, 0x00, 0x02, 0x00, 0x00, 0x00, 0x0c, 0x00, 0x00, 0x00,
  0x04, 0x00, 0x00, 0x00, 0x86, 0xfe, 0xff, 0xff, 0x00, 0x00, 0x00, 0x15,
  0x01, 0x00, 0x00, 0x00, 0x18, 0x00, 0x00, 0x00, 0x0c, 0x00, 0x00, 0x00,
  0x04, 0x00, 0x00, 0x00, 0x30, 0xf0, 0xff, 0xff, 0x01, 0x00, 0x00, 0x00,
  0x0c, 0x00, 0x00, 0x00, 0x02, 0x00, 0x00, 0x00, 0x0b, 0x00, 0x00, 0x00,
  0x03, 0x00, 0x00, 0x00, 0x4c, 0xff, 0xff, 0xff, 0x03, 0x00, 0x00, 0x00,
  0x3c, 0x00, 0x00, 0x00, 0x2c, 0x00, 0x00, 0x00, 0x04, 0x00, 0x00, 0x00,
  0x1e, 0x00, 0x00, 0x00, 0x73, 0x75, 0x62, 0x67, 0x72, 0x61, 0x70, 0x68,
  0x00, 0x09, 0x73, 0x75, 0x62, 0x67, 0x72, 0x61, 0x70, 0x68, 0x39, 0x00,
  0x01, 0x15, 0x01, 0x01, 0x01, 0x0f, 0x14, 0x02, 0x24, 0x01, 0x00, 0x00,
  0x02, 0x00, 0x00, 0x00, 0x0b, 0x00, 0x00, 0x00, 0x17, 0x00, 0x00, 0x00,
  0x03, 0x00, 0x00, 0x00, 0x0a, 0x00, 0x00, 0x00, 0x18, 0x00, 0x00, 0x00,
  0x19, 0x00, 0x00, 0x00, 0x0a, 0xff, 0xff, 0xff, 0x00, 0x00, 0x00, 0x0b,
  0x02, 0x00, 0x00, 0x00, 0x18, 0x00, 0x00, 0x00, 0x0c, 0x00, 0x00, 0x00,
  0x04, 0x00, 0x00, 0x00, 0xb4, 0xf0, 0xff, 0xff, 0x01, 0x00, 0x00, 0x00,
  0x0a, 0x00, 0x00, 0x00, 0x02, 0x00, 0x00, 0x00, 0x09, 0x00, 0x00, 0x00,
  0x04, 0x00, 0x00, 0x00, 0x3a, 0xff, 0xff, 0xff, 0x00, 0x00, 0x00, 0x15,
  0x01, 0x00, 0x00, 0x00, 0x18, 0x00, 0x00, 0x00, 0x0c, 0x00, 0x00, 0x00,
  0x04, 0x00, 0x00, 0x00, 0xe4, 0xf0, 0xff, 0xff, 0x01, 0x00, 0x00, 0x00,
  0x09, 0x00, 0x00, 0x00, 0x02, 0x00, 0x00, 0x00, 0x08, 0x00, 0x00, 0x00,
  0x03, 0x00, 0x00, 0x00, 0x10, 0x00, 0x14, 0x00, 0x04, 0x00, 0x08, 0x00,
  0x0c, 0x00, 0x00, 0x00, 0x00, 0x00, 0x10, 0x00, 0x10, 0x00, 0x00, 0x00,
  0x03, 0x00, 0x00, 0x00, 0x3c, 0x00, 0x00, 0x00, 0x2c, 0x00, 0x00, 0x00,
  0x04, 0x00, 0x00, 0x00, 0x1e, 0x00, 0x00, 0x00, 0x73, 0x75, 0x62, 0x67,
  0x72, 0x61, 0x70, 0x68, 0x00, 0x09, 0x73, 0x75, 0x62, 0x67, 0x72, 0x61,
  0x70, 0x68, 0x38, 0x00, 0x01, 0x15, 0x01, 0x01, 0x01, 0x0f, 0x14, 0x02,
  0x24, 0x01, 0x00, 0x00, 0x02, 0x00, 0x00, 0x00, 0x08, 0x00, 0x00, 0x00,
  0x14, 0x00, 0x00, 0x00, 0x03, 0x00, 0x00, 0x00, 0x07, 0x00, 0x00, 0x00,
  0x15, 0x00, 0x00, 0x00, 0x16, 0x00, 0x00, 0x00, 0xce, 0xff, 0xff, 0xff,
  0x00, 0x00, 0x00, 0x0b, 0x02, 0x00, 0x00, 0x00, 0x18, 0x00, 0x00, 0x00,
  0x0c, 0x00, 0x00, 0x00, 0x04, 0x00, 0x00, 0x00, 0x78, 0xf1, 0xff, 0xff,
  0x01, 0x00, 0x00, 0x00, 0x07, 0x00, 0x00, 0x00, 0x02, 0x00, 0x00, 0x00,
  0x06, 0x00, 0x00, 0x00, 0x02, 0x00, 0x00, 0x00, 0x00, 0x00, 0x0e, 0x00,
  0x18, 0x00, 0x08, 0x00, 0x0c, 0x00, 0x10, 0x00, 0x07, 0x00, 0x14, 0x00,
  0x0e, 0x00, 0x00, 0x00, 0x00, 0x00, 0x00, 0x15, 0x01, 0x00, 0x00, 0x00,
  0x18, 0x00, 0x00, 0x00, 0x0c, 0x00, 0x00, 0x00, 0x04, 0x00, 0x00, 0x00,
  0xb8, 0xf1, 0xff, 0xff, 0x01, 0x00, 0x00, 0x00, 0x06, 0x00, 0x00, 0x00,
  0x02, 0x00, 0x00, 0x00, 0x05, 0x00, 0x00, 0x00, 0x01, 0x00, 0x00, 0x00,
  0x00, 0x00, 0x0a, 0x00, 0x0c, 0x00, 0x00, 0x00, 0x04, 0x00, 0x08, 0x00,
  0x0a, 0x00, 0x00, 0x00, 0x10, 0x00, 0x00, 0x00, 0x04, 0x00, 0x00, 0x00,
  0x01, 0x00, 0x00, 0x00, 0x05, 0x00, 0x00, 0x00, 0x01, 0x00, 0x00, 0x00,
  0x00, 0x00, 0x00, 0x00, 0x01, 0x00, 0x00, 0x00, 0x12, 0x00, 0x00, 0x00,
  0x01, 0x00, 0x00, 0x00, 0x00, 0x00, 0x00, 0x00, 0x20, 0x00, 0x00, 0x00,
  0xcc, 0x0d, 0x00, 0x00, 0x34, 0x0d, 0x00, 0x00, 0x94, 0x0c, 0x00, 0x00,
  0x18, 0x0c, 0x00, 0x00, 0xb4, 0x0b, 0x00, 0x00, 0x3c, 0x0b, 0x00, 0x00,
  0x90, 0x0a, 0x00, 0x00, 0xf4, 0x09, 0x00, 0x00, 0xf8, 0x08, 0x00, 0x00,
  0x5c, 0x08, 0x00, 0x00, 0xc0, 0x07, 0x00, 0x00, 0xc4, 0x06, 0x00, 0x00,
  0x28, 0x06, 0x00, 0x00, 0x8c, 0x05, 0x00, 0x00, 0xf8, 0x04, 0x00, 0x00,
  0x5c, 0x04, 0x00, 0x00, 0xc0, 0x03, 0x00, 0x00, 0x5c, 0x03, 0x00, 0x00,
  0x18, 0x03, 0x00, 0x00, 0x9c, 0x02, 0x00, 0x00, 0x5c, 0x02, 0x00, 0x00,
  0x18, 0x02, 0x00, 0x00, 0xd8, 0x01, 0x00, 0x00, 0xa8, 0x01, 0x00, 0x00,
  0x70, 0x01, 0x00, 0x00, 0x3c, 0x01, 0x00, 0x00, 0x0c, 0x01, 0x00, 0x00,
  0xd4, 0x00, 0x00, 0x00, 0xa0, 0x00, 0x00, 0x00, 0x70, 0x00, 0x00, 0x00,
  0x38, 0x00, 0x00, 0x00, 0x04, 0x00, 0x00, 0x00, 0x20, 0xfe, 0xff, 0xff,
  0x00, 0x00, 0x00, 0x03, 0x20, 0x00, 0x00, 0x00, 0x0c, 0x00, 0x00, 0x00,
  0x04, 0x00, 0x00, 0x00, 0x0e, 0x00, 0x00, 0x00, 0x4e, 0x65, 0x75, 0x74,
  0x72, 0x6f, 0x6e, 0x57, 0x65, 0x69, 0x67, 0x68, 0x74, 0x73, 0x00, 0x00,
  0x01, 0x00, 0x00, 0x00, 0x60, 0x10, 0x00, 0x00, 0x50, 0xfe, 0xff, 0xff,
  0x00, 0x00, 0x00, 0x03, 0x24, 0x00, 0x00, 0x00, 0x0b, 0x00, 0x00, 0x00,
  0x04, 0x00, 0x00, 0x00, 0x10, 0x00, 0x00, 0x00, 0x4e, 0x65, 0x75, 0x74,
  0x72, 0x6f, 0x6e, 0x4d, 0x69, 0x63, 0x72, 0x6f, 0x63, 0x6f, 0x64, 0x65,
  0x00, 0x00, 0x00, 0x00, 0x01, 0x00, 0x00, 0x00, 0x48, 0x01, 0x00, 0x00,
  0x44, 0xfe, 0xff, 0xff, 0x00, 0x00, 0x00, 0x03, 0x1c, 0x00, 0x00, 0x00,
  0x04, 0x00, 0x00, 0x00, 0x0e, 0x00, 0x00, 0x00, 0x4e, 0x65, 0x75, 0x74,
  0x72, 0x6f, 0x6e, 0x53, 0x63, 0x72, 0x61, 0x74, 0x63, 0x68, 0x00, 0x00,
  0x01, 0x00, 0x00, 0x00, 0x00, 0x04, 0x00, 0x00, 0xb0, 0xfe, 0xff, 0xff,
  0x00, 0x00, 0x00, 0x03, 0x20, 0x00, 0x00, 0x00, 0x0a, 0x00, 0x00, 0x00,
  0x04, 0x00, 0x00, 0x00, 0x0e, 0x00, 0x00, 0x00, 0x4e, 0x65, 0x75, 0x74,
  0x72, 0x6f, 0x6e, 0x57, 0x65, 0x69, 0x67, 0x68, 0x74, 0x73, 0x00, 0x00,
  0x01, 0x00, 0x00, 0x00, 0x4c, 0x03, 0x00, 0x00, 0xe0, 0xfe, 0xff, 0xff,
  0x00, 0x00, 0x00, 0x03, 0x24, 0x00, 0x00, 0x00, 0x09, 0x00, 0x00, 0x00,
  0x04, 0x00, 0x00, 0x00, 0x10, 0x00, 0x00, 0x00, 0x4e, 0x65, 0x75, 0x74,
  0x72, 0x6f, 0x6e, 0x4d, 0x69, 0x63, 0x72, 0x6f, 0x63, 0x6f, 0x64, 0x65,
  0x00, 0x00, 0x00, 0x00, 0x01, 0x00, 0x00, 0x00, 0x0c, 0x01, 0x00, 0x00,
  0xd4, 0xfe, 0xff, 0xff, 0x00, 0x00, 0x00, 0x03, 0x1c, 0x00, 0x00, 0x00,
  0x04, 0x00, 0x00, 0x00, 0x0e, 0x00, 0x00, 0x00, 0x4e, 0x65, 0x75, 0x74,
  0x72, 0x6f, 0x6e, 0x53, 0x63, 0x72, 0x61, 0x74, 0x63, 0x68, 0x00, 0x00,
  0x01, 0x00, 0x00, 0x00, 0x00, 0x08, 0x00, 0x00, 0x40, 0xff, 0xff, 0xff,
  0x00, 0x00, 0x00, 0x03, 0x20, 0x00, 0x00, 0x00, 0x08, 0x00, 0x00, 0x00,
  0x04, 0x00, 0x00, 0x00, 0x0e, 0x00, 0x00, 0x00, 0x4e, 0x65, 0x75, 0x74,
  0x72, 0x6f, 0x6e, 0x57, 0x65, 0x69, 0x67, 0x68, 0x74, 0x73, 0x00, 0x00,
  0x01, 0x00, 0x00, 0x00, 0x40, 0x03, 0x00, 0x00, 0x70, 0xff, 0xff, 0xff,
  0x00, 0x00, 0x00, 0x03, 0x24, 0x00, 0x00, 0x00, 0x07, 0x00, 0x00, 0x00,
  0x04, 0x00, 0x00, 0x00, 0x10, 0x00, 0x00, 0x00, 0x4e, 0x65, 0x75, 0x74,
  0x72, 0x6f, 0x6e, 0x4d, 0x69, 0x63, 0x72, 0x6f, 0x63, 0x6f, 0x64, 0x65,
  0x00, 0x00, 0x00, 0x00, 0x01, 0x00, 0x00, 0x00, 0xd8, 0x00, 0x00, 0x00,
  0x64, 0xff, 0xff, 0xff, 0x00, 0x00, 0x00, 0x03, 0x1c, 0x00, 0x00, 0x00,
  0x04, 0x00, 0x00, 0x00, 0x0e, 0x00, 0x00, 0x00, 0x4e, 0x65, 0x75, 0x74,
  0x72, 0x6f, 0x6e, 0x53, 0x63, 0x72, 0x61, 0x74, 0x63, 0x68, 0x00, 0x00,
  0x01, 0x00, 0x00, 0x00, 0x00, 0x00, 0x00, 0x00, 0xd0, 0xff, 0xff, 0xff,
  0x00, 0x00, 0x00, 0x03, 0x20, 0x00, 0x00, 0x00, 0x06, 0x00, 0x00, 0x00,
  0x04, 0x00, 0x00, 0x00, 0x0e, 0x00, 0x00, 0x00, 0x4e, 0x65, 0x75, 0x74,
  0x72, 0x6f, 0x6e, 0x57, 0x65, 0x69, 0x67, 0x68, 0x74, 0x73, 0x00, 0x00,
  0x01, 0x00, 0x00, 0x00, 0x04, 0x01, 0x00, 0x00, 0x0c, 0x00, 0x14, 0x00,
  0x08, 0x00, 0x07, 0x00, 0x0c, 0x00, 0x10, 0x00, 0x0c, 0x00, 0x00, 0x00,
  0x00, 0x00, 0x00, 0x03, 0x24, 0x00, 0x00, 0x00, 0x05, 0x00, 0x00, 0x00,
  0x04, 0x00, 0x00, 0x00, 0x10, 0x00, 0x00, 0x00, 0x4e, 0x65, 0x75, 0x74,
  0x72, 0x6f, 0x6e, 0x4d, 0x69, 0x63, 0x72, 0x6f, 0x63, 0x6f, 0x64, 0x65,
  0x00, 0x00, 0x00, 0x00, 0x01, 0x00, 0x00, 0x00, 0x08, 0x01, 0x00, 0x00,
  0x0c, 0x00, 0x10, 0x00, 0x08, 0x00, 0x07, 0x00, 0x00, 0x00, 0x0c, 0x00,
  0x0c, 0x00, 0x00, 0x00, 0x00, 0x00, 0x00, 0x03, 0x1c, 0x00, 0x00, 0x00,
  0x04, 0x00, 0x00, 0x00, 0x0e, 0x00, 0x00, 0x00, 0x4e, 0x65, 0x75, 0x74,
  0x72, 0x6f, 0x6e, 0x53, 0x63, 0x72, 0x61, 0x74, 0x63, 0x68, 0x00, 0x00,
  0x01, 0x00, 0x00, 0x00, 0x00, 0x02, 0x00, 0x00, 0x00, 0x00, 0x0e, 0x00,
  0x14, 0x00, 0x08, 0x00, 0x07, 0x00, 0x00, 0x00, 0x0c, 0x00, 0x10, 0x00,
  0x0e, 0x00, 0x00, 0x00, 0x00, 0x00, 0x00, 0x09, 0x64, 0x00, 0x00, 0x00,
  0x2c, 0x00, 0x00, 0x00, 0x04, 0x00, 0x00, 0x00, 0xac, 0xf5, 0xff, 0xff,
  0x18, 0x00, 0x00, 0x00, 0x04, 0x00, 0x00, 0x00, 0x01, 0x00, 0x00, 0x00,
  0x44, 0x00, 0x00, 0x00, 0x00, 0x00, 0x00, 0x00, 0x00, 0x00, 0x00, 0x00,
  0x01, 0x00, 0x00, 0x00, 0x79, 0x73, 0xa1, 0x3e, 0x2e, 0x00, 0x00, 0x00,
  0x6d, 0x6f, 0x64, 0x65, 0x6c, 0x5f, 0x31, 0x2f, 0x64, 0x65, 0x6e, 0x73,
  0x65, 0x5f, 0x37, 0x2f, 0x4d, 0x61, 0x74, 0x4d, 0x75, 0x6c, 0x3b, 0x6d,
  0x6f, 0x64, 0x65, 0x6c, 0x5f, 0x31, 0x2f, 0x64, 0x65, 0x6e, 0x73, 0x65,
  0x5f, 0x37, 0x2f, 0x42, 0x69, 0x61, 0x73, 0x41, 0x64, 0x64, 0x00, 0x00,
  0x02, 0x00, 0x00, 0x00, 0x01, 0x00, 0x00, 0x00, 0x04, 0x00, 0x00, 0x00,
  0xa8, 0xf5, 0xff, 0xff, 0x30, 0x00, 0x00, 0x00, 0x1c, 0x00, 0x00, 0x00,
  0x14, 0x00, 0x00, 0x00, 0x04, 0x00, 0x00, 0x00, 0x02, 0x00, 0x00, 0x00,
  0x01, 0x00, 0x00, 0x00, 0x04, 0x00, 0x00, 0x00, 0x8c, 0xf5, 0xff, 0xff,
  0x08, 0x00, 0x00, 0x00, 0x49, 0x64, 0x65, 0x6e, 0x74, 0x69, 0x74, 0x79,
  0x00, 0x00, 0x00, 0x00, 0x02, 0x00, 0x00, 0x00, 0x01, 0x00, 0x00, 0x00,
  0x04, 0x00, 0x00, 0x00, 0x64, 0xf8, 0xff, 0xff, 0x00, 0x00, 0x00, 0x09,
  0x4c, 0x00, 0x00, 0x00, 0x38, 0x00, 0x00, 0x00, 0x14, 0x00, 0x00, 0x00,
  0x04, 0x00, 0x00, 0x00, 0x02, 0x00, 0x00, 0x00, 0x01, 0x00, 0x00, 0x00,
  0x04, 0x00, 0x00, 0x00, 0x74, 0xf6, 0xff, 0xff, 0x14, 0x00, 0x00, 0x00,
  0x04, 0x00, 0x00, 0x00, 0x01, 0x00, 0x00, 0x00, 0x80, 0xff, 0xff, 0xff,
  0xff, 0xff, 0xff, 0xff, 0x01, 0x00, 0x00, 0x00, 0x00, 0x00, 0x80, 0x3b,
  0x09, 0x00, 0x00, 0x00, 0x49, 0x64, 0x65, 0x6e, 0x74, 0x69, 0x74, 0x79,
  0x31, 0x00, 0x00, 0x00, 0x02, 0x00, 0x00, 0x00, 0x01, 0x00, 0x00, 0x00,
  0x04, 0x00, 0x00, 0x00, 0xc4, 0xf8, 0xff, 0xff, 0x00, 0x00, 0x00, 0x09,
  0x7c, 0x00, 0x00, 0x00, 0x44, 0x00, 0x00, 0x00, 0x1c, 0x00, 0x00, 0x00,
  0x04, 0x00, 0x00, 0x00, 0x04, 0x00, 0x00, 0x00, 0x01, 0x00, 0x00, 0x00,
  0x80, 0x00, 0x00, 0x00, 0x01, 0x00, 0x00, 0x00, 0x10, 0x00, 0x00, 0x00,
  0xdc, 0xf6, 0xff, 0xff, 0x18, 0x00, 0x00, 0x00, 0x04, 0x00, 0x00, 0x00,
  0x01, 0x00, 0x00, 0x00, 0x80, 0xff, 0xff, 0xff, 0xff, 0xff, 0xff, 0xff,
  0x00, 0x00, 0x00, 0x00, 0x01, 0x00, 0x00, 0x00, 0x7b, 0x2b, 0x39, 0x3c,
  0x2f, 0x00, 0x00, 0x00, 0x6d, 0x6f, 0x64, 0x65, 0x6c, 0x5f, 0x31, 0x2f,
  0x62, 0x61, 0x74, 0x63, 0x68, 0x5f, 0x6e, 0x6f, 0x72, 0x6d, 0x61, 0x6c,
  0x69, 0x7a, 0x61, 0x74, 0x69, 0x6f, 0x6e, 0x5f, 0x33, 0x2f, 0x46, 0x75,
  0x73, 0x65, 0x64, 0x42, 0x61, 0x74, 0x63, 0x68, 0x4e, 0x6f, 0x72, 0x6d,
  0x56, 0x33, 0x32, 0x00, 0x04, 0x00, 0x00, 0x00, 0x01, 0x00, 0x00, 0x00,
  0x80, 0x00, 0x00, 0x00, 0x01, 0x00, 0x00, 0x00, 0x10, 0x00, 0x00, 0x00,
  0x5c, 0xf9, 0xff, 0xff, 0x00, 0x00, 0x00, 0x09, 0x7c, 0x00, 0x00, 0x00,
  0x44, 0x00, 0x00, 0x00, 0x1c, 0x00, 0x00, 0x00, 0x04, 0x00, 0x00, 0x00,
  0x04, 0x00, 0x00, 0x00, 0x01, 0x00, 0x00, 0x00, 0x80, 0x00, 0x00, 0x00,
  0x01, 0x00, 0x00, 0x00, 0x10, 0x00, 0x00, 0x00, 0x74, 0xf7, 0xff, 0xff,
  0x18, 0x00, 0x00, 0x00, 0x04, 0x00, 0x00, 0x00, 0x01, 0x00, 0x00, 0x00,
  0x80, 0xff, 0xff, 0xff, 0xff, 0xff, 0xff, 0xff, 0x00, 0x00, 0x00, 0x00,
  0x01, 0x00, 0x00, 0x00, 0x7b, 0x2b, 0x39, 0x3c, 0x2f, 0x00, 0x00, 0x00,
  0x6d, 0x6f, 0x64, 0x65, 0x6c, 0x5f, 0x31, 0x2f, 0x62, 0x61, 0x74, 0x63,
  0x68, 0x5f, 0x6e, 0x6f, 0x72, 0x6d, 0x61, 0x6c, 0x69, 0x7a, 0x61, 0x74,
  0x69, 0x6f, 0x6e, 0x5f, 0x33, 0x2f, 0x46, 0x75, 0x73, 0x65, 0x64, 0x42,
  0x61, 0x74, 0x63, 0x68, 0x4e, 0x6f, 0x72, 0x6d, 0x56, 0x33, 0x31, 0x00,
  0x04, 0x00, 0x00, 0x00, 0x01, 0x00, 0x00, 0x00, 0x80, 0x00, 0x00, 0x00,
  0x01, 0x00, 0x00, 0x00, 0x10, 0x00, 0x00, 0x00, 0xf4, 0xf9, 0xff, 0xff,
  0x00, 0x00, 0x00, 0x09, 0x74, 0x00, 0x00, 0x00, 0x44, 0x00, 0x00, 0x00,
  0x1c, 0x00, 0x00, 0x00, 0x04, 0x00, 0x00, 0x00, 0x04, 0x00, 0x00, 0x00,
  0x01, 0x00, 0x00, 0x00, 0x80, 0x00, 0x00, 0x00, 0x01, 0x00, 0x00, 0x00,
  0x10, 0x00, 0x00, 0x00, 0x0c, 0xf8, 0xff, 0xff, 0x18, 0x00, 0x00, 0x00,
  0x04, 0x00, 0x00, 0x00, 0x01, 0x00, 0x00, 0x00, 0x80, 0xff, 0xff, 0xff,
  0xff, 0xff, 0xff, 0xff, 0x00, 0x00, 0x00, 0x00, 0x01, 0x00, 0x00, 0x00,
  0x2f, 0x43, 0x39, 0x3c, 0x24, 0x00, 0x00, 0x00, 0x6d, 0x6f, 0x64, 0x65,
  0x6c, 0x5f, 0x31, 0x2f, 0x72, 0x65, 0x5f, 0x6c, 0x75, 0x5f, 0x32, 0x2f,
  0x52, 0x65, 0x6c, 0x75, 0x3b, 0x6d, 0x6f, 0x64, 0x65, 0x6c, 0x5f, 0x31,
  0x2f, 0x61, 0x64, 0x64, 0x2f, 0x61, 0x64, 0x64, 0x00, 0x00, 0x00, 0x00,
  0x04, 0x00, 0x00, 0x00, 0x01, 0x00, 0x00, 0x00, 0x80, 0x00, 0x00, 0x00,
  0x01, 0x00, 0x00, 0x00, 0x10, 0x00, 0x00, 0x00, 0x84, 0xfa, 0xff, 0xff,
  0x00, 0x00, 0x00, 0x09, 0x7c, 0x00, 0x00, 0x00, 0x44, 0x00, 0x00, 0x00,
  0x1c, 0x00, 0x00, 0x00, 0x04, 0x00, 0x00, 0x00, 0x04, 0x00, 0x00, 0x00,
  0x01, 0x00, 0x00, 0x00, 0x80, 0x00, 0x00, 0x00, 0x01, 0x00, 0x00, 0x00,
  0x10, 0x00, 0x00, 0x00, 0x9c, 0xf8, 0xff, 0xff, 0x18, 0x00, 0x00, 0x00,
  0x04, 0x00, 0x00, 0x00, 0x01, 0x00, 0x00, 0x00, 0x80, 0xff, 0xff, 0xff,
  0xff, 0xff, 0xff, 0xff, 0x00, 0x00, 0x00, 0x00, 0x01, 0x00, 0x00, 0x00,
  0xe2, 0xeb, 0xb2, 0x3b, 0x2f, 0x00, 0x00, 0x00, 0x6d, 0x6f, 0x64, 0x65,
  0x6c, 0x5f, 0x31, 0x2f, 0x62, 0x61, 0x74, 0x63, 0x68, 0x5f, 0x6e, 0x6f,
  0x72, 0x6d, 0x61, 0x6c, 0x69, 0x7a, 0x61, 0x74, 0x69, 0x6f, 0x6e, 0x5f,
  0x32, 0x2f, 0x46, 0x75, 0x73, 0x65, 0x64, 0x42, 0x61, 0x74, 0x63, 0x68,
  0x4e, 0x6f, 0x72, 0x6d, 0x56, 0x33, 0x31, 0x00, 0x04, 0x00, 0x00, 0x00,
  0x01, 0x00, 0x00, 0x00, 0x80, 0x00, 0x00, 0x00, 0x01, 0x00, 0x00, 0x00,
  0x10, 0x00, 0x00, 0x00, 0x1c, 0xfb, 0xff, 0xff, 0x00, 0x00, 0x00, 0x09,
  0x7c, 0x00, 0x00, 0x00, 0x44, 0x00, 0x00, 0x00, 0x1c, 0x00, 0x00, 0x00,
  0x04, 0x00, 0x00, 0x00, 0x04, 0x00, 0x00, 0x00, 0x01, 0x00, 0x00, 0x00,
  0x80, 0x00, 0x00, 0x00, 0x01, 0x00, 0x00, 0x00, 0x10, 0x00, 0x00, 0x00,
  0x34, 0xf9, 0xff, 0xff, 0x18, 0x00, 0x00, 0x00, 0x04, 0x00, 0x00, 0x00,
  0x01, 0x00, 0x00, 0x00, 0x80, 0xff, 0xff, 0xff, 0xff, 0xff, 0xff, 0xff,
  0x00, 0x00, 0x00, 0x00, 0x01, 0x00, 0x00, 0x00, 0xe2, 0xeb, 0xb2, 0x3b,
  0x2e, 0x00, 0x00, 0x00, 0x6d, 0x6f, 0x64, 0x65, 0x6c, 0x5f, 0x31, 0x2f,
  0x62, 0x61, 0x74, 0x63, 0x68, 0x5f, 0x6e, 0x6f, 0x72, 0x6d, 0x61, 0x6c,
  0x69, 0x7a, 0x61, 0x74, 0x69, 0x6f, 0x6e, 0x5f, 0x32, 0x2f, 0x46, 0x75,
  0x73, 0x65, 0x64, 0x42, 0x61, 0x74, 0x63, 0x68, 0x4e, 0x6f, 0x72, 0x6d,
  0x56, 0x33, 0x00, 0x00, 0x04, 0x00, 0x00, 0x00, 0x01, 0x00, 0x00, 0x00,
  0x80, 0x00, 0x00, 0x00, 0x01, 0x00, 0x00, 0x00, 0x10, 0x00, 0x00, 0x00,
  0xb4, 0xfb, 0xff, 0xff, 0x00, 0x00, 0x00, 0x09, 0xdc, 0x00, 0x00, 0x00,
  0x44, 0x00, 0x00, 0x00, 0x1c, 0x00, 0x00, 0x00, 0x04, 0x00, 0x00, 0x00,
  0x04, 0x00, 0x00, 0x00, 0x01, 0x00, 0x00, 0x00, 0x80, 0x00, 0x00, 0x00,
  0x01, 0x00, 0x00, 0x00, 0x10, 0x00, 0x00, 0x00, 0xcc, 0xf9, 0xff, 0xff,
  0x18, 0x00, 0x00, 0x00, 0x04, 0x00, 0x00, 0x00, 0x01, 0x00, 0x00, 0x00,
  0x80, 0xff, 0xff, 0xff, 0xff, 0xff, 0xff, 0xff, 0x00, 0x00, 0x00, 0x00,
  0x01, 0x00, 0x00, 0x00, 0xc9, 0x02, 0xb3, 0x3b, 0x8e, 0x00, 0x00, 0x00,
  0x6d, 0x6f, 0x64, 0x65, 0x6c, 0x5f, 0x31, 0x2f, 0x72, 0x65, 0x5f, 0x6c,
  0x75, 0x5f, 0x31, 0x2f, 0x52, 0x65, 0x6c, 0x75, 0x3b, 0x6d, 0x6f, 0x64,
  0x65, 0x6c, 0x5f, 0x31, 0x2f, 0x63, 0x6f, 0x6e, 0x76, 0x32, 0x64, 0x5f,
  0x34, 0x2f, 0x42, 0x69, 0x61, 0x73, 0x41, 0x64, 0x64, 0x3b, 0x6d, 0x6f,
  0x64, 0x65, 0x6c, 0x5f, 0x31, 0x2f, 0x63, 0x6f, 0x6e, 0x76, 0x32, 0x64,
  0x5f, 0x35, 0x2f, 0x43, 0x6f, 0x6e, 0x76, 0x32, 0x44, 0x3b, 0x6d, 0x6f,
  0x64, 0x65, 0x6c, 0x5f, 0x31, 0x2f, 0x63, 0x6f, 0x6e, 0x76, 0x32, 0x64,
  0x5f, 0x34, 0x2f, 0x43, 0x6f, 0x6e, 0x76, 0x32, 0x44, 0x3b, 0x6d, 0x6f,
  0x64, 0x65, 0x6c, 0x5f, 0x31, 0x2f, 0x63, 0x6f, 0x6e, 0x76, 0x32, 0x64,
  0x5f, 0x34, 0x2f, 0x42, 0x69, 0x61, 0x73, 0x41, 0x64, 0x64, 0x2f, 0x52,
  0x65, 0x61, 0x64, 0x56, 0x61, 0x72, 0x69, 0x61, 0x62, 0x6c, 0x65, 0x4f,
  0x70, 0x2f, 0x72, 0x65, 0x73, 0x6f, 0x75, 0x72, 0x63, 0x65, 0x00, 0x00,
  0x04, 0x00, 0x00, 0x00, 0x01, 0x00, 0x00, 0x00, 0x80, 0x00, 0x00, 0x00,
  0x01, 0x00, 0x00, 0x00, 0x10, 0x00, 0x00, 0x00, 0xac, 0xfc, 0xff, 0xff,
  0x00, 0x00, 0x00, 0x09, 0x7c, 0x00, 0x00, 0x00, 0x44, 0x00, 0x00, 0x00,
  0x1c, 0x00, 0x00, 0x00, 0x04, 0x00, 0x00, 0x00, 0x04, 0x00, 0x00, 0x00,
  0x01, 0x00, 0x00, 0x00, 0x80, 0x00, 0x00, 0x00, 0x01, 0x00, 0x00, 0x00,
  0x10, 0x00, 0x00, 0x00, 0xc4, 0xfa, 0xff, 0xff, 0x18, 0x00, 0x00, 0x00,
  0x04, 0x00, 0x00, 0x00, 0x01, 0x00, 0x00, 0x00, 0x80, 0xff, 0xff, 0xff,
  0xff, 0xff, 0xff, 0xff, 0x00, 0x00, 0x00, 0x00, 0x01, 0x00, 0x00, 0x00,
  0x71, 0xf5, 0x4c, 0x3b, 0x2f, 0x00, 0x00, 0x00, 0x6d, 0x6f, 0x64, 0x65,
  0x6c, 0x5f, 0x31, 0x2f, 0x62, 0x61, 0x74, 0x63, 0x68, 0x5f, 0x6e, 0x6f,
  0x72, 0x6d, 0x61, 0x6c, 0x69, 0x7a, 0x61, 0x74, 0x69, 0x6f, 0x6e, 0x5f,
  0x31, 0x2f, 0x46, 0x75, 0x73, 0x65, 0x64, 0x42, 0x61, 0x74, 0x63, 0x68,
  0x4e, 0x6f, 0x72, 0x6d, 0x56, 0x33, 0x31, 0x00, 0x04, 0x00, 0x00, 0x00,
  0x01, 0x00, 0x00, 0x00, 0x80, 0x00, 0x00, 0x00, 0x01, 0x00, 0x00, 0x00,
  0x10, 0x00, 0x00, 0x00, 0x44, 0xfd, 0xff, 0xff, 0x00, 0x00, 0x00, 0x09,
  0x7c, 0x00, 0x00, 0x00, 0x44, 0x00, 0x00, 0x00, 0x1c, 0x00, 0x00, 0x00,
  0x04, 0x00, 0x00, 0x00, 0x04, 0x00, 0x00, 0x00, 0x01, 0x00, 0x00, 0x00,
  0x80, 0x00, 0x00, 0x00, 0x01, 0x00, 0x00, 0x00, 0x10, 0x00, 0x00, 0x00,
  0x5c, 0xfb, 0xff, 0xff, 0x18, 0x00, 0x00, 0x00, 0x04, 0x00, 0x00, 0x00,
  0x01, 0x00, 0x00, 0x00, 0x80, 0xff, 0xff, 0xff, 0xff, 0xff, 0xff, 0xff,
  0x00, 0x00, 0x00, 0x00, 0x01, 0x00, 0x00, 0x00, 0x71, 0xf5, 0x4c, 0x3b,
  0x2e, 0x00, 0x00, 0x00, 0x6d, 0x6f, 0x64, 0x65, 0x6c, 0x5f, 0x31, 0x2f,
  0x62, 0x61, 0x74, 0x63, 0x68, 0x5f, 0x6e, 0x6f, 0x72, 0x6d, 0x61, 0x6c,
  0x69, 0x7a, 0x61, 0x74, 0x69, 0x6f, 0x6e, 0x5f, 0x31, 0x2f, 0x46, 0x75,
  0x73, 0x65, 0x64, 0x42, 0x61, 0x74, 0x63, 0x68, 0x4e, 0x6f, 0x72, 0x6d,
  0x56, 0x33, 0x00, 0x00, 0x04, 0x00, 0x00, 0x00, 0x01, 0x00, 0x00, 0x00,
  0x80, 0x00, 0x00, 0x00, 0x01, 0x00, 0x00, 0x00, 0x10, 0x00, 0x00, 0x00,
  0xdc, 0xfd, 0xff, 0xff, 0x00, 0x00, 0x00, 0x09, 0xdc, 0x00, 0x00, 0x00,
  0x44, 0x00, 0x00, 0x00, 0x1c, 0x00, 0x00, 0x00, 0x04, 0x00, 0x00, 0x00,
  0x04, 0x00, 0x00, 0x00, 0x01, 0x00, 0x00, 0x00, 0x80, 0x00, 0x00, 0x00,
  0x01, 0x00, 0x00, 0x00, 0x10, 0x00, 0x00, 0x00, 0xf4, 0xfb, 0xff, 0xff,
  0x18, 0x00, 0x00, 0x00, 0x04, 0x00, 0x00, 0x00, 0x01, 0x00, 0x00, 0x00,
  0x80, 0xff, 0xff, 0xff, 0xff, 0xff, 0xff, 0xff, 0x00, 0x00, 0x00, 0x00,
  0x01, 0x00, 0x00, 0x00, 0xae, 0x0f, 0x4d, 0x3b, 0x8c, 0x00, 0x00, 0x00,
  0x6d, 0x6f, 0x64, 0x65, 0x6c, 0x5f, 0x31, 0x2f, 0x72, 0x65, 0x5f, 0x6c,
  0x75, 0x2f, 0x52, 0x65, 0x6c, 0x75, 0x3b, 0x6d, 0x6f, 0x64, 0x65, 0x6c,
  0x5f, 0x31, 0x2f, 0x63, 0x6f, 0x6e, 0x76, 0x32, 0x64, 0x5f, 0x33, 0x2f,
  0x42, 0x69, 0x61, 0x73, 0x41, 0x64, 0x64, 0x3b, 0x6d, 0x6f, 0x64, 0x65,
  0x6c, 0x5f, 0x31, 0x2f, 0x63, 0x6f, 0x6e, 0x76, 0x32, 0x64, 0x5f, 0x35,
  0x2f, 0x43, 0x6f, 0x6e, 0x76, 0x32, 0x44, 0x3b, 0x6d, 0x6f, 0x64, 0x65,
  0x6c, 0x5f, 0x31, 0x2f, 0x63, 0x6f, 0x6e, 0x76, 0x32, 0x64, 0x5f, 0x33,
  0x2f, 0x43, 0x6f, 0x6e, 0x76, 0x32, 0x44, 0x3b, 0x6d, 0x6f, 0x64, 0x65,
  0x6c, 0x5f, 0x31, 0x2f, 0x63, 0x6f, 0x6e, 0x76, 0x32, 0x64, 0x5f, 0x33,
  0x2f, 0x42, 0x69, 0x61, 0x73, 0x41, 0x64, 0x64, 0x2f, 0x52, 0x65, 0x61,
  0x64, 0x56, 0x61, 0x72, 0x69, 0x61, 0x62, 0x6c, 0x65, 0x4f, 0x70, 0x2f,
  0x72, 0x65, 0x73, 0x6f, 0x75, 0x72, 0x63, 0x65, 0x00, 0x00, 0x00, 0x00,
  0x04, 0x00, 0x00, 0x00, 0x01, 0x00, 0x00, 0x00, 0x80, 0x00, 0x00, 0x00,
  0x01, 0x00, 0x00, 0x00, 0x10, 0x00, 0x00, 0x00, 0xd4, 0xfe, 0xff, 0xff,
  0x00, 0x00, 0x00, 0x09, 0x7c, 0x00, 0x00, 0x00, 0x44, 0x00, 0x00, 0x00,
  0x1c, 0x00, 0x00, 0x00, 0x04, 0x00, 0x00, 0x00, 0x04, 0x00, 0x00, 0x00,
  0x01, 0x00, 0x00, 0x00, 0x80, 0x00, 0x00, 0x00, 0x01, 0x00, 0x00, 0x00,
  0x03, 0x00, 0x00, 0x00, 0xec, 0xfc, 0xff, 0xff, 0x18, 0x00, 0x00, 0x00,
  0x04, 0x00, 0x00, 0x00, 0x01, 0x00, 0x00, 0x00, 0x00, 0x00, 0x00, 0x00,
  0x00, 0x00, 0x00, 0x00, 0x00, 0x00, 0x00, 0x00, 0x01, 0x00, 0x00, 0x00,
  0xd7, 0xd0, 0xf2, 0x3b, 0x2d, 0x00, 0x00, 0x00, 0x6d, 0x6f, 0x64, 0x65,
  0x6c, 0x5f, 0x31, 0x2f, 0x62, 0x61, 0x74, 0x63, 0x68, 0x5f, 0x6e, 0x6f,
  0x72, 0x6d, 0x61, 0x6c, 0x69, 0x7a, 0x61, 0x74, 0x69, 0x6f, 0x6e, 0x2f,
  0x46, 0x75, 0x73, 0x65, 0x64, 0x42, 0x61, 0x74, 0x63, 0x68, 0x4e, 0x6f,
  0x72, 0x6d, 0x56, 0x33, 0x32, 0x00, 0x00, 0x00, 0x04, 0x00, 0x00, 0x00,
  0x01, 0x00, 0x00, 0x00, 0x80, 0x00, 0x00, 0x00, 0x01, 0x00, 0x00, 0x00,
  0x03, 0x00, 0x00, 0x00, 0x6c, 0xff, 0xff, 0xff, 0x00, 0x00, 0x00, 0x09,
  0x78, 0x00, 0x00, 0x00, 0x40, 0x00, 0x00, 0x00, 0x1c, 0x00, 0x00, 0x00,
  0x04, 0x00, 0x00, 0x00, 0x04, 0x00, 0x00, 0x00, 0x01, 0x00, 0x00, 0x00,
  0x80, 0x00, 0x00, 0x00, 0x01, 0x00, 0x00, 0x00, 0x03, 0x00, 0x00, 0x00,
  0x84, 0xfd, 0xff, 0xff, 0x14, 0x00, 0x00, 0x00, 0x04, 0x00, 0x00, 0x00,
  0x01, 0x00, 0x00, 0x00, 0x00, 0x00, 0x00, 0x00, 0x00, 0x00, 0x00, 0x00,
  0x01, 0x00, 0x00, 0x00, 0xd7, 0xd0, 0xf2, 0x3b, 0x2d, 0x00, 0x00, 0x00,
  0x6d, 0x6f, 0x64, 0x65, 0x6c, 0x5f, 0x31, 0x2f, 0x62, 0x61, 0x74, 0x63,
  0x68, 0x5f, 0x6e, 0x6f, 0x72, 0x6d, 0x61, 0x6c, 0x69, 0x7a, 0x61, 0x74,
  0x69, 0x6f, 0x6e, 0x2f, 0x46, 0x75, 0x73, 0x65, 0x64, 0x42, 0x61, 0x74,
  0x63, 0x68, 0x4e, 0x6f, 0x72, 0x6d, 0x56, 0x33, 0x31, 0x00, 0x00, 0x00,
  0x04, 0x00, 0x00, 0x00, 0x01, 0x00, 0x00, 0x00, 0x80, 0x00, 0x00, 0x00,
  0x01, 0x00, 0x00, 0x00, 0x03, 0x00, 0x00, 0x00, 0x14, 0x00, 0x18, 0x00,
  0x08, 0x00, 0x07, 0x00, 0x00, 0x00, 0x0c, 0x00, 0x10, 0x00, 0x00, 0x00,
  0x00, 0x00, 0x14, 0x00, 0x14, 0x00, 0x00, 0x00, 0x00, 0x00, 0x00, 0x09,
  0x58, 0x00, 0x00, 0x00, 0x40, 0x00, 0x00, 0x00, 0x1c, 0x00, 0x00, 0x00,
  0x04, 0x00, 0x00, 0x00, 0x04, 0x00, 0x00, 0x00, 0x01, 0x00, 0x00, 0x00,
  0x80, 0x00, 0x00, 0x00, 0x01, 0x00, 0x00, 0x00, 0x03, 0x00, 0x00, 0x00,
  0x2c, 0xfe, 0xff, 0xff, 0x14, 0x00, 0x00, 0x00, 0x04, 0x00, 0x00, 0x00,
  0x01, 0x00, 0x00, 0x00, 0x00, 0x00, 0x00, 0x00, 0x00, 0x00, 0x00, 0x00,
  0x01, 0x00, 0x00, 0x00, 0xe9, 0xef, 0xf2, 0x3b, 0x0c, 0x00, 0x00, 0x00,
  0x74, 0x66, 0x6c, 0x2e, 0x71, 0x75, 0x61, 0x6e, 0x74, 0x69, 0x7a, 0x65,
  0x00, 0x00, 0x00, 0x00, 0x04, 0x00, 0x00, 0x00, 0x01, 0x00, 0x00, 0x00,
  0x80, 0x00, 0x00, 0x00, 0x01, 0x00, 0x00, 0x00, 0x03, 0x00, 0x00, 0x00,
  0x9a, 0xfe, 0xff, 0xff, 0x00, 0x00, 0x00, 0x09, 0x50, 0x00, 0x00, 0x00,
  0x04, 0x00, 0x00, 0x00, 0x2c, 0x00, 0x00, 0x00, 0x04, 0x00, 0x00, 0x00,
  0x8c, 0xfe, 0xff, 0xff, 0x18, 0x00, 0x00, 0x00, 0x04, 0x00, 0x00, 0x00,
  0x01, 0x00, 0x00, 0x00, 0x00, 0x00, 0x00, 0x00, 0x00, 0x00, 0x00, 0x00,
  0x00, 0x00, 0x00, 0x00, 0x01, 0x00, 0x00, 0x00, 0xbd, 0x37, 0x86, 0x35,
  0x17, 0x00, 0x00, 0x00, 0x6d, 0x6f, 0x64, 0x65, 0x6c, 0x5f, 0x31, 0x2f,
  0x63, 0x6f, 0x6e, 0x76, 0x32, 0x64, 0x5f, 0x35, 0x2f, 0x43, 0x6f, 0x6e,
  0x76, 0x32, 0x44, 0x00, 0x01, 0x00, 0x00, 0x00, 0x10, 0x00, 0x00, 0x00,
  0xfa, 0xfe, 0xff, 0xff, 0x00, 0x00, 0x00, 0x09, 0x68, 0x00, 0x00, 0x00,
  0x03, 0x00, 0x00, 0x00, 0x2c, 0x00, 0x00, 0x00, 0x04, 0x00, 0x00, 0x00,
  0xec, 0xfe, 0xff, 0xff, 0x18, 0x00, 0x00, 0x00, 0x04, 0x00, 0x00, 0x00,
  0x01, 0x00, 0x00, 0x00, 0x80, 0xff, 0xff, 0xff, 0xff, 0xff, 0xff, 0xff,
  0x00, 0x00, 0x00, 0x00, 0x01, 0x00, 0x00, 0x00, 0x10, 0x70, 0x80, 0x3b,
  0x2e, 0x00, 0x00, 0x00, 0x6d, 0x6f, 0x64, 0x65, 0x6c, 0x5f, 0x31, 0x2f,
  0x62, 0x61, 0x74, 0x63, 0x68, 0x5f, 0x6e, 0x6f, 0x72, 0x6d, 0x61, 0x6c,
  0x69, 0x7a, 0x61, 0x74, 0x69, 0x6f, 0x6e, 0x5f, 0x33, 0x2f, 0x46, 0x75,
  0x73, 0x65, 0x64, 0x42, 0x61, 0x74, 0x63, 0x68, 0x4e, 0x6f, 0x72, 0x6d,
  0x56, 0x33, 0x00, 0x00, 0x01, 0x00, 0x00, 0x00, 0x10, 0x00, 0x00, 0x00,
  0x72, 0xff, 0xff, 0xff, 0x00, 0x00, 0x00, 0x09, 0x7c, 0x00, 0x00, 0x00,
  0x02, 0x00, 0x00, 0x00, 0x28, 0x00, 0x00, 0x00, 0x04, 0x00, 0x00, 0x00,
  0x64, 0xff, 0xff, 0xff, 0x14, 0x00, 0x00, 0x00, 0x04, 0x00, 0x00, 0x00,
  0x01, 0x00, 0x00, 0x00, 0x00, 0x00, 0x00, 0x00, 0x00, 0x00, 0x00, 0x00,
  0x01, 0x00, 0x00, 0x00, 0xbd, 0x37, 0x86, 0x35, 0x44, 0x00, 0x00, 0x00,
  0x6d, 0x6f, 0x64, 0x65, 0x6c, 0x5f, 0x31, 0x2f, 0x62, 0x61, 0x74, 0x63,
  0x68, 0x5f, 0x6e, 0x6f, 0x72, 0x6d, 0x61, 0x6c, 0x69, 0x7a, 0x61, 0x74,
  0x69, 0x6f, 0x6e, 0x2f, 0x46, 0x75, 0x73, 0x65, 0x64, 0x42, 0x61, 0x74,
  0x63, 0x68, 0x4e, 0x6f, 0x72, 0x6d, 0x56, 0x33, 0x2f, 0x52, 0x65, 0x61,
  0x64, 0x56, 0x61, 0x72, 0x69, 0x61, 0x62, 0x6c, 0x65, 0x4f, 0x70, 0x2f,
  0x72, 0x65, 0x73, 0x6f, 0x75, 0x72, 0x63, 0x65, 0x00, 0x00, 0x00, 0x00,
  0x01, 0x00, 0x00, 0x00, 0x03, 0x00, 0x00, 0x00, 0x00, 0x00, 0x0e, 0x00,
  0x18, 0x00, 0x08, 0x00, 0x07, 0x00, 0x0c, 0x00, 0x10, 0x00, 0x14, 0x00,
  0x0e, 0x00, 0x00, 0x00, 0x00, 0x00, 0x00, 0x09, 0x70, 0x00, 0x00, 0x00,
  0x01, 0x00, 0x00, 0x00, 0x34, 0x00, 0x00, 0x00, 0x10, 0x00, 0x00, 0x00,
  0x0c, 0x00, 0x0c, 0x00, 0x00, 0x00, 0x00, 0x00, 0x04, 0x00, 0x08, 0x00,
  0x0c, 0x00, 0x00, 0x00, 0x14, 0x00, 0x00, 0x00, 0x04, 0x00, 0x00, 0x00,
  0x01, 0x00, 0x00, 0x00, 0x80, 0xff, 0xff, 0xff, 0xff, 0xff, 0xff, 0xff,
  0x01, 0x00, 0x00, 0x00, 0x11, 0x70, 0x80, 0x3b, 0x2c, 0x00, 0x00, 0x00,
  0x6d, 0x6f, 0x64, 0x65, 0x6c, 0x5f, 0x31, 0x2f, 0x62, 0x61, 0x74, 0x63,
  0x68, 0x5f, 0x6e, 0x6f, 0x72, 0x6d, 0x61, 0x6c, 0x69, 0x7a, 0x61, 0x74,
  0x69, 0x6f, 0x6e, 0x2f, 0x46, 0x75, 0x73, 0x65, 0x64, 0x42, 0x61, 0x74,
  0x63, 0x68, 0x4e, 0x6f, 0x72, 0x6d, 0x56, 0x33, 0x00, 0x00, 0x00, 0x00,
  0x01, 0x00, 0x00, 0x00, 0x03, 0x00, 0x00, 0x00, 0x14, 0x00, 0x14, 0x00,
  0x04, 0x00, 0x00, 0x00, 0x00, 0x00, 0x08, 0x00, 0x0c, 0x00, 0x00, 0x00,
  0x00, 0x00, 0x10, 0x00, 0x14, 0x00, 0x00, 0x00, 0x38, 0x00, 0x00, 0x00,
  0x28, 0x00, 0x00, 0x00, 0x20, 0x00, 0x00, 0x00, 0x04, 0x00, 0x00, 0x00,
  0x04, 0x00, 0x00, 0x00, 0x01, 0x00, 0x00, 0x00, 0x80, 0x00, 0x00, 0x00,
  0x01, 0x00, 0x00, 0x00, 0x03, 0x00, 0x00, 0x00, 0x04, 0x00, 0x04, 0x00,
  0x04, 0x00, 0x00, 0x00, 0x07, 0x00, 0x00, 0x00, 0x69, 0x6e, 0x70, 0x75,
  0x74, 0x5f, 0x32, 0x00, 0x04, 0x00, 0x00, 0x00, 0x01, 0x00, 0x00, 0x00,
  0x80, 0x00, 0x00, 0x00, 0x01, 0x00, 0x00, 0x00, 0x03, 0x00, 0x00, 0x00,
  0x06, 0x00, 0x00, 0x00, 0xa0, 0x00, 0x00, 0x00, 0x80, 0x00, 0x00, 0x00,
  0x68, 0x00, 0x00, 0x00, 0x38, 0x00, 0x00, 0x00, 0x18, 0x00, 0x00, 0x00,
  0x04, 0x00, 0x00, 0x00, 0xa0, 0xff, 0xff, 0xff, 0x00, 0x00, 0x00, 0x06,
  0x02, 0x00, 0x00, 0x00, 0x06, 0x00, 0x00, 0x00, 0xb0, 0xff, 0xff, 0xff,
  0x00, 0x00, 0x00, 0x19, 0x02, 0x00, 0x00, 0x00, 0x19, 0x00, 0x00, 0x00,
  0x0c, 0x00, 0x10, 0x00, 0x07, 0x00, 0x08, 0x00, 0x00, 0x00, 0x0c, 0x00,
  0x0c, 0x00, 0x00, 0x00, 0x00, 0x00, 0x00, 0x20, 0x08, 0x00, 0x00, 0x00,
  0x20, 0x00, 0x00, 0x00, 0x0c, 0x00, 0x00, 0x00, 0x4e, 0x65, 0x75, 0x74,
  0x72, 0x6f, 0x6e, 0x47, 0x72, 0x61, 0x70, 0x68, 0x00, 0x00, 0x0a, 0x00,
  0x08, 0x00, 0x00, 0x00, 0x00, 0x00, 0x04, 0x00, 0x0a, 0x00, 0x00, 0x00,
  0x02, 0x00, 0x00, 0x00, 0x0c, 0x00, 0x10, 0x00, 0x07, 0x00, 0x00, 0x00,
  0x08, 0x00, 0x0c, 0x00, 0x0c, 0x00, 0x00, 0x00, 0x00, 0x00, 0x00, 0x12,
  0x02, 0x00, 0x00, 0x00, 0x12, 0x00, 0x00, 0x00, 0x0c, 0x00, 0x0c, 0x00,
  0x07, 0x00, 0x00, 0x00, 0x00, 0x00, 0x08, 0x00, 0x0c, 0x00, 0x00, 0x00,
  0x00, 0x00, 0x00, 0x72, 0x72, 0x00, 0x00, 0x00
};
const unsigned int tensorflow_model_lresnet_quant_neutron_len = 12512;
