
#include "tensorflow_model_mlp.h"

// This is a TensorFlow Lite model file that has been converted into a C data
// array using the tensorflow.lite.util.convert_bytes_to_c_source() function.
// This form is useful for compiling into a binary for devices that don't have a
// file system.


// We need to keep the data array aligned on some architectures.
#ifdef __has_attribute
#define HAVE_ATTRIBUTE(x) __has_attribute(x)
#else
#define HAVE_ATTRIBUTE(x) 0
#endif
#if HAVE_ATTRIBUTE(aligned) || (defined(__GNUC__) && !defined(__clang__))
#define DATA_ALIGN_ATTRIBUTE __attribute__((aligned(4)))
#else
#define DATA_ALIGN_ATTRIBUTE
#endif

const unsigned char tensorflow_model_mlp[] DATA_ALIGN_ATTRIBUTE = {
    0x1c, 0x00, 0x00, 0x00, 0x54, 0x46, 0x4c, 0x33, 0x14, 0x00, 0x20, 0x00, 0x04,
    0x00, 0x08, 0x00, 0x0c, 0x00, 0x10, 0x00, 0x14, 0x00, 0x00, 0x00, 0x18, 0x00,
    0x1c, 0x00, 0x14, 0x00, 0x00, 0x00, 0x03, 0x00, 0x00, 0x00, 0x18, 0x00, 0x00,
    0x00, 0x24, 0x00, 0x00, 0x00, 0xb0, 0x00, 0x00, 0x00, 0x24, 0x00, 0x00, 0x00,
    0x58, 0x00, 0x00, 0x00, 0x50, 0x00, 0x00, 0x00, 0x03, 0x00, 0x00, 0x00, 0x70,
    0x03, 0x00, 0x00, 0xac, 0x02, 0x00, 0x00, 0x5c, 0x01, 0x00, 0x00, 0x01, 0x00,
    0x00, 0x00, 0xb0, 0x00, 0x00, 0x00, 0x0c, 0x00, 0x00, 0x00, 0x48, 0x67, 0x00,
    0x00, 0x44, 0x67, 0x00, 0x00, 0x74, 0x66, 0x00, 0x00, 0xe4, 0x65, 0x00, 0x00,
    0x40, 0x65, 0x00, 0x00, 0xf0, 0x04, 0x00, 0x00, 0xa0, 0x03, 0x00, 0x00, 0x2c,
    0x67, 0x00, 0x00, 0x28, 0x67, 0x00, 0x00, 0x24, 0x67, 0x00, 0x00, 0x20, 0x67,
    0x00, 0x00, 0x3c, 0x00, 0x00, 0x00, 0x00, 0x00, 0x00, 0x00, 0x01, 0x00, 0x00,
    0x00, 0x0c, 0x00, 0x00, 0x00, 0x08, 0x00, 0x0c, 0x00, 0x04, 0x00, 0x08, 0x00,
    0x08, 0x00, 0x00, 0x00, 0x08, 0x00, 0x00, 0x00, 0x0b, 0x00, 0x00, 0x00, 0x13,
    0x00, 0x00, 0x00, 0x6d, 0x69, 0x6e, 0x5f, 0x72, 0x75, 0x6e, 0x74, 0x69, 0x6d,
    0x65, 0x5f, 0x76, 0x65, 0x72, 0x73, 0x69, 0x6f, 0x6e, 0x00, 0xf2, 0x99, 0xff,
    0xff, 0x04, 0x00, 0x00, 0x00, 0x10, 0x00, 0x00, 0x00, 0x31, 0x2e, 0x35, 0x2e,
    0x30, 0x00, 0x00, 0x00, 0x00, 0x00, 0x00, 0x00, 0x00, 0x00, 0x00, 0x00, 0x0f,
    0x00, 0x00, 0x00, 0x4d, 0x4c, 0x49, 0x52, 0x20, 0x43, 0x6f, 0x6e, 0x76, 0x65,
    0x72, 0x74, 0x65, 0x64, 0x2e, 0x00, 0x00, 0x00, 0x0e, 0x00, 0x18, 0x00, 0x04,
    0x00, 0x08, 0x00, 0x0c, 0x00, 0x10, 0x00, 0x14, 0x00, 0x0e, 0x00, 0x00, 0x00,
    0x14, 0x00, 0x00, 0x00, 0x3c, 0x00, 0x00, 0x00, 0x40, 0x00, 0x00, 0x00, 0x44,
    0x00, 0x00, 0x00, 0x54, 0x00, 0x00, 0x00, 0x0a, 0x00, 0x00, 0x00, 0x30, 0x66,
    0x00, 0x00, 0xd8, 0x65, 0x00, 0x00, 0x50, 0x65, 0x00, 0x00, 0xcc, 0x64, 0x00,
    0x00, 0x3c, 0x64, 0x00, 0x00, 0xec, 0x03, 0x00, 0x00, 0x8c, 0x02, 0x00, 0x00,
    0xc8, 0x01, 0x00, 0x00, 0x00, 0x01, 0x00, 0x00, 0x74, 0x00, 0x00, 0x00, 0x01,
    0x00, 0x00, 0x00, 0x00, 0x00, 0x00, 0x00, 0x01, 0x00, 0x00, 0x00, 0x09, 0x00,
    0x00, 0x00, 0x04, 0x00, 0x00, 0x00, 0x2c, 0x02, 0x00, 0x00, 0x54, 0x01, 0x00,
    0x00, 0xa8, 0x00, 0x00, 0x00, 0x10, 0x00, 0x00, 0x00, 0x04, 0x00, 0x00, 0x00,
    0x6d, 0x61, 0x69, 0x6e, 0x00, 0x00, 0x00, 0x00, 0x7a, 0xff, 0xff, 0xff, 0x00,
    0x00, 0x00, 0x09, 0x02, 0x00, 0x00, 0x00, 0x1c, 0x00, 0x00, 0x00, 0x10, 0x00,
    0x00, 0x00, 0x04, 0x00, 0x00, 0x00, 0xbe, 0x9a, 0xff, 0xff, 0x00, 0x00, 0x80,
    0x3f, 0x01, 0x00, 0x00, 0x00, 0x09, 0x00, 0x00, 0x00, 0x01, 0x00, 0x00, 0x00,
    0x08, 0x00, 0x00, 0x00, 0x00, 0xfe, 0xff, 0xff, 0x19, 0x00, 0x00, 0x00, 0x00,
    0x00, 0x00, 0x19, 0x01, 0x00, 0x00, 0x00, 0x7c, 0x9a, 0xff, 0xff, 0x14, 0x00,
    0x00, 0x00, 0x0a, 0x00, 0x00, 0x00, 0x24, 0x00, 0x00, 0x00, 0x30, 0x00, 0x00,
    0x00, 0x10, 0x00, 0x00, 0x00, 0x02, 0x00, 0x00, 0x00, 0x01, 0x00, 0x00, 0x00,
    0x04, 0x00, 0x00, 0x00, 0x02, 0x00, 0x00, 0x00, 0xff, 0xff, 0xff, 0xff, 0x04,
    0x00, 0x00, 0x00, 0x08, 0x00, 0x00, 0x00, 0x49, 0x64, 0x65, 0x6e, 0x74, 0x69,
    0x74, 0x79, 0x00, 0x00, 0x00, 0x00, 0x30, 0x9b, 0xff, 0xff, 0x00, 0x00, 0x0e,
    0x00, 0x18, 0x00, 0x08, 0x00, 0x0c, 0x00, 0x10, 0x00, 0x07, 0x00, 0x14, 0x00,
    0x0e, 0x00, 0x00, 0x00, 0x00, 0x00, 0x00, 0x08, 0x01, 0x00, 0x00, 0x00, 0x18,
    0x00, 0x00, 0x00, 0x0c, 0x00, 0x00, 0x00, 0x04, 0x00, 0x00, 0x00, 0x84, 0x9a,
    0xff, 0xff, 0x01, 0x00, 0x00, 0x00, 0x08, 0x00, 0x00, 0x00, 0x03, 0x00, 0x00,
    0x00, 0x07, 0x00, 0x00, 0x00, 0x05, 0x00, 0x00, 0x00, 0x02, 0x00, 0x00, 0x00,
    0x04, 0x9b, 0xff, 0xff, 0x14, 0x00, 0x00, 0x00, 0x09, 0x00, 0x00, 0x00, 0x24,
    0x00, 0x00, 0x00, 0x50, 0x00, 0x00, 0x00, 0x10, 0x00, 0x00, 0x00, 0x02, 0x00,
    0x00, 0x00, 0x01, 0x00, 0x00, 0x00, 0x04, 0x00, 0x00, 0x00, 0x02, 0x00, 0x00,
    0x00, 0xff, 0xff, 0xff, 0xff, 0x04, 0x00, 0x00, 0x00, 0x2a, 0x00, 0x00, 0x00,
    0x6d, 0x6f, 0x64, 0x65, 0x6c, 0x2f, 0x64, 0x65, 0x6e, 0x73, 0x65, 0x5f, 0x36,
    0x2f, 0x4d, 0x61, 0x74, 0x4d, 0x75, 0x6c, 0x3b, 0x6d, 0x6f, 0x64, 0x65, 0x6c,
    0x2f, 0x64, 0x65, 0x6e, 0x73, 0x65, 0x5f, 0x36, 0x2f, 0x42, 0x69, 0x61, 0x73,
    0x41, 0x64, 0x64, 0x00, 0x00, 0xd8, 0x9b, 0xff, 0xff, 0x00, 0x00, 0x0e, 0x00,
    0x1a, 0x00, 0x08, 0x00, 0x0c, 0x00, 0x10, 0x00, 0x07, 0x00, 0x14, 0x00, 0x0e,
    0x00, 0x00, 0x00, 0x00, 0x00, 0x00, 0x08, 0x01, 0x00, 0x00, 0x00, 0x24, 0x00,
    0x00, 0x00, 0x18, 0x00, 0x00, 0x00, 0x0c, 0x00, 0x00, 0x00, 0x00, 0x00, 0x06,
    0x00, 0x08, 0x00, 0x07, 0x00, 0x06, 0x00, 0x00, 0x00, 0x00, 0x00, 0x00, 0x01,
    0x01, 0x00, 0x00, 0x00, 0x07, 0x00, 0x00, 0x00, 0x03, 0x00, 0x00, 0x00, 0x06,
    0x00, 0x00, 0x00, 0x04, 0x00, 0x00, 0x00, 0x03, 0x00, 0x00, 0x00, 0x4c, 0xff,
    0xff, 0xff, 0x09, 0x00, 0x00, 0x00, 0x00, 0x00, 0x00, 0x09, 0x01, 0x00, 0x00,
    0x00, 0xc8, 0x9b, 0xff, 0xff, 0x14, 0x00, 0x00, 0x00, 0x08, 0x00, 0x00, 0x00,
    0x24, 0x00, 0x00, 0x00, 0x64, 0x00, 0x00, 0x00, 0x10, 0x00, 0x00, 0x00, 0x02,
    0x00, 0x00, 0x00, 0x01, 0x00, 0x00, 0x00, 0x10, 0x00, 0x00, 0x00, 0x02, 0x00,
    0x00, 0x00, 0xff, 0xff, 0xff, 0xff, 0x10, 0x00, 0x00, 0x00, 0x3d, 0x00, 0x00,
    0x00, 0x6d, 0x6f, 0x64, 0x65, 0x6c, 0x2f, 0x64, 0x65, 0x6e, 0x73, 0x65, 0x5f,
    0x35, 0x2f, 0x4d, 0x61, 0x74, 0x4d, 0x75, 0x6c, 0x3b, 0x6d, 0x6f, 0x64, 0x65,
    0x6c, 0x2f, 0x64, 0x65, 0x6e, 0x73, 0x65, 0x5f, 0x35, 0x2f, 0x52, 0x65, 0x6c,
    0x75, 0x3b, 0x6d, 0x6f, 0x64, 0x65, 0x6c, 0x2f, 0x64, 0x65, 0x6e, 0x73, 0x65,
    0x5f, 0x35, 0x2f, 0x42, 0x69, 0x61, 0x73, 0x41, 0x64, 0x64, 0x00, 0x00, 0x00,
    0xb0, 0x9c, 0xff, 0xff, 0x00, 0x00, 0x0a, 0x00, 0x0c, 0x00, 0x00, 0x00, 0x04,
    0x00, 0x08, 0x00, 0x0a, 0x00, 0x00, 0x00, 0x10, 0x00, 0x00, 0x00, 0x04, 0x00,
    0x00, 0x00, 0x01, 0x00, 0x00, 0x00, 0x06, 0x00, 0x00, 0x00, 0x02, 0x00, 0x00,
    0x00, 0x00, 0x00, 0x00, 0x00, 0x01, 0x00, 0x00, 0x00, 0x0c, 0x00, 0x10, 0x00,
    0x0b, 0x00, 0x00, 0x00, 0x0c, 0x00, 0x04, 0x00, 0x0c, 0x00, 0x00, 0x00, 0x16,
    0x00, 0x00, 0x00, 0x00, 0x00, 0x00, 0x16, 0x01, 0x00, 0x00, 0x00, 0x88, 0x9c,
    0xff, 0xff, 0x14, 0x00, 0x00, 0x00, 0x07, 0x00, 0x00, 0x00, 0x24, 0x00, 0x00,
    0x00, 0x3c, 0x00, 0x00, 0x00, 0x10, 0x00, 0x00, 0x00, 0x02, 0x00, 0x00, 0x00,
    0x01, 0x00, 0x00, 0x00, 0x80, 0x01, 0x00, 0x00, 0x02, 0x00, 0x00, 0x00, 0xff,
    0xff, 0xff, 0xff, 0x80, 0x01, 0x00, 0x00, 0x17, 0x00, 0x00, 0x00, 0x6d, 0x6f,
    0x64, 0x65, 0x6c, 0x2f, 0x66, 0x6c, 0x61, 0x74, 0x74, 0x65, 0x6e, 0x5f, 0x32,
    0x2f, 0x52, 0x65, 0x73, 0x68, 0x61, 0x70, 0x65, 0x00, 0x70, 0x9c, 0xff, 0xff,
    0x42, 0x9d, 0xff, 0xff, 0x04, 0x00, 0x00, 0x00, 0x00, 0x01, 0x00, 0x00, 0x25,
    0x63, 0x22, 0xbe, 0x51, 0x64, 0xdc, 0x3e, 0xd5, 0xaa, 0x49, 0x3f, 0xbe, 0xf2,
    0x2f, 0xbf, 0xf6, 0xe0, 0x3e, 0x3f, 0x88, 0x1c, 0xe2, 0xbe, 0x2a, 0xcd, 0x85,
    0xbf, 0x43, 0xcd, 0x81, 0xbf, 0xc6, 0x8d, 0x4b, 0xbd, 0x9b, 0x86, 0xc9, 0x3e,
    0x7b, 0x5e, 0x4f, 0x3f, 0xcc, 0x17, 0x19, 0xbf, 0x04, 0xd9, 0x52, 0x3f, 0x62,
    0x76, 0x83, 0xbe, 0x1b, 0xbd, 0xc3, 0xbe, 0x56, 0x5c, 0x21, 0xbf, 0x28, 0x05,
    0x99, 0x3f, 0x67, 0x28, 0x90, 0x3e, 0x49, 0xd5, 0x14, 0x3f, 0x91, 0xd1, 0x81,
    0x3f, 0x37, 0xf8, 0x20, 0xbd, 0x4b, 0x42, 0xc6, 0xbf, 0xf4, 0x6d, 0x85, 0x3f,
    0x75, 0x87, 0x51, 0x3f, 0xc1, 0xe2, 0x90, 0xbf, 0x58, 0x1d, 0xb8, 0x3f, 0xb7,
    0x93, 0x97, 0x3d, 0x6b, 0x3e, 0xb2, 0x3f, 0x08, 0x2e, 0x20, 0xbd, 0xec, 0xc8,
    0x85, 0x3f, 0x35, 0x6d, 0xc1, 0xbf, 0xe9, 0xef, 0x3f, 0x3f, 0x16, 0x93, 0x1d,
    0xc0, 0x3f, 0xa1, 0x0c, 0xbf, 0xcd, 0x21, 0x9b, 0xbf, 0x44, 0xdf, 0x2c, 0xc0,
    0x8d, 0xf0, 0x0f, 0xc0, 0xb1, 0xf3, 0x96, 0x3f, 0x39, 0x9c, 0xe4, 0xbe, 0x24,
    0x8f, 0x08, 0xc0, 0x9c, 0xff, 0x8b, 0x3f, 0x1b, 0xcc, 0x90, 0xbf, 0xc4, 0xee,
    0x31, 0xc0, 0xdb, 0xee, 0x1b, 0xbf, 0x1a, 0x01, 0x02, 0xc0, 0x8f, 0xbf, 0x72,
    0xbf, 0xcd, 0x6a, 0x1a, 0x3f, 0x26, 0x26, 0xd9, 0xbf, 0x95, 0x3c, 0x30, 0x3f,
    0x86, 0xfe, 0xd1, 0xbf, 0x35, 0x3a, 0xc9, 0xbf, 0xc3, 0x55, 0x84, 0x3f, 0x91,
    0x5c, 0x81, 0xbf, 0xf5, 0x7d, 0xee, 0x3c, 0xa3, 0x31, 0x54, 0xbf, 0xcf, 0x8f,
    0x98, 0x3f, 0xd4, 0x0d, 0x9f, 0xbe, 0xfc, 0xd1, 0x70, 0xbe, 0x0e, 0x82, 0x89,
    0x3e, 0x05, 0x14, 0xa7, 0xbe, 0xd0, 0x62, 0xab, 0xbf, 0x57, 0x43, 0xad, 0xbe,
    0x91, 0x1b, 0xc3, 0x3e, 0x4f, 0xa5, 0xb2, 0x3f, 0xb6, 0x9e, 0xff, 0xff, 0x10,
    0x00, 0x00, 0x00, 0x06, 0x00, 0x00, 0x00, 0x14, 0x00, 0x00, 0x00, 0x2c, 0x00,
    0x00, 0x00, 0x02, 0x00, 0x00, 0x00, 0x04, 0x00, 0x00, 0x00, 0x10, 0x00, 0x00,
    0x00, 0x14, 0x00, 0x00, 0x00, 0x6d, 0x6f, 0x64, 0x65, 0x6c, 0x2f, 0x64, 0x65,
    0x6e, 0x73, 0x65, 0x5f, 0x36, 0x2f, 0x4d, 0x61, 0x74, 0x4d, 0x75, 0x6c, 0x00,
    0x00, 0x00, 0x00, 0xbc, 0x9d, 0xff, 0xff, 0x8e, 0x9e, 0xff, 0xff, 0x04, 0x00,
    0x00, 0x00, 0x00, 0x60, 0x00, 0x00, 0x4b, 0x01, 0xf9, 0xbd, 0xe9, 0x13, 0x5f,
    0x3e, 0xaa, 0x98, 0x01, 0xbc, 0x7f, 0x08, 0x53, 0x3d, 0xf1, 0x30, 0xf6, 0x3a,
    0xcc, 0x12, 0x91, 0x3d, 0xfc, 0xaa, 0xaa, 0x3d, 0xfb, 0xf8, 0xa9, 0xbd, 0x6a,
    0x5c, 0xaf, 0xbd, 0x53, 0xdf, 0x42, 0xbe, 0x7f, 0x23, 0x07, 0x3e, 0x21, 0x52,
    0xb4, 0xbd, 0x35, 0xd4, 0x20, 0x3d, 0x1f, 0x98, 0xbf, 0x3c, 0x7d, 0x46, 0x67,
    0x3e, 0x4d, 0xa1, 0x3c, 0xbd, 0x9d, 0xa9, 0x3b, 0x3d, 0x9b, 0xeb, 0x73, 0x3d,
    0xcf, 0x49, 0xd8, 0xbd, 0x29, 0x9a, 0x56, 0x3d, 0x97, 0x25, 0xc1, 0xbd, 0xe1,
    0x84, 0x66, 0xbe, 0x63, 0x5e, 0xa5, 0x3d, 0x0f, 0x90, 0x48, 0xbe, 0xc4, 0x7c,
    0xa8, 0x3c, 0xe3, 0x7c, 0x6c, 0x3d, 0x8e, 0x47, 0x02, 0x3e, 0xe2, 0x38, 0x6f,
    0xbd, 0x3f, 0x0e, 0xd5, 0xbd, 0xd5, 0xb6, 0xab, 0x3d, 0x8d, 0x21, 0x2d, 0xbe,
    0x22, 0x7e, 0x05, 0xb9, 0xe2, 0x34, 0xb4, 0xbe, 0x9d, 0x11, 0x2b, 0x3e, 0x6a,
    0x24, 0x2c, 0xba, 0x1f, 0x12, 0xb9, 0xbd, 0xbd, 0x5c, 0x3b, 0x3e, 0xdd, 0x22,
    0xca, 0x3d, 0x7d, 0x5a, 0x81, 0x3d, 0xb3, 0xcc, 0xc2, 0x3d, 0x9c, 0xd4, 0x57,
    0xbe, 0x75, 0xc8, 0xb9, 0x3d, 0xa8, 0xbd, 0xad, 0xbe, 0x05, 0x2e, 0xf2, 0xbb,
    0x26, 0x0c, 0x6d, 0xbe, 0xf2, 0x62, 0x30, 0x3e, 0xc8, 0x73, 0x29, 0x3e, 0x46,
    0xef, 0x65, 0x3e, 0xcd, 0xfd, 0x83, 0x3e, 0x5e, 0x55, 0xad, 0xbe, 0xfc, 0xd9,
    0x79, 0xbd, 0x32, 0xb7, 0x1c, 0xbe, 0x8e, 0xc5, 0x5e, 0xbc, 0x9c, 0xf5, 0x94,
    0xbe, 0x92, 0xf1, 0xe6, 0x3d, 0x5d, 0x95, 0xbd, 0x3d, 0x8a, 0xab, 0x38, 0xbe,
    0x20, 0xb1, 0x88, 0x3e, 0x43, 0x5b, 0xac, 0xbd, 0x1c, 0x23, 0x90, 0xbd, 0xaf,
    0x81, 0x86, 0xbd, 0x3c, 0x5e, 0xde, 0xbc, 0xe5, 0xdb, 0x1c, 0xbe, 0x06, 0x91,
    0xed, 0x3d, 0x9e, 0x5e, 0x3d, 0xbe, 0xdb, 0xe5, 0xd3, 0xbd, 0x89, 0xdb, 0x3f,
    0x3e, 0x88, 0x04, 0x7d, 0x3d, 0x7e, 0xda, 0x78, 0xbd, 0xca, 0x19, 0x21, 0xbe,
    0x2a, 0x00, 0x05, 0xbe, 0x5d, 0x17, 0x1e, 0x3e, 0x7b, 0xdc, 0x38, 0xbe, 0x01,
    0x6a, 0x4c, 0x3e, 0x1c, 0xa9, 0x84, 0x3e, 0x0d, 0x06, 0x88, 0xbd, 0x45, 0xee,
    0x52, 0xbe, 0x2a, 0x76, 0x01, 0x3d, 0xb3, 0xe6, 0x20, 0x3e, 0x1c, 0x4d, 0x7c,
    0xbd, 0x8d, 0xa3, 0x64, 0x3d, 0xf6, 0x86, 0x01, 0xbe, 0x0b, 0xcb, 0x53, 0xbd,
    0x2a, 0x48, 0x63, 0xbe, 0x37, 0xb3, 0xc9, 0xbd, 0x93, 0x4e, 0x93, 0x3d, 0xbb,
    0xb4, 0x1f, 0xbe, 0xb8, 0x96, 0xb4, 0x3c, 0x0f, 0x03, 0x3d, 0x3e, 0x32, 0x32,
    0x7d, 0x3e, 0xfc, 0xbc, 0x36, 0xbe, 0x5d, 0xd9, 0x0d, 0x3e, 0x44, 0x42, 0x8b,
    0xbd, 0xb1, 0xe2, 0xfe, 0x3d, 0xe4, 0x52, 0x09, 0xbe, 0xbb, 0xb6, 0xd0, 0x3d,
    0x6d, 0x46, 0xfc, 0x3d, 0x1e, 0xee, 0xe8, 0x3d, 0x5c, 0xa1, 0x55, 0x3e, 0xd8,
    0x88, 0x80, 0x3c, 0x08, 0xf6, 0x0e, 0x3e, 0x31, 0xfb, 0x37, 0x3d, 0x4b, 0x29,
    0x84, 0xbe, 0xd4, 0xb6, 0xf8, 0x3b, 0x54, 0x49, 0x6d, 0xbd, 0x50, 0xb5, 0xce,
    0xbe, 0x56, 0x00, 0x0b, 0x3e, 0x6e, 0xec, 0x65, 0xbe, 0x6e, 0xec, 0x2e, 0x3e,
    0xa5, 0xb7, 0x1d, 0x3e, 0xa3, 0x64, 0x13, 0xbd, 0x25, 0xf5, 0x2e, 0x3d, 0xff,
    0xa3, 0x7b, 0xbd, 0x5d, 0xf4, 0x43, 0xbe, 0x89, 0x6c, 0x31, 0xbe, 0xb4, 0xda,
    0xf4, 0xbd, 0x98, 0x6d, 0xd3, 0xbd, 0x6d, 0x1c, 0x1c, 0x3d, 0x1a, 0x65, 0x59,
    0xbd, 0x86, 0xf5, 0x71, 0x3d, 0xc0, 0xf4, 0xac, 0x3e, 0xc0, 0xe5, 0x9a, 0xbe,
    0x2f, 0x4c, 0xf3, 0xbc, 0xf1, 0xeb, 0xdf, 0xbd, 0xfd, 0x76, 0x48, 0xbe, 0x04,
    0x2c, 0x62, 0xbd, 0xbe, 0xdd, 0x91, 0xbd, 0x94, 0xb5, 0xfd, 0xbc, 0x0d, 0x5f,
    0xff, 0xbc, 0xc2, 0x1e, 0xea, 0x3d, 0xaa, 0x27, 0x7a, 0x3e, 0xdf, 0x39, 0x96,
    0x3e, 0x2a, 0x90, 0x2d, 0x3d, 0x56, 0xa5, 0x5c, 0x3d, 0x74, 0x82, 0x96, 0x3d,
    0x0a, 0x7d, 0xa6, 0xbd, 0x60, 0x90, 0xa0, 0xbe, 0x9b, 0xbd, 0x45, 0x3d, 0x32,
    0xa0, 0x59, 0x3b, 0xf9, 0x39, 0xc4, 0xbd, 0x5e, 0x5b, 0x4e, 0xbe, 0x81, 0x70,
    0xa0, 0x3e, 0xc1, 0x0f, 0x42, 0x3d, 0xf3, 0x62, 0xf8, 0xbd, 0x4e, 0xdd, 0x6b,
    0xbe, 0x7e, 0xec, 0x19, 0xbe, 0xdb, 0x3a, 0x04, 0xbe, 0x45, 0x58, 0xc6, 0x3a,
    0x73, 0xaf, 0x06, 0x3d, 0xa5, 0x9b, 0xdd, 0xbd, 0xbc, 0xf4, 0x87, 0x3e, 0xcc,
    0x47, 0x00, 0xbe, 0x2b, 0x64, 0xe7, 0x3d, 0x19, 0xb3, 0x16, 0x3d, 0x5a, 0x3b,
    0x1a, 0xbc, 0x41, 0x57, 0x62, 0x3e, 0x33, 0xda, 0xf4, 0xbe, 0xac, 0x9d, 0x1c,
    0x3e, 0xbe, 0x98, 0x0a, 0x3e, 0x27, 0xf5, 0x1d, 0x3e, 0xa1, 0x09, 0xb6, 0x3d,
    0x48, 0x2f, 0x8f, 0x3e, 0x37, 0xc8, 0x0a, 0x3d, 0xe6, 0x74, 0xec, 0xbd, 0xbd,
    0x4c, 0xbc, 0x3e, 0x2a, 0x70, 0x59, 0xbe, 0xee, 0xf7, 0x92, 0xbd, 0x0d, 0xb6,
    0x38, 0xbe, 0xfb, 0xd3, 0x49, 0xbe, 0x8d, 0x25, 0x7a, 0x3e, 0x42, 0xd6, 0xe2,
    0xbd, 0x3b, 0xb9, 0x5f, 0x3e, 0x8f, 0x28, 0xaf, 0x3d, 0xfe, 0x8d, 0xcc, 0x3d,
    0xc5, 0xa2, 0xa5, 0xb9, 0x7d, 0xcb, 0x60, 0xbe, 0xc4, 0x48, 0x2b, 0xbe, 0x9b,
    0x84, 0xb1, 0xbe, 0x8c, 0xb1, 0x27, 0xbd, 0x92, 0xac, 0x08, 0xbe, 0xd2, 0x9a,
    0x71, 0x3e, 0x09, 0x42, 0x6d, 0x3e, 0xa8, 0x89, 0x5b, 0xbe, 0x31, 0x6f, 0x69,
    0x3d, 0xe0, 0x31, 0x92, 0xbd, 0xd4, 0xa0, 0x00, 0xbe, 0x2d, 0x76, 0xfb, 0xbe,
    0xc9, 0x08, 0xce, 0x3d, 0x11, 0xf9, 0x13, 0xbe, 0x99, 0x9b, 0xfa, 0x3d, 0x9b,
    0x49, 0xa3, 0xbd, 0x1d, 0xe5, 0x4c, 0x3c, 0xbc, 0xb1, 0xff, 0x3e, 0xbc, 0xa7,
    0x79, 0x3e, 0xc0, 0xf2, 0xa3, 0x3e, 0xec, 0x59, 0xf9, 0xbd, 0x18, 0x66, 0x46,
    0xbe, 0x77, 0x4d, 0xf6, 0xbd, 0xa1, 0x07, 0xbd, 0xbe, 0xb8, 0xa5, 0x63, 0x3e,
    0x55, 0x6b, 0x3c, 0xbe, 0xfb, 0x47, 0x73, 0x3e, 0x1f, 0x69, 0xbc, 0x3e, 0x24,
    0xac, 0x9a, 0xbd, 0x1e, 0xff, 0xd5, 0x3d, 0xf2, 0x87, 0x5a, 0xbe, 0xaa, 0xca,
    0x2b, 0xbe, 0x2f, 0xf7, 0xd9, 0xbe, 0x97, 0x0e, 0x42, 0x3d, 0xbd, 0x45, 0x80,
    0xbe, 0x7e, 0xb4, 0x57, 0x3e, 0x93, 0xb8, 0xed, 0xbd, 0x1e, 0x4a, 0x58, 0xbe,
    0x55, 0xd8, 0xab, 0x3e, 0xab, 0x17, 0xa7, 0xbc, 0xc4, 0x24, 0x64, 0xbd, 0x6e,
    0xb8, 0x45, 0xbe, 0xc5, 0xe3, 0x32, 0xbe, 0x94, 0x34, 0xee, 0xbe, 0xd1, 0xcf,
    0x0c, 0x3d, 0x4a, 0x61, 0xee, 0x3c, 0x2d, 0xad, 0xc9, 0xbe, 0x3e, 0x9c, 0x90,
    0x3e, 0x67, 0xc6, 0xa1, 0xbe, 0x90, 0x56, 0xb2, 0xbe, 0xed, 0x86, 0x4d, 0x3c,
    0xff, 0x58, 0x0b, 0xbe, 0xaf, 0x57, 0x81, 0xbe, 0x56, 0x4b, 0xa3, 0xbe, 0x7f,
    0x12, 0x17, 0xbe, 0x0f, 0x24, 0x7f, 0xbe, 0x34, 0x94, 0xd2, 0x3c, 0x38, 0x92,
    0x54, 0x3e, 0xcf, 0xe8, 0x24, 0xbe, 0xab, 0xcd, 0x04, 0x3e, 0xb0, 0x81, 0x60,
    0xbd, 0xf7, 0x93, 0xaa, 0xbd, 0x51, 0xc3, 0x2f, 0xbe, 0xff, 0xdb, 0x58, 0xbe,
    0x8a, 0xb1, 0xcf, 0xbe, 0xf4, 0xa6, 0xce, 0x3d, 0x23, 0x24, 0x14, 0xbe, 0xa5,
    0x62, 0x10, 0xbe, 0x67, 0xa6, 0xb2, 0x3d, 0x9d, 0x63, 0x3b, 0x3e, 0x5f, 0xa0,
    0xfb, 0x3b, 0x2d, 0x43, 0x1e, 0xbe, 0x52, 0xd6, 0x11, 0xbe, 0xeb, 0x21, 0x98,
    0x3d, 0x81, 0xc4, 0x04, 0xbe, 0x49, 0x55, 0x31, 0xbe, 0xa4, 0x24, 0x39, 0x3e,
    0x1d, 0x56, 0x5b, 0x3e, 0x36, 0x0f, 0x4a, 0xbe, 0xec, 0x1c, 0x88, 0x3c, 0x5a,
    0x9a, 0x2a, 0x3e, 0xd7, 0x30, 0x09, 0xbe, 0x89, 0x44, 0x52, 0xbe, 0x34, 0x35,
    0x19, 0xbe, 0x69, 0x8a, 0x8a, 0xbd, 0x2a, 0x07, 0x3d, 0x3d, 0xf3, 0x73, 0x76,
    0xbd, 0xb5, 0x90, 0x07, 0x3e, 0xeb, 0x94, 0x1d, 0x3c, 0xd0, 0xd9, 0x53, 0x3e,
    0xb3, 0x38, 0x85, 0xbe, 0x74, 0x4a, 0x60, 0x3e, 0x67, 0xd9, 0x0a, 0xbe, 0x4f,
    0xfe, 0xd6, 0x3c, 0x4b, 0x4b, 0x0c, 0xbe, 0xfc, 0x76, 0xa3, 0xbe, 0x09, 0xbc,
    0x10, 0xbd, 0xc1, 0x70, 0x1c, 0xbd, 0xfd, 0xc6, 0x5f, 0xbd, 0xda, 0x53, 0x92,
    0x3e, 0xef, 0xf9, 0x46, 0x3e, 0x84, 0x8b, 0x3e, 0xbe, 0xea, 0x00, 0x9c, 0x3c,
    0xda, 0x49, 0xd8, 0xbd, 0x19, 0x43, 0x03, 0xbd, 0x56, 0xb6, 0xcc, 0xbd, 0x22,
    0x20, 0x70, 0x3e, 0x3f, 0xcf, 0xe7, 0x3c, 0xb6, 0x92, 0x3e, 0x3e, 0x49, 0xe2,
    0xc2, 0xbd, 0x69, 0x83, 0xb1, 0x3b, 0x49, 0x86, 0xfe, 0x3d, 0x21, 0x78, 0xbd,
    0x3d, 0xeb, 0x00, 0xc3, 0x3d, 0x78, 0x1c, 0xda, 0x3d, 0xcc, 0xfe, 0xb5, 0x3e,
    0x7c, 0x35, 0xa7, 0xbd, 0x20, 0x45, 0x2a, 0x3d, 0xcc, 0x6a, 0x5f, 0x3e, 0x98,
    0x03, 0xdc, 0xbd, 0x66, 0x0f, 0x17, 0x3d, 0x83, 0x01, 0x84, 0x3d, 0x1e, 0x95,
    0x2e, 0x3e, 0x97, 0x6f, 0x09, 0x3e, 0xec, 0x8b, 0x32, 0x3e, 0xa2, 0x46, 0x6c,
    0xbe, 0x9c, 0xca, 0x6f, 0x3e, 0x3d, 0xcc, 0x87, 0x3e, 0xc1, 0xbb, 0x8a, 0xbe,
    0xb5, 0x1c, 0x47, 0x3e, 0x43, 0x14, 0x1f, 0x3e, 0xfe, 0x18, 0x89, 0x3e, 0x91,
    0x00, 0xb3, 0xbd, 0x4f, 0x71, 0x3b, 0x3e, 0x53, 0xea, 0x38, 0xbe, 0x92, 0x6f,
    0x82, 0xbd, 0xa3, 0x71, 0x47, 0x3e, 0xd6, 0x5b, 0x78, 0xbd, 0xcc, 0x2e, 0x29,
    0xbe, 0xbd, 0x14, 0x56, 0xbd, 0x4c, 0x75, 0x99, 0x39, 0xd3, 0x72, 0x78, 0xbd,
    0x0c, 0x0d, 0xc3, 0x3c, 0xa9, 0xc5, 0x8d, 0xbc, 0x7f, 0xee, 0x8d, 0xbe, 0x3b,
    0x86, 0x01, 0x3d, 0x9d, 0x71, 0x7e, 0xbd, 0x53, 0x4f, 0xf2, 0x3c, 0xf7, 0x72,
    0x02, 0xbe, 0xe4, 0xee, 0xbd, 0xbd, 0x57, 0xa4, 0x53, 0x3d, 0xe6, 0xbb, 0x0c,
    0xbd, 0x0f, 0x11, 0x5d, 0x3e, 0xa9, 0xa4, 0xe0, 0xbd, 0x24, 0xcd, 0xf1, 0x3c,
    0x02, 0x5e, 0x79, 0xbd, 0x93, 0x79, 0x6a, 0xbd, 0xbc, 0x59, 0xc4, 0xbd, 0x1b,
    0x49, 0x3e, 0xbe, 0x89, 0xb2, 0x7f, 0x3e, 0x5b, 0xe9, 0x81, 0xbb, 0x79, 0xb2,
    0x1c, 0x3e, 0x77, 0x1d, 0x0e, 0x3e, 0x57, 0x1e, 0xf0, 0xbd, 0x2e, 0xab, 0xd5,
    0x3a, 0x9b, 0x45, 0xda, 0xbd, 0xfc, 0x0c, 0xa4, 0x3d, 0xeb, 0x02, 0x0f, 0xbe,
    0x33, 0xe7, 0x1a, 0xbe, 0x07, 0x84, 0xcc, 0xbe, 0x64, 0xb6, 0x44, 0x3b, 0x37,
    0x21, 0xa2, 0xbd, 0xb5, 0x53, 0x3f, 0xbe, 0x40, 0xcd, 0xd4, 0xbd, 0x8f, 0x1a,
    0x98, 0x3e, 0x3b, 0x35, 0x2c, 0xbc, 0x8b, 0xdf, 0x1d, 0xbd, 0x6d, 0x44, 0x0e,
    0xbe, 0x3f, 0xb7, 0x4a, 0xbd, 0x19, 0xb5, 0x4d, 0xbe, 0x85, 0x28, 0x5e, 0xbd,
    0x6f, 0x73, 0xef, 0xbd, 0x19, 0x5c, 0x53, 0x3e, 0x0b, 0xf0, 0xc3, 0xbd, 0x97,
    0x47, 0x0e, 0xbe, 0x70, 0x6d, 0x63, 0x3e, 0x77, 0x9d, 0x0c, 0xbe, 0xc2, 0xef,
    0x88, 0xbe, 0x9c, 0xfd, 0x17, 0xbe, 0x22, 0x71, 0x92, 0xbe, 0xf8, 0x82, 0xf0,
    0xbe, 0xa3, 0x76, 0x04, 0xbe, 0xf7, 0x80, 0x86, 0x3d, 0x05, 0x6c, 0x98, 0xbe,
    0x93, 0x6b, 0xc4, 0x3e, 0x53, 0x62, 0x1d, 0xbe, 0x34, 0xde, 0xa6, 0xbe, 0x97,
    0x34, 0x5f, 0x3e, 0x85, 0xa1, 0x69, 0xbd, 0x5c, 0x45, 0x96, 0xbe, 0x1a, 0xbc,
    0x45, 0xbe, 0x36, 0x5e, 0x09, 0x3b, 0x28, 0x96, 0x38, 0xbe, 0x25, 0x3d, 0x1b,
    0x3b, 0x76, 0xd0, 0x47, 0x3d, 0xc2, 0xdd, 0x9b, 0xbd, 0xbe, 0x77, 0x86, 0x3e,
    0xdb, 0x7a, 0x64, 0xbe, 0x63, 0xf4, 0x0b, 0xbe, 0xc4, 0xb7, 0xc3, 0x3b, 0x31,
    0x63, 0x8a, 0x3c, 0x2c, 0xdd, 0x6b, 0x39, 0x68, 0x1b, 0x79, 0xbc, 0xa3, 0xe6,
    0xf3, 0x3d, 0x73, 0xff, 0xa7, 0x3d, 0x96, 0x09, 0x89, 0xbd, 0x51, 0x4c, 0x9e,
    0x3d, 0x56, 0xb9, 0x94, 0xbd, 0x09, 0xc3, 0xa8, 0x3d, 0x64, 0xbc, 0x05, 0x39,
    0xaf, 0x30, 0x62, 0xbe, 0x8c, 0x35, 0x30, 0x3d, 0xbf, 0x6a, 0x7f, 0xbd, 0x57,
    0xfb, 0xe4, 0xbd, 0x1e, 0xa0, 0xab, 0x3d, 0x14, 0x34, 0x26, 0x3d, 0x4d, 0x1f,
    0x82, 0x3d, 0x6a, 0x81, 0x9a, 0xbd, 0x56, 0xa4, 0xe1, 0x3d, 0xe2, 0x5d, 0xfd,
    0x3c, 0xd9, 0xc2, 0x45, 0xbe, 0x48, 0x54, 0x8b, 0x3d, 0x1e, 0x84, 0xb7, 0xbd,
    0x44, 0x43, 0x15, 0xbe, 0x7c, 0x81, 0x12, 0xbe, 0x44, 0x41, 0xfb, 0x3c, 0x13,
    0xca, 0x99, 0x3d, 0xbc, 0xf3, 0x21, 0xbe, 0xb1, 0xcd, 0xa4, 0x3d, 0x22, 0x51,
    0xf4, 0x3d, 0x28, 0xa1, 0xfc, 0x3c, 0xb2, 0xa5, 0xbd, 0xbd, 0x9c, 0x2b, 0xa7,
    0xbd, 0x8e, 0xcc, 0x08, 0x3e, 0x8c, 0xaa, 0xcc, 0xbd, 0x8a, 0xf2, 0x4e, 0xbe,
    0xb1, 0x04, 0xd3, 0xbd, 0x27, 0xb5, 0x92, 0xbd, 0x01, 0x9e, 0x1e, 0x3e, 0x16,
    0xe2, 0xa0, 0xbd, 0xdf, 0x1b, 0x16, 0x3e, 0xce, 0x7d, 0x16, 0x3e, 0xb6, 0x9b,
    0x03, 0x3e, 0x81, 0xf7, 0x1a, 0x3d, 0x03, 0xd9, 0xf5, 0xbd, 0xae, 0xee, 0x30,
    0x3d, 0xe1, 0x25, 0x94, 0xbd, 0xf9, 0xee, 0x05, 0xbc, 0x83, 0x6e, 0xfb, 0xbd,
    0xbb, 0x94, 0x8a, 0xbd, 0xae, 0x77, 0x9f, 0x3e, 0xcb, 0x5d, 0xa0, 0x3d, 0xf0,
    0x26, 0xba, 0x3d, 0xd6, 0x7a, 0xe8, 0x3d, 0x99, 0x25, 0xcb, 0x3d, 0x5d, 0x18,
    0xd1, 0xbb, 0x62, 0x34, 0x72, 0xbd, 0x13, 0xa8, 0x84, 0x3d, 0x24, 0xe6, 0xc8,
    0xbd, 0x63, 0x47, 0xdd, 0x3d, 0x1b, 0x3d, 0x23, 0xbe, 0x24, 0xd0, 0x32, 0xbd,
    0xe9, 0xf7, 0x1b, 0x3e, 0xa9, 0x9b, 0xe6, 0xbd, 0x42, 0x2f, 0x86, 0x3d, 0xec,
    0x62, 0x96, 0x3b, 0x45, 0xfc, 0xb3, 0x3d, 0x9d, 0xe4, 0xe0, 0x3d, 0x01, 0x41,
    0xef, 0x3c, 0x55, 0xef, 0x0a, 0xbd, 0x6c, 0x9c, 0xb0, 0x3d, 0x66, 0xad, 0x9e,
    0xbd, 0x74, 0x26, 0x15, 0x3d, 0x2e, 0xd2, 0x2f, 0x3e, 0x05, 0x27, 0x8a, 0x3c,
    0x08, 0xe3, 0x84, 0xbd, 0xdf, 0x40, 0x23, 0x3e, 0x15, 0xba, 0x74, 0x3d, 0xdc,
    0xf6, 0xee, 0x3c, 0xa6, 0x1d, 0x12, 0x3e, 0x0a, 0x28, 0x09, 0x3e, 0x9e, 0x1d,
    0x80, 0xbd, 0x34, 0x13, 0x05, 0xbe, 0x69, 0x8d, 0x33, 0xbe, 0x1d, 0x6f, 0xa1,
    0x3d, 0x26, 0xc1, 0x4a, 0xbc, 0xc7, 0x3e, 0xd1, 0xbd, 0xc1, 0xb6, 0xab, 0x3d,
    0x4f, 0xdf, 0x1a, 0x3e, 0x4b, 0x3e, 0xee, 0xbd, 0xd1, 0x82, 0xf6, 0x3c, 0x9e,
    0xfb, 0x39, 0x3d, 0xf6, 0xaa, 0x07, 0x3d, 0x9d, 0x30, 0xcc, 0x3d, 0xa9, 0x18,
    0x65, 0xbd, 0xa8, 0xe5, 0x19, 0x3d, 0x0a, 0x4a, 0x62, 0x3d, 0xff, 0x25, 0x90,
    0x3d, 0x2b, 0x5f, 0xbe, 0x3d, 0xa4, 0xa8, 0x37, 0xbb, 0x6d, 0xf7, 0xda, 0xba,
    0xa2, 0xf1, 0x93, 0x3d, 0x3d, 0xe6, 0x5d, 0x3d, 0x71, 0xeb, 0xd2, 0xbc, 0x82,
    0x10, 0xb6, 0xbd, 0x1a, 0x48, 0xb0, 0xbc, 0x19, 0xf1, 0x22, 0x3e, 0x88, 0x15,
    0x04, 0x3e, 0xa6, 0x6a, 0x8a, 0x3d, 0x12, 0x83, 0xaf, 0x3d, 0x59, 0xdd, 0x04,
    0x3c, 0x01, 0x5e, 0xa1, 0x3c, 0x4d, 0xd9, 0x32, 0x3d, 0x44, 0xe3, 0x13, 0xbd,
    0xa5, 0x64, 0x58, 0xbd, 0xd4, 0x3a, 0xb8, 0xbd, 0x5c, 0x2d, 0xc6, 0xbd, 0xe4,
    0xde, 0x4d, 0x3d, 0x22, 0xca, 0x87, 0x3d, 0x33, 0xbb, 0xb0, 0x3d, 0x2e, 0xf7,
    0x80, 0xbd, 0x43, 0xd6, 0xc3, 0x3d, 0xac, 0x88, 0xba, 0x3d, 0xf4, 0xbd, 0x33,
    0x3e, 0xf9, 0x5c, 0xd2, 0x3d, 0xd8, 0xc3, 0x1c, 0xbd, 0xf3, 0x48, 0xe3, 0x3d,
    0xb9, 0x6c, 0x0c, 0xbe, 0xda, 0x8f, 0x02, 0xbe, 0xd9, 0x0c, 0xb4, 0x3c, 0xca,
    0x6c, 0x04, 0xbe, 0x4b, 0x7a, 0xff, 0xbd, 0x4d, 0x7f, 0x8c, 0x3c, 0xcd, 0x92,
    0xa1, 0x3d, 0x75, 0x4f, 0xd7, 0xbc, 0x69, 0xaa, 0xcb, 0x3d, 0x1f, 0x5a, 0xbc,
    0x3d, 0x60, 0x5a, 0x57, 0x3d, 0x9d, 0x30, 0x80, 0x3c, 0xc0, 0x55, 0xa9, 0xbd,
    0x1e, 0xf9, 0xf3, 0xbd, 0x65, 0xe1, 0x14, 0xbd, 0x31, 0xec, 0xc1, 0xbd, 0x8d,
    0x75, 0x8c, 0xbd, 0x94, 0x91, 0x5b, 0x3e, 0x33, 0x21, 0xac, 0x3d, 0x10, 0xc4,
    0xbc, 0x3b, 0x26, 0x53, 0x23, 0x3e, 0xda, 0x62, 0x6b, 0x3d, 0xcb, 0x3f, 0x38,
    0xbe, 0x77, 0x66, 0x88, 0xbd, 0xa9, 0x05, 0x8e, 0x3c, 0x4c, 0x02, 0x73, 0xbc,
    0x00, 0x42, 0xda, 0xbd, 0x4d, 0xde, 0x07, 0xbd, 0x75, 0x7d, 0x8b, 0x3c, 0x11,
    0xb1, 0x9c, 0xbb, 0x8a, 0xfa, 0xcb, 0x3c, 0xb8, 0xeb, 0xdd, 0x3c, 0x7c, 0xca,
    0x13, 0x3d, 0x8b, 0x4a, 0x53, 0x3d, 0xf6, 0x7e, 0x5a, 0xbe, 0x1d, 0x79, 0xe9,
    0x3d, 0x4e, 0x1e, 0x1f, 0x3d, 0xf1, 0xfd, 0x4b, 0xbd, 0xb9, 0xfe, 0xba, 0x3c,
    0x0d, 0x2b, 0xd9, 0xbc, 0x3b, 0x40, 0x03, 0xbd, 0x38, 0xef, 0x4e, 0xbe, 0x6b,
    0x6f, 0x16, 0x3e, 0xa4, 0x99, 0x48, 0x3e, 0x61, 0x56, 0x17, 0x3d, 0xfa, 0x81,
    0xcc, 0x3d, 0x33, 0xb3, 0x31, 0x3d, 0xc0, 0x0f, 0x48, 0xbc, 0x35, 0x10, 0x0c,
    0xbd, 0x21, 0xe8, 0xc2, 0x3d, 0x86, 0xe7, 0x85, 0x3d, 0xfa, 0x87, 0x2d, 0xbd,
    0xa0, 0xcd, 0x61, 0xbc, 0x1b, 0xa7, 0x95, 0x3c, 0xf9, 0x16, 0x73, 0x3d, 0x45,
    0x80, 0xa7, 0x3d, 0xd6, 0x74, 0x9d, 0xbd, 0xce, 0x5a, 0xd1, 0xbc, 0x06, 0xde,
    0x96, 0xbd, 0x1c, 0xb0, 0x13, 0xbc, 0x8f, 0x7b, 0x6c, 0x3d, 0x4c, 0x7f, 0x9d,
    0x3d, 0x1f, 0xc8, 0x2e, 0xbd, 0x1d, 0x8c, 0x08, 0x3e, 0xb8, 0xf2, 0x75, 0x3d,
    0x2e, 0x0a, 0x66, 0xbc, 0x8f, 0xfe, 0x1b, 0xbc, 0x8b, 0x18, 0x8e, 0xbd, 0x8d,
    0x95, 0xfe, 0xbd, 0xd1, 0x82, 0x73, 0x3c, 0x0c, 0x53, 0x11, 0xbd, 0x69, 0x9b,
    0x03, 0xbe, 0x7c, 0xa3, 0x5d, 0x3d, 0xfb, 0xd9, 0xe6, 0x3d, 0xa5, 0xbb, 0x0a,
    0x3e, 0x9d, 0x2b, 0xd2, 0x3d, 0x2f, 0x78, 0xf2, 0xbd, 0x51, 0xc8, 0xeb, 0xbc,
    0x91, 0xa8, 0x53, 0x3d, 0x96, 0xde, 0x10, 0xbe, 0x89, 0xbd, 0x07, 0xbe, 0x6a,
    0x51, 0x39, 0xbd, 0x12, 0x4f, 0xb4, 0xbc, 0x07, 0x60, 0x47, 0xbe, 0x96, 0xc9,
    0xd0, 0xbb, 0x54, 0xa6, 0xd0, 0x3d, 0x22, 0xe7, 0xd6, 0x3d, 0xde, 0x0f, 0x20,
    0x3e, 0x46, 0x32, 0xb1, 0x3d, 0xd2, 0x4c, 0xab, 0x3d, 0xc7, 0x94, 0x76, 0x3d,
    0x61, 0xe1, 0xdc, 0xbc, 0x75, 0x65, 0xa5, 0xbd, 0x4c, 0x7c, 0x38, 0xbe, 0x84,
    0x4d, 0x8d, 0x3c, 0xd0, 0x30, 0xdb, 0xbd, 0x16, 0x6a, 0xa3, 0xbc, 0x96, 0x84,
    0x43, 0x3e, 0x0d, 0x9a, 0x7e, 0x3d, 0x90, 0xfc, 0x3a, 0x3e, 0xb5, 0x0b, 0x42,
    0xbd, 0xa4, 0xbf, 0x15, 0x3e, 0xc6, 0x51, 0xba, 0xbd, 0xe2, 0x52, 0x26, 0x3d,
    0x0a, 0xdc, 0x03, 0x3d, 0xf4, 0x0c, 0x07, 0xbe, 0x8b, 0xf3, 0x29, 0xbd, 0x4e,
    0xea, 0x93, 0xbd, 0xc7, 0x08, 0x13, 0xbc, 0x3b, 0x83, 0x1f, 0x3e, 0xb6, 0x09,
    0xb5, 0xbd, 0xcc, 0x87, 0x10, 0x3e, 0x70, 0x0b, 0x1c, 0x3e, 0x01, 0xe6, 0x3c,
    0x3e, 0x5d, 0x00, 0x16, 0x3e, 0xbb, 0x9f, 0xcb, 0xbd, 0xaa, 0xd9, 0xad, 0x3c,
    0x81, 0xcd, 0x56, 0xbe, 0x0e, 0x96, 0xa8, 0xbd, 0x27, 0xb5, 0x30, 0xbe, 0xaf,
    0x29, 0x09, 0xbe, 0xe6, 0x2c, 0x7e, 0x3e, 0xd9, 0xc6, 0x28, 0xbd, 0xd3, 0xa5,
    0x24, 0x3e, 0x05, 0x3a, 0x2b, 0x3d, 0x07, 0xd5, 0x4a, 0x3e, 0x72, 0x6d, 0xe2,
    0x3d, 0xab, 0x3d, 0xb7, 0xbd, 0x48, 0x1b, 0xd9, 0x3d, 0x19, 0xe7, 0xbe, 0xbd,
    0x17, 0x2c, 0xdd, 0x3b, 0xb4, 0x2e, 0x3c, 0xbe, 0x38, 0x2f, 0x27, 0xbe, 0xe7,
    0xa9, 0x64, 0x3e, 0x13, 0x3f, 0x0d, 0xbd, 0x8c, 0xd7, 0x0e, 0x3e, 0x9d, 0x22,
    0x4f, 0x3e, 0x4d, 0xc0, 0x8e, 0x3d, 0xe6, 0x98, 0x49, 0x3e, 0xf6, 0x71, 0x55,
    0xbe, 0x58, 0x22, 0xa9, 0xbc, 0xa9, 0x87, 0xb7, 0xbd, 0xb3, 0x63, 0x28, 0xbe,
    0x58, 0x9a, 0x55, 0xbd, 0xa0, 0x1a, 0x67, 0xbe, 0x7e, 0x6d, 0xda, 0xbd, 0x4e,
    0x38, 0x2b, 0x3b, 0xb1, 0x20, 0x0b, 0x3e, 0xb3, 0xd1, 0x63, 0x3e, 0x75, 0x93,
    0xdd, 0x3d, 0x03, 0x5e, 0x71, 0x3e, 0xe9, 0xb0, 0x43, 0x3d, 0x50, 0x54, 0x7c,
    0x3c, 0x29, 0x6c, 0x8a, 0x3c, 0x83, 0x9f, 0x8a, 0xbd, 0xaf, 0xc6, 0xdd, 0x3b,
    0x34, 0x61, 0x50, 0xbe, 0xd1, 0xa6, 0x16, 0xbe, 0x78, 0xdf, 0x57, 0xbc, 0xb8,
    0xbc, 0x87, 0x3c, 0x55, 0x76, 0xee, 0x3d, 0x66, 0xeb, 0x79, 0x3c, 0x92, 0x0e,
    0x9c, 0x3e, 0xe6, 0x87, 0x47, 0xbd, 0x6d, 0xbd, 0x47, 0x3d, 0x66, 0x02, 0x15,
    0xbc, 0xec, 0x4b, 0xd6, 0xbd, 0x45, 0x6d, 0x46, 0x3c, 0x5f, 0xc0, 0x4f, 0xbe,
    0x5b, 0xd1, 0xad, 0xbd, 0xfa, 0x19, 0xa0, 0xbd, 0xaf, 0x5f, 0x1f, 0xbe, 0x9c,
    0x15, 0x23, 0x3e, 0x55, 0x67, 0x79, 0x3d, 0x15, 0x07, 0x9e, 0x3e, 0x70, 0x58,
    0xf9, 0x3d, 0x32, 0x04, 0xdc, 0x3d, 0x6f, 0x43, 0x86, 0x3e, 0x7b, 0xa9, 0xc6,
    0xbc, 0x9b, 0x98, 0x12, 0x3d, 0xf4, 0xee, 0x9d, 0xbe, 0x35, 0x38, 0x38, 0xbe,
    0xee, 0x36, 0x3c, 0xbe, 0x29, 0xff, 0x91, 0xbe, 0x46, 0x4f, 0xfb, 0xba, 0xc2,
    0x85, 0x72, 0xbd, 0x5a, 0xc4, 0x09, 0x3e, 0xda, 0x2f, 0x2d, 0x3d, 0xf9, 0x99,
    0x64, 0x3e, 0x89, 0xa5, 0x94, 0x3e, 0x64, 0x0b, 0x58, 0xbe, 0x02, 0xaa, 0x36,
    0x3d, 0xe3, 0xb7, 0x55, 0xbd, 0x8d, 0xf4, 0x2b, 0xbe, 0xa7, 0x0a, 0xa4, 0xbd,
    0xf0, 0xb0, 0x31, 0xbe, 0x36, 0xed, 0x1e, 0x3e, 0x81, 0x65, 0x47, 0xbe, 0xe6,
    0x43, 0x84, 0x3d, 0x90, 0x0a, 0x92, 0x3e, 0x49, 0x66, 0x85, 0x3e, 0x32, 0x28,
    0xf8, 0x3d, 0x84, 0xdb, 0xa0, 0xbd, 0x61, 0x9d, 0x1f, 0x3e, 0xc9, 0x4f, 0x23,
    0xbd, 0xbd, 0x10, 0x1f, 0xbe, 0x3c, 0x15, 0x66, 0xbe, 0xff, 0x33, 0x11, 0xbe,
    0xc4, 0xca, 0xab, 0x3d, 0x14, 0x24, 0x4c, 0xbe, 0xfe, 0xed, 0x98, 0x3d, 0x55,
    0x4c, 0xbf, 0x3d, 0x9f, 0x2e, 0x5e, 0x3b, 0xc7, 0xf1, 0x7d, 0x3e, 0x1a, 0x0c,
    0x04, 0xbe, 0xb5, 0xca, 0x5f, 0x3e, 0xc1, 0x01, 0x0c, 0xbd, 0x01, 0xae, 0xfe,
    0xbd, 0x40, 0x9d, 0x32, 0xbd, 0x1d, 0x4a, 0x41, 0xbe, 0x65, 0x1b, 0xfb, 0xbc,
    0x5c, 0x4f, 0x45, 0xbe, 0xc1, 0xcd, 0x6e, 0xbd, 0xae, 0xc1, 0x96, 0x3e, 0xf1,
    0x90, 0x68, 0xbd, 0x4c, 0xda, 0x51, 0x3e, 0x45, 0x1f, 0xbb, 0xbd, 0x88, 0xe5,
    0x32, 0x3d, 0xa1, 0x8d, 0x8a, 0x3d, 0xfb, 0x0b, 0xa4, 0xbe, 0xea, 0xe4, 0x30,
    0x3e, 0x93, 0xe9, 0xff, 0xbd, 0x55, 0x8f, 0xcd, 0xbd, 0x2f, 0x76, 0x77, 0xbd,
    0x32, 0x91, 0xca, 0xbc, 0xee, 0x6f, 0x65, 0x3e, 0xd7, 0xe3, 0x02, 0xbe, 0x48,
    0x9e, 0x0b, 0x3e, 0xa4, 0x23, 0x64, 0x3d, 0x86, 0xbd, 0x15, 0x3e, 0x41, 0x39,
    0x4e, 0x3d, 0x1c, 0xbb, 0x59, 0xbe, 0x91, 0x46, 0xd5, 0x3d, 0x52, 0xe0, 0xeb,
    0xbd, 0x8c, 0x0d, 0x1b, 0xbc, 0xb6, 0xbd, 0x1b, 0xbd, 0x0e, 0x15, 0xbc, 0xbd,
    0xe2, 0xd2, 0x20, 0x3e, 0xc7, 0x25, 0x99, 0x3d, 0xd9, 0x34, 0x79, 0x3e, 0xb3,
    0xfa, 0xe4, 0x3d, 0xf4, 0xdb, 0xf0, 0x3d, 0x88, 0x1e, 0x42, 0x3e, 0xf6, 0xcd,
    0x8c, 0x3d, 0xaa, 0xa8, 0x09, 0xbd, 0xe2, 0x62, 0xfa, 0xbd, 0x8d, 0xbb, 0x93,
    0xbd, 0x09, 0x8f, 0xb7, 0x3d, 0x95, 0x27, 0x91, 0xbd, 0x49, 0x6f, 0xc8, 0x3c,
    0x97, 0x61, 0x64, 0xbc, 0x8a, 0xe7, 0xa0, 0xbd, 0x1f, 0xb4, 0xf3, 0xbc, 0xc5,
    0x00, 0x0b, 0xbe, 0x9b, 0x1b, 0x5f, 0xbd, 0xde, 0x9f, 0x05, 0x3d, 0xf1, 0x7d,
    0xc2, 0x3d, 0x69, 0xa2, 0x63, 0x3d, 0xb3, 0x20, 0xcf, 0xbd, 0xf0, 0x8e, 0xf0,
    0x3d, 0xc2, 0xc7, 0x61, 0x3d, 0xcb, 0xaf, 0x8d, 0xbd, 0x18, 0xb4, 0x18, 0xbd,
    0x5d, 0xe2, 0x2a, 0xbe, 0xae, 0x55, 0x96, 0xba, 0x30, 0xf8, 0x1f, 0xbc, 0xd9,
    0x47, 0xd2, 0xbd, 0x4a, 0x47, 0xd5, 0x3d, 0x77, 0x78, 0x6c, 0x3d, 0x76, 0xd9,
    0xc2, 0x3d, 0xb7, 0x72, 0xd0, 0x3d, 0x14, 0x99, 0xd7, 0x3d, 0xba, 0x11, 0x20,
    0xbd, 0xca, 0x0e, 0xdf, 0xbd, 0x87, 0xd8, 0xc7, 0x3d, 0x7b, 0xbd, 0x31, 0xbe,
    0xcc, 0x23, 0x60, 0xbe, 0x2d, 0x4d, 0x36, 0xbe, 0x89, 0x03, 0x8f, 0xbd, 0x8a,
    0x92, 0x80, 0xbd, 0x4d, 0xef, 0x6f, 0xbd, 0x5b, 0xf0, 0x83, 0x3e, 0x1b, 0x9c,
    0x8c, 0x3d, 0x22, 0xe5, 0x23, 0x3e, 0xd5, 0xd3, 0x46, 0x3e, 0x37, 0x42, 0x19,
    0xbe, 0x68, 0x68, 0xb4, 0x3d, 0xac, 0xd4, 0x45, 0xbe, 0x4b, 0x49, 0x51, 0x3c,
    0x6b, 0x42, 0xb9, 0xbe, 0x81, 0xe7, 0x06, 0xbe, 0x6b, 0x05, 0xc2, 0x3d, 0x4c,
    0x6e, 0x87, 0x3d, 0xf5, 0xd9, 0x90, 0x3d, 0xb6, 0x46, 0x9f, 0xbc, 0x27, 0x80,
    0x66, 0x3e, 0xfa, 0x2b, 0x53, 0x3e, 0x0d, 0xf2, 0x9a, 0xbe, 0xab, 0xb7, 0x1a,
    0x3d, 0x2b, 0x05, 0xac, 0x3c, 0x99, 0xfa, 0x06, 0xbe, 0x2a, 0x75, 0x94, 0xbe,
    0xb1, 0x88, 0xa7, 0xbe, 0x2d, 0x64, 0x11, 0x3c, 0x50, 0x01, 0x24, 0xbe, 0x21,
    0x15, 0x14, 0x3d, 0x71, 0x85, 0x90, 0x3d, 0xbd, 0xce, 0x87, 0x3e, 0xae, 0x4d,
    0x10, 0x3e, 0x60, 0x5d, 0x39, 0xbe, 0xec, 0x08, 0x88, 0x3d, 0xa5, 0x47, 0x78,
    0xbe, 0xc2, 0x6b, 0x1d, 0xbe, 0x5c, 0x0a, 0x65, 0xbe, 0x9f, 0x1a, 0x9c, 0xbe,
    0x69, 0xbc, 0x9c, 0xbd, 0xb8, 0x58, 0xb1, 0xbc, 0x1e, 0xfe, 0x85, 0x3c, 0xaf,
    0x9f, 0x16, 0x3e, 0x01, 0x0d, 0x28, 0x3e, 0xaf, 0x34, 0x48, 0x3e, 0x21, 0x48,
    0xd1, 0xbd, 0xf4, 0x82, 0xe8, 0x3d, 0x1a, 0x32, 0x55, 0xbd, 0x36, 0x3b, 0x54,
    0xbe, 0xad, 0xde, 0x81, 0xbc, 0xc8, 0xd2, 0x9b, 0xbe, 0x18, 0x1c, 0x88, 0xbc,
    0xc4, 0x27, 0x63, 0xbc, 0x93, 0x2e, 0xfb, 0xbc, 0xc9, 0x8f, 0x93, 0x3e, 0x0d,
    0x18, 0x2a, 0xbd, 0x59, 0x32, 0x8a, 0x3e, 0x2c, 0x86, 0x53, 0x3e, 0xbf, 0x00,
    0x26, 0x3e, 0xe4, 0xfd, 0x11, 0x3e, 0xff, 0x65, 0xd8, 0xbd, 0x09, 0x2e, 0x28,
    0x3e, 0xbc, 0x87, 0x93, 0xbd, 0x3c, 0xfc, 0x5f, 0xbe, 0x50, 0xae, 0x1f, 0xbe,
    0x78, 0xf1, 0xc2, 0xbd, 0x59, 0x9e, 0x79, 0x3e, 0x03, 0x22, 0xe1, 0xbc, 0xf6,
    0x90, 0x02, 0x3e, 0x75, 0x84, 0x8d, 0xbd, 0x81, 0xbf, 0x60, 0x3e, 0x3b, 0xa2,
    0x7f, 0x3e, 0xa3, 0xe7, 0xbb, 0xbe, 0xb3, 0x5d, 0x37, 0x3d, 0xd5, 0xb3, 0x15,
    0xbe, 0xa0, 0x06, 0x8b, 0xbe, 0xe3, 0x99, 0x5f, 0xbe, 0xcc, 0x3e, 0x12, 0xbe,
    0x19, 0x62, 0x55, 0x3c, 0x97, 0xce, 0xe6, 0x3c, 0xcc, 0xde, 0xc0, 0x3d, 0x94,
    0x94, 0x61, 0x3e, 0x86, 0x6b, 0xa1, 0x3e, 0x3c, 0x52, 0x01, 0x3e, 0xa0, 0xb0,
    0x16, 0xbe, 0x45, 0x22, 0x22, 0xbe, 0xe7, 0x09, 0x81, 0xbe, 0xb2, 0x52, 0x51,
    0xbe, 0x55, 0xc9, 0xcf, 0xbd, 0x8b, 0xc2, 0xe5, 0xbe, 0xd6, 0x88, 0x94, 0x3d,
    0xc1, 0x32, 0xb3, 0x3c, 0xee, 0xad, 0x32, 0x3e, 0xb0, 0x46, 0xee, 0x3d, 0xb0,
    0x16, 0x23, 0x3e, 0x82, 0xdc, 0xa6, 0x3e, 0x62, 0x02, 0x4e, 0xbd, 0x48, 0x49,
    0xa3, 0x3d, 0x2a, 0x78, 0x68, 0xbe, 0x63, 0xe9, 0xec, 0xbd, 0x26, 0x55, 0xab,
    0xbc, 0xd4, 0x5d, 0xca, 0xbe, 0x29, 0xde, 0xf6, 0xbd, 0x1c, 0xfa, 0x3b, 0xbb,
    0x22, 0x0e, 0xa1, 0xbd, 0xaf, 0xf6, 0x31, 0x3e, 0x75, 0x8f, 0xe6, 0x3d, 0x7c,
    0x9b, 0xba, 0x3e, 0xa1, 0x29, 0x32, 0x3d, 0x09, 0x85, 0x3e, 0x3e, 0xf0, 0x7f,
    0x5d, 0x3e, 0xf8, 0x59, 0xfb, 0xbd, 0xa1, 0x06, 0xdc, 0xbc, 0x31, 0xa7, 0x9a,
    0xbe, 0x37, 0x61, 0x07, 0xbe, 0x0d, 0x04, 0x32, 0xbe, 0x42, 0xc8, 0xdb, 0xbc,
    0xa6, 0xcd, 0x70, 0x3e, 0x17, 0xa5, 0x87, 0xbc, 0xfb, 0x11, 0xc2, 0x3e, 0xa0,
    0xc3, 0xf8, 0xbc, 0x26, 0x2f, 0x9d, 0x3e, 0xb3, 0xb1, 0xb1, 0x3e, 0x68, 0xae,
    0x72, 0xbe, 0xc2, 0xe7, 0x17, 0x3d, 0x53, 0x29, 0x8f, 0xbe, 0xcd, 0x76, 0x8d,
    0x3b, 0xc9, 0x3d, 0xad, 0xbe, 0x17, 0x39, 0x64, 0xbe, 0x82, 0x61, 0x57, 0x3e,
    0x8c, 0xac, 0x92, 0xbc, 0x4b, 0x3b, 0x86, 0x3e, 0xb5, 0x1b, 0x08, 0xbd, 0xfd,
    0xcb, 0x74, 0x3e, 0x79, 0xca, 0x0f, 0x3e, 0xe0, 0xfd, 0x68, 0xbe, 0x08, 0x90,
    0x56, 0x3e, 0xe2, 0xb4, 0x66, 0xbe, 0x18, 0x88, 0x60, 0xbe, 0xf8, 0x41, 0x61,
    0xbe, 0x10, 0xc2, 0x76, 0xbe, 0x85, 0xe7, 0x66, 0x3e, 0xd6, 0x31, 0x08, 0xbd,
    0x9e, 0xa1, 0x07, 0xbd, 0x7e, 0xd8, 0x84, 0x3e, 0xb9, 0x4a, 0xeb, 0x3d, 0x96,
    0x64, 0x5e, 0x3e, 0xf9, 0x26, 0x65, 0xbd, 0x83, 0xde, 0x59, 0x3d, 0x26, 0xcd,
    0xb6, 0xbd, 0xdc, 0x81, 0xbd, 0xbd, 0x3c, 0x87, 0x25, 0xbe, 0x31, 0xfc, 0x09,
    0xbe, 0x3a, 0xe8, 0xc2, 0x3d, 0x83, 0xdf, 0x85, 0xbe, 0xaa, 0x99, 0x73, 0x3e,
    0x32, 0xac, 0x97, 0x3e, 0xe5, 0x16, 0xe4, 0x3c, 0xfe, 0xc5, 0x85, 0x3e, 0x88,
    0xd9, 0xa4, 0xbd, 0xcb, 0x95, 0x59, 0x3e, 0x3c, 0x63, 0x93, 0xbd, 0xa2, 0xd0,
    0x7d, 0xbd, 0x86, 0x6b, 0x4f, 0xbe, 0x09, 0x5b, 0xa0, 0xbe, 0xf2, 0xfc, 0x32,
    0xbd, 0x88, 0x9f, 0xae, 0xbe, 0xfd, 0x4b, 0x20, 0xbd, 0x37, 0xb1, 0x5f, 0x3e,
    0x9a, 0x8a, 0xb5, 0x3d, 0x04, 0xaf, 0x7a, 0x3e, 0x05, 0x22, 0x51, 0xbd, 0x43,
    0x38, 0xb2, 0x3d, 0xd4, 0x29, 0x76, 0xbd, 0x7e, 0x77, 0xd4, 0xbd, 0x81, 0x3e,
    0x36, 0xbe, 0x63, 0x4e, 0x57, 0xbe, 0x7d, 0x22, 0xe6, 0x3d, 0xd0, 0x44, 0x44,
    0xbe, 0x81, 0x74, 0x18, 0xbe, 0xde, 0xb0, 0x9f, 0x3d, 0xce, 0x3a, 0xee, 0xbc,
    0xab, 0x3a, 0xc5, 0x3d, 0x54, 0x03, 0x63, 0x3d, 0xbd, 0x82, 0xa9, 0x3d, 0x10,
    0xce, 0x30, 0x3e, 0xea, 0xa0, 0xb5, 0xbd, 0xc9, 0xec, 0x58, 0xbd, 0x63, 0x58,
    0x17, 0xbe, 0x75, 0x19, 0xfc, 0x3c, 0x8b, 0xdf, 0x96, 0xbd, 0xf0, 0xdf, 0x1f,
    0xbe, 0xc6, 0xed, 0x22, 0x3e, 0x72, 0xe4, 0x10, 0xbe, 0xf5, 0x1b, 0xa1, 0x3d,
    0x64, 0xb9, 0x29, 0x3e, 0x3a, 0xa0, 0x19, 0x3d, 0x52, 0xd5, 0x4e, 0x3d, 0x9d,
    0xe6, 0x07, 0xbe, 0xf6, 0x77, 0xc6, 0x3d, 0x17, 0x4b, 0x19, 0x3e, 0x25, 0xae,
    0x10, 0xbc, 0xb8, 0xf3, 0x0b, 0xbc, 0x6b, 0x35, 0xa8, 0xbd, 0x99, 0xc9, 0x24,
    0x3e, 0x16, 0x41, 0x45, 0xbe, 0x78, 0x14, 0x33, 0x3c, 0x5d, 0x68, 0x12, 0x3e,
    0x85, 0x0d, 0xd9, 0xbc, 0xa5, 0x2f, 0x31, 0x3e, 0x3b, 0xbb, 0xe2, 0xbd, 0x85,
    0x6d, 0xc5, 0x3d, 0xb3, 0x98, 0x5c, 0xbd, 0xc0, 0xb9, 0x68, 0xbd, 0x1d, 0xd6,
    0x52, 0x3b, 0x55, 0xcf, 0xa9, 0xbd, 0x5b, 0x26, 0x0e, 0xbe, 0x1a, 0x37, 0x13,
    0x3d, 0x66, 0xfd, 0x99, 0x3d, 0x01, 0x95, 0xbb, 0xbd, 0x75, 0x50, 0xad, 0x3d,
    0xd8, 0xaf, 0xb9, 0xbc, 0xf8, 0x04, 0x22, 0xbd, 0xb1, 0xf0, 0x22, 0xbe, 0xd4,
    0x56, 0xa3, 0xbd, 0x48, 0x70, 0x50, 0x3d, 0xda, 0x83, 0x75, 0x3d, 0x28, 0x3a,
    0x73, 0xbd, 0x44, 0x39, 0x0b, 0xbe, 0x07, 0x16, 0x4c, 0x3e, 0x11, 0x43, 0x18,
    0x3d, 0xda, 0x8d, 0x06, 0xbe, 0x16, 0xa9, 0x80, 0x3d, 0x7c, 0x0a, 0x61, 0x3d,
    0x74, 0xd7, 0x3e, 0xbe, 0x8f, 0xcc, 0xe3, 0xbc, 0xdd, 0xce, 0xa5, 0x3d, 0xd7,
    0x15, 0xb3, 0xbd, 0x42, 0xdf, 0xa8, 0xbd, 0xb8, 0xc1, 0x16, 0x3e, 0x23, 0x57,
    0x0d, 0x3d, 0x94, 0x43, 0xca, 0xbd, 0x2f, 0xde, 0x25, 0x3e, 0x4f, 0x79, 0xc6,
    0x3c, 0xfc, 0xfd, 0x97, 0xbc, 0x05, 0x1c, 0x46, 0x3d, 0x58, 0xc8, 0x51, 0xbe,
    0xcd, 0x10, 0x4a, 0x3e, 0xc9, 0x16, 0xcd, 0x3d, 0xac, 0xdd, 0x88, 0xbe, 0x7e,
    0x1a, 0x11, 0xbd, 0x88, 0xd8, 0x59, 0x3d, 0xed, 0x8c, 0x01, 0xbd, 0x56, 0xa4,
    0x5b, 0xbe, 0x78, 0xbb, 0x90, 0xbd, 0x27, 0x0e, 0xca, 0x3c, 0x0f, 0xcd, 0xb3,
    0x3c, 0x6d, 0x69, 0x5d, 0x3c, 0x35, 0x8f, 0xee, 0xbd, 0xe5, 0xb1, 0x7d, 0x3d,
    0x20, 0x93, 0x3d, 0x3c, 0x43, 0xa2, 0x08, 0xbb, 0x2c, 0x9e, 0x4a, 0xbe, 0xfe,
    0xe2, 0xd8, 0x3a, 0x92, 0x1c, 0x5d, 0xbd, 0x13, 0xa8, 0x10, 0xbe, 0xd8, 0x93,
    0x0e, 0x3e, 0x12, 0x9c, 0x24, 0xbe, 0xe2, 0x79, 0x1b, 0xbd, 0x47, 0x1e, 0x86,
    0xbd, 0x8a, 0x3e, 0x42, 0xbd, 0xcf, 0x4e, 0xb8, 0x3d, 0xef, 0x5e, 0xfa, 0xbd,
    0xd1, 0x69, 0x00, 0xbd, 0xc7, 0xe1, 0x54, 0xbe, 0x60, 0xd6, 0x48, 0xbc, 0x28,
    0x93, 0x8d, 0x3d, 0xb4, 0x80, 0x80, 0xbd, 0xbc, 0x37, 0xf2, 0xbd, 0xa2, 0xf7,
    0xbb, 0x3d, 0x5f, 0xf5, 0xdd, 0x3c, 0xf5, 0xf3, 0x84, 0xbc, 0x41, 0x9b, 0x68,
    0xbd, 0x8c, 0xf2, 0xc3, 0x3d, 0x00, 0xbf, 0x66, 0xbe, 0xbb, 0xbb, 0x06, 0xbe,
    0x89, 0xb4, 0x17, 0x3b, 0xc1, 0xe9, 0x77, 0xbe, 0xe5, 0x95, 0x47, 0xbe, 0x92,
    0xe3, 0x47, 0x3d, 0x70, 0xa7, 0x2f, 0x3e, 0x19, 0x04, 0xe3, 0xbc, 0xc2, 0xf3,
    0x5a, 0xbc, 0xd1, 0xb6, 0xea, 0x3d, 0xef, 0x02, 0x0e, 0x3e, 0x39, 0x76, 0xb5,
    0xbd, 0x68, 0x78, 0x1b, 0xbd, 0x56, 0xc4, 0x61, 0x3c, 0x49, 0x75, 0xd9, 0x3c,
    0x19, 0x32, 0xfe, 0xbd, 0x92, 0xd5, 0x06, 0xbe, 0xa3, 0x13, 0x50, 0x3d, 0x46,
    0x71, 0xdd, 0xbd, 0x0b, 0x5f, 0xd6, 0xbd, 0x25, 0x4f, 0xe2, 0x3d, 0x80, 0x6b,
    0xd9, 0x3d, 0xe8, 0x62, 0x3f, 0x3d, 0x06, 0x1c, 0xd4, 0x3d, 0xb6, 0xeb, 0x8f,
    0x3d, 0x9f, 0x79, 0xaa, 0x3d, 0xe6, 0x1e, 0xea, 0xbd, 0xb8, 0xb7, 0x02, 0xbe,
    0x65, 0xdf, 0x55, 0x3d, 0x7c, 0x44, 0x67, 0xbd, 0xf0, 0x5c, 0xdb, 0xbd, 0xc5,
    0xc9, 0xf7, 0x39, 0x25, 0x51, 0x76, 0x3e, 0x2d, 0x48, 0xb8, 0x3d, 0x49, 0xef,
    0x36, 0xbe, 0xda, 0x84, 0x1b, 0x3e, 0x89, 0x4a, 0x36, 0x3d, 0x6a, 0xaa, 0x19,
    0xbe, 0xa0, 0x02, 0xf9, 0x3d, 0x7b, 0xb9, 0x2f, 0xbe, 0x1a, 0xc2, 0x72, 0x3d,
    0xa5, 0xc0, 0xd3, 0xbd, 0xf4, 0xb8, 0x20, 0xbc, 0xf2, 0x9e, 0x74, 0x3e, 0x0e,
    0xd7, 0x54, 0x3d, 0x87, 0xb9, 0x2e, 0x3e, 0x7c, 0xce, 0xcb, 0xbd, 0xbd, 0x4e,
    0xcb, 0x3d, 0x1a, 0xa0, 0x8e, 0x3d, 0x57, 0xae, 0xb6, 0xbd, 0xa2, 0x8c, 0xb1,
    0x3d, 0xff, 0x97, 0xf0, 0x3b, 0xcf, 0x82, 0x31, 0x3d, 0x46, 0x02, 0x44, 0xbd,
    0x83, 0xff, 0x95, 0xbc, 0x6f, 0x65, 0x1a, 0x3e, 0xed, 0x4b, 0x39, 0xbd, 0x49,
    0x13, 0x23, 0x3e, 0xab, 0x40, 0x4d, 0x3e, 0x30, 0xbc, 0x0e, 0x3d, 0x9c, 0x1c,
    0xc0, 0x3d, 0x73, 0x90, 0x2e, 0xbe, 0xf2, 0xee, 0x0e, 0xbe, 0x37, 0xb2, 0xec,
    0xbd, 0xc6, 0xcd, 0x5c, 0xbe, 0x51, 0xed, 0x45, 0xbd, 0xac, 0x62, 0x46, 0xbe,
    0xee, 0x2c, 0x40, 0xbc, 0x7f, 0xed, 0xca, 0x3d, 0x32, 0x07, 0x6a, 0x3d, 0x8f,
    0x35, 0x5c, 0xbe, 0x55, 0x61, 0xd3, 0x3d, 0x6a, 0x7c, 0x98, 0x3d, 0xc4, 0xcb,
    0x64, 0x3a, 0x82, 0x12, 0x1e, 0x3e, 0xac, 0x09, 0x42, 0x3e, 0xe9, 0x7a, 0x9d,
    0x3b, 0x94, 0x77, 0xd4, 0xbd, 0x74, 0x55, 0xea, 0xbc, 0x2f, 0x17, 0x07, 0xbe,
    0xb4, 0xf0, 0x60, 0x3d, 0x13, 0x47, 0x98, 0xbd, 0xe4, 0x01, 0xb6, 0x3d, 0xf9,
    0x9a, 0x2b, 0x3e, 0x78, 0xb3, 0x5f, 0xbe, 0xc1, 0xa6, 0x75, 0x3e, 0xf4, 0xf6,
    0x0c, 0xbe, 0xef, 0x92, 0x38, 0x3e, 0x69, 0x27, 0x10, 0xbe, 0x9f, 0x3f, 0x18,
    0xbe, 0x12, 0x87, 0x71, 0xbe, 0xcb, 0x78, 0x9e, 0xbd, 0xf6, 0x45, 0xf7, 0xbd,
    0xcd, 0xde, 0xb0, 0x3d, 0x69, 0xca, 0x32, 0x3e, 0x2a, 0x8b, 0x81, 0xbd, 0x53,
    0x1f, 0xd2, 0x3d, 0xd5, 0x45, 0x89, 0x3d, 0x06, 0xaa, 0x60, 0xbe, 0xe3, 0xa6,
    0x16, 0x3d, 0x93, 0x8c, 0xb6, 0xbd, 0x59, 0x91, 0x91, 0xbd, 0x74, 0xdc, 0x5f,
    0xbe, 0x63, 0x1b, 0x4c, 0x3e, 0xa7, 0x8b, 0x0a, 0x3e, 0x04, 0x32, 0xb7, 0x3d,
    0xd0, 0xc6, 0xdf, 0x3d, 0x6f, 0xf5, 0x06, 0xbe, 0xd6, 0x43, 0x8e, 0x3e, 0x1e,
    0x38, 0x0d, 0xbe, 0x18, 0xfb, 0xb2, 0x3d, 0xed, 0x31, 0x65, 0xbe, 0x03, 0xf8,
    0xd2, 0x3c, 0x56, 0x72, 0xea, 0x3c, 0x25, 0xdf, 0xd9, 0xbd, 0x8f, 0x1d, 0x53,
    0x3d, 0xeb, 0x72, 0x13, 0x3c, 0xf8, 0x79, 0x0b, 0x3e, 0xe9, 0x72, 0x14, 0xbd,
    0x75, 0x1f, 0x52, 0xbe, 0xdc, 0xe5, 0x48, 0x3e, 0xe0, 0xf2, 0xb5, 0xbe, 0x93,
    0xb0, 0x19, 0x3e, 0x21, 0x35, 0x1c, 0xbd, 0x68, 0xa7, 0x28, 0x3e, 0x33, 0x9c,
    0x1f, 0x3e, 0x14, 0x41, 0x84, 0x3d, 0xd7, 0x6f, 0x2c, 0x3e, 0x3e, 0x1e, 0x2c,
    0x3e, 0xc7, 0x65, 0x9b, 0x3e, 0x24, 0xc2, 0xe6, 0xbe, 0xb4, 0x9f, 0x4f, 0xbd,
    0x49, 0xd9, 0xd9, 0xbd, 0xcc, 0xbd, 0x00, 0xbe, 0xf7, 0xb7, 0xae, 0x3e, 0x14,
    0x82, 0x82, 0x3d, 0xe7, 0xd8, 0xb9, 0x3e, 0x52, 0x82, 0x1d, 0x3e, 0xdb, 0x96,
    0x97, 0x3e, 0xfd, 0x31, 0x7f, 0xbd, 0xf6, 0xba, 0xb0, 0xbd, 0x99, 0x47, 0x3d,
    0x3e, 0x91, 0x1d, 0xb8, 0xbe, 0xb7, 0x78, 0x05, 0x3e, 0x44, 0x68, 0x47, 0x3d,
    0x9f, 0xbf, 0x6d, 0x3e, 0x5e, 0x7b, 0x05, 0x3e, 0xf3, 0x29, 0xe6, 0x3d, 0x22,
    0xa6, 0x2a, 0x3e, 0x3b, 0x36, 0x5c, 0x3d, 0xb7, 0x78, 0x46, 0xbd, 0x91, 0xbd,
    0x85, 0xbe, 0x61, 0xdc, 0x71, 0xbe, 0x4f, 0x62, 0x4c, 0xbe, 0x09, 0x9b, 0x06,
    0xbe, 0x95, 0xa7, 0x69, 0x3c, 0xb6, 0xe5, 0x06, 0xbe, 0x6a, 0x10, 0x99, 0x3e,
    0xc8, 0x93, 0x26, 0x3e, 0x7f, 0xed, 0x17, 0x3b, 0x76, 0x29, 0xb7, 0xbe, 0xba,
    0x6f, 0x68, 0xbd, 0xfe, 0xd3, 0xc3, 0xbc, 0xcf, 0x3a, 0x53, 0xbe, 0x9d, 0xda,
    0xf0, 0x3d, 0x2c, 0xf9, 0x10, 0xbb, 0x55, 0x46, 0x6b, 0x3e, 0x01, 0x8b, 0x90,
    0xbd, 0x86, 0x4d, 0x36, 0x3e, 0xab, 0x91, 0x1d, 0x3d, 0x8e, 0x94, 0xf1, 0xbc,
    0xe0, 0xff, 0x03, 0x3e, 0x0b, 0x88, 0x89, 0xbe, 0xb8, 0x6d, 0xda, 0xbd, 0xb1,
    0x53, 0x21, 0xbe, 0xf0, 0xa0, 0x11, 0x3e, 0xca, 0x2a, 0x56, 0x3e, 0xa0, 0x54,
    0x56, 0x3e, 0x17, 0xdd, 0xab, 0x3e, 0x77, 0x28, 0x9d, 0xbe, 0xe1, 0x8f, 0x91,
    0x3e, 0x1f, 0xa0, 0x45, 0xbe, 0x7e, 0x96, 0x8d, 0xbe, 0xff, 0x19, 0x1e, 0xbe,
    0x3c, 0xd3, 0x9f, 0xbe, 0xd1, 0x6f, 0xc4, 0x3e, 0xbc, 0xcd, 0x28, 0xbe, 0xb7,
    0xb8, 0xcc, 0x3e, 0x23, 0x71, 0x97, 0x3c, 0x0b, 0xb3, 0x8f, 0x3e, 0xc5, 0xa4,
    0x55, 0xbe, 0xeb, 0x7d, 0xc6, 0x3d, 0x6b, 0x39, 0x3d, 0x3e, 0x4a, 0x4f, 0xa2,
    0xbe, 0xb9, 0xe7, 0x3b, 0xbd, 0x0b, 0xa7, 0xee, 0xbb, 0xef, 0x45, 0x34, 0x3e,
    0x4c, 0x66, 0x2f, 0x3e, 0x1c, 0xf8, 0x1b, 0xbd, 0x43, 0x63, 0x7c, 0x3e, 0x9d,
    0x91, 0x93, 0xbd, 0x27, 0xcc, 0x84, 0xbc, 0x19, 0x75, 0x2f, 0xbe, 0x79, 0xe1,
    0x31, 0x3c, 0xd3, 0xb6, 0xcc, 0xbd, 0xc0, 0xbe, 0x37, 0xbe, 0x60, 0x72, 0x2c,
    0x3e, 0x8d, 0x3e, 0xf9, 0xbd, 0x98, 0xcd, 0xd0, 0x3e, 0xe0, 0xc9, 0x09, 0xbe,
    0x81, 0x20, 0xb0, 0x3e, 0xf0, 0x7e, 0xfb, 0x3c, 0xe5, 0xa7, 0xcf, 0x3d, 0x8e,
    0x4c, 0xb4, 0x3d, 0xde, 0xea, 0x0d, 0xbe, 0x79, 0xe5, 0x53, 0x3e, 0x64, 0x5e,
    0x2e, 0xbe, 0xa1, 0x69, 0x10, 0x3e, 0xb2, 0x11, 0x51, 0x3d, 0x5e, 0xc0, 0x08,
    0x3e, 0x58, 0xb4, 0x99, 0x3e, 0x0b, 0x28, 0x6e, 0xbe, 0x6a, 0xb0, 0x48, 0x3e,
    0xe2, 0x70, 0xb8, 0xbd, 0xc6, 0x72, 0xbe, 0xbe, 0x3d, 0xce, 0xfb, 0xbe, 0xdb,
    0x14, 0x01, 0x3d, 0x31, 0x7b, 0xcc, 0xbd, 0x62, 0x72, 0xa0, 0xbe, 0x7c, 0x5a,
    0xdc, 0x3e, 0xe9, 0xe7, 0x14, 0xbe, 0xc0, 0x48, 0x10, 0xbe, 0x81, 0x01, 0x4b,
    0x3d, 0x72, 0x1a, 0x91, 0xbd, 0x7b, 0x69, 0x5f, 0xbd, 0x4e, 0xc7, 0x54, 0xbe,
    0x4c, 0xd1, 0xd2, 0xbd, 0xaa, 0xb0, 0x8f, 0x3d, 0x9a, 0xe9, 0x41, 0x3e, 0x3d,
    0x92, 0x5f, 0x3e, 0xf1, 0x73, 0x00, 0x3e, 0xce, 0x70, 0xc3, 0x3e, 0x33, 0x4e,
    0x1e, 0xbe, 0x7c, 0x73, 0x8c, 0x3e, 0x30, 0x31, 0x56, 0xbe, 0x8b, 0x69, 0x5d,
    0x3d, 0xd4, 0xe5, 0xc6, 0xbd, 0xd3, 0x72, 0xbe, 0xbb, 0x6e, 0x9d, 0x22, 0x3e,
    0x77, 0x03, 0xa1, 0x3e, 0x5b, 0x69, 0xeb, 0x3d, 0x6c, 0xfe, 0xc7, 0x3d, 0x8a,
    0x26, 0x02, 0x3f, 0x66, 0xa3, 0x98, 0xbc, 0x15, 0x87, 0x5a, 0x3d, 0xd7, 0x5c,
    0x75, 0x3e, 0x97, 0x1f, 0x1e, 0xbe, 0x7d, 0x10, 0x2e, 0xbe, 0x35, 0x29, 0x89,
    0x3d, 0x59, 0xc3, 0xbc, 0x3e, 0xb1, 0xee, 0xa9, 0xbd, 0xe8, 0x55, 0x12, 0x3e,
    0xda, 0x22, 0x42, 0xbc, 0xf1, 0xfd, 0x3d, 0xbe, 0xaa, 0x68, 0x07, 0x3e, 0x1a,
    0x4d, 0xba, 0xbe, 0x7a, 0x4d, 0x4c, 0x3e, 0x17, 0x83, 0xbc, 0x3b, 0x85, 0xf0,
    0x41, 0xbe, 0x13, 0xac, 0x73, 0x3d, 0xf9, 0xb0, 0x16, 0x3e, 0xfb, 0xe9, 0x45,
    0x3e, 0x6c, 0x46, 0x01, 0xbe, 0x0f, 0x21, 0x3b, 0x3e, 0x2b, 0xc6, 0x54, 0xbe,
    0x57, 0xa1, 0x31, 0xbe, 0x16, 0x55, 0x8e, 0xbd, 0x6b, 0xf5, 0xf5, 0xbe, 0x8c,
    0x35, 0xfa, 0x3d, 0x4b, 0x53, 0x1b, 0xbe, 0xa2, 0x8f, 0x02, 0x3e, 0xd9, 0x29,
    0x19, 0x3e, 0x44, 0x3d, 0xc6, 0x3d, 0xaa, 0xb8, 0x24, 0x3d, 0x5a, 0x3d, 0x62,
    0xbd, 0xbd, 0x12, 0x5a, 0x3d, 0x12, 0xb4, 0x73, 0xbe, 0xb5, 0xcb, 0x3c, 0x3c,
    0x3b, 0xdc, 0x8a, 0xbd, 0x92, 0x9c, 0x4d, 0x3d, 0x94, 0x9e, 0x88, 0xbb, 0xe3,
    0x14, 0x34, 0x3d, 0x1b, 0x11, 0x91, 0x3e, 0x25, 0x34, 0xe6, 0x3d, 0x39, 0xdd,
    0x7c, 0x3e, 0xf7, 0xb5, 0x19, 0xbd, 0x34, 0x7f, 0x7d, 0xbe, 0x41, 0xbb, 0x02,
    0x3e, 0x63, 0x53, 0xc2, 0xbe, 0x27, 0x79, 0x93, 0x3d, 0xa4, 0x41, 0x22, 0xbe,
    0xa2, 0x75, 0xa0, 0x3e, 0xd6, 0x0a, 0xf8, 0xbd, 0x5f, 0x41, 0x34, 0x3e, 0x3b,
    0x12, 0x81, 0x3d, 0x31, 0xfb, 0x63, 0xbe, 0xed, 0x49, 0xe3, 0xbd, 0x19, 0xd0,
    0x86, 0xbe, 0xee, 0xf4, 0x92, 0xbd, 0x72, 0x01, 0x46, 0xbe, 0x3a, 0x09, 0x3a,
    0xbe, 0xdf, 0xfd, 0xa0, 0x3e, 0xec, 0x36, 0x47, 0x3d, 0x7b, 0x2d, 0x8e, 0x3e,
    0x54, 0x76, 0x32, 0xbe, 0x0f, 0xed, 0x10, 0x3e, 0x81, 0xd9, 0xf5, 0xbd, 0x5e,
    0x62, 0x64, 0xbd, 0xb1, 0x0a, 0x39, 0xbd, 0x9b, 0x72, 0xaa, 0xbd, 0x70, 0x99,
    0x25, 0xbe, 0x5d, 0xad, 0xa2, 0x3d, 0x4b, 0x8f, 0xbf, 0x3e, 0xb7, 0x7d, 0xda,
    0x3b, 0x4b, 0xb6, 0x32, 0x3e, 0x1d, 0x77, 0xbf, 0xbd, 0x64, 0xa2, 0x07, 0x3d,
    0x02, 0xa2, 0x6c, 0x3e, 0x8b, 0xba, 0xc1, 0xbe, 0x14, 0xc5, 0x1c, 0x3e, 0x95,
    0x26, 0x9f, 0xbc, 0x51, 0x7f, 0x91, 0x3d, 0x0a, 0xdf, 0x11, 0x3e, 0xe5, 0x09,
    0xb6, 0x3c, 0x19, 0x83, 0x52, 0x3e, 0xf7, 0x65, 0x98, 0xbd, 0xc7, 0x1b, 0x17,
    0x3d, 0xca, 0x09, 0x31, 0x3a, 0xce, 0xe3, 0x2f, 0x3d, 0xef, 0x8e, 0x32, 0xbe,
    0x58, 0x9c, 0x9b, 0x3c, 0x27, 0xab, 0x74, 0x3e, 0xa7, 0x4a, 0x82, 0x3d, 0xaa,
    0xa1, 0xad, 0x3e, 0x2b, 0x98, 0x87, 0x3d, 0xf1, 0x68, 0xda, 0x3d, 0xa0, 0xdb,
    0x00, 0xb9, 0x7e, 0x9e, 0x0a, 0xbd, 0xa4, 0xe7, 0x4e, 0x3e, 0x5c, 0xfe, 0x8a,
    0xbe, 0xf3, 0x5d, 0xd2, 0x3c, 0xe4, 0x0e, 0x1d, 0xbe, 0x12, 0x65, 0x02, 0xbc,
    0x94, 0x98, 0x1a, 0x3d, 0xed, 0xd2, 0xa3, 0x3d, 0x89, 0xb1, 0xda, 0x3d, 0xb3,
    0x18, 0x31, 0xbe, 0x02, 0x7b, 0x7f, 0xbd, 0x6e, 0xea, 0xb0, 0xbe, 0x17, 0x98,
    0x85, 0xbe, 0xc0, 0x03, 0x39, 0xbe, 0xa6, 0x4e, 0x5c, 0xbe, 0x87, 0x6d, 0x43,
    0x3d, 0x1b, 0xa4, 0x28, 0xbe, 0xe0, 0x15, 0xd4, 0x3e, 0xe2, 0xd5, 0xf9, 0xbd,
    0x68, 0xa3, 0xf2, 0xbd, 0x83, 0x82, 0x9a, 0xbd, 0x69, 0x49, 0x13, 0xbe, 0x53,
    0xab, 0x3c, 0xbe, 0xe1, 0x1d, 0xb3, 0xbd, 0x3c, 0x7e, 0x48, 0xbe, 0xba, 0xf6,
    0x5d, 0xbe, 0xd6, 0xbf, 0x90, 0x3e, 0x7f, 0x2d, 0x21, 0x3e, 0x6d, 0x58, 0xed,
    0xbd, 0x4a, 0xde, 0xa8, 0x3e, 0x1e, 0x5d, 0xcf, 0xbd, 0xe7, 0x1f, 0x88, 0x3d,
    0x7d, 0x95, 0x4c, 0xbe, 0x07, 0xe2, 0x37, 0xbd, 0xd2, 0x07, 0x1d, 0xbe, 0x51,
    0x23, 0x2a, 0xbe, 0x6c, 0x8e, 0xde, 0x3e, 0x0b, 0xbe, 0x1a, 0x3e, 0xbf, 0x2a,
    0x4c, 0x3e, 0x86, 0x0b, 0xaa, 0xbd, 0xc1, 0xd0, 0x13, 0x3e, 0xbd, 0x7b, 0x26,
    0xbe, 0xc0, 0x46, 0x9c, 0xbd, 0x54, 0xa6, 0x30, 0xbe, 0x38, 0xf5, 0x77, 0xbe,
    0x3b, 0xb6, 0x25, 0xbe, 0x19, 0x7e, 0x6c, 0x3d, 0xbd, 0x32, 0x88, 0x3e, 0x51,
    0x1a, 0x22, 0x3b, 0x4c, 0x02, 0x8a, 0xbd, 0xb6, 0x73, 0x9d, 0x3e, 0x0e, 0xf5,
    0x34, 0x3d, 0x39, 0x9a, 0x89, 0x3d, 0xd6, 0x88, 0x2e, 0xbe, 0x6e, 0x1d, 0x2d,
    0xbc, 0xf1, 0x2f, 0x35, 0xbd, 0x67, 0xc6, 0x76, 0x3d, 0x40, 0xfe, 0xce, 0xbc,
    0xa7, 0x9b, 0x5d, 0x3e, 0x77, 0x41, 0xd5, 0x3e, 0xcc, 0x69, 0x82, 0xbd, 0x87,
    0x6d, 0x2e, 0x3e, 0x2f, 0xf6, 0x09, 0xbe, 0xe0, 0xab, 0x9e, 0xbd, 0x51, 0xa4,
    0x93, 0xbd, 0x90, 0xfe, 0x7a, 0xbe, 0xa5, 0xcb, 0xfe, 0x3d, 0xa1, 0xf4, 0xf8,
    0x3d, 0xba, 0xd1, 0xd7, 0x3d, 0xee, 0x6b, 0xa6, 0xbc, 0xc6, 0x7c, 0x01, 0xba,
    0x33, 0x7d, 0x1d, 0x3d, 0x83, 0xf3, 0x9a, 0xbe, 0xdc, 0x6a, 0x6e, 0x3d, 0x0e,
    0x16, 0x86, 0xbd, 0x5c, 0x8c, 0x31, 0xbe, 0xbb, 0x25, 0x55, 0xbe, 0x83, 0x8a,
    0x17, 0xbe, 0x1e, 0xd9, 0xa9, 0x3d, 0xba, 0xc0, 0x78, 0xbd, 0xc0, 0xb6, 0x4f,
    0x3e, 0xca, 0x09, 0x00, 0x3e, 0xf1, 0xe9, 0xfa, 0x3d, 0x22, 0xc7, 0xc9, 0xbd,
    0xaa, 0xf5, 0xe6, 0x3d, 0xc0, 0x5c, 0x07, 0x3e, 0x77, 0xe5, 0x5f, 0xbe, 0x1d,
    0x37, 0xb7, 0x3e, 0x03, 0xc6, 0x66, 0x3d, 0xe4, 0x8e, 0x47, 0xbd, 0x01, 0x20,
    0x31, 0x3e, 0x64, 0x67, 0x0a, 0x3e, 0x34, 0xb6, 0x79, 0xbd, 0x7e, 0x6d, 0x6d,
    0x3e, 0x56, 0xaf, 0xb9, 0x3e, 0x0f, 0x98, 0xa6, 0xbe, 0x32, 0xc4, 0x43, 0xbd,
    0x94, 0x79, 0x4a, 0xbb, 0xd8, 0xa7, 0x88, 0xbb, 0x1e, 0x74, 0x85, 0x3e, 0x54,
    0xc1, 0x58, 0x3e, 0x91, 0xbd, 0x07, 0x3e, 0x5d, 0x33, 0x3d, 0x3d, 0x79, 0x29,
    0x64, 0x3e, 0x75, 0x0f, 0x93, 0xbd, 0x2b, 0x1c, 0xe8, 0xbd, 0x3d, 0x90, 0xeb,
    0xbd, 0xa9, 0x98, 0x2c, 0x3d, 0x24, 0x4d, 0xac, 0x3d, 0x08, 0xc9, 0xbe, 0x3d,
    0xfe, 0x6f, 0x16, 0xbc, 0x3b, 0x42, 0xbf, 0x3b, 0x82, 0x73, 0x41, 0xbe, 0xd6,
    0x36, 0xd1, 0x3d, 0xf4, 0xd7, 0x99, 0xbd, 0xbb, 0xcf, 0x88, 0xbb, 0xd6, 0x7d,
    0xa5, 0x3d, 0x9e, 0x04, 0xeb, 0xbd, 0x2b, 0x2b, 0x46, 0x3e, 0xac, 0xfa, 0x48,
    0xbc, 0x9b, 0x1e, 0x68, 0x3e, 0xa7, 0x2e, 0x93, 0xbc, 0x07, 0xf5, 0xb1, 0xbd,
    0x70, 0xa2, 0xd0, 0xbd, 0x26, 0xc5, 0xd1, 0xbe, 0x0d, 0x9a, 0x65, 0xbc, 0xb4,
    0xbf, 0xc8, 0xbd, 0xce, 0xf7, 0x0c, 0xbe, 0xad, 0xce, 0x12, 0x3d, 0x7b, 0x59,
    0x51, 0x3e, 0x52, 0xac, 0xbd, 0x3d, 0xff, 0xcc, 0x1f, 0x3e, 0x37, 0x54, 0x5a,
    0x3e, 0xa7, 0x4a, 0xdb, 0x3d, 0x58, 0x0f, 0xf8, 0xbc, 0x91, 0x41, 0xac, 0x3c,
    0x9d, 0x12, 0x99, 0xbe, 0xe1, 0x1f, 0x33, 0xbe, 0x15, 0x92, 0xdc, 0xbc, 0x83,
    0x27, 0x36, 0xbe, 0x88, 0xda, 0x1d, 0x3e, 0x01, 0x3a, 0xc7, 0xbc, 0x6b, 0xf7,
    0x87, 0x3d, 0x21, 0xab, 0x4d, 0x3e, 0x83, 0xb8, 0x2c, 0x3e, 0x7e, 0x6d, 0x1c,
    0x3e, 0x7c, 0x5b, 0x15, 0xbc, 0x7d, 0xad, 0x4b, 0xbe, 0x82, 0xd7, 0x4b, 0xbe,
    0xe7, 0x62, 0x0a, 0x3d, 0x59, 0x11, 0x75, 0xbd, 0x00, 0x98, 0x69, 0x3d, 0x61,
    0xca, 0xd2, 0xbd, 0x12, 0x99, 0xba, 0x3d, 0xaf, 0x38, 0x43, 0x3e, 0x4e, 0xa6,
    0x16, 0x3c, 0x5c, 0x0a, 0xba, 0x3c, 0xd5, 0xfa, 0x69, 0x3e, 0x2a, 0xca, 0xcd,
    0x3d, 0xc2, 0x06, 0xd4, 0x3d, 0xc4, 0x7a, 0x8c, 0x3d, 0xb2, 0xbd, 0xe4, 0xbd,
    0xfa, 0xbf, 0x54, 0xbd, 0x11, 0x3d, 0x24, 0xbd, 0xe4, 0x97, 0xa0, 0x3c, 0x58,
    0x90, 0x95, 0xbc, 0x32, 0xde, 0xea, 0x3d, 0xf3, 0xb3, 0xe9, 0xbc, 0x7c, 0x4e,
    0xfe, 0xbb, 0xf6, 0x24, 0x5c, 0x3e, 0xfe, 0x2f, 0x18, 0xbe, 0xf4, 0xb9, 0xe5,
    0x3d, 0x39, 0x6b, 0xb7, 0x3d, 0x47, 0x3e, 0xe0, 0xbd, 0xc4, 0x5a, 0xef, 0xbd,
    0x64, 0x05, 0xd4, 0xbb, 0x60, 0xdc, 0x1d, 0xbe, 0x8a, 0xb5, 0xd4, 0xbd, 0xdf,
    0x31, 0xf6, 0xbd, 0x0c, 0xda, 0xea, 0xbd, 0x5a, 0xeb, 0x33, 0xbe, 0x80, 0x45,
    0x56, 0xbc, 0x22, 0x76, 0xc6, 0x3d, 0xa1, 0x40, 0x35, 0x3e, 0x68, 0x29, 0x6a,
    0x3e, 0xbb, 0xa4, 0x53, 0x3b, 0x2d, 0xa6, 0x60, 0x3d, 0x4a, 0x2a, 0x9e, 0x3d,
    0x9f, 0xb3, 0x43, 0xbe, 0x05, 0xd5, 0x04, 0xbe, 0x45, 0x09, 0x45, 0xbe, 0x5f,
    0x0f, 0x05, 0xbe, 0x2b, 0xae, 0xb5, 0xbd, 0x76, 0x1c, 0xfd, 0xbd, 0xa4, 0xb5,
    0xce, 0x3d, 0x9c, 0xd0, 0xbd, 0x3c, 0xcc, 0x65, 0xba, 0x3d, 0x5a, 0x1b, 0x6a,
    0xbd, 0x16, 0x54, 0x4c, 0x3e, 0xf8, 0xdc, 0x10, 0xbb, 0xb9, 0x90, 0x3b, 0xbe,
    0xb3, 0x97, 0x17, 0xbe, 0x45, 0x3e, 0x57, 0xbe, 0x02, 0x9d, 0xd7, 0xbb, 0x67,
    0x8c, 0xf5, 0xbd, 0xa7, 0xc7, 0x0f, 0x3c, 0x11, 0xb1, 0xd4, 0x3c, 0xc0, 0xbf,
    0x4b, 0xbc, 0xcb, 0xbf, 0xf0, 0x3d, 0xc0, 0x1f, 0xb3, 0x3d, 0x83, 0xae, 0x0c,
    0x3e, 0x79, 0xfb, 0x04, 0x3e, 0xd5, 0x3b, 0x9c, 0xbd, 0xa7, 0xb9, 0x22, 0xbd,
    0x5d, 0xf5, 0x86, 0xbe, 0x57, 0x90, 0x6c, 0xbe, 0x3d, 0xcb, 0x5a, 0xbe, 0x24,
    0x04, 0xf6, 0xbd, 0xfe, 0x87, 0xfb, 0x3d, 0xf9, 0x1d, 0xb1, 0xbd, 0x8b, 0x4d,
    0xad, 0x3e, 0x8a, 0xbe, 0x8e, 0x3d, 0x63, 0x30, 0xf4, 0xba, 0xd3, 0x89, 0x81,
    0x3e, 0x27, 0xab, 0xbb, 0xbe, 0x01, 0x31, 0x9c, 0x3d, 0x19, 0x7e, 0x58, 0xbc,
    0xc3, 0xe7, 0x2b, 0xbe, 0x84, 0x2c, 0xe4, 0xbd, 0xf8, 0xbd, 0x82, 0xbe, 0x99,
    0xc5, 0x22, 0x3d, 0x7f, 0xbb, 0x94, 0xbe, 0xd9, 0x2c, 0x58, 0x3d, 0x8c, 0x01,
    0x5f, 0x3e, 0x97, 0xb9, 0xcf, 0x3d, 0xdd, 0x08, 0x73, 0x3e, 0x21, 0xd7, 0xf1,
    0xbb, 0xfc, 0xf3, 0xa3, 0x3d, 0xd0, 0x13, 0x0f, 0xbd, 0x4f, 0xfe, 0xe5, 0xbd,
    0x88, 0x9b, 0xe5, 0x3c, 0x63, 0x73, 0x9b, 0xbe, 0x73, 0xac, 0x08, 0xbe, 0x62,
    0x9d, 0x4f, 0xbe, 0xdb, 0xdb, 0x7c, 0xbd, 0x61, 0xa5, 0xec, 0x3d, 0x0b, 0x9a,
    0x54, 0x3e, 0x4b, 0xb8, 0x9e, 0x3e, 0x39, 0xe7, 0x5a, 0xbe, 0x78, 0xb0, 0x76,
    0x3e, 0xde, 0x72, 0x13, 0x3e, 0x0a, 0xd4, 0x1d, 0xbe, 0x42, 0x0d, 0xae, 0x3a,
    0x3d, 0x57, 0x90, 0xbe, 0xe7, 0x8b, 0x25, 0xbe, 0x27, 0x5a, 0x9b, 0xbe, 0xae,
    0xab, 0x02, 0xbe, 0xcb, 0xca, 0x06, 0x3e, 0x93, 0x1a, 0x3e, 0xbd, 0xdd, 0x73,
    0x44, 0x3e, 0xb6, 0x6a, 0x24, 0x3e, 0x6f, 0x05, 0xa7, 0x3e, 0x4e, 0x38, 0x20,
    0x3e, 0x73, 0xab, 0xf7, 0xbd, 0x09, 0xc1, 0xde, 0x3c, 0x8d, 0xe9, 0xa3, 0xbe,
    0x91, 0xfc, 0x6b, 0xbe, 0x91, 0xc1, 0x31, 0xbe, 0xf4, 0x15, 0x9f, 0xbd, 0xf6,
    0xab, 0xb4, 0xbb, 0x6a, 0xf1, 0x6e, 0xbd, 0x94, 0x40, 0xad, 0x3e, 0xaf, 0xb4,
    0x87, 0x3e, 0x0a, 0x53, 0xd9, 0x3e, 0xa7, 0x97, 0xf9, 0x3d, 0x85, 0x5c, 0x81,
    0xbd, 0x4e, 0x1e, 0x96, 0x3c, 0xa2, 0x4e, 0x16, 0xbe, 0x08, 0xbe, 0x71, 0xbe,
    0x76, 0xc2, 0x3c, 0xbe, 0xd6, 0xc0, 0xbf, 0xbe, 0x11, 0xe9, 0xe8, 0x3d, 0x06,
    0x4c, 0x1a, 0x3d, 0x2d, 0x8b, 0x26, 0x3e, 0x3b, 0xbc, 0x37, 0x3e, 0xb2, 0xcf,
    0xb2, 0x3e, 0xa3, 0xf4, 0xb8, 0x3e, 0xba, 0xf6, 0x3f, 0xbd, 0x93, 0x00, 0x1d,
    0x3e, 0x22, 0x8f, 0xb2, 0x3d, 0x16, 0x33, 0xd2, 0xbd, 0xb9, 0x82, 0xdf, 0xbd,
    0xf9, 0x07, 0x66, 0xbe, 0xcb, 0x50, 0x2d, 0x3c, 0x4b, 0x8c, 0x39, 0xbc, 0x25,
    0xe9, 0x5e, 0x3c, 0x23, 0xd0, 0x51, 0x3d, 0x6e, 0x9b, 0x82, 0x3e, 0x2b, 0x57,
    0x71, 0x3e, 0x5d, 0x01, 0x17, 0x3e, 0x97, 0xde, 0xf3, 0x3d, 0xf9, 0x8e, 0x8e,
    0x3c, 0xf7, 0x4a, 0x94, 0xbc, 0x1a, 0xa3, 0x27, 0x3c, 0x99, 0x0a, 0xa4, 0xbe,
    0x0a, 0xdb, 0x9a, 0xbe, 0x49, 0x83, 0x24, 0xbe, 0x1d, 0x78, 0x6b, 0x3c, 0x7a,
    0x68, 0x90, 0x3d, 0xe5, 0xb8, 0xed, 0xbc, 0x0f, 0x03, 0xc5, 0x3d, 0x80, 0xd3,
    0x34, 0x3e, 0x8d, 0x61, 0x95, 0x3e, 0x3a, 0x04, 0x3e, 0x3e, 0x05, 0xb4, 0x81,
    0xbd, 0xc7, 0x3d, 0x10, 0x3e, 0xc7, 0xf7, 0x87, 0xbe, 0x53, 0x81, 0x74, 0xbe,
    0x8c, 0xc3, 0x32, 0xbe, 0x21, 0x0c, 0x7f, 0xbe, 0x04, 0xa9, 0xc5, 0x3d, 0x62,
    0x65, 0x0d, 0xbe, 0x57, 0x29, 0x3e, 0x3e, 0x4d, 0x96, 0xa6, 0x3d, 0x0f, 0x61,
    0x5a, 0x3e, 0x9a, 0x84, 0xd9, 0x3e, 0xab, 0x1f, 0x43, 0xbe, 0x4f, 0xe2, 0xc4,
    0x3d, 0x49, 0xa1, 0xc4, 0xbd, 0x36, 0xbe, 0x80, 0xbe, 0x8f, 0xe1, 0x58, 0xbe,
    0xbc, 0xd9, 0x75, 0xbe, 0x86, 0x01, 0xce, 0x3d, 0x4e, 0x03, 0x5d, 0xbe, 0xd7,
    0x6c, 0x0d, 0x3e, 0x23, 0x95, 0x14, 0x3e, 0x65, 0x0f, 0x6a, 0xbd, 0x46, 0x0f,
    0xa7, 0x3e, 0xb7, 0xbc, 0x56, 0xbc, 0xe4, 0x69, 0x35, 0x3e, 0x7f, 0xc9, 0xd1,
    0xbd, 0x72, 0x26, 0x82, 0xbe, 0x87, 0xe6, 0xc1, 0x3c, 0x2e, 0xca, 0x4e, 0xbe,
    0xde, 0x06, 0xa1, 0xbc, 0x08, 0x53, 0x39, 0xbe, 0xa6, 0x17, 0x94, 0xbd, 0x79,
    0xa2, 0x98, 0x3e, 0xd9, 0xf5, 0xc8, 0xbd, 0xcc, 0x1c, 0xa6, 0x3e, 0x9d, 0x8e,
    0x7b, 0x3e, 0x45, 0xf2, 0x53, 0x3e, 0x29, 0x04, 0x27, 0x3e, 0x2c, 0xa2, 0x31,
    0xbd, 0xd5, 0xa1, 0x3e, 0x3e, 0x93, 0xaf, 0xa9, 0xbe, 0xd7, 0x27, 0xc1, 0xbd,
    0x4f, 0x9e, 0x89, 0xbd, 0xe7, 0xe0, 0xc3, 0xbe, 0xb7, 0x90, 0x61, 0x3e, 0x97,
    0x58, 0xb5, 0xbd, 0x44, 0xa2, 0xea, 0x3e, 0xb4, 0x13, 0x4c, 0x3e, 0xa5, 0xa4,
    0x80, 0x3e, 0xd8, 0x34, 0xe5, 0x3e, 0xd1, 0xb0, 0x5d, 0xbd, 0x14, 0x37, 0x37,
    0x3e, 0x92, 0x84, 0x66, 0xbe, 0x90, 0x21, 0x2d, 0xbe, 0xa7, 0x34, 0xc0, 0xbe,
    0x3b, 0xba, 0xa4, 0xbe, 0xcb, 0xcb, 0x1e, 0x3e, 0x3a, 0x43, 0x26, 0xbe, 0x34,
    0xf9, 0xbb, 0x3e, 0xdd, 0x91, 0x90, 0x3e, 0x2e, 0x1e, 0x70, 0x3e, 0x15, 0x56,
    0xff, 0x3e, 0x6e, 0x30, 0xc4, 0xbd, 0x29, 0x0b, 0xc4, 0x3d, 0x5d, 0xa3, 0x5f,
    0xbe, 0x23, 0x0d, 0x84, 0xbe, 0xb2, 0xd1, 0x0b, 0xbe, 0x4a, 0x8a, 0x85, 0xbe,
    0xa6, 0x72, 0x66, 0x3d, 0x16, 0xef, 0x04, 0xbd, 0x7b, 0x1d, 0x0d, 0x3e, 0x00,
    0x5b, 0xa6, 0x3e, 0x17, 0x32, 0x0c, 0x3e, 0xc9, 0x1a, 0xd0, 0x3e, 0x7b, 0x42,
    0x37, 0x3b, 0x20, 0xaa, 0x1c, 0x3e, 0x69, 0xf9, 0x63, 0x3b, 0x67, 0x97, 0x97,
    0xbe, 0x31, 0x1c, 0x06, 0xbe, 0xa3, 0xbe, 0xb1, 0xbe, 0xd7, 0x87, 0xe0, 0xbd,
    0x01, 0xea, 0x4e, 0xbe, 0x57, 0x81, 0x05, 0xbe, 0xe6, 0xdf, 0x31, 0x3d, 0xf8,
    0x35, 0x05, 0x3e, 0x85, 0x8a, 0x00, 0x3f, 0x2b, 0x50, 0xc0, 0x3d, 0x35, 0xe9,
    0x98, 0x3e, 0xa1, 0xb1, 0xbe, 0x3d, 0xaa, 0x85, 0x64, 0xbe, 0xc3, 0x5e, 0xf1,
    0xbd, 0x8b, 0x59, 0xb8, 0xbe, 0x27, 0xf7, 0x29, 0x3d, 0x7f, 0x41, 0x74, 0xbe,
    0x93, 0x9f, 0x8b, 0xbc, 0x2f, 0x8b, 0x3a, 0x3e, 0xd8, 0x4a, 0xee, 0xbd, 0x90,
    0x1d, 0xf7, 0x3d, 0xcf, 0x81, 0x4c, 0x3d, 0x5b, 0xad, 0x20, 0x3e, 0x40, 0xa1,
    0x64, 0x3e, 0x1c, 0x03, 0x94, 0x3c, 0x67, 0xa0, 0xb2, 0x3d, 0x4c, 0x05, 0xac,
    0xbd, 0x29, 0xaa, 0x42, 0xbe, 0xdc, 0xc8, 0x95, 0xbd, 0x92, 0x7f, 0x66, 0xbe,
    0x9e, 0xf1, 0x55, 0xbd, 0x0b, 0x13, 0x87, 0xbe, 0x1b, 0x07, 0x46, 0x3e, 0x54,
    0x5a, 0x29, 0x3e, 0xea, 0x0e, 0x0f, 0x3b, 0x05, 0x0a, 0x0f, 0x3e, 0xb4, 0xe6,
    0x8b, 0xbd, 0xa1, 0x4b, 0x1e, 0x3e, 0x12, 0xb2, 0xc9, 0xbd, 0x25, 0xcc, 0x57,
    0xbe, 0xf1, 0x8d, 0x74, 0xbd, 0xd7, 0x44, 0x44, 0xbe, 0x4f, 0x6e, 0xc0, 0x3c,
    0xbd, 0xa4, 0x4a, 0xbe, 0x34, 0x1e, 0xe9, 0x3c, 0x96, 0x6f, 0x92, 0x3d, 0x3a,
    0x2d, 0x4d, 0xbd, 0xa0, 0x47, 0xc8, 0x3e, 0x76, 0x8a, 0xc7, 0xbd, 0x6d, 0x42,
    0x63, 0x3e, 0xfd, 0x03, 0x9f, 0x3d, 0xf0, 0x59, 0x67, 0xbe, 0xb4, 0x2f, 0xd5,
    0x3c, 0xee, 0x42, 0xad, 0xbe, 0xe3, 0x63, 0x0e, 0xbd, 0x3c, 0x7f, 0x8f, 0xbe,
    0x51, 0xf9, 0xd0, 0xbd, 0x4a, 0x5a, 0xff, 0x3c, 0x4d, 0x33, 0x19, 0xbe, 0x2f,
    0x94, 0xbe, 0x3e, 0x55, 0x4b, 0x01, 0x3d, 0x77, 0x80, 0x62, 0x3e, 0x07, 0x1a,
    0x89, 0x3e, 0x19, 0xa6, 0x34, 0x3c, 0x9d, 0x9f, 0x33, 0xbc, 0x50, 0x24, 0xf1,
    0xbd, 0x34, 0xc9, 0x08, 0xbe, 0xb1, 0xde, 0x82, 0xbe, 0x95, 0x12, 0xef, 0xbd,
    0xda, 0x9d, 0x9d, 0x3c, 0x61, 0xf8, 0xcd, 0x3c, 0x80, 0x0f, 0x39, 0x3e, 0x21,
    0x70, 0x23, 0x3e, 0x44, 0xab, 0x97, 0x3e, 0xa7, 0x4a, 0x5a, 0x3e, 0x1a, 0x08,
    0xa9, 0x3b, 0x7a, 0x14, 0x44, 0x3d, 0x93, 0x15, 0x0a, 0xbe, 0x18, 0x44, 0xf7,
    0xbd, 0x04, 0xf8, 0x15, 0xbe, 0x27, 0x51, 0x6d, 0xbe, 0x8e, 0x13, 0x66, 0x3d,
    0xd1, 0xf6, 0x8d, 0x3c, 0x1c, 0x6a, 0x7b, 0x3e, 0x45, 0x39, 0x5c, 0x3e, 0x6c,
    0xd8, 0xbf, 0x3d, 0xe4, 0xf0, 0x75, 0x3e, 0xf6, 0x63, 0x17, 0xbe, 0x71, 0xb7,
    0x0a, 0x3e, 0x04, 0x42, 0x48, 0x3c, 0x11, 0x6e, 0xcd, 0x3b, 0xad, 0xa7, 0x8f,
    0xbd, 0x69, 0x39, 0x5b, 0xbe, 0x06, 0x98, 0x18, 0x3e, 0xbb, 0x0d, 0x24, 0xbe,
    0x72, 0xea, 0xb1, 0x3b, 0x01, 0x63, 0x70, 0x3e, 0x78, 0xb2, 0x87, 0x3e, 0x52,
    0xb9, 0x6c, 0x3e, 0x8a, 0xcf, 0xf3, 0xbc, 0x20, 0x3b, 0xb9, 0x3c, 0xe0, 0xeb,
    0xc7, 0xbd, 0xe2, 0x5b, 0x70, 0xbc, 0x8b, 0xef, 0xad, 0xbc, 0x78, 0xe2, 0xaf,
    0xbc, 0x62, 0xf5, 0xfb, 0x3c, 0xaf, 0xbd, 0x69, 0x3b, 0xcb, 0x34, 0x4d, 0x3c,
    0x95, 0x52, 0x00, 0x3d, 0x85, 0x3b, 0x92, 0xbb, 0x03, 0xc9, 0xef, 0x3d, 0xec,
    0xe0, 0x1f, 0x3d, 0x90, 0xff, 0xba, 0xbc, 0x56, 0x73, 0x3a, 0xbc, 0x55, 0x94,
    0x67, 0x3c, 0x2a, 0x5f, 0x53, 0x3c, 0x52, 0x2a, 0x5e, 0x3d, 0x5e, 0xe3, 0x64,
    0x3a, 0x71, 0x12, 0x68, 0x3d, 0xc1, 0x5a, 0x87, 0x3d, 0x5e, 0x34, 0x32, 0x3d,
    0xa9, 0xaa, 0x75, 0x3d, 0xe0, 0x91, 0x84, 0x3c, 0x96, 0xa8, 0xfc, 0x3c, 0xe2,
    0x3d, 0x87, 0x3b, 0x62, 0xea, 0xad, 0xbd, 0x07, 0x29, 0xa4, 0xbd, 0xe6, 0x14,
    0x00, 0xbd, 0xf0, 0xea, 0xe1, 0xbc, 0x46, 0x0d, 0xa3, 0xbd, 0x74, 0x82, 0x16,
    0xbd, 0xe3, 0xd1, 0x49, 0x3d, 0x54, 0x3f, 0x95, 0x3d, 0x3f, 0x4f, 0x1d, 0xbd,
    0xfb, 0x7d, 0x2e, 0xbd, 0x3b, 0x99, 0x8b, 0x3c, 0xd3, 0x46, 0x7b, 0x3d, 0x1e,
    0x40, 0x61, 0xbd, 0xab, 0x58, 0xbd, 0x3c, 0x26, 0x63, 0xe8, 0x3b, 0x7b, 0x9d,
    0xed, 0xbc, 0x61, 0xd1, 0x1a, 0xbd, 0x52, 0x67, 0xd9, 0xbc, 0xb4, 0xb9, 0x4a,
    0xbd, 0xf5, 0xb6, 0xa7, 0x39, 0xa9, 0xb5, 0x76, 0xba, 0xa6, 0x3b, 0x0d, 0x3d,
    0x3a, 0x6d, 0x9d, 0x3c, 0x22, 0x91, 0xad, 0x3b, 0x86, 0x7c, 0xa7, 0xba, 0x82,
    0xc4, 0x24, 0x38, 0xc0, 0x6f, 0x14, 0xbc, 0x6f, 0x01, 0x71, 0x3d, 0xb9, 0x3a,
    0xb6, 0x3c, 0xd1, 0x91, 0x8a, 0x3c, 0xdd, 0x42, 0xbb, 0xbd, 0x97, 0x62, 0x2e,
    0x3d, 0xea, 0x67, 0x01, 0x3d, 0xd1, 0x76, 0xe1, 0xbd, 0x79, 0x8e, 0x2e, 0xbd,
    0x0a, 0xcc, 0x49, 0xbd, 0x6f, 0x9f, 0x36, 0x3d, 0x73, 0x25, 0x28, 0xbd, 0xf6,
    0xac, 0xe7, 0xbc, 0x39, 0xca, 0x37, 0xbd, 0xf0, 0x5f, 0xb8, 0x3d, 0xc0, 0x8b,
    0xab, 0xbc, 0xc4, 0x43, 0x43, 0xbd, 0x83, 0xdd, 0x2f, 0xbd, 0xec, 0xdc, 0x0a,
    0x3d, 0xd1, 0x65, 0xab, 0xbc, 0x10, 0xfb, 0xff, 0x3c, 0x92, 0xe1, 0x2f, 0xbd,
    0x71, 0x03, 0x13, 0x3d, 0x4f, 0xff, 0x30, 0x3d, 0xa6, 0x8a, 0x9b, 0xbd, 0x42,
    0x57, 0xb7, 0x3c, 0x0c, 0x15, 0x5b, 0xbd, 0xb8, 0x9d, 0x04, 0x3d, 0x38, 0x0f,
    0xdb, 0xbd, 0x11, 0x33, 0xd1, 0x3c, 0x44, 0xcf, 0x39, 0xbd, 0x34, 0xcd, 0xfc,
    0x3c, 0xd7, 0xd1, 0x41, 0x3d, 0x95, 0x5c, 0xc1, 0xbd, 0x28, 0x69, 0xdc, 0xbb,
    0xda, 0xc4, 0x3e, 0xbc, 0x38, 0x1c, 0xbd, 0x3c, 0x53, 0x74, 0x87, 0x3a, 0x9c,
    0xaf, 0x4b, 0x3d, 0x9c, 0x23, 0x83, 0x3d, 0x7e, 0x9d, 0x29, 0x3c, 0x5c, 0x23,
    0x6c, 0x3d, 0x0f, 0x3e, 0xd2, 0x3c, 0x13, 0x56, 0x84, 0x3d, 0x22, 0xd5, 0x96,
    0x3d, 0x3d, 0xc7, 0x96, 0xbd, 0x75, 0xc5, 0x43, 0xbc, 0x31, 0x79, 0x2a, 0xbc,
    0xdb, 0xf7, 0x48, 0xbc, 0xfa, 0xa2, 0x1a, 0x3d, 0x64, 0x2e, 0x0a, 0x3c, 0x19,
    0xce, 0x6a, 0x3d, 0x40, 0xa8, 0x67, 0x3d, 0x07, 0x56, 0xb5, 0x3d, 0x94, 0x89,
    0x27, 0xbd, 0xb5, 0x35, 0x90, 0xbd, 0x3e, 0x31, 0x36, 0x3d, 0x4b, 0xc0, 0x45,
    0x3c, 0x78, 0x02, 0x80, 0x3d, 0xe2, 0x98, 0xdf, 0x3c, 0xa9, 0x79, 0xcf, 0x3c,
    0xa1, 0xe7, 0x65, 0x3d, 0xb8, 0x57, 0xd4, 0xbc, 0x94, 0x34, 0x4b, 0xbd, 0x91,
    0x01, 0x38, 0xbd, 0x18, 0xf2, 0x01, 0x3e, 0x66, 0x0a, 0x89, 0xbd, 0xb6, 0xc7,
    0x04, 0xbe, 0xed, 0xe9, 0x60, 0xbd, 0xc9, 0xab, 0x98, 0x3b, 0x9a, 0xf6, 0x39,
    0x3c, 0xb5, 0xd6, 0xa8, 0x3c, 0x0d, 0x38, 0xc5, 0x3b, 0x16, 0x18, 0x08, 0x3d,
    0x71, 0x34, 0xd4, 0xbc, 0x05, 0xfa, 0xe4, 0xbc, 0x6a, 0x3e, 0xce, 0xbc, 0xb2,
    0x92, 0x84, 0x3d, 0x92, 0x43, 0x74, 0x3c, 0xf6, 0xbc, 0x36, 0xbc, 0x19, 0x4f,
    0x4a, 0xbd, 0x0a, 0xff, 0x31, 0xbc, 0xb0, 0x79, 0xe5, 0x3c, 0xf4, 0x3a, 0x22,
    0x3c, 0x14, 0xf0, 0x0e, 0x3d, 0x4f, 0x6c, 0x93, 0x3c, 0x39, 0xd6, 0x52, 0x3d,
    0x58, 0xff, 0xa5, 0x3c, 0xca, 0xa1, 0xea, 0x3d, 0x43, 0x47, 0x0c, 0xbc, 0x1d,
    0x8c, 0x52, 0x3d, 0xcf, 0x60, 0x80, 0x3d, 0x7e, 0xc5, 0x5f, 0x3d, 0xbb, 0x29,
    0x1c, 0xbd, 0x1a, 0xd9, 0x45, 0xbd, 0x29, 0xd0, 0x8c, 0xbd, 0xca, 0xfd, 0xa4,
    0xbd, 0x80, 0xdb, 0xb2, 0xbd, 0xf7, 0x0b, 0xa5, 0xbd, 0x2e, 0xa8, 0x0f, 0x3d,
    0xcc, 0xf9, 0x43, 0x3d, 0xb9, 0x53, 0xfd, 0x3a, 0x10, 0x3e, 0xb6, 0xbb, 0xfe,
    0x09, 0x39, 0x3b, 0x8f, 0xd0, 0x0d, 0xbc, 0xa4, 0xfb, 0xf6, 0xbd, 0xcb, 0x4e,
    0x77, 0xbd, 0x3a, 0x68, 0x08, 0xbc, 0xcf, 0x23, 0x60, 0x3d, 0x5b, 0x86, 0x2c,
    0x3d, 0x89, 0xff, 0x1d, 0xbd, 0xd8, 0x26, 0x03, 0xbc, 0x8c, 0xa3, 0x04, 0xbd,
    0xd2, 0x55, 0xc4, 0x3d, 0x96, 0xdd, 0xfd, 0xbc, 0xc1, 0x29, 0x00, 0x3c, 0x15,
    0x0a, 0xf6, 0xbd, 0x18, 0x64, 0x18, 0xbc, 0x84, 0x4b, 0x13, 0xbd, 0x7e, 0x36,
    0x2e, 0x3d, 0xff, 0x64, 0x84, 0xb9, 0xcf, 0xc4, 0x91, 0x3b, 0x62, 0x00, 0x3d,
    0x3d, 0xc0, 0x2c, 0x17, 0xbd, 0x43, 0xc7, 0x25, 0xbd, 0xfb, 0xb2, 0xca, 0xba,
    0xe4, 0xf7, 0x81, 0xbd, 0xcb, 0x39, 0xab, 0x3d, 0x0d, 0x54, 0xfe, 0xbb, 0xb1,
    0xec, 0xa8, 0xbc, 0x9b, 0xa4, 0xc2, 0xbd, 0x9c, 0xf7, 0x45, 0x3d, 0xd5, 0x27,
    0x41, 0xbc, 0x8e, 0xec, 0x87, 0xbd, 0xeb, 0x50, 0xbe, 0x3b, 0x47, 0xf1, 0x2e,
    0xbd, 0xfd, 0xd8, 0xba, 0xbc, 0xdc, 0x03, 0x31, 0xbd, 0x63, 0xf1, 0x08, 0xbc,
    0x1d, 0x69, 0x01, 0x3d, 0x21, 0x43, 0x8f, 0x3c, 0xee, 0x16, 0xce, 0xbb, 0x20,
    0x67, 0x1c, 0xbc, 0x49, 0x1c, 0x4a, 0x3d, 0x09, 0x3b, 0xa5, 0xbd, 0x99, 0x9c,
    0xa8, 0xbd, 0xda, 0x9d, 0x81, 0xbd, 0xd3, 0x27, 0x17, 0xbd, 0x56, 0xcb, 0x11,
    0x3c, 0x19, 0x7e, 0x98, 0x3d, 0xb8, 0xd7, 0x16, 0xbe, 0xb5, 0x6d, 0x5f, 0x3b,
    0x8e, 0x34, 0x40, 0xbd, 0x9f, 0x40, 0x99, 0x3b, 0xdc, 0x20, 0x57, 0x3d, 0x9e,
    0x4b, 0x18, 0x3d, 0x72, 0x59, 0xf6, 0xbc, 0x8f, 0x0c, 0x00, 0xbd, 0x62, 0x38,
    0x96, 0x3d, 0x2d, 0x14, 0x7d, 0x3c, 0x0a, 0xc6, 0x50, 0x3d, 0x7f, 0x56, 0x4e,
    0xbd, 0x2c, 0x45, 0x99, 0xbd, 0x7a, 0xff, 0x09, 0x3d, 0x32, 0xc0, 0x51, 0x3d,
    0x00, 0x69, 0x12, 0x3d, 0xbf, 0x2a, 0x3d, 0xbd, 0x67, 0x18, 0xa6, 0x3c, 0xdc,
    0x91, 0xa3, 0x3c, 0x22, 0x9c, 0x92, 0xbd, 0x5a, 0x4f, 0x89, 0xbd, 0x68, 0xf1,
    0x4b, 0xbd, 0xad, 0xc4, 0x56, 0x3d, 0xa1, 0x01, 0x92, 0xbc, 0xf8, 0x87, 0x29,
    0xbd, 0xe7, 0xef, 0x3f, 0xbd, 0x56, 0x88, 0x84, 0x3d, 0x57, 0x53, 0x37, 0x3d,
    0xc6, 0x98, 0x2b, 0x3d, 0xe0, 0xa1, 0xf2, 0x3c, 0xe3, 0xcb, 0xd7, 0x3c, 0x6e,
    0xe4, 0x32, 0xbc, 0xf5, 0x9c, 0x3a, 0xbe, 0x82, 0xd9, 0x90, 0xbd, 0xbe, 0x64,
    0xbf, 0xbd, 0x4c, 0xc4, 0xda, 0x3d, 0x32, 0x1b, 0x9f, 0xbb, 0x72, 0x08, 0x64,
    0x3d, 0x84, 0xd2, 0x27, 0xbc, 0x3c, 0x5e, 0x85, 0x3d, 0xfe, 0xe5, 0x23, 0x3d,
    0x13, 0xf5, 0x4a, 0x3d, 0x15, 0x4a, 0xa6, 0x3a, 0x39, 0x05, 0x7e, 0xbd, 0x19,
    0xc7, 0x42, 0xbd, 0xa4, 0xb8, 0x63, 0xbd, 0x2d, 0xf4, 0xe7, 0x3c, 0xcd, 0x89,
    0x38, 0x3d, 0x1a, 0xc6, 0x8f, 0xbc, 0x6e, 0xb8, 0x07, 0x3d, 0x06, 0xb3, 0xc2,
    0xbc, 0xa7, 0x42, 0x80, 0x3d, 0xc5, 0x3f, 0x02, 0x3c, 0xef, 0x0a, 0xa2, 0x3b,
    0xb5, 0xc8, 0x29, 0x3c, 0xbb, 0x3a, 0xd5, 0xbd, 0x1b, 0x5a, 0xb5, 0xbc, 0xff,
    0x63, 0x57, 0x3c, 0x4a, 0x47, 0xee, 0xbd, 0x9d, 0x6c, 0x2f, 0x3d, 0x96, 0x55,
    0xb1, 0xbc, 0x11, 0x6e, 0x82, 0x39, 0x12, 0xef, 0xd4, 0x3d, 0x86, 0xce, 0x38,
    0x3b, 0x0a, 0x60, 0x1c, 0x3b, 0x8d, 0x51, 0x29, 0xbd, 0xa9, 0x67, 0x06, 0x3d,
    0x72, 0xf9, 0xad, 0xbd, 0x0f, 0xdc, 0xbd, 0x3b, 0x41, 0xbc, 0x29, 0x3d, 0x84,
    0x82, 0x23, 0x3c, 0x18, 0x14, 0x2e, 0x3d, 0xf3, 0x45, 0x0f, 0xbd, 0x58, 0x94,
    0xa7, 0xbd, 0x14, 0x1c, 0x93, 0xba, 0x6b, 0x9c, 0x0a, 0x3d, 0x65, 0x47, 0x97,
    0x3c, 0xf5, 0xa0, 0x3d, 0xbd, 0x8e, 0x3b, 0xed, 0xbc, 0xfd, 0xac, 0x77, 0x3c,
    0xbf, 0x83, 0x3b, 0x3d, 0xe5, 0xf4, 0xca, 0xbd, 0xae, 0xea, 0x48, 0xbb, 0x9e,
    0xf1, 0x51, 0xbd, 0x2c, 0x0e, 0x9b, 0x3d, 0xef, 0x18, 0xa0, 0xbd, 0xff, 0x6b,
    0x03, 0x3d, 0x37, 0xbe, 0x65, 0xbc, 0x18, 0xf1, 0x0a, 0x3d, 0x73, 0x3a, 0xb5,
    0xbc, 0xe4, 0x20, 0x2c, 0xbd, 0x87, 0xd1, 0xa8, 0x3d, 0x46, 0xba, 0x8d, 0x3c,
    0x5a, 0x68, 0xfb, 0x3c, 0xf1, 0x20, 0x5e, 0xbb, 0xfc, 0xdc, 0xab, 0xbc, 0xa0,
    0x1d, 0x0c, 0xbd, 0xe7, 0xe3, 0x28, 0xbe, 0x4d, 0xb2, 0x1a, 0x3e, 0x13, 0x4a,
    0xc6, 0x3c, 0xea, 0xf3, 0x07, 0x3e, 0xe4, 0x4d, 0xaa, 0xbc, 0x1b, 0x02, 0x30,
    0xbb, 0x34, 0xe1, 0x98, 0x3d, 0x94, 0x76, 0xe2, 0xbd, 0x7a, 0xd6, 0x04, 0xbc,
    0x01, 0xea, 0xd2, 0x3b, 0xf2, 0xc2, 0xcb, 0x3d, 0x3c, 0x0c, 0x39, 0x3d, 0xc1,
    0x12, 0x8f, 0xbd, 0x83, 0x3a, 0x07, 0x3d, 0xfc, 0x09, 0x42, 0xbc, 0x4d, 0x90,
    0xe5, 0xbc, 0x15, 0xe3, 0x89, 0x3d, 0x52, 0x81, 0xa8, 0xbd, 0xa4, 0x73, 0x1c,
    0xbd, 0x86, 0x8f, 0xcf, 0xbc, 0x50, 0x7c, 0xa1, 0xbb, 0xa2, 0x6a, 0x18, 0x3c,
    0xa4, 0xc4, 0x59, 0x3c, 0x14, 0xa6, 0x46, 0xbd, 0xa8, 0xaf, 0x7c, 0xbd, 0x84,
    0xf1, 0x8c, 0xbd, 0x16, 0xff, 0x1c, 0xbd, 0x5b, 0xf4, 0x70, 0x3c, 0x05, 0x71,
    0x5c, 0x3c, 0x6d, 0xf2, 0x98, 0xbc, 0xcc, 0x9f, 0xcd, 0xbc, 0xa4, 0xb1, 0x64,
    0x3d, 0xe5, 0x49, 0x2e, 0x3c, 0x9e, 0x74, 0xfe, 0x3c, 0x5d, 0xcc, 0xc6, 0xbb,
    0x4d, 0x31, 0x84, 0x3c, 0x9d, 0xca, 0x4d, 0x3d, 0xb8, 0x33, 0xd6, 0x3d, 0x1d,
    0x23, 0x8b, 0xbd, 0x8f, 0x12, 0x8c, 0xbc, 0xfb, 0xf7, 0x8a, 0xbd, 0xf0, 0x40,
    0xe5, 0xbd, 0x96, 0x91, 0xae, 0xbd, 0xd5, 0x31, 0xf9, 0x3c, 0x99, 0xfa, 0x10,
    0x3d, 0xf4, 0x5e, 0x6f, 0x3d, 0x61, 0xa5, 0x52, 0x3d, 0x4a, 0xe7, 0xcf, 0x3d,
    0x17, 0x95, 0x01, 0xbd, 0xff, 0x72, 0x3f, 0x3c, 0x2e, 0x8e, 0x96, 0xbd, 0x37,
    0xad, 0x49, 0xbd, 0xce, 0x48, 0x3c, 0x3d, 0x1c, 0x06, 0x70, 0xbd, 0x20, 0x8a,
    0x20, 0x3d, 0x9d, 0xfb, 0xd6, 0xbc, 0x1d, 0x92, 0x0a, 0x3d, 0x9d, 0xc1, 0x82,
    0x3c, 0xd1, 0xe0, 0xc8, 0x3c, 0xf4, 0x7d, 0xf1, 0xbc, 0x80, 0xdf, 0x53, 0xbd,
    0xf2, 0xe4, 0x15, 0x3d, 0xfd, 0x82, 0xb5, 0xbc, 0xec, 0x56, 0x45, 0xbd, 0x0e,
    0x42, 0xf7, 0x3c, 0xa0, 0x3b, 0x90, 0x3c, 0x3e, 0x44, 0x31, 0x3c, 0x35, 0x02,
    0x81, 0x3d, 0x32, 0xa2, 0x05, 0x3d, 0xc5, 0xb2, 0x85, 0xbd, 0xcf, 0x7c, 0x76,
    0x3c, 0x0f, 0x2e, 0x93, 0xbc, 0x83, 0x8f, 0xae, 0xbb, 0xe5, 0xf9, 0xff, 0xba,
    0x09, 0x66, 0xf9, 0xbc, 0x11, 0xda, 0x89, 0xbc, 0x6a, 0xb5, 0x0d, 0x3c, 0x89,
    0xca, 0x8e, 0xbb, 0x5f, 0x2c, 0x2a, 0xbb, 0x15, 0x0a, 0xfa, 0x3c, 0x97, 0x67,
    0x33, 0x3d, 0x45, 0x13, 0x55, 0xbd, 0x24, 0x9a, 0x3a, 0xbd, 0xd8, 0x7b, 0x18,
    0xbb, 0x25, 0x33, 0x57, 0x3c, 0x0c, 0x10, 0xda, 0x3d, 0xd9, 0x7b, 0x4c, 0x3c,
    0xcb, 0xbf, 0xb1, 0xbd, 0xd7, 0x1a, 0x93, 0xbd, 0xd4, 0x77, 0x1c, 0x3e, 0x56,
    0xdf, 0x5c, 0xbc, 0x68, 0x92, 0x42, 0xbe, 0x8b, 0x92, 0x9c, 0x3c, 0x3c, 0x03,
    0xc2, 0x3d, 0x61, 0x9b, 0x08, 0xbd, 0x36, 0x53, 0x44, 0x3d, 0x69, 0xb1, 0x08,
    0x3e, 0x02, 0x3c, 0x88, 0x3d, 0xec, 0x6f, 0x41, 0xbe, 0xd2, 0x28, 0x50, 0x3d,
    0x0a, 0xf4, 0xa5, 0x3d, 0x57, 0x9a, 0x94, 0xbc, 0x96, 0xa1, 0x9d, 0xbd, 0x27,
    0x90, 0x73, 0x3d, 0xb8, 0x1c, 0x9a, 0x3d, 0x8c, 0x56, 0x75, 0x3c, 0xeb, 0xc4,
    0x1f, 0x3e, 0xfd, 0x5b, 0x7e, 0x3e, 0xd7, 0x2b, 0x53, 0x3d, 0x1b, 0x1b, 0x29,
    0x3e, 0x96, 0x00, 0xe4, 0x3d, 0x9d, 0x65, 0x45, 0xbc, 0x05, 0xc6, 0xb4, 0xbd,
    0xfc, 0x87, 0x35, 0xbe, 0x6f, 0x1d, 0x0d, 0x3d, 0x02, 0x2a, 0x76, 0x3d, 0x2a,
    0x27, 0xbd, 0x3d, 0x46, 0x07, 0x06, 0x3d, 0xe2, 0x1f, 0xa4, 0x3d, 0xc0, 0x2c,
    0x02, 0xbe, 0xea, 0xbb, 0xc9, 0xbc, 0x2c, 0x63, 0xf6, 0x3d, 0x89, 0x33, 0x21,
    0x3d, 0xc6, 0x92, 0x22, 0x3d, 0x34, 0x91, 0x09, 0x3d, 0xdf, 0x3e, 0x4b, 0xbd,
    0x8b, 0x0f, 0xab, 0x3c, 0xa6, 0x08, 0x80, 0xbd, 0x34, 0x45, 0x06, 0xbe, 0xe7,
    0x3c, 0x09, 0xbc, 0x81, 0xf3, 0x9d, 0x3c, 0xa9, 0x67, 0xee, 0x3d, 0xa9, 0xb1,
    0x18, 0xbe, 0xbd, 0xb0, 0xab, 0x3d, 0x23, 0xab, 0x51, 0x3d, 0x1d, 0xcb, 0xc9,
    0x3c, 0xe8, 0x55, 0x96, 0x3d, 0x52, 0xe4, 0x08, 0xbd, 0x35, 0x58, 0x0b, 0x3e,
    0x31, 0x13, 0xcc, 0xbb, 0xf2, 0xec, 0x01, 0xbe, 0x9b, 0x6f, 0xe4, 0xbd, 0xd5,
    0xae, 0xc9, 0x3c, 0xd6, 0x33, 0x51, 0xbc, 0xb1, 0xe5, 0x02, 0xbe, 0x58, 0x1f,
    0xe5, 0x3d, 0xdf, 0x70, 0xef, 0x3d, 0x06, 0xe6, 0x4d, 0xbe, 0x82, 0xeb, 0xd0,
    0x3c, 0x3a, 0xce, 0x91, 0xbd, 0x8a, 0xbf, 0x61, 0xbd, 0x2d, 0xe2, 0xfb, 0xbd,
    0xbf, 0xed, 0x3c, 0x3e, 0xf1, 0x21, 0xd7, 0x3c, 0xf6, 0xb9, 0x2d, 0xbe, 0x89,
    0x19, 0x77, 0xbd, 0xe4, 0x14, 0xc2, 0xbb, 0x80, 0x3e, 0x1c, 0x3c, 0x06, 0x20,
    0x53, 0x3d, 0x6b, 0x20, 0x67, 0xbd, 0x14, 0xdf, 0xe5, 0x3d, 0x04, 0xbf, 0x2b,
    0x3d, 0x22, 0xf4, 0xa9, 0xbd, 0x83, 0x2f, 0xa8, 0xbd, 0xec, 0x4e, 0xe6, 0x3d,
    0x05, 0xfb, 0x42, 0xbb, 0x6b, 0xeb, 0xfa, 0x3d, 0x43, 0xdc, 0x71, 0x3c, 0xb5,
    0x2f, 0xc3, 0x3d, 0x7d, 0xc9, 0x42, 0x3e, 0xdd, 0x57, 0x1c, 0x3a, 0x73, 0xbf,
    0x98, 0xbd, 0xa8, 0xe4, 0x3e, 0xbd, 0x56, 0x6e, 0x8f, 0xbe, 0xa4, 0x7f, 0x23,
    0xbe, 0x21, 0xf8, 0x43, 0x3e, 0xe7, 0xa9, 0x87, 0xbd, 0x5d, 0xf5, 0x64, 0xbe,
    0x03, 0x6b, 0x4d, 0xbd, 0x17, 0x89, 0xb4, 0xbd, 0xaa, 0xea, 0x5f, 0x3c, 0x5b,
    0x26, 0x0e, 0x3e, 0x41, 0x7e, 0xc2, 0x3c, 0xfa, 0xb4, 0x34, 0xbd, 0x33, 0x53,
    0x3c, 0x3e, 0xa1, 0xb8, 0xf1, 0xbd, 0x26, 0x7f, 0x9f, 0xbb, 0x38, 0x6c, 0x52,
    0x3e, 0x10, 0x22, 0x27, 0x3e, 0x85, 0x26, 0x8b, 0xbd, 0x95, 0x68, 0x76, 0xbd,
    0x5d, 0xd0, 0x1c, 0x3e, 0x31, 0xff, 0xb2, 0xbc, 0x26, 0xf4, 0xba, 0xbe, 0x04,
    0xd0, 0x2f, 0x3e, 0x6a, 0x9b, 0x07, 0x3e, 0x28, 0xe7, 0x1f, 0xbe, 0xe4, 0x2c,
    0x30, 0x3e, 0xbc, 0x87, 0x55, 0x3c, 0x36, 0x3c, 0x9b, 0x3d, 0x00, 0x01, 0xc2,
    0xbc, 0x69, 0x69, 0xff, 0x3d, 0xf3, 0x8f, 0x87, 0xbd, 0xbc, 0x83, 0xd2, 0xbd,
    0xb4, 0xd5, 0xe6, 0xbc, 0xc1, 0x35, 0x18, 0x3e, 0x14, 0xad, 0xdf, 0x3c, 0xf2,
    0x81, 0xe1, 0xbd, 0x5f, 0x4d, 0xf7, 0x3d, 0x9c, 0x7a, 0x1e, 0x3e, 0x5f, 0xf4,
    0x72, 0x3d, 0x29, 0x4a, 0xe6, 0xbd, 0x26, 0x74, 0xe8, 0xbc, 0xeb, 0xc1, 0xc8,
    0x3d, 0xef, 0x12, 0xa1, 0x3d, 0xb3, 0x15, 0x06, 0x3e, 0xeb, 0x1d, 0x0e, 0x3e,
    0xd7, 0x7c, 0x4d, 0x3e, 0xe5, 0xd8, 0xb8, 0xbd, 0x20, 0xc2, 0x69, 0xbd, 0x66,
    0x74, 0x52, 0x3e, 0xbf, 0x9c, 0x20, 0xbe, 0x75, 0xce, 0xba, 0xbd, 0x74, 0x28,
    0x91, 0x3e, 0x9b, 0x56, 0x07, 0x3b, 0x5c, 0x8b, 0xaa, 0x3d, 0x13, 0x4a, 0x11,
    0xbe, 0x5a, 0xe3, 0xbf, 0xbd, 0x67, 0x65, 0x03, 0xbe, 0x99, 0xe3, 0x82, 0xbd,
    0x94, 0x70, 0x08, 0x3e, 0x0c, 0x5d, 0xa8, 0x3d, 0x02, 0xe2, 0xcc, 0xbd, 0xdb,
    0x86, 0xc1, 0x3d, 0xd9, 0xea, 0xb9, 0xbd, 0x1d, 0x30, 0xf0, 0xbd, 0x82, 0xa6,
    0x20, 0xbe, 0xe4, 0x51, 0x8b, 0x3d, 0x6e, 0x7b, 0x8d, 0x3b, 0x5a, 0x64, 0x6c,
    0xbd, 0xb1, 0xe7, 0xa4, 0x3d, 0xbc, 0x5a, 0x14, 0xbe, 0xbb, 0x7b, 0xb7, 0x3c,
    0x9a, 0xfa, 0xb1, 0xbd, 0xad, 0x10, 0x35, 0xbe, 0x3a, 0xf9, 0x83, 0x3e, 0xae,
    0xdc, 0x84, 0xbc, 0xf5, 0xaa, 0x34, 0x3e, 0xb3, 0x4b, 0x1a, 0x3b, 0x5b, 0xef,
    0xe9, 0xbd, 0x29, 0x52, 0x11, 0x3d, 0x4f, 0x04, 0x28, 0xbe, 0xe8, 0x52, 0x55,
    0xbe, 0xfc, 0x5d, 0xd3, 0x3d, 0xc0, 0x92, 0xf2, 0xbd, 0x31, 0x0f, 0x26, 0xbe,
    0xf1, 0xd7, 0x25, 0xbe, 0x89, 0xa7, 0x02, 0xbc, 0x36, 0xe4, 0x0a, 0xbe, 0x17,
    0x5a, 0x4c, 0xbe, 0x9f, 0x57, 0x37, 0x3e, 0x4e, 0xef, 0x86, 0x3d, 0xfa, 0x0f,
    0x00, 0x3b, 0x7e, 0xec, 0x37, 0x3d, 0x5c, 0x3c, 0x32, 0x3e, 0x5d, 0x7d, 0x1d,
    0xbe, 0xe1, 0xd6, 0x73, 0x3c, 0x81, 0x55, 0x90, 0xbc, 0x6f, 0x2e, 0xea, 0xbd,
    0xdd, 0x5c, 0xdd, 0xbc, 0xdd, 0xb4, 0x62, 0xbd, 0x1a, 0x48, 0x0d, 0x3e, 0x07,
    0xbe, 0x77, 0x3e, 0x91, 0xbe, 0x48, 0x3e, 0xc5, 0x49, 0xaf, 0xbd, 0x7f, 0xcf,
    0x87, 0x3d, 0x6b, 0xa2, 0xdd, 0x3d, 0x32, 0xda, 0x21, 0x3e, 0x23, 0xae, 0x06,
    0x3e, 0xb3, 0x9f, 0x46, 0x3d, 0xc8, 0x87, 0x8f, 0x3d, 0xc9, 0xf1, 0x93, 0xbd,
    0x67, 0x19, 0xfa, 0x3d, 0x53, 0x07, 0x53, 0xbd, 0x8c, 0x57, 0x97, 0x3b, 0x51,
    0x93, 0x18, 0xbd, 0x2b, 0xf0, 0x17, 0xbd, 0x55, 0x90, 0x64, 0xbe, 0x0d, 0xb4,
    0xba, 0xbc, 0xec, 0xf3, 0x8f, 0xbd, 0x0a, 0x1b, 0xc8, 0x3c, 0x2c, 0xbc, 0x8e,
    0x3d, 0x90, 0x7a, 0x02, 0x3e, 0x2f, 0xa5, 0xbf, 0xbd, 0x9b, 0xcf, 0x2c, 0xbe,
    0x62, 0xa6, 0x78, 0xbd, 0x48, 0x78, 0x77, 0x3d, 0x82, 0x3c, 0xe2, 0xbd, 0x37,
    0x41, 0x1b, 0x3e, 0xcc, 0x09, 0xac, 0xbc, 0x7d, 0x81, 0x39, 0xbe, 0x74, 0xe0,
    0xd0, 0xbc, 0x83, 0x04, 0xe8, 0x3b, 0x7c, 0xa6, 0x06, 0xbe, 0x06, 0xe3, 0x74,
    0xbe, 0xa8, 0x70, 0x00, 0x3b, 0xec, 0xe4, 0x3c, 0xbd, 0x01, 0x7f, 0x24, 0xbe,
    0x4b, 0x7c, 0xbc, 0x3d, 0x4c, 0xaa, 0xa6, 0xbd, 0xc3, 0xc2, 0x4a, 0xbe, 0xd5,
    0x5d, 0x64, 0xbd, 0x36, 0x34, 0x49, 0xbc, 0xff, 0x10, 0x31, 0xbe, 0xd5, 0x04,
    0x2c, 0x3e, 0x13, 0x0a, 0x11, 0xbe, 0xea, 0x8d, 0x0f, 0xbd, 0x0c, 0xc8, 0x4f,
    0x3e, 0xe5, 0xd0, 0x31, 0x3e, 0xb0, 0x6e, 0x60, 0xbe, 0x34, 0x93, 0x35, 0xbd,
    0xca, 0xf1, 0x0f, 0x3e, 0xdc, 0xb9, 0x16, 0x3d, 0xb4, 0xbc, 0xde, 0xbc, 0x71,
    0x1b, 0xe2, 0x3d, 0xd6, 0xf0, 0xa5, 0x3e, 0x3c, 0x04, 0x89, 0xbd, 0xc3, 0x6e,
    0x86, 0xbb, 0x5f, 0x95, 0x5b, 0x3d, 0xd5, 0x05, 0x0e, 0xbd, 0x27, 0xb7, 0xe8,
    0xbd, 0x9c, 0x73, 0xd7, 0x3b, 0x80, 0x3d, 0xb2, 0xbd, 0x1a, 0xfb, 0x07, 0x3e,
    0x7d, 0x3f, 0xa8, 0xbd, 0xf5, 0x60, 0x1e, 0x3e, 0xf7, 0x3f, 0xf5, 0xbc, 0xc2,
    0x3f, 0x64, 0xbd, 0x09, 0x7e, 0xb4, 0xbd, 0xc6, 0x55, 0xb7, 0xbd, 0xb5, 0x90,
    0x8c, 0x3e, 0xfc, 0x33, 0x5d, 0xbe, 0xfd, 0x1d, 0x13, 0xbe, 0xfd, 0x94, 0xd5,
    0x3d, 0x08, 0xb1, 0x98, 0xbd, 0x8a, 0xd6, 0x85, 0xbe, 0x39, 0xdc, 0xc6, 0xbd,
    0x8a, 0x1d, 0x0c, 0xbe, 0x5c, 0x14, 0x20, 0x3e, 0x49, 0x54, 0x0c, 0xbe, 0x03,
    0x6b, 0xf5, 0x3d, 0xc2, 0x31, 0x05, 0x3d, 0x4a, 0xab, 0x2a, 0xbd, 0x97, 0x8c,
    0xba, 0xbc, 0x7f, 0x2e, 0x95, 0x3c, 0xef, 0xf1, 0x57, 0x3e, 0x65, 0x22, 0x81,
    0xbd, 0x45, 0xc5, 0x95, 0xbc, 0x27, 0xf7, 0x94, 0x3d, 0x61, 0x3c, 0x83, 0x3d,
    0x49, 0x0a, 0x3b, 0xbe, 0xdc, 0xab, 0x25, 0x3e, 0xf5, 0x4a, 0x33, 0x3d, 0x95,
    0x51, 0x34, 0x3e, 0x3a, 0xf5, 0x81, 0x3e, 0x0a, 0x5e, 0xa6, 0xbd, 0xba, 0x99,
    0xa9, 0x3c, 0x14, 0x55, 0x0b, 0x3e, 0x9d, 0xca, 0x36, 0xbe, 0x7d, 0x44, 0xa1,
    0xbc, 0x28, 0xc6, 0x3e, 0x3c, 0x03, 0xa6, 0xf4, 0xbb, 0x36, 0x1f, 0xbf, 0xbd,
    0x27, 0x34, 0x57, 0x3e, 0x2c, 0x1e, 0xc9, 0xbd, 0x19, 0x8f, 0xfd, 0x39, 0xea,
    0x3c, 0x18, 0x3e, 0x79, 0x9c, 0xaf, 0x3d, 0xb9, 0x6c, 0x2e, 0x3e, 0xb1, 0x36,
    0xc3, 0x3d, 0xfc, 0xbb, 0xd7, 0xbd, 0xb5, 0x90, 0x9d, 0x3c, 0xda, 0xce, 0xb7,
    0xbd, 0x85, 0xb9, 0xe3, 0x3c, 0xb2, 0x37, 0x04, 0xbd, 0xec, 0x15, 0xdf, 0x3d,
    0x53, 0x10, 0x65, 0xbc, 0xb2, 0x66, 0xfd, 0xbd, 0x56, 0x33, 0xc1, 0xbd, 0x4d,
    0x59, 0x09, 0x3d, 0x16, 0x7e, 0x3a, 0xbd, 0x82, 0xbd, 0x9f, 0x3d, 0xaa, 0xd1,
    0xe0, 0x3c, 0x1c, 0xc8, 0xea, 0x3c, 0x9f, 0xf9, 0x50, 0x3e, 0xe0, 0x79, 0x03,
    0x3d, 0x18, 0x57, 0x17, 0xbe, 0x6d, 0x3c, 0x54, 0x3e, 0xa0, 0xa8, 0xa6, 0xbd,
    0x3e, 0x23, 0x36, 0xbd, 0x1a, 0xa7, 0x54, 0x3e, 0xcb, 0x7a, 0xbd, 0xbd, 0xf0,
    0xd2, 0x17, 0xbe, 0x4a, 0xe9, 0x57, 0x3e, 0xb0, 0x12, 0x1c, 0x3e, 0x75, 0x22,
    0x1f, 0xbc, 0x8d, 0x10, 0x63, 0x3d, 0x72, 0x01, 0x86, 0xbd, 0x23, 0x88, 0x18,
    0xbd, 0x06, 0x4a, 0x09, 0x3d, 0x8e, 0x38, 0x69, 0xbc, 0x3a, 0x4c, 0xab, 0xbc,
    0x81, 0xdb, 0xd0, 0xbc, 0x45, 0x27, 0x5f, 0xbd, 0x32, 0x83, 0xac, 0x3c, 0xea,
    0xe5, 0xe7, 0x3d, 0xcb, 0x59, 0x66, 0xbd, 0x3e, 0xd9, 0x24, 0xbe, 0x5a, 0x36,
    0x0e, 0x3e, 0x90, 0x9d, 0x31, 0xbb, 0x95, 0xc3, 0xfe, 0x3d, 0x92, 0x88, 0x55,
    0x3d, 0x32, 0x9e, 0x0f, 0xbe, 0xcc, 0xbf, 0x23, 0xbe, 0x5b, 0x67, 0xe9, 0xbc,
    0x17, 0xa9, 0xb0, 0x3b, 0xaa, 0x2e, 0x8c, 0x3d, 0xf5, 0x86, 0x1b, 0x3e, 0xc9,
    0x38, 0x4a, 0x3d, 0xac, 0xca, 0xa1, 0x3d, 0x0c, 0x47, 0xe5, 0xba, 0x18, 0x91,
    0x38, 0x3e, 0x56, 0x04, 0x2b, 0x3e, 0xd3, 0xa6, 0x94, 0xbd, 0x74, 0x55, 0xea,
    0xbd, 0x15, 0x35, 0x17, 0x3d, 0x72, 0x0c, 0x51, 0xbd, 0x6b, 0x2d, 0xdf, 0xbd,
    0x54, 0x18, 0x8e, 0xbc, 0x2a, 0xa6, 0x5f, 0xbd, 0xe1, 0xf5, 0xd4, 0x3c, 0x9c,
    0x14, 0x71, 0xbd, 0x64, 0x19, 0x83, 0xbe, 0x73, 0xa2, 0xbd, 0x3c, 0x36, 0x06,
    0x99, 0x3c, 0x0d, 0x4f, 0x84, 0xbd, 0xd9, 0xea, 0xb5, 0xbc, 0x3b, 0x48, 0xb7,
    0x3d, 0x69, 0x9b, 0x1a, 0x3e, 0xc9, 0x8d, 0x9f, 0x3d, 0x15, 0xef, 0x22, 0x3e,
    0x06, 0x80, 0x07, 0x3e, 0xa2, 0xf7, 0x41, 0xbe, 0x44, 0x56, 0xd9, 0xbc, 0x6f,
    0x5c, 0x8d, 0x3e, 0xb3, 0xf7, 0x70, 0xbd, 0x04, 0x69, 0xf2, 0x3d, 0xf0, 0xfb,
    0x25, 0x3e, 0x59, 0x48, 0xcc, 0xbc, 0x68, 0xf8, 0xc4, 0x3d, 0xef, 0xe2, 0xaf,
    0x3b, 0x41, 0x0c, 0x6f, 0x3d, 0x53, 0xc4, 0x04, 0x3e, 0x36, 0x0a, 0xa3, 0xbc,
    0x51, 0x9d, 0x0f, 0x3e, 0xf8, 0x04, 0x1d, 0x3e, 0x18, 0x41, 0x59, 0xbe, 0xfd,
    0x60, 0xc2, 0x3d, 0x11, 0xa2, 0xca, 0x3d, 0x0a, 0x60, 0x89, 0x3e, 0x2d, 0x38,
    0x88, 0xbd, 0x29, 0xee, 0x1b, 0x3d, 0xff, 0x3a, 0xce, 0x3d, 0x96, 0x6c, 0x64,
    0xbe, 0xee, 0x0b, 0x0c, 0xbd, 0xc5, 0x0e, 0x85, 0xbe, 0xa6, 0x84, 0xa4, 0xbd,
    0x7f, 0x34, 0x6e, 0xbe, 0x3e, 0xac, 0x1d, 0x3e, 0xcc, 0x5e, 0xaf, 0x3d, 0x4d,
    0x8a, 0x07, 0x3d, 0xca, 0xec, 0x2c, 0x3e, 0xea, 0x9d, 0x26, 0xbe, 0x8b, 0x10,
    0x16, 0xbd, 0x6c, 0x13, 0xe6, 0xbe, 0x3a, 0xbb, 0x03, 0x3e, 0x04, 0x70, 0x36,
    0xbe, 0x14, 0x05, 0xde, 0xbc, 0x7f, 0xa9, 0x8e, 0x3e, 0xbc, 0x6f, 0xf2, 0x3c,
    0x37, 0x85, 0x2c, 0x3e, 0x1b, 0xec, 0xcc, 0x3d, 0x75, 0xb3, 0x03, 0x3e, 0xca,
    0xe7, 0x77, 0xbe, 0x6a, 0x20, 0x33, 0xbd, 0x8b, 0xda, 0x84, 0x3e, 0x91, 0x4a,
    0x53, 0xbe, 0x03, 0x72, 0xd9, 0x3d, 0x30, 0x68, 0xec, 0xbd, 0xe6, 0xb2, 0xe2,
    0x3d, 0x5d, 0xee, 0x8f, 0x3e, 0xc1, 0x38, 0x22, 0xbd, 0xd5, 0x20, 0x64, 0x3e,
    0x60, 0x12, 0x86, 0xbc, 0x57, 0x83, 0xa9, 0x3c, 0x6c, 0xbe, 0x94, 0xbe, 0x53,
    0xe0, 0xf9, 0xbd, 0x5b, 0xdd, 0x40, 0xbd, 0x80, 0x90, 0xee, 0x3d, 0x9c, 0xcf,
    0xbd, 0xbd, 0xb4, 0xb0, 0xcd, 0x3c, 0x68, 0xd4, 0x07, 0x3f, 0x67, 0x64, 0x80,
    0x3b, 0x90, 0xc8, 0x95, 0x3d, 0xe0, 0xb5, 0x5d, 0xbe, 0xc4, 0xfc, 0x9c, 0xbe,
    0xde, 0x6a, 0x21, 0xbe, 0xa8, 0xd7, 0x00, 0xbf, 0xfa, 0xff, 0x18, 0x3e, 0xbc,
    0xc5, 0x5e, 0xbe, 0x1d, 0xa8, 0xf5, 0x3d, 0x86, 0x34, 0x45, 0x3e, 0xcd, 0x9b,
    0x0b, 0x3e, 0xbc, 0x4d, 0x83, 0x3d, 0xc8, 0xb0, 0x58, 0xbe, 0xdd, 0x17, 0x99,
    0x3d, 0xa8, 0x8a, 0xc9, 0xbe, 0x52, 0x68, 0x57, 0xbe, 0x38, 0x7d, 0xd1, 0xbd,
    0xe3, 0xa9, 0x51, 0x3e, 0x78, 0x36, 0x03, 0x3e, 0x91, 0x16, 0x4d, 0xba, 0x70,
    0x33, 0x1b, 0x3e, 0xb6, 0x5f, 0x78, 0xbd, 0x17, 0xe4, 0x05, 0x3d, 0x63, 0x89,
    0x9e, 0xbe, 0x88, 0xb5, 0x4b, 0xbe, 0x61, 0xf3, 0xc2, 0xbd, 0xe0, 0xab, 0x6f,
    0xbe, 0xc3, 0xf2, 0x6f, 0xbb, 0x2b, 0x2b, 0xc9, 0xbd, 0x04, 0xf9, 0xdc, 0x3e,
    0x10, 0x9d, 0x4a, 0xbe, 0x1b, 0x26, 0xe1, 0x3c, 0x2b, 0xb0, 0x6d, 0x3e, 0xde,
    0xc3, 0x14, 0xbd, 0x1d, 0x9e, 0x03, 0x3e, 0x70, 0xbf, 0xa8, 0xbe, 0x15, 0x21,
    0x2c, 0xbe, 0xab, 0x16, 0x65, 0xbd, 0x85, 0xe8, 0xfd, 0x3d, 0x9c, 0x5b, 0xcd,
    0x3e, 0x0d, 0x07, 0xfd, 0x3d, 0x90, 0x44, 0x21, 0x3e, 0xba, 0x01, 0x10, 0xbe,
    0xfa, 0x4c, 0x64, 0x3e, 0x74, 0x5b, 0x6e, 0xbe, 0x10, 0x91, 0x43, 0xbe, 0xc2,
    0x4c, 0x0d, 0x3e, 0xb7, 0xf6, 0x97, 0xbe, 0x49, 0xb2, 0x53, 0x3e, 0x46, 0x4a,
    0xd8, 0xbd, 0x74, 0x38, 0x47, 0x3e, 0x34, 0xfa, 0x66, 0x3e, 0xdb, 0x2e, 0xfc,
    0x3d, 0xec, 0xe5, 0x30, 0x3b, 0xfc, 0xa2, 0xd8, 0x3c, 0x36, 0xe4, 0x91, 0x3d,
    0xa9, 0x0f, 0x0b, 0xbf, 0xa0, 0xbf, 0x0c, 0xbd, 0xad, 0x5a, 0x21, 0xbe, 0x46,
    0x75, 0x32, 0xbc, 0xc9, 0xe7, 0x81, 0x3e, 0x5c, 0xbf, 0x20, 0x3e, 0x6f, 0xea,
    0xca, 0x3e, 0xc6, 0xb4, 0xc3, 0x3c, 0xbb, 0x41, 0xdb, 0x3e, 0x8d, 0x6d, 0x76,
    0xbe, 0xa9, 0xfd, 0x45, 0xbd, 0xd3, 0x32, 0xa6, 0x3d, 0xdf, 0xe9, 0x3c, 0xbe,
    0xf7, 0x96, 0x6a, 0x3e, 0x9a, 0x4a, 0x73, 0x3d, 0xbf, 0x64, 0xc3, 0x3e, 0xeb,
    0xb1, 0x04, 0xbe, 0xf6, 0xdf, 0xde, 0xbd, 0x76, 0x40, 0xfc, 0xbd, 0xe1, 0x12,
    0x31, 0xbe, 0x4b, 0xb8, 0xa3, 0x3d, 0x2a, 0x57, 0x83, 0xbe, 0x0d, 0xc6, 0x0c,
    0xbd, 0x77, 0xf7, 0x40, 0xbe, 0x33, 0xa9, 0xe8, 0x3d, 0x7f, 0x0a, 0x7e, 0x3e,
    0x8c, 0x65, 0x05, 0x3e, 0xf8, 0x66, 0xaf, 0x3d, 0x54, 0xf2, 0xcc, 0xbd, 0x46,
    0x76, 0xb9, 0x3d, 0xc1, 0xfc, 0x74, 0xbe, 0x41, 0x2c, 0x68, 0xbd, 0x86, 0xfd,
    0x77, 0x3d, 0x4d, 0x80, 0xb8, 0xbe, 0xa7, 0xb3, 0x0d, 0x3e, 0x51, 0x8f, 0x16,
    0xbe, 0x96, 0xd1, 0x23, 0x3e, 0x3e, 0x4c, 0x0e, 0x3d, 0xa9, 0xac, 0x73, 0x3e,
    0x5b, 0x49, 0x11, 0xbe, 0x91, 0xdb, 0x90, 0x3d, 0xd2, 0x09, 0xc5, 0x3d, 0x47,
    0x56, 0x80, 0xbe, 0xba, 0xf2, 0x45, 0x3d, 0x93, 0x8c, 0x73, 0x3d, 0x8f, 0x6b,
    0xd7, 0x3d, 0xa4, 0x4e, 0xbb, 0x3e, 0x96, 0x6f, 0x03, 0x3e, 0x6f, 0xde, 0x32,
    0x3e, 0x94, 0x97, 0x4e, 0x3d, 0x67, 0x8d, 0xbb, 0x3e, 0x96, 0x2c, 0xb8, 0xbe,
    0x35, 0x69, 0x0b, 0x3e, 0xf1, 0x51, 0x08, 0x3d, 0xd5, 0x1e, 0x38, 0xbe, 0x4f,
    0x99, 0xbc, 0xbd, 0x99, 0xb1, 0x01, 0xbe, 0x8c, 0xe9, 0xad, 0x3e, 0xdf, 0x0e,
    0x72, 0xbd, 0x5c, 0x18, 0x45, 0xbc, 0x28, 0x8e, 0x76, 0xbd, 0xee, 0xc3, 0x44,
    0xbd, 0x48, 0xf3, 0x70, 0xbe, 0x5c, 0x46, 0x19, 0xbf, 0x56, 0x87, 0x26, 0x3e,
    0xf5, 0x06, 0x5c, 0xbd, 0xa1, 0xaf, 0x25, 0x3e, 0x72, 0x6e, 0x94, 0x3e, 0xd8,
    0x8e, 0x2d, 0x3e, 0x05, 0xaf, 0xad, 0x3e, 0x75, 0xe7, 0xb2, 0xbd, 0x07, 0x33,
    0x83, 0x3d, 0x3d, 0xd7, 0xad, 0xbe, 0x95, 0xa3, 0x9b, 0xbd, 0x78, 0x72, 0xc0,
    0xbe, 0x3d, 0xdf, 0x0b, 0xbd, 0x98, 0x44, 0x1f, 0x3e, 0x2d, 0x73, 0x02, 0xbe,
    0xf6, 0x97, 0xd4, 0x3e, 0x55, 0xce, 0x7a, 0xbd, 0xbc, 0x57, 0x4f, 0x3e, 0x41,
    0xff, 0x3f, 0x3d, 0x97, 0xf4, 0x6d, 0xbe, 0xb2, 0x7a, 0x10, 0xbe, 0xf7, 0x62,
    0x75, 0xbe, 0xd8, 0x48, 0xb4, 0xbd, 0x45, 0x6c, 0xba, 0xbd, 0x56, 0x5a, 0x88,
    0x3e, 0x6f, 0x33, 0x29, 0x3e, 0x2d, 0xc5, 0xd9, 0x3d, 0x99, 0x86, 0xa7, 0x3e,
    0x42, 0xe7, 0xd6, 0x3c, 0x58, 0xd4, 0xe8, 0x3d, 0x31, 0x6c, 0x5e, 0xbe, 0x0f,
    0xec, 0xde, 0xbc, 0xb6, 0xbf, 0x85, 0xbc, 0x0c, 0x8e, 0x6f, 0xbe, 0x40, 0x88,
    0xfd, 0x3c, 0x0a, 0x73, 0x8e, 0xbe, 0x22, 0xfe, 0xf1, 0x3e, 0x87, 0x39, 0x67,
    0xbe, 0xe8, 0x2f, 0x6d, 0x3e, 0x52, 0xf8, 0x9c, 0x3c, 0x65, 0xf9, 0x86, 0xbe,
    0x7b, 0x4d, 0xa7, 0xbe, 0xc2, 0x14, 0x17, 0xbe, 0xb8, 0x7e, 0xc1, 0xbc, 0x86,
    0xdc, 0x05, 0xbe, 0x50, 0xbd, 0x99, 0x3e, 0x6c, 0xfa, 0x4a, 0x3e, 0x65, 0x7c,
    0xb1, 0x3d, 0x03, 0x07, 0x82, 0x3e, 0x54, 0x1c, 0x24, 0xbe, 0x61, 0x6a, 0x72,
    0x3e, 0xdb, 0x4f, 0xd0, 0xbe, 0xf2, 0x3c, 0x00, 0xbe, 0x52, 0x40, 0xb9, 0x3c,
    0xe5, 0x53, 0xdf, 0xbb, 0x26, 0x7c, 0xc8, 0x3d, 0x40, 0xf9, 0x4c, 0x3e, 0x2c,
    0x44, 0xae, 0x3e, 0xa1, 0x8f, 0x02, 0xbe, 0xd3, 0x66, 0x7a, 0x3e, 0xeb, 0x3a,
    0xe0, 0xbd, 0x8a, 0x8d, 0x22, 0x3d, 0xd2, 0x93, 0x86, 0xbd, 0x51, 0x28, 0x27,
    0xbe, 0x08, 0xd9, 0x94, 0xbc, 0x4f, 0x82, 0xce, 0xbd, 0x09, 0x62, 0xb5, 0x3e,
    0x46, 0x60, 0xac, 0xbb, 0xbe, 0x13, 0x8f, 0x3e, 0xa3, 0x0f, 0x9b, 0x3e, 0x81,
    0xf5, 0x43, 0xbe, 0xa2, 0x1e, 0x25, 0x3e, 0xfa, 0xd0, 0xa0, 0xbe, 0x4d, 0xe9,
    0x85, 0x3c, 0x7a, 0x9d, 0x49, 0x3d, 0x21, 0x21, 0x2c, 0x3e, 0xe3, 0x1c, 0xfa,
    0x3d, 0x91, 0xec, 0x28, 0x3e, 0x17, 0x3c, 0xa2, 0x3e, 0x5c, 0x2e, 0xb8, 0xbd,
    0xba, 0x98, 0xa8, 0x3e, 0xaf, 0x10, 0x7a, 0xbe, 0x65, 0xb9, 0x4b, 0xbe, 0xa8,
    0x8a, 0xb9, 0x3d, 0xdf, 0x92, 0xb2, 0xbe, 0x4c, 0x87, 0xb4, 0x3d, 0xea, 0x82,
    0xc8, 0xbc, 0x80, 0x18, 0x89, 0x3e, 0xcf, 0xb9, 0x85, 0x3e, 0xf1, 0x43, 0x5a,
    0x3e, 0x0b, 0x3d, 0x1e, 0x3e, 0x9b, 0xb7, 0xfe, 0xbd, 0x54, 0x6b, 0x7a, 0x3e,
    0x67, 0x09, 0xbd, 0xbe, 0x5d, 0x90, 0x1f, 0x3e, 0x9b, 0x94, 0xc6, 0x3d, 0x15,
    0x9c, 0x2c, 0x3e, 0x21, 0x66, 0x23, 0x3e, 0x56, 0xc6, 0x4a, 0x3e, 0x34, 0x04,
    0xce, 0x3e, 0x79, 0xbc, 0x71, 0x3d, 0x5a, 0x6d, 0xf9, 0x3d, 0xbe, 0xde, 0x8f,
    0xbe, 0x85, 0x7d, 0x89, 0xbe, 0x18, 0x47, 0xdd, 0x3c, 0xe4, 0xaa, 0x8f, 0xbe,
    0xf1, 0xd3, 0x1e, 0x3d, 0xdc, 0x45, 0x78, 0x3d, 0x8c, 0x7f, 0x5c, 0x3e, 0xea,
    0xf2, 0xae, 0xbd, 0x0e, 0x07, 0x39, 0x3e, 0xdc, 0xbd, 0x1d, 0xbe, 0x8d, 0x6f,
    0x8d, 0xbd, 0x99, 0x9b, 0x70, 0xbc, 0x8c, 0x41, 0x96, 0xbe, 0xf9, 0x4a, 0xa9,
    0xbc, 0xe1, 0xfe, 0xc6, 0xbd, 0xbd, 0x22, 0x7d, 0x3e, 0xe5, 0xfd, 0xd2, 0x3d,
    0x33, 0x50, 0x9f, 0x3d, 0x8d, 0x48, 0xa2, 0x3e, 0x61, 0x42, 0xbe, 0xbd, 0x1b,
    0xdb, 0xc5, 0x3d, 0x8c, 0xfc, 0xe6, 0xbc, 0x1e, 0x0a, 0xd0, 0xbc, 0x10, 0x7a,
    0xa6, 0x3c, 0xb5, 0x2c, 0x8c, 0xbe, 0xe4, 0x10, 0x9a, 0x3e, 0xf1, 0xcf, 0xa0,
    0x3d, 0xff, 0xa9, 0x9d, 0x3e, 0x16, 0x1e, 0x10, 0xba, 0x02, 0x31, 0x8c, 0xbc,
    0xf0, 0xfb, 0x78, 0xbd, 0x70, 0xbf, 0xb6, 0xbd, 0xf4, 0xdc, 0x4c, 0x3e, 0x1d,
    0x8e, 0xc6, 0xbe, 0x56, 0xa8, 0x0e, 0xbe, 0xc7, 0x74, 0x3a, 0xbe, 0x52, 0x41,
    0x18, 0xbe, 0xf5, 0x48, 0x9f, 0x3d, 0xb6, 0x44, 0x0b, 0xbe, 0x14, 0x22, 0xb4,
    0x3e, 0xa1, 0x81, 0x0c, 0xbe, 0xe2, 0xf6, 0xab, 0x3d, 0xa3, 0x2d, 0x8f, 0xbe,
    0x63, 0xa2, 0x2d, 0xbe, 0x60, 0x2d, 0x91, 0xbe, 0x31, 0x2e, 0x51, 0xbe, 0x06,
    0x12, 0x37, 0x3c, 0xed, 0x9d, 0xec, 0xbc, 0xd2, 0x2f, 0xaa, 0x3e, 0xa1, 0xbb,
    0x86, 0xbd, 0xab, 0x73, 0x2e, 0xbe, 0xc5, 0xbc, 0x17, 0xbc, 0xb4, 0x26, 0xc0,
    0xbd, 0xcf, 0xbe, 0x98, 0x3d, 0xea, 0x40, 0xc1, 0xbe, 0xa1, 0x8b, 0xcb, 0x3d,
    0xff, 0x13, 0x84, 0xbe, 0x0f, 0x57, 0x17, 0xbd, 0x77, 0x28, 0x0b, 0x3e, 0x6e,
    0x6f, 0xa6, 0x3d, 0x4f, 0xb8, 0x64, 0x3e, 0x24, 0x3b, 0x9f, 0xbd, 0x08, 0x36,
    0x64, 0x3e, 0x50, 0x9a, 0x02, 0xbf, 0x08, 0xe0, 0x07, 0x3d, 0x5a, 0xe4, 0x93,
    0xbe, 0x95, 0xe6, 0x53, 0xbe, 0x70, 0x9b, 0xbe, 0x3d, 0x56, 0xca, 0x65, 0x3d,
    0xb6, 0x2f, 0x99, 0x3e, 0xd5, 0x1d, 0xf1, 0xbd, 0x29, 0x43, 0x4c, 0x3d, 0x10,
    0xd1, 0xa2, 0xbe, 0x2b, 0x29, 0x23, 0xbd, 0x4a, 0x1b, 0x2d, 0xbb, 0x4d, 0xc8,
    0xcd, 0xbd, 0xbe, 0xa9, 0xa5, 0xbd, 0xbe, 0x82, 0x4a, 0xbe, 0x82, 0x13, 0x79,
    0x3e, 0x94, 0xb5, 0x00, 0x3e, 0x01, 0xea, 0x79, 0x3c, 0xe3, 0x43, 0x28, 0x3e,
    0x7d, 0x71, 0xb4, 0xbe, 0xa5, 0x50, 0xda, 0x3d, 0xd6, 0xab, 0xc2, 0xbe, 0xf0,
    0xf0, 0xb6, 0xbc, 0xc7, 0x0f, 0x19, 0xbe, 0x01, 0x2f, 0xb1, 0x3c, 0xd8, 0xff,
    0xc5, 0x3d, 0x12, 0xac, 0xee, 0x3d, 0xa9, 0xe1, 0xaf, 0x3e, 0x90, 0x4d, 0x0c,
    0xbd, 0x50, 0x34, 0xa3, 0x3e, 0x5d, 0x2d, 0xac, 0xbe, 0x3d, 0xf6, 0x46, 0xbd,
    0x39, 0x96, 0x4e, 0xbc, 0xf7, 0xc4, 0x43, 0xbe, 0x0a, 0x3e, 0x03, 0x3e, 0xae,
    0x31, 0x0a, 0xbe, 0x2b, 0xac, 0x8c, 0x3e, 0x7f, 0x5b, 0xad, 0x3c, 0x4e, 0xde,
    0x56, 0x3e, 0xf6, 0x1d, 0x03, 0xbd, 0xd2, 0x2e, 0x53, 0xbd, 0x87, 0xc8, 0x27,
    0x3e, 0x81, 0x8b, 0xa1, 0xbe, 0x35, 0x7b, 0xd0, 0xbb, 0x4b, 0x55, 0x0c, 0xbe,
    0x59, 0x67, 0x3d, 0x3e, 0x35, 0xba, 0xc5, 0x3e, 0xc6, 0x52, 0x21, 0x3e, 0x99,
    0xd7, 0x99, 0x3e, 0xce, 0xa6, 0x46, 0xbe, 0x66, 0x86, 0x52, 0x3e, 0x7a, 0x87,
    0xfb, 0xbd, 0xe3, 0xa8, 0x7c, 0xbd, 0xb3, 0xce, 0xca, 0xbc, 0x98, 0xaa, 0x30,
    0x3d, 0x70, 0x23, 0x06, 0x3d, 0x59, 0xae, 0x33, 0x3d, 0xca, 0x23, 0xec, 0xbb,
    0xca, 0x3a, 0x30, 0x3d, 0xd5, 0xdf, 0x47, 0xbd, 0x18, 0x87, 0x26, 0xbc, 0x3f,
    0xd2, 0x49, 0xbd, 0x2e, 0x2e, 0x84, 0x3d, 0x5c, 0xa0, 0xe3, 0xbc, 0x84, 0xc2,
    0x9b, 0x3d, 0x07, 0x08, 0x99, 0xbd, 0x06, 0xb2, 0x72, 0x3d, 0x8e, 0x99, 0x82,
    0xbd, 0x37, 0x4d, 0xaa, 0xbc, 0x41, 0x21, 0x57, 0x3d, 0x4f, 0x5d, 0x05, 0xbd,
    0x89, 0x10, 0x85, 0x3c, 0x87, 0xd3, 0x12, 0xbd, 0x47, 0xb6, 0x9b, 0xbd, 0x37,
    0xce, 0x24, 0x3d, 0xca, 0x7a, 0xaf, 0x3c, 0x8c, 0xbe, 0x47, 0x3d, 0xf3, 0x6d,
    0xeb, 0x3d, 0xa6, 0x62, 0x68, 0x3d, 0x35, 0x05, 0x87, 0x3c, 0xb3, 0xea, 0xe0,
    0xbc, 0xa5, 0xdd, 0x2b, 0xbd, 0xaa, 0x27, 0x91, 0xbc, 0xac, 0x12, 0xb9, 0xbd,
    0x47, 0x5b, 0xec, 0xbd, 0xe6, 0x5f, 0xb0, 0xbd, 0x7c, 0x7e, 0x1f, 0xbc, 0xc1,
    0x29, 0x80, 0x3d, 0x22, 0xb0, 0x33, 0xbc, 0xac, 0x8f, 0xa2, 0x3d, 0x88, 0xde,
    0x8f, 0x3d, 0xc0, 0x07, 0xe9, 0xbc, 0x9d, 0x94, 0xa7, 0xbd, 0xb7, 0xa7, 0x60,
    0xbd, 0xf1, 0x59, 0xa5, 0x3b, 0x7f, 0xf2, 0xf8, 0xbd, 0xae, 0xe6, 0x30, 0x3d,
    0x41, 0x72, 0xea, 0xbc, 0xce, 0x40, 0x82, 0xbd, 0x5a, 0x62, 0x32, 0x3d, 0x50,
    0x53, 0x2c, 0x3b, 0x96, 0xb7, 0xad, 0xbb, 0x68, 0x88, 0xc3, 0xbc, 0xa3, 0x14,
    0x1d, 0x3d, 0xb3, 0x25, 0x6a, 0xbd, 0x89, 0x64, 0x9c, 0xbc, 0xfd, 0x5a, 0x2a,
    0xbd, 0x1d, 0xb9, 0x76, 0xbd, 0x92, 0x14, 0x92, 0x3d, 0x65, 0xa9, 0x19, 0xbc,
    0xcc, 0x31, 0xbf, 0x3c, 0x08, 0xba, 0xd0, 0x3a, 0x5f, 0xcb, 0x1d, 0xbc, 0x2f,
    0x15, 0x04, 0xbc, 0x3e, 0x80, 0x08, 0xbd, 0x17, 0x9f, 0xec, 0x3c, 0xe4, 0x12,
    0xc0, 0xbc, 0x21, 0x9f, 0x10, 0x3c, 0x3e, 0x88, 0x04, 0x3d, 0x89, 0xc7, 0x33,
    0xbe, 0xde, 0xa2, 0xd4, 0x3d, 0x06, 0xa2, 0xa9, 0xbd, 0x7a, 0xbe, 0x4f, 0xbc,
    0x77, 0xf6, 0xb9, 0xbd, 0x86, 0x27, 0xab, 0x3b, 0xd5, 0xf1, 0xce, 0xbd, 0x0c,
    0x8a, 0xbf, 0xbc, 0x01, 0x86, 0xb1, 0x3c, 0xf7, 0x7e, 0x88, 0x3d, 0xd4, 0xac,
    0x64, 0x3c, 0x08, 0x59, 0x7d, 0xbc, 0xa5, 0x6b, 0x05, 0x3d, 0xcc, 0xe2, 0x1d,
    0x3c, 0x0e, 0x26, 0xf4, 0xbc, 0x7e, 0x55, 0xe2, 0xbd, 0xfc, 0xf2, 0xc0, 0xbc,
    0x64, 0xa8, 0xdb, 0xbb, 0xde, 0x8d, 0x79, 0xbd, 0x45, 0xb9, 0xa1, 0x3d, 0xd9,
    0x0f, 0xb0, 0xbd, 0xf8, 0x27, 0x0c, 0x3e, 0x6f, 0x50, 0x93, 0xb8, 0x3b, 0x46,
    0x09, 0xbd, 0x45, 0x36, 0xb5, 0x3d, 0x2b, 0x82, 0xae, 0xbd, 0x1a, 0x61, 0x01,
    0xbd, 0x07, 0xd8, 0x5e, 0xbe, 0xbf, 0x55, 0x33, 0x3c, 0xaa, 0x37, 0xc2, 0x3c,
    0x66, 0x38, 0xae, 0x3d, 0xa8, 0xd9, 0x22, 0x3d, 0xe0, 0xfe, 0xa8, 0x3d, 0xe6,
    0xfa, 0xcb, 0x3d, 0xbe, 0x56, 0xf5, 0x3b, 0xd6, 0xe6, 0xdb, 0xbb, 0x4c, 0x50,
    0x98, 0x3d, 0x45, 0xe3, 0xb6, 0x3b, 0x14, 0x79, 0xa2, 0xbb, 0x1e, 0x3e, 0xe8,
    0xbd, 0x3a, 0x86, 0x66, 0x3d, 0xa8, 0x0a, 0x0c, 0x3d, 0x03, 0x4c, 0x33, 0x3c,
    0xbb, 0x54, 0xc3, 0xbc, 0x8b, 0xc5, 0xce, 0xbd, 0xd0, 0x73, 0xf8, 0x3c, 0xc8,
    0xd7, 0xbd, 0x3d, 0x87, 0x6c, 0x91, 0x3d, 0x24, 0x65, 0xb7, 0x3d, 0x6b, 0x8b,
    0x98, 0x3d, 0x75, 0xe9, 0x05, 0xbc, 0xd5, 0xfd, 0xa8, 0xbd, 0xb1, 0x9d, 0x60,
    0xbd, 0xc3, 0xdb, 0xfc, 0xbc, 0x9f, 0x38, 0x3c, 0xbc, 0x2b, 0xc6, 0xcb, 0xbc,
    0x07, 0xdb, 0x8d, 0xbd, 0x77, 0x21, 0xc6, 0xbd, 0x17, 0x70, 0x4d, 0x3d, 0x27,
    0xdd, 0x7c, 0xbb, 0x34, 0x30, 0xe8, 0xbc, 0xaf, 0xc9, 0x84, 0xbc, 0x66, 0xe9,
    0x59, 0x3d, 0xb2, 0x31, 0x25, 0x3d, 0x5e, 0x79, 0xb9, 0x3b, 0x5c, 0x4d, 0x6f,
    0xbd, 0x02, 0xb1, 0x0a, 0x3d, 0x8a, 0x52, 0x04, 0x3e, 0xe0, 0xfb, 0x95, 0xbd,
    0xe1, 0xac, 0x0a, 0xbe, 0xdd, 0x57, 0x59, 0xba, 0xaf, 0x7d, 0x92, 0x3d, 0xe3,
    0xc0, 0xbf, 0x3d, 0x46, 0x5b, 0xb9, 0x3d, 0x47, 0xe4, 0x70, 0x3c, 0xc4, 0x9d,
    0x79, 0x3d, 0x19, 0x05, 0xae, 0x3b, 0x27, 0x5c, 0x14, 0xbd, 0x22, 0x1d, 0x1e,
    0xbd, 0xe6, 0x0d, 0xfc, 0xbb, 0xc7, 0xcd, 0x4d, 0xbb, 0xb3, 0x8e, 0x62, 0xbd,
    0x29, 0x73, 0x34, 0x3c, 0x75, 0xa0, 0x42, 0x3d, 0x06, 0x36, 0xb4, 0x3d, 0x0d,
    0x97, 0x20, 0x3d, 0x4f, 0x69, 0x9e, 0x3b, 0x23, 0x73, 0x92, 0xbc, 0xf8, 0x0d,
    0x2e, 0xbd, 0xf5, 0xf7, 0x9c, 0xbd, 0x2d, 0x21, 0xac, 0xbb, 0x99, 0xcc, 0x35,
    0xbd, 0x94, 0x6f, 0x99, 0xbd, 0x8a, 0x54, 0xba, 0x3d, 0x1c, 0x62, 0xa6, 0x3d,
    0x42, 0x7f, 0x93, 0x3a, 0x43, 0xf1, 0x62, 0x3d, 0xfd, 0xa0, 0x01, 0x3d, 0xc6,
    0xf0, 0xa7, 0x3d, 0x70, 0x92, 0x80, 0x3d, 0xad, 0x6e, 0x9a, 0x3d, 0xe7, 0xda,
    0x24, 0x3b, 0x9d, 0x79, 0x02, 0xbe, 0x59, 0xb6, 0x6e, 0x3c, 0x5f, 0x3e, 0xa4,
    0xbd, 0x49, 0x25, 0x36, 0xbd, 0x0f, 0x0e, 0x40, 0xbc, 0xad, 0x90, 0x8c, 0xbc,
    0xe0, 0xd7, 0x07, 0x3d, 0xe5, 0xa1, 0x2c, 0xbd, 0x45, 0x0b, 0xab, 0xbd, 0xa9,
    0xd3, 0xcb, 0xbc, 0x42, 0xac, 0xbe, 0x3c, 0xc9, 0xad, 0x71, 0xbc, 0x00, 0xcc,
    0xb5, 0xbd, 0x90, 0x0e, 0x00, 0x3d, 0xdb, 0x34, 0x0a, 0xbe, 0x6a, 0xa6, 0xa4,
    0x3d, 0xb3, 0x0b, 0x1e, 0xbd, 0x16, 0x11, 0x1a, 0xbd, 0x06, 0x47, 0x83, 0xbc,
    0xf1, 0x0e, 0x12, 0xbc, 0x1a, 0x98, 0x1e, 0xbd, 0xb9, 0x37, 0xb4, 0x3c, 0x59,
    0xe1, 0x90, 0x3c, 0x1f, 0x98, 0xab, 0x3c, 0x0f, 0x5e, 0x2f, 0x3d, 0x4d, 0x42,
    0xfe, 0x3c, 0x57, 0x3f, 0xd3, 0x3b, 0xe2, 0x57, 0x65, 0x3c, 0xfb, 0x2b, 0xfb,
    0x3c, 0x79, 0x7e, 0x79, 0xbd, 0x85, 0x7e, 0x22, 0xbe, 0x55, 0x2c, 0x5b, 0x3d,
    0x7c, 0xe1, 0xca, 0xbc, 0xc5, 0xec, 0xb7, 0x3c, 0xb4, 0xb2, 0x00, 0x3d, 0x1a,
    0xfb, 0xce, 0xbd, 0x33, 0x7c, 0x91, 0xbd, 0x6f, 0xf3, 0xfb, 0x3c, 0x90, 0x29,
    0xad, 0xbd, 0xaf, 0xf0, 0x28, 0xbd, 0x86, 0xc3, 0x3b, 0x3c, 0x46, 0x59, 0x1e,
    0x3c, 0x0b, 0xa9, 0x3f, 0xbd, 0x2c, 0x74, 0x98, 0x3d, 0x86, 0x53, 0xe9, 0x3c,
    0xc2, 0xed, 0xb3, 0xbc, 0xa4, 0x92, 0x09, 0x3d, 0x7a, 0xf3, 0x74, 0x3d, 0xc1,
    0x28, 0x01, 0x3e, 0x7b, 0xba, 0x03, 0xbd, 0x22, 0x2a, 0xd7, 0x3b, 0x11, 0x83,
    0xed, 0xbd, 0x82, 0x6f, 0xa2, 0x3d, 0xa3, 0xa4, 0x29, 0x3d, 0x73, 0x5a, 0x72,
    0xbd, 0x77, 0x45, 0x84, 0xbc, 0xd6, 0x46, 0xad, 0xbd, 0xb8, 0x00, 0xd2, 0xba,
    0x3f, 0xd7, 0xa3, 0xbd, 0xf5, 0x84, 0x37, 0xbd, 0x13, 0x4c, 0x09, 0x3e, 0xe2,
    0xe2, 0x89, 0xbc, 0x70, 0x9c, 0x17, 0xbd, 0xb7, 0x87, 0xb5, 0xbd, 0xc5, 0x13,
    0x84, 0x3d, 0xdc, 0xb5, 0x80, 0x3d, 0x0b, 0x54, 0x4c, 0xbd, 0x8d, 0xa7, 0x74,
    0x3c, 0x19, 0xb1, 0x8f, 0xbc, 0xd6, 0x35, 0x3a, 0xbe, 0x76, 0x0c, 0x6d, 0xbd,
    0x05, 0xa4, 0xe2, 0xbc, 0x15, 0x2f, 0x83, 0x3b, 0xe5, 0xca, 0x85, 0x3d, 0x9e,
    0x92, 0x81, 0x3d, 0xa8, 0x4f, 0x95, 0x3d, 0x05, 0x88, 0x15, 0x3d, 0x72, 0x40,
    0x75, 0xbd, 0x77, 0x8b, 0x5f, 0xbb, 0xd6, 0xf4, 0x9e, 0xbb, 0x22, 0x0e, 0x8c,
    0x3d, 0xc4, 0xec, 0x15, 0xbc, 0x46, 0xa6, 0x42, 0xbd, 0x61, 0x03, 0xa8, 0x3d,
    0x6c, 0x65, 0x0b, 0x3d, 0x8a, 0x9c, 0x27, 0xbb, 0x9f, 0x76, 0x9d, 0xbd, 0x12,
    0xad, 0x21, 0x3c, 0xf9, 0x74, 0xbd, 0xbc, 0x2c, 0x77, 0xed, 0x3c, 0x42, 0x99,
    0xcc, 0xbd, 0xea, 0x81, 0x31, 0xbd, 0xe4, 0x20, 0x63, 0xbc, 0x93, 0xed, 0xe3,
    0xbd, 0x17, 0x8d, 0x66, 0x3d, 0xb1, 0x94, 0xa7, 0xbd, 0x77, 0x9d, 0xda, 0xbc,
    0x73, 0x22, 0xc7, 0x3c, 0xc4, 0x4c, 0x2f, 0xbd, 0x29, 0x74, 0x17, 0xbd, 0x21,
    0x70, 0x9f, 0x3c, 0xc2, 0x5a, 0x8b, 0xbd, 0xbb, 0x9d, 0x7f, 0xbd, 0x1a, 0x07,
    0x82, 0xbd, 0x24, 0x38, 0x96, 0x3d, 0x1e, 0x90, 0x04, 0xbe, 0x2d, 0xe1, 0x26,
    0x3e, 0xbf, 0x3c, 0x23, 0x3c, 0x77, 0x9f, 0x01, 0xbd, 0x0f, 0x01, 0x0b, 0xbc,
    0x3f, 0xba, 0x68, 0x3c, 0x98, 0x2a, 0x02, 0x3e, 0x72, 0xff, 0xdd, 0xbd, 0x30,
    0x8e, 0xc2, 0x3d, 0x6f, 0x90, 0x3e, 0xbd, 0x27, 0x56, 0xc7, 0x3c, 0x22, 0x57,
    0x01, 0xbd, 0x11, 0xa6, 0xc3, 0xbd, 0x9f, 0xd6, 0xc1, 0x3d, 0x83, 0x34, 0xeb,
    0xbd, 0x46, 0x96, 0xe8, 0x3d, 0x1e, 0xc2, 0x9a, 0xbd, 0xc0, 0x4d, 0xe8, 0x3d,
    0xc4, 0xf5, 0x45, 0x3d, 0xd8, 0xab, 0x64, 0x3d, 0x84, 0x22, 0x53, 0x3d, 0xb2,
    0xcb, 0x4f, 0xbd, 0x9d, 0xe1, 0xff, 0x3c, 0x7f, 0xab, 0xb5, 0x3c, 0x80, 0x51,
    0xdf, 0xbc, 0x50, 0x7b, 0x96, 0xbb, 0x26, 0x27, 0x83, 0x3d, 0x2f, 0xcb, 0xe1,
    0xbd, 0xdb, 0xd1, 0x99, 0xbc, 0x37, 0xf8, 0xce, 0xbd, 0x9d, 0x13, 0x49, 0xbd,
    0x99, 0xa1, 0x0a, 0x3e, 0x94, 0x56, 0xab, 0x3d, 0x68, 0x66, 0xab, 0x3b, 0xa5,
    0x0a, 0x04, 0xbd, 0x2c, 0x2d, 0x66, 0xbb, 0x7a, 0x57, 0x09, 0x3d, 0x2c, 0xa1,
    0xa0, 0xbd, 0x41, 0xd6, 0x9a, 0xbc, 0x0b, 0x68, 0xa6, 0x38, 0xb2, 0xa2, 0xa5,
    0x3d, 0xbe, 0x93, 0x85, 0x3d, 0xca, 0x40, 0xac, 0xbd, 0xb5, 0x1e, 0x3f, 0x3d,
    0xbb, 0x6e, 0x1c, 0xbd, 0x4a, 0x9c, 0xe6, 0x3d, 0x4c, 0x06, 0x4c, 0x3d, 0x1d,
    0x80, 0x43, 0x3d, 0x77, 0xb6, 0xfc, 0xbc, 0xf1, 0xb9, 0xb4, 0x3c, 0x26, 0x17,
    0x0f, 0x3d, 0x92, 0x70, 0xbd, 0xbd, 0x6d, 0xed, 0xc6, 0x3d, 0xb8, 0xe7, 0xc5,
    0xbc, 0x62, 0x1f, 0x8d, 0xbd, 0xce, 0x83, 0x1d, 0xbd, 0x0b, 0xe6, 0xd9, 0x3c,
    0x2e, 0x7a, 0x26, 0x3d, 0x5b, 0x74, 0xc3, 0x3c, 0xab, 0x7f, 0xde, 0x3c, 0xb7,
    0x20, 0xd8, 0xbd, 0x91, 0xad, 0xce, 0x3d, 0x5b, 0x41, 0x54, 0x3b, 0x09, 0x62,
    0x75, 0xbd, 0x43, 0x24, 0xb5, 0x3d, 0xa1, 0x8b, 0xa6, 0xbd, 0x97, 0xd2, 0xbc,
    0xbc, 0x70, 0x64, 0x9c, 0xbd, 0x31, 0xac, 0xaf, 0x3c, 0x1a, 0xb7, 0xcf, 0x3c,
    0x4e, 0x55, 0xb6, 0x3c, 0x46, 0x5d, 0x81, 0xbd, 0x0a, 0x38, 0x1c, 0xbc, 0xf6,
    0x8c, 0xb9, 0x3c, 0x7d, 0x27, 0x48, 0x3d, 0x4c, 0x57, 0xe2, 0x3c, 0x36, 0x82,
    0x4a, 0xbd, 0x33, 0x58, 0x70, 0x3d, 0xbb, 0x20, 0x9d, 0x3c, 0x50, 0xc0, 0x6d,
    0xbc, 0xfb, 0x51, 0x0f, 0x3d, 0x2d, 0xf1, 0x18, 0xbe, 0xde, 0xb8, 0xcf, 0x3d,
    0xf7, 0x36, 0xa9, 0xbc, 0xee, 0x67, 0x02, 0x3e, 0xe3, 0x0e, 0x26, 0xbd, 0xa1,
    0x2f, 0xbb, 0x3b, 0xbf, 0x4f, 0x73, 0xbd, 0x49, 0x19, 0x0f, 0x3a, 0x96, 0xb8,
    0x45, 0xbd, 0x91, 0x3a, 0x39, 0xbe, 0xf8, 0x4c, 0xf9, 0xbc, 0xa7, 0x26, 0x8d,
    0xbc, 0xb4, 0x63, 0xba, 0x3b, 0xc2, 0x2b, 0x1a, 0x3b, 0x57, 0xf2, 0xea, 0xbc,
    0x34, 0x5c, 0xeb, 0x3c, 0x49, 0x28, 0x58, 0x3c, 0x15, 0xb0, 0xaf, 0x3b, 0x7a,
    0x27, 0x91, 0xbd, 0xe6, 0x89, 0x73, 0x3c, 0x74, 0x4d, 0xcb, 0x3b, 0x23, 0x4c,
    0x0a, 0x3d, 0x1f, 0xa3, 0x22, 0x3d, 0x72, 0xf6, 0x5f, 0x3d, 0xe0, 0xdb, 0xb2,
    0xbd, 0x7f, 0xdd, 0xa7, 0xbc, 0x86, 0x6c, 0xe1, 0xbb, 0xb0, 0x3a, 0x4f, 0x3d,
    0x71, 0x54, 0x3b, 0xbc, 0xa9, 0xb9, 0x98, 0xbd, 0x26, 0x05, 0xbb, 0xbd, 0x18,
    0x69, 0xbd, 0xbd, 0x6d, 0xac, 0x7e, 0x3b, 0x82, 0xe2, 0xd6, 0x3c, 0xde, 0xac,
    0x1d, 0x3e, 0x0c, 0xd5, 0x00, 0x3e, 0x71, 0xc2, 0x53, 0x3d, 0x41, 0x5c, 0xb0,
    0x3d, 0x4b, 0x68, 0xb9, 0xbd, 0xba, 0xa7, 0x52, 0x3d, 0x4a, 0xaf, 0x5c, 0x3e,
    0x7f, 0x1b, 0xba, 0x3d, 0xe8, 0xa2, 0x80, 0xbd, 0x47, 0x4e, 0x02, 0xbd, 0x1b,
    0x9d, 0x05, 0xbd, 0xe6, 0x87, 0xbf, 0x3d, 0x22, 0x9a, 0x19, 0xbe, 0xde, 0x10,
    0x8e, 0xbc, 0xca, 0x2e, 0x20, 0x3e, 0xb4, 0xfb, 0x31, 0x3e, 0xcf, 0x9e, 0x94,
    0xbb, 0x1c, 0x4a, 0x40, 0xbc, 0xc7, 0x24, 0x66, 0x3e, 0xfb, 0x31, 0x2f, 0xbd,
    0x2d, 0xe2, 0xa6, 0x3d, 0xe8, 0x4c, 0x2e, 0x3d, 0xe1, 0x5a, 0x7f, 0x3d, 0x57,
    0x68, 0xa3, 0x3d, 0xef, 0x11, 0x2f, 0xbe, 0x49, 0xfb, 0x70, 0x3d, 0xd5, 0x05,
    0x2d, 0xbe, 0x2a, 0x9c, 0x07, 0xbe, 0x62, 0x4f, 0xd2, 0xbd, 0x97, 0xc5, 0x5a,
    0xbd, 0x59, 0xf9, 0x40, 0x3e, 0x9b, 0xc4, 0x92, 0xbd, 0x3e, 0x47, 0x58, 0x3d,
    0xb6, 0x6e, 0xb1, 0xbd, 0x19, 0xd1, 0x2b, 0x3e, 0x8e, 0x83, 0xe3, 0xbd, 0xaa,
    0x37, 0xd1, 0xbd, 0xa4, 0x7c, 0x0b, 0x3e, 0xc7, 0xf2, 0x3d, 0xbe, 0xff, 0x0e,
    0x8c, 0xbd, 0x08, 0x43, 0x03, 0xbe, 0xf6, 0xbc, 0x32, 0x3d, 0xdc, 0xf8, 0xec,
    0x3d, 0xd4, 0x8b, 0xf5, 0xbc, 0x35, 0x17, 0xf0, 0xbc, 0x08, 0x3b, 0x1f, 0xbe,
    0x79, 0xf5, 0x8b, 0x3d, 0x2a, 0x06, 0xfc, 0x3d, 0xad, 0x48, 0xc4, 0x3c, 0x6d,
    0x42, 0x7b, 0xbd, 0xe1, 0x25, 0x2f, 0x3d, 0x95, 0xf1, 0x3d, 0xbd, 0x7f, 0x2c,
    0x76, 0xbc, 0x3e, 0x70, 0xf3, 0xbd, 0x97, 0xc1, 0xb8, 0xbd, 0x3d, 0x9c, 0xf0,
    0x3c, 0x95, 0x08, 0x5c, 0x3e, 0xb5, 0xca, 0x03, 0x3e, 0xbc, 0x1e, 0x26, 0xbe,
    0xf9, 0x37, 0x94, 0x3d, 0xf9, 0xc0, 0x15, 0xbe, 0xec, 0x68, 0x9f, 0x3c, 0xec,
    0x0c, 0xcd, 0x3d, 0x14, 0xa2, 0xcc, 0xbd, 0x5c, 0xe0, 0xff, 0xbc, 0x5d, 0x7e,
    0x83, 0xbd, 0x62, 0xde, 0x83, 0xbb, 0x8b, 0xe1, 0xbc, 0x3d, 0x0c, 0xe6, 0x25,
    0x3e, 0x51, 0x88, 0x83, 0x3e, 0x73, 0x64, 0x07, 0xbe, 0xaa, 0xee, 0xf4, 0x3d,
    0xe4, 0xbc, 0x12, 0x3e, 0x2d, 0xec, 0x57, 0xbe, 0xe8, 0x54, 0x0d, 0xbe, 0xf3,
    0xab, 0xf4, 0x3c, 0xd8, 0x44, 0x08, 0xbe, 0x6f, 0x52, 0x93, 0xbe, 0x5f, 0x6c,
    0x89, 0xbe, 0xf4, 0x60, 0xad, 0xbd, 0x9c, 0x2a, 0x19, 0x3e, 0x07, 0x6c, 0x3d,
    0xbe, 0x39, 0xe8, 0x99, 0x3d, 0xf8, 0xe7, 0x40, 0x3e, 0xd9, 0xe9, 0xbd, 0xbd,
    0x07, 0x3d, 0x00, 0xbe, 0x44, 0x41, 0xc2, 0xbd, 0xfc, 0x8a, 0x41, 0xbd, 0xea,
    0x1e, 0x9a, 0xbe, 0xaa, 0x9d, 0x33, 0xbd, 0xa2, 0x85, 0x30, 0x3e, 0xc2, 0x90,
    0xc9, 0xbe, 0x06, 0x87, 0x15, 0xbe, 0x3d, 0x81, 0x7a, 0x3e, 0xfe, 0xcc, 0xa5,
    0xbd, 0xf4, 0xf0, 0x83, 0xbc, 0xa1, 0x75, 0x03, 0xbe, 0xc4, 0xc0, 0x81, 0x3e,
    0xdc, 0xa8, 0x32, 0xbe, 0x8f, 0xf1, 0xae, 0xbd, 0xff, 0x7c, 0x67, 0xbe, 0x0b,
    0x2d, 0x62, 0xbe, 0xcd, 0x2c, 0xf0, 0x3d, 0x69, 0xc4, 0xb6, 0xbe, 0x9e, 0x41,
    0xc2, 0x3c, 0x49, 0x59, 0xaa, 0x3e, 0x66, 0xbd, 0x6c, 0xbe, 0xed, 0x13, 0x5f,
    0xbd, 0x36, 0x23, 0x48, 0x3e, 0xb4, 0xe6, 0x2d, 0x3e, 0x80, 0x7b, 0x0c, 0xbe,
    0xeb, 0xa7, 0x24, 0xbe, 0xb6, 0x66, 0x11, 0xbe, 0x8f, 0x80, 0x45, 0xbe, 0x09,
    0xaa, 0xf3, 0x3d, 0x27, 0x14, 0x5f, 0xbd, 0x89, 0x94, 0x16, 0xbe, 0xd7, 0x78,
    0x8e, 0x3e, 0xd1, 0x6d, 0x99, 0xbd, 0xf1, 0xcb, 0x80, 0x3d, 0x24, 0x72, 0xdc,
    0xbd, 0xde, 0xb8, 0x55, 0xbd, 0xd2, 0x55, 0xab, 0xbd, 0xb5, 0x2d, 0xa9, 0x3d,
    0x94, 0x57, 0xd4, 0x3c, 0x0d, 0x55, 0x1c, 0x3e, 0x79, 0xf5, 0x72, 0x3d, 0xed,
    0x2f, 0xe2, 0xbd, 0xf2, 0xda, 0xf8, 0x3d, 0x5d, 0xe7, 0x96, 0x3d, 0xb5, 0x77,
