
#include "tensorflow_model_lcnn.h"

// This is a TensorFlow Lite model file that has been converted into a C data
// array using the tensorflow.lite.util.convert_bytes_to_c_source() function.
// This form is useful for compiling into a binary for devices that don't have a
// file system.


// We need to keep the data array aligned on some architectures.
#ifdef __has_attribute
#define HAVE_ATTRIBUTE(x) __has_attribute(x)
#else
#define HAVE_ATTRIBUTE(x) 0
#endif
#if HAVE_ATTRIBUTE(aligned) || (defined(__GNUC__) && !defined(__clang__))
#define DATA_ALIGN_ATTRIBUTE __attribute__((aligned(4)))
#else
#define DATA_ALIGN_ATTRIBUTE
#endif

const unsigned char tensorflow_model_lcnn[] DATA_ALIGN_ATTRIBUTE = {
    0x1c, 0x00, 0x00, 0x00, 0x54, 0x46, 0x4c, 0x33, 0x14, 0x00, 0x20, 0x00, 0x04,
    0x00, 0x08, 0x00, 0x0c, 0x00, 0x10, 0x00, 0x14, 0x00, 0x00, 0x00, 0x18, 0x00,
    0x1c, 0x00, 0x14, 0x00, 0x00, 0x00, 0x03, 0x00, 0x00, 0x00, 0x18, 0x00, 0x00,
    0x00, 0x2c, 0x00, 0x00, 0x00, 0xc8, 0x00, 0x00, 0x00, 0x2c, 0x00, 0x00, 0x00,
    0x70, 0x00, 0x00, 0x00, 0x68, 0x00, 0x00, 0x00, 0x05, 0x00, 0x00, 0x00, 0x58,
    0x05, 0x00, 0x00, 0x70, 0x04, 0x00, 0x00, 0xa4, 0x03, 0x00, 0x00, 0xd4, 0x02,
    0x00, 0x00, 0x84, 0x01, 0x00, 0x00, 0x01, 0x00, 0x00, 0x00, 0xc0, 0x00, 0x00,
    0x00, 0x10, 0x00, 0x00, 0x00, 0x38, 0x2a, 0x00, 0x00, 0x34, 0x2a, 0x00, 0x00,
    0x54, 0x29, 0x00, 0x00, 0xbc, 0x28, 0x00, 0x00, 0x10, 0x28, 0x00, 0x00, 0x84,
    0x27, 0x00, 0x00, 0x30, 0x09, 0x00, 0x00, 0xdc, 0x07, 0x00, 0x00, 0xfc, 0x05,
    0x00, 0x00, 0x14, 0x2a, 0x00, 0x00, 0x10, 0x2a, 0x00, 0x00, 0x0c, 0x2a, 0x00,
    0x00, 0x08, 0x2a, 0x00, 0x00, 0x04, 0x2a, 0x00, 0x00, 0x00, 0x2a, 0x00, 0x00,
    0x3c, 0x00, 0x00, 0x00, 0x00, 0x00, 0x00, 0x00, 0x01, 0x00, 0x00, 0x00, 0x0c,
    0x00, 0x00, 0x00, 0x08, 0x00, 0x0c, 0x00, 0x04, 0x00, 0x08, 0x00, 0x08, 0x00,
    0x00, 0x00, 0x08, 0x00, 0x00, 0x00, 0x0f, 0x00, 0x00, 0x00, 0x13, 0x00, 0x00,
    0x00, 0x6d, 0x69, 0x6e, 0x5f, 0x72, 0x75, 0x6e, 0x74, 0x69, 0x6d, 0x65, 0x5f,
    0x76, 0x65, 0x72, 0x73, 0x69, 0x6f, 0x6e, 0x00, 0x22, 0xd7, 0xff, 0xff, 0x04,
    0x00, 0x00, 0x00, 0x10, 0x00, 0x00, 0x00, 0x31, 0x2e, 0x35, 0x2e, 0x30, 0x00,
    0x00, 0x00, 0x00, 0x00, 0x00, 0x00, 0x00, 0x00, 0x00, 0x00, 0x0f, 0x00, 0x00,
    0x00, 0x4d, 0x4c, 0x49, 0x52, 0x20, 0x43, 0x6f, 0x6e, 0x76, 0x65, 0x72, 0x74,
    0x65, 0x64, 0x2e, 0x00, 0x00, 0x00, 0x0e, 0x00, 0x18, 0x00, 0x04, 0x00, 0x08,
    0x00, 0x0c, 0x00, 0x10, 0x00, 0x14, 0x00, 0x0e, 0x00, 0x00, 0x00, 0x14, 0x00,
    0x00, 0x00, 0x4c, 0x00, 0x00, 0x00, 0x50, 0x00, 0x00, 0x00, 0x54, 0x00, 0x00,
    0x00, 0x6c, 0x00, 0x00, 0x00, 0x0e, 0x00, 0x00, 0x00, 0x08, 0x29, 0x00, 0x00,
    0xa8, 0x28, 0x00, 0x00, 0x18, 0x28, 0x00, 0x00, 0x8c, 0x27, 0x00, 0x00, 0xe0,
    0x26, 0x00, 0x00, 0x6c, 0x26, 0x00, 0x00, 0x18, 0x08, 0x00, 0x00, 0xb8, 0x06,
    0x00, 0x00, 0x54, 0x04, 0x00, 0x00, 0x6c, 0x03, 0x00, 0x00, 0xa0, 0x02, 0x00,
    0x00, 0xd0, 0x01, 0x00, 0x00, 0x08, 0x01, 0x00, 0x00, 0x7c, 0x00, 0x00, 0x00,
    0x01, 0x00, 0x00, 0x00, 0x00, 0x00, 0x00, 0x00, 0x01, 0x00, 0x00, 0x00, 0x0d,
    0x00, 0x00, 0x00, 0x06, 0x00, 0x00, 0x00, 0xc4, 0x03, 0x00, 0x00, 0xe0, 0x02,
    0x00, 0x00, 0x40, 0x02, 0x00, 0x00, 0x54, 0x01, 0x00, 0x00, 0xa8, 0x00, 0x00,
    0x00, 0x10, 0x00, 0x00, 0x00, 0x04, 0x00, 0x00, 0x00, 0x6d, 0x61, 0x69, 0x6e,
    0x00, 0x00, 0x00, 0x00, 0x7a, 0xff, 0xff, 0xff, 0x00, 0x00, 0x00, 0x09, 0x04,
    0x00, 0x00, 0x00, 0x1c, 0x00, 0x00, 0x00, 0x10, 0x00, 0x00, 0x00, 0x04, 0x00,
    0x00, 0x00, 0x06, 0xd8, 0xff, 0xff, 0x00, 0x00, 0x80, 0x3f, 0x01, 0x00, 0x00,
    0x00, 0x0d, 0x00, 0x00, 0x00, 0x01, 0x00, 0x00, 0x00, 0x0c, 0x00, 0x00, 0x00,
    0x48, 0xfc, 0xff, 0xff, 0x19, 0x00, 0x00, 0x00, 0x00, 0x00, 0x00, 0x19, 0x01,
    0x00, 0x00, 0x00, 0xbc, 0xd7, 0xff, 0xff, 0x14, 0x00, 0x00, 0x00, 0x0e, 0x00,
    0x00, 0x00, 0x24, 0x00, 0x00, 0x00, 0x30, 0x00, 0x00, 0x00, 0x10, 0x00, 0x00,
    0x00, 0x02, 0x00, 0x00, 0x00, 0x01, 0x00, 0x00, 0x00, 0x04, 0x00, 0x00, 0x00,
    0x02, 0x00, 0x00, 0x00, 0xff, 0xff, 0xff, 0xff, 0x04, 0x00, 0x00, 0x00, 0x08,
    0x00, 0x00, 0x00, 0x49, 0x64, 0x65, 0x6e, 0x74, 0x69, 0x74, 0x79, 0x00, 0x00,
    0x00, 0x00, 0x78, 0xd8, 0xff, 0xff, 0x00, 0x00, 0x0e, 0x00, 0x18, 0x00, 0x08,
    0x00, 0x0c, 0x00, 0x10, 0x00, 0x07, 0x00, 0x14, 0x00, 0x0e, 0x00, 0x00, 0x00,
    0x00, 0x00, 0x00, 0x08, 0x03, 0x00, 0x00, 0x00, 0x18, 0x00, 0x00, 0x00, 0x0c,
    0x00, 0x00, 0x00, 0x04, 0x00, 0x00, 0x00, 0xbc, 0xd7, 0xff, 0xff, 0x01, 0x00,
    0x00, 0x00, 0x0c, 0x00, 0x00, 0x00, 0x03, 0x00, 0x00, 0x00, 0x0b, 0x00, 0x00,
    0x00, 0x06, 0x00, 0x00, 0x00, 0x02, 0x00, 0x00, 0x00, 0x44, 0xd8, 0xff, 0xff,
    0x14, 0x00, 0x00, 0x00, 0x0d, 0x00, 0x00, 0x00, 0x24, 0x00, 0x00, 0x00, 0x60,
    0x00, 0x00, 0x00, 0x10, 0x00, 0x00, 0x00, 0x02, 0x00, 0x00, 0x00, 0x01, 0x00,
    0x00, 0x00, 0x04, 0x00, 0x00, 0x00, 0x02, 0x00, 0x00, 0x00, 0xff, 0xff, 0xff,
    0xff, 0x04, 0x00, 0x00, 0x00, 0x38, 0x00, 0x00, 0x00, 0x73, 0x65, 0x71, 0x75,
    0x65, 0x6e, 0x74, 0x69, 0x61, 0x6c, 0x5f, 0x31, 0x2f, 0x64, 0x65, 0x6e, 0x73,
    0x65, 0x5f, 0x34, 0x2f, 0x4d, 0x61, 0x74, 0x4d, 0x75, 0x6c, 0x3b, 0x73, 0x65,
    0x71, 0x75, 0x65, 0x6e, 0x74, 0x69, 0x61, 0x6c, 0x5f, 0x31, 0x2f, 0x64, 0x65,
    0x6e, 0x73, 0x65, 0x5f, 0x34, 0x2f, 0x42, 0x69, 0x61, 0x73, 0x41, 0x64, 0x64,
    0x00, 0x00, 0x00, 0x00, 0x48, 0xd8, 0xff, 0xff, 0x8a, 0xfe, 0xff, 0xff, 0x00,
    0x00, 0x00, 0x08, 0x03, 0x00, 0x00, 0x00, 0x24, 0x00, 0x00, 0x00, 0x18, 0x00,
    0x00, 0x00, 0x0c, 0x00, 0x00, 0x00, 0x00, 0x00, 0x06, 0x00, 0x08, 0x00, 0x07,
    0x00, 0x06, 0x00, 0x00, 0x00, 0x00, 0x00, 0x00, 0x01, 0x01, 0x00, 0x00, 0x00,
    0x0b, 0x00, 0x00, 0x00, 0x03, 0x00, 0x00, 0x00, 0x0a, 0x00, 0x00, 0x00, 0x05,
    0x00, 0x00, 0x00, 0x03, 0x00, 0x00, 0x00, 0x94, 0xfd, 0xff, 0xff, 0x09, 0x00,
    0x00, 0x00, 0x00, 0x00, 0x00, 0x09, 0x01, 0x00, 0x00, 0x00, 0x08, 0xd9, 0xff,
    0xff, 0x14, 0x00, 0x00, 0x00, 0x0c, 0x00, 0x00, 0x00, 0x24, 0x00, 0x00, 0x00,
    0x78, 0x00, 0x00, 0x00, 0x10, 0x00, 0x00, 0x00, 0x02, 0x00, 0x00, 0x00, 0x01,
    0x00, 0x00, 0x00, 0x10, 0x00, 0x00, 0x00, 0x02, 0x00, 0x00, 0x00, 0xff, 0xff,
    0xff, 0xff, 0x10, 0x00, 0x00, 0x00, 0x52, 0x00, 0x00, 0x00, 0x73, 0x65, 0x71,
    0x75, 0x65, 0x6e, 0x74, 0x69, 0x61, 0x6c, 0x5f, 0x31, 0x2f, 0x64, 0x65, 0x6e,
    0x73, 0x65, 0x5f, 0x33, 0x2f, 0x4d, 0x61, 0x74, 0x4d, 0x75, 0x6c, 0x3b, 0x73,
    0x65, 0x71, 0x75, 0x65, 0x6e, 0x74, 0x69, 0x61, 0x6c, 0x5f, 0x31, 0x2f, 0x64,
    0x65, 0x6e, 0x73, 0x65, 0x5f, 0x33, 0x2f, 0x52, 0x65, 0x6c, 0x75, 0x3b, 0x73,
    0x65, 0x71, 0x75, 0x65, 0x6e, 0x74, 0x69, 0x61, 0x6c, 0x5f, 0x31, 0x2f, 0x64,
    0x65, 0x6e, 0x73, 0x65, 0x5f, 0x33, 0x2f, 0x42, 0x69, 0x61, 0x73, 0x41, 0x64,
    0x64, 0x00, 0x00, 0x0c, 0xda, 0xff, 0xff, 0x00, 0x00, 0x0a, 0x00, 0x10, 0x00,
    0x04, 0x00, 0x08, 0x00, 0x0c, 0x00, 0x0a, 0x00, 0x00, 0x00, 0x02, 0x00, 0x00,
    0x00, 0x10, 0x00, 0x00, 0x00, 0x04, 0x00, 0x00, 0x00, 0x01, 0x00, 0x00, 0x00,
    0x0a, 0x00, 0x00, 0x00, 0x02, 0x00, 0x00, 0x00, 0x09, 0x00, 0x00, 0x00, 0x01,
    0x00, 0x00, 0x00, 0x60, 0xfe, 0xff, 0xff, 0x16, 0x00, 0x00, 0x00, 0x00, 0x00,
    0x00, 0x16, 0x01, 0x00, 0x00, 0x00, 0xd4, 0xd9, 0xff, 0xff, 0x14, 0x00, 0x00,
    0x00, 0x0b, 0x00, 0x00, 0x00, 0x24, 0x00, 0x00, 0x00, 0x44, 0x00, 0x00, 0x00,
    0x10, 0x00, 0x00, 0x00, 0x02, 0x00, 0x00, 0x00, 0x01, 0x00, 0x00, 0x00, 0x78,
    0x00, 0x00, 0x00, 0x02, 0x00, 0x00, 0x00, 0xff, 0xff, 0xff, 0xff, 0x78, 0x00,
    0x00, 0x00, 0x1e, 0x00, 0x00, 0x00, 0x73, 0x65, 0x71, 0x75, 0x65, 0x6e, 0x74,
    0x69, 0x61, 0x6c, 0x5f, 0x31, 0x2f, 0x66, 0x6c, 0x61, 0x74, 0x74, 0x65, 0x6e,
    0x5f, 0x31, 0x2f, 0x52, 0x65, 0x73, 0x68, 0x61, 0x70, 0x65, 0x00, 0x00, 0xa4,
    0xda, 0xff, 0xff, 0x00, 0x00, 0x0e, 0x00, 0x1a, 0x00, 0x08, 0x00, 0x0c, 0x00,
    0x10, 0x00, 0x07, 0x00, 0x14, 0x00, 0x0e, 0x00, 0x00, 0x00, 0x00, 0x00, 0x00,
    0x05, 0x01, 0x00, 0x00, 0x00, 0x3c, 0x00, 0x00, 0x00, 0x30, 0x00, 0x00, 0x00,
    0x14, 0x00, 0x00, 0x00, 0x00, 0x00, 0x0e, 0x00, 0x18, 0x00, 0x17, 0x00, 0x10,
    0x00, 0x0c, 0x00, 0x08, 0x00, 0x04, 0x00, 0x0e, 0x00, 0x00, 0x00, 0x08, 0x00,
    0x00, 0x00, 0x01, 0x00, 0x00, 0x00, 0x08, 0x00, 0x00, 0x00, 0x01, 0x00, 0x00,
    0x00, 0x00, 0x00, 0x00, 0x01, 0x01, 0x00, 0x00, 0x00, 0x09, 0x00, 0x00, 0x00,
    0x01, 0x00, 0x00, 0x00, 0x08, 0x00, 0x00, 0x00, 0x28, 0xff, 0xff, 0xff, 0x11,
    0x00, 0x00, 0x00, 0x00, 0x00, 0x00, 0x11, 0x01, 0x00, 0x00, 0x00, 0x9c, 0xda,
    0xff, 0xff, 0x14, 0x00, 0x00, 0x00, 0x0a, 0x00, 0x00, 0x00, 0x34, 0x00, 0x00,
    0x00, 0x5c, 0x00, 0x00, 0x00, 0x18, 0x00, 0x00, 0x00, 0x04, 0x00, 0x00, 0x00,
    0x01, 0x00, 0x00, 0x00, 0x0f, 0x00, 0x00, 0x00, 0x01, 0x00, 0x00, 0x00, 0x08,
    0x00, 0x00, 0x00, 0x04, 0x00, 0x00, 0x00, 0xff, 0xff, 0xff, 0xff, 0x0f, 0x00,
    0x00, 0x00, 0x01, 0x00, 0x00, 0x00, 0x08, 0x00, 0x00, 0x00, 0x24, 0x00, 0x00,
    0x00, 0x73, 0x65, 0x71, 0x75, 0x65, 0x6e, 0x74, 0x69, 0x61, 0x6c, 0x5f, 0x31,
    0x2f, 0x6d, 0x61, 0x78, 0x5f, 0x70, 0x6f, 0x6f, 0x6c, 0x69, 0x6e, 0x67, 0x32,
    0x64, 0x5f, 0x31, 0x2f, 0x4d, 0x61, 0x78, 0x50, 0x6f, 0x6f, 0x6c, 0x00, 0x00,
    0x00, 0x00, 0x84, 0xdb, 0xff, 0xff, 0x00, 0x00, 0x0e, 0x00, 0x14, 0x00, 0x00,
    0x00, 0x08, 0x00, 0x0c, 0x00, 0x07, 0x00, 0x10, 0x00, 0x0e, 0x00, 0x00, 0x00,
    0x00, 0x00, 0x00, 0x01, 0x30, 0x00, 0x00, 0x00, 0x24, 0x00, 0x00, 0x00, 0x10,
    0x00, 0x00, 0x00, 0x0c, 0x00, 0x10, 0x00, 0x0e, 0x00, 0x04, 0x00, 0x08, 0x00,
    0x0f, 0x00, 0x0c, 0x00, 0x00, 0x00, 0x01, 0x00, 0x00, 0x00, 0x01, 0x00, 0x00,
    0x00, 0x00, 0x00, 0x01, 0x01, 0x01, 0x00, 0x00, 0x00, 0x08, 0x00, 0x00, 0x00,
    0x03, 0x00, 0x00, 0x00, 0x00, 0x00, 0x00, 0x00, 0x07, 0x00, 0x00, 0x00, 0x04,
    0x00, 0x00, 0x00, 0x0c, 0x00, 0x10, 0x00, 0x0b, 0x00, 0x00, 0x00, 0x0c, 0x00,
    0x04, 0x00, 0x0c, 0x00, 0x00, 0x00, 0x03, 0x00, 0x00, 0x00, 0x00, 0x00, 0x00,
    0x03, 0x01, 0x00, 0x00, 0x00, 0x80, 0xdb, 0xff, 0xff, 0x14, 0x00, 0x00, 0x00,
    0x09, 0x00, 0x00, 0x00, 0x34, 0x00, 0x00, 0x00, 0xc0, 0x00, 0x00, 0x00, 0x18,
    0x00, 0x00, 0x00, 0x04, 0x00, 0x00, 0x00, 0x01, 0x00, 0x00, 0x00, 0x7d, 0x00,
    0x00, 0x00, 0x01, 0x00, 0x00, 0x00, 0x08, 0x00, 0x00, 0x00, 0x04, 0x00, 0x00,
    0x00, 0xff, 0xff, 0xff, 0xff, 0x7d, 0x00, 0x00, 0x00, 0x01, 0x00, 0x00, 0x00,
    0x08, 0x00, 0x00, 0x00, 0x8b, 0x00, 0x00, 0x00, 0x73, 0x65, 0x71, 0x75, 0x65,
    0x6e, 0x74, 0x69, 0x61, 0x6c, 0x5f, 0x31, 0x2f, 0x63, 0x6f, 0x6e, 0x76, 0x32,
    0x64, 0x5f, 0x32, 0x2f, 0x52, 0x65, 0x6c, 0x75, 0x3b, 0x73, 0x65, 0x71, 0x75,
    0x65, 0x6e, 0x74, 0x69, 0x61, 0x6c, 0x5f, 0x31, 0x2f, 0x63, 0x6f, 0x6e, 0x76,
    0x32, 0x64, 0x5f, 0x32, 0x2f, 0x42, 0x69, 0x61, 0x73, 0x41, 0x64, 0x64, 0x3b,
    0x73, 0x65, 0x71, 0x75, 0x65, 0x6e, 0x74, 0x69, 0x61, 0x6c, 0x5f, 0x31, 0x2f,
    0x63, 0x6f, 0x6e, 0x76, 0x32, 0x64, 0x5f, 0x32, 0x2f, 0x43, 0x6f, 0x6e, 0x76,
    0x32, 0x44, 0x3b, 0x73, 0x65, 0x71, 0x75, 0x65, 0x6e, 0x74, 0x69, 0x61, 0x6c,
    0x5f, 0x31, 0x2f, 0x63, 0x6f, 0x6e, 0x76, 0x32, 0x64, 0x5f, 0x32, 0x2f, 0x42,
    0x69, 0x61, 0x73, 0x41, 0x64, 0x64, 0x2f, 0x52, 0x65, 0x61, 0x64, 0x56, 0x61,
    0x72, 0x69, 0x61, 0x62, 0x6c, 0x65, 0x4f, 0x70, 0x2f, 0x72, 0x65, 0x73, 0x6f,
    0x75, 0x72, 0x63, 0x65, 0x00, 0xe4, 0xdb, 0xff, 0xff, 0xc6, 0xdc, 0xff, 0xff,
    0x04, 0x00, 0x00, 0x00, 0x80, 0x01, 0x00, 0x00, 0x2c, 0x4b, 0xcf, 0xbe, 0x4d,
    0x9a, 0x01, 0xbf, 0x38, 0xb9, 0x36, 0x3e, 0x32, 0x28, 0xed, 0xbe, 0x68, 0x88,
    0x81, 0x3c, 0xba, 0xee, 0x80, 0x3e, 0x57, 0x76, 0xc3, 0xbe, 0xf0, 0xf0, 0xfc,
    0x3e, 0x74, 0xd7, 0xef, 0xbe, 0xa5, 0x89, 0xca, 0x3c, 0x24, 0x6a, 0x0f, 0xbe,
    0xd6, 0x6e, 0xfa, 0xbe, 0x52, 0xa2, 0x46, 0xbd, 0x50, 0xb9, 0x0c, 0x3f, 0xa2,
    0x25, 0x68, 0xbe, 0x59, 0x97, 0xab, 0xbe, 0xa8, 0xa0, 0xd7, 0x3d, 0x9a, 0xba,
    0x2d, 0xbf, 0xe7, 0x86, 0xbe, 0xbd, 0xf1, 0x25, 0xcb, 0xbe, 0xdb, 0x24, 0xfe,
    0xbe, 0x33, 0x68, 0x45, 0x3e, 0xcc, 0x9d, 0x1a, 0x3e, 0xaf, 0xb7, 0x14, 0x3f,
    0x74, 0xeb, 0x8f, 0x3d, 0x5f, 0x9f, 0xf2, 0x3e, 0x6a, 0x7e, 0xb7, 0x3e, 0x3c,
    0xf6, 0xab, 0xbe, 0x94, 0x96, 0x00, 0xbf, 0xcb, 0xe9, 0x96, 0x3e, 0x68, 0xac,
    0x51, 0x3e, 0xb0, 0xed, 0xa2, 0xbe, 0x48, 0x00, 0x1a, 0x3f, 0x29, 0x40, 0xe9,
    0xbd, 0x09, 0x9b, 0x9d, 0x3d, 0xcd, 0x55, 0x28, 0x3f, 0xc6, 0xee, 0x17, 0xbe,
    0xf3, 0x4a, 0x8a, 0x3e, 0x24, 0x31, 0x19, 0x3d, 0x97, 0xb6, 0x90, 0x3e, 0xb2,
    0x43, 0xae, 0x3e, 0x7a, 0xb5, 0x97, 0x3e, 0x8e, 0xb1, 0x9c, 0xbe, 0x85, 0xbb,
    0x84, 0x3e, 0xb9, 0xee, 0x3d, 0x3d, 0x36, 0xe5, 0x31, 0x3e, 0x6e, 0xfe, 0xa3,
    0x3e, 0x71, 0xde, 0x8f, 0x3e, 0x50, 0x5b, 0xc1, 0xbe, 0xac, 0x14, 0x04, 0x3e,
    0x1a, 0x08, 0x09, 0xbe, 0x42, 0x19, 0xfb, 0x3d, 0xb1, 0x79, 0x38, 0xbf, 0xa2,
    0xec, 0xea, 0x3d, 0xce, 0x20, 0x01, 0x3f, 0xc1, 0xe0, 0x85, 0xbe, 0x30, 0x3a,
    0x4c, 0x3f, 0x60, 0xaf, 0x37, 0xbe, 0x80, 0xea, 0x45, 0x3f, 0x14, 0x3c, 0x1f,
    0xbe, 0xb3, 0x91, 0x59, 0x3d, 0x39, 0x4d, 0x36, 0x3f, 0xbd, 0x8a, 0xc0, 0xbe,
    0x2d, 0x68, 0x7f, 0x3e, 0x98, 0xb5, 0x1f, 0x3f, 0x34, 0x38, 0x49, 0x3f, 0x52,
    0x36, 0xb4, 0xbd, 0x40, 0x2e, 0xc0, 0x3e, 0xb7, 0x2f, 0x19, 0xbf, 0xc2, 0x4c,
    0xef, 0xbe, 0xe7, 0x32, 0x31, 0xbe, 0xe2, 0x49, 0x4e, 0x3f, 0x73, 0x84, 0x01,
    0xbf, 0xba, 0x3e, 0x14, 0xba, 0x5d, 0x00, 0x3e, 0xbe, 0x72, 0x47, 0x68, 0x3e,
    0xa4, 0x61, 0xfe, 0xbe, 0x49, 0x6b, 0x7e, 0xbc, 0x91, 0x2e, 0xaa, 0x3e, 0xc2,
    0x0b, 0xd4, 0xbe, 0xc6, 0xbb, 0xac, 0xbe, 0x54, 0x7e, 0x59, 0x3e, 0x6b, 0x99,
    0x04, 0xbf, 0xb1, 0x61, 0x21, 0xbf, 0x99, 0xc4, 0x30, 0xbe, 0xcf, 0xe2, 0x75,
    0xbe, 0xb3, 0x2d, 0x98, 0xbe, 0x31, 0xe7, 0x11, 0xbd, 0xfa, 0x4c, 0x01, 0x3e,
    0x05, 0x67, 0xba, 0x3e, 0x4b, 0xaf, 0x2e, 0x3e, 0x11, 0xa1, 0x86, 0x3e, 0x91,
    0xe5, 0xa0, 0x3d, 0x3c, 0xad, 0x6d, 0xbd, 0x7e, 0x09, 0x39, 0xbe, 0x8b, 0xab,
    0x6c, 0xbe, 0xc2, 0xde, 0xff, 0xff, 0x10, 0x00, 0x00, 0x00, 0x08, 0x00, 0x00,
    0x00, 0x1c, 0x00, 0x00, 0x00, 0x3c, 0x00, 0x00, 0x00, 0x04, 0x00, 0x00, 0x00,
    0x08, 0x00, 0x00, 0x00, 0x04, 0x00, 0x00, 0x00, 0x01, 0x00, 0x00, 0x00, 0x03,
    0x00, 0x00, 0x00, 0x1c, 0x00, 0x00, 0x00, 0x73, 0x65, 0x71, 0x75, 0x65, 0x6e,
    0x74, 0x69, 0x61, 0x6c, 0x5f, 0x31, 0x2f, 0x63, 0x6f, 0x6e, 0x76, 0x32, 0x64,
    0x5f, 0x32, 0x2f, 0x43, 0x6f, 0x6e, 0x76, 0x32, 0x44, 0x00, 0x00, 0x00, 0x00,
    0xc0, 0xdd, 0xff, 0xff, 0xa2, 0xde, 0xff, 0xff, 0x04, 0x00, 0x00, 0x00, 0x00,
    0x01, 0x00, 0x00, 0x4e, 0xd9, 0xda, 0xbe, 0xee, 0x37, 0x93, 0xbe, 0x17, 0xe5,
    0x07, 0x3f, 0x5a, 0x73, 0x22, 0xbd, 0x23, 0xe3, 0x0a, 0xbd, 0x6e, 0x7d, 0x9d,
    0xbd, 0x1a, 0xa2, 0x32, 0x3e, 0xcc, 0xe9, 0x9f, 0x3e, 0x9e, 0x89, 0x5b, 0x3d,
    0xa4, 0x81, 0x56, 0xbf, 0x17, 0x10, 0x18, 0x3f, 0x58, 0xa5, 0xa3, 0x3e, 0xf7,
    0xe6, 0x8d, 0xbf, 0xe8, 0x58, 0xdf, 0xbd, 0x35, 0xba, 0x09, 0x3f, 0x12, 0xf6,
    0xd4, 0x3e, 0xec, 0xfd, 0x50, 0x3f, 0xe9, 0x1a, 0xf9, 0x3d, 0xc5, 0xc1, 0xe3,
    0xbe, 0xcf, 0x83, 0x06, 0x3e, 0x92, 0x0a, 0x13, 0x3e, 0xd0, 0xfc, 0xfa, 0x3e,
    0x2e, 0x03, 0x93, 0x3e, 0xb0, 0xb5, 0xa4, 0xbc, 0x42, 0x70, 0x4d, 0xbf, 0x78,
    0x0b, 0xe9, 0xbe, 0xa7, 0xf0, 0x4a, 0xbf, 0x72, 0x43, 0x02, 0xbf, 0xa1, 0x3c,
    0xe8, 0xbf, 0x51, 0x4e, 0xdf, 0xbd, 0x7a, 0xae, 0xa8, 0xbd, 0x71, 0x08, 0x20,
    0xbd, 0x62, 0x88, 0xa2, 0xbf, 0xce, 0xfb, 0x93, 0xbf, 0x7f, 0x9c, 0xee, 0x3e,
    0x93, 0xb2, 0x2c, 0xbe, 0xb8, 0x04, 0xc1, 0xbf, 0xd7, 0x9e, 0x8c, 0xbf, 0xc7,
    0x05, 0x72, 0xbf, 0xde, 0x84, 0xca, 0xbf, 0x79, 0x9b, 0xb3, 0x3e, 0xe8, 0x68,
    0x13, 0x3e, 0xee, 0x71, 0x52, 0x3e, 0x05, 0x62, 0xd1, 0xbe, 0xb2, 0xb9, 0x72,
    0x3f, 0x93, 0x38, 0xf6, 0xbe, 0xac, 0x46, 0x67, 0x3e, 0x44, 0x58, 0x55, 0xbe,
    0x88, 0x65, 0x27, 0xbf, 0xef, 0xba, 0x09, 0xbe, 0xcf, 0x7e, 0xab, 0x3e, 0x44,
    0xba, 0x22, 0x3f, 0x6c, 0xdb, 0x67, 0x3f, 0x04, 0xaf, 0x9a, 0xbf, 0x10, 0xff,
    0x58, 0x3e, 0xb1, 0x15, 0xba, 0xbe, 0xb8, 0x86, 0x2d, 0xbe, 0x41, 0x40, 0xfe,
    0x3e, 0xb7, 0xe3, 0xb2, 0x3e, 0x96, 0x93, 0x62, 0x3e, 0xde, 0x0a, 0xfb, 0x3d,
    0xf2, 0x99, 0xd7, 0x3e, 0x38, 0x6f, 0x83, 0xbe, 0x03, 0x36, 0x3e, 0x3e, 0x1e,
    0xe0, 0xff, 0xff, 0x10, 0x00, 0x00, 0x00, 0x07, 0x00, 0x00, 0x00, 0x14, 0x00,
    0x00, 0x00, 0x30, 0x00, 0x00, 0x00, 0x02, 0x00, 0x00, 0x00, 0x04, 0x00, 0x00,
    0x00, 0x10, 0x00, 0x00, 0x00, 0x1b, 0x00, 0x00, 0x00, 0x73, 0x65, 0x71, 0x75,
    0x65, 0x6e, 0x74, 0x69, 0x61, 0x6c, 0x5f, 0x31, 0x2f, 0x64, 0x65, 0x6e, 0x73,
    0x65, 0x5f, 0x34, 0x2f, 0x4d, 0x61, 0x74, 0x4d, 0x75, 0x6c, 0x00, 0x10, 0xdf,
    0xff, 0xff, 0xf2, 0xdf, 0xff, 0xff, 0x04, 0x00, 0x00, 0x00, 0x00, 0x1e, 0x00,
    0x00, 0x83, 0xee, 0x44, 0x3e, 0xf4, 0x1e, 0x43, 0xbd, 0x8f, 0x56, 0x0c, 0x3e,
    0x74, 0x1d, 0x87, 0xbd, 0xd4, 0xfa, 0x52, 0x3d, 0xe8, 0xc0, 0x85, 0x3c, 0x49,
    0xfa, 0x60, 0x3d, 0x93, 0xa3, 0x12, 0x3d, 0x97, 0x24, 0x8a, 0x3d, 0x98, 0x40,
    0x3c, 0xbd, 0x91, 0xef, 0xa8, 0x3b, 0x4d, 0xf6, 0x4c, 0xbc, 0x4d, 0xa1, 0x2b,
    0x3d, 0x8e, 0x6b, 0x3c, 0x3e, 0xe3, 0x45, 0x04, 0x3e, 0xf6, 0xa2, 0x6a, 0x3c,
    0x35, 0x82, 0x3f, 0x3e, 0x28, 0x02, 0x6f, 0x3d, 0x73, 0xd7, 0x2c, 0x3c, 0xf6,
    0xe3, 0x49, 0xbd, 0x06, 0x1f, 0x63, 0x3d, 0x63, 0x4e, 0x94, 0x3d, 0x66, 0x38,
    0xf6, 0x3d, 0xcb, 0x0c, 0x14, 0x3d, 0xef, 0xf9, 0x46, 0x3d, 0xab, 0x0e, 0xa3,
    0xbc, 0x96, 0xe9, 0x05, 0x3d, 0x38, 0xce, 0x8e, 0x3d, 0x63, 0x46, 0x88, 0x3d,
    0x7b, 0x8c, 0xd3, 0x3d, 0x69, 0x70, 0x9c, 0x3d, 0xb3, 0x56, 0xe9, 0xbd, 0xea,
    0xef, 0x7d, 0xbc, 0x6f, 0xd9, 0x10, 0xbd, 0x9a, 0x9d, 0xba, 0x3d, 0xc3, 0xdf,
    0x5a, 0xbd, 0xdf, 0x6b, 0x7c, 0x3c, 0xa7, 0xa5, 0x92, 0x3d, 0xbc, 0xd3, 0x59,
    0x3d, 0x83, 0x83, 0x1a, 0xbd, 0x7c, 0xb2, 0x1c, 0x3e, 0x93, 0xfd, 0xac, 0xbb,
    0x6a, 0x5c, 0x89, 0x3d, 0xb6, 0xc7, 0x90, 0xbd, 0xce, 0x3e, 0x54, 0xbd, 0x44,
    0x1b, 0x24, 0x3c, 0xab, 0xb4, 0x20, 0x3d, 0x2e, 0x02, 0x6b, 0xbd, 0xed, 0x85,
    0x0d, 0x3d, 0x7a, 0x7c, 0x1e, 0xbd, 0x83, 0x8c, 0xe0, 0x3c, 0x47, 0xf2, 0x05,
    0x3d, 0xa3, 0xfe, 0x88, 0x3d, 0xf6, 0x54, 0x0f, 0x3e, 0x0c, 0xf2, 0xab, 0x3d,
    0xcc, 0xff, 0x2a, 0x3d, 0x72, 0x56, 0x6e, 0x3d, 0x13, 0x58, 0xa1, 0x3d, 0xf4,
    0x60, 0x91, 0x3d, 0xfa, 0xab, 0x12, 0x3c, 0x9b, 0x31, 0x90, 0xbc, 0x66, 0x2e,
    0xc6, 0x3d, 0x8e, 0x08, 0xf9, 0x3d, 0x05, 0x81, 0xf2, 0xbc, 0xe7, 0x2b, 0x21,
    0x3e, 0xf2, 0x62, 0xc5, 0x3c, 0x79, 0x9b, 0xac, 0x3d, 0x38, 0xb2, 0xcc, 0x3c,
    0xbe, 0xc8, 0x52, 0xbd, 0x5d, 0xf7, 0x6e, 0x3d, 0x53, 0x0c, 0x0a, 0x3e, 0x1a,
    0x32, 0x38, 0xbd, 0x66, 0x4b, 0x2f, 0x3e, 0xd3, 0x10, 0x0d, 0x3c, 0x98, 0x8f,
    0x96, 0x3c, 0x25, 0x51, 0x6a, 0xbd, 0x4f, 0x9b, 0x2a, 0x3d, 0x89, 0xac, 0x06,
    0x3e, 0x1b, 0x5a, 0xcb, 0x3d, 0xba, 0x92, 0x52, 0xbd, 0x14, 0x74, 0xda, 0xba,
    0xb4, 0xf3, 0x47, 0xbd, 0x27, 0x8d, 0x96, 0x3d, 0x7f, 0xb6, 0x2c, 0xbc, 0x5a,
    0x1f, 0x8f, 0x3d, 0xb2, 0x7d, 0xf9, 0x3d, 0x73, 0x1c, 0xb7, 0x3c, 0x2c, 0x4b,
    0x03, 0xbe, 0xcd, 0xe5, 0x26, 0x3e, 0xf9, 0xf6, 0x9b, 0x3d, 0xa9, 0xf7, 0x0c,
    0x3e, 0x6d, 0xca, 0xcf, 0xbd, 0xe3, 0xf3, 0x92, 0xbc, 0x02, 0xed, 0xb4, 0x3d,
    0x64, 0x46, 0x08, 0x3e, 0xaf, 0x15, 0xed, 0xbd, 0x9b, 0xb6, 0x03, 0x3e, 0x87,
    0x53, 0x6f, 0xbd, 0x2d, 0x87, 0x6e, 0x3d, 0x74, 0x69, 0x5a, 0xbd, 0xcc, 0xce,
    0x3b, 0xbd, 0xec, 0x7d, 0xec, 0x3c, 0x13, 0xf1, 0xd6, 0x3d, 0x75, 0x07, 0x00,
    0xbe, 0x16, 0x44, 0x28, 0x3d, 0x5b, 0xb6, 0x22, 0x3b, 0x4d, 0x49, 0x18, 0x3d,
    0x77, 0xc5, 0x82, 0x3d, 0x7f, 0x68, 0xcf, 0x3c, 0x1d, 0x3b, 0xf3, 0x3d, 0x92,
    0xed, 0x71, 0x3d, 0xea, 0x54, 0x0e, 0xbe, 0xc9, 0x00, 0x6d, 0xbc, 0x63, 0x1e,
    0xd6, 0x3d, 0x5f, 0x1d, 0xd7, 0x3a, 0x58, 0xde, 0x10, 0xbd, 0x12, 0xbb, 0x52,
    0xbc, 0x77, 0x74, 0xd8, 0x3d, 0x90, 0x40, 0xe2, 0x3d, 0x10, 0x7c, 0xfa, 0xbd,
    0xd3, 0x63, 0x79, 0x3d, 0x39, 0x4a, 0x97, 0x3c, 0xa0, 0x9b, 0xbc, 0x3d, 0xb4,
    0xe9, 0x80, 0x3d, 0x59, 0xb6, 0x4f, 0x3d, 0x3a, 0x03, 0xe9, 0x3d, 0xf9, 0xf3,
    0x81, 0x3d, 0x91, 0x90, 0x03, 0x3b, 0x56, 0x44, 0x9a, 0x3c, 0xf0, 0xe2, 0xab,
    0x3c, 0xc4, 0xc8, 0x7f, 0x3d, 0xe5, 0xc2, 0xf5, 0x3c, 0x89, 0x7d, 0x0b, 0x3d,
    0x13, 0xd7, 0xf0, 0x3d, 0x8c, 0x72, 0x82, 0x3d, 0x8d, 0x7a, 0x0a, 0xbd, 0x1c,
    0x10, 0x6d, 0x3d, 0x33, 0x63, 0xbf, 0x3c, 0x18, 0x2d, 0x36, 0x3d, 0xc3, 0xd5,
    0x68, 0xbc, 0x53, 0xfd, 0x8a, 0x3d, 0x16, 0x76, 0xa1, 0x3d, 0xd4, 0x27, 0x8e,
    0x3d, 0x03, 0xe9, 0x9d, 0x3c, 0x4f, 0x4a, 0x92, 0x3c, 0x5f, 0x6f, 0x7f, 0x3c,
    0x6f, 0x57, 0x92, 0x3d, 0x1b, 0x9f, 0xa3, 0x3c, 0x1d, 0x26, 0x5d, 0x3d, 0x38,
    0x0d, 0xca, 0x3d, 0x8c, 0x05, 0x98, 0x3d, 0xcf, 0xf1, 0x4c, 0x3b, 0xc8, 0x73,
    0x24, 0x3d, 0x66, 0x46, 0xa3, 0x3c, 0xbd, 0x21, 0x36, 0x3d, 0xf8, 0x1e, 0x5a,
    0xbb, 0xa5, 0x71, 0x55, 0x3d, 0x86, 0xd1, 0xb8, 0x3d, 0xf4, 0x42, 0x71, 0x3d,
    0x38, 0x41, 0x18, 0xbc, 0xff, 0x58, 0xea, 0x3c, 0x42, 0xf7, 0x63, 0x3c, 0xcd,
    0x55, 0x16, 0x3d, 0xf5, 0x07, 0x9b, 0xbc, 0x0a, 0xb3, 0xe8, 0x3c, 0xdf, 0x06,
    0xaa, 0x3d, 0xfb, 0x6e, 0x85, 0x3d, 0x19, 0x62, 0xc1, 0xbb, 0xf0, 0xee, 0xfc,
    0x3c, 0xe4, 0xaf, 0x0a, 0x3d, 0xc1, 0x0e, 0x2f, 0x3d, 0x97, 0x58, 0x52, 0x3d,
    0xe8, 0x88, 0x33, 0x3d, 0xdf, 0xd3, 0xc1, 0x3d, 0x36, 0x84, 0x70, 0x3d, 0xcf,
    0x7e, 0x5b, 0xbd, 0x5a, 0x45, 0x54, 0x3c, 0x9f, 0x71, 0x25, 0x3d, 0x7d, 0x4b,
    0x2f, 0x3d, 0xb6, 0x22, 0xbb, 0xbc, 0x6b, 0x10, 0x92, 0x3d, 0xf6, 0x45, 0x83,
    0x3d, 0x05, 0x46, 0x9a, 0x3d, 0x75, 0x3c, 0xd2, 0xbc, 0x85, 0x37, 0x3a, 0x3d,
    0x7b, 0x11, 0xdf, 0x3b, 0xc7, 0xfd, 0x5b, 0x3d, 0xde, 0xbe, 0xdc, 0x3b, 0x09,
    0x61, 0x38, 0x3d, 0x36, 0x76, 0xd8, 0x3d, 0x93, 0xd5, 0x8a, 0x3d, 0x14, 0xc1,
    0xb7, 0xbb, 0xc6, 0xe3, 0x67, 0x3d, 0x07, 0x5f, 0xf7, 0x3c, 0xb0, 0x8f, 0x63,
    0x3d, 0x2d, 0xcb, 0x40, 0x3d, 0x37, 0x1f, 0x14, 0x3d, 0x10, 0x6c, 0xb5, 0x3d,
    0x8d, 0x1d, 0x95, 0x3d, 0xd5, 0x9e, 0x9a, 0x3b, 0x33, 0x20, 0x39, 0x3d, 0x14,
    0x69, 0x63, 0x3c, 0x1f, 0xb3, 0x82, 0x3d, 0x7b, 0xef, 0x62, 0x3d, 0x1e, 0xb3,
    0x7a, 0x3d, 0x52, 0xf7, 0xb4, 0x3d, 0x5d, 0x9e, 0x97, 0x3d, 0x1b, 0xff, 0x9e,
    0xbd, 0xa6, 0xe7, 0xaf, 0x3c, 0x7d, 0x1d, 0x20, 0x3d, 0x2e, 0x66, 0x90, 0x3d,
    0xd5, 0xb4, 0x0d, 0x3d, 0x8a, 0x88, 0x35, 0x3d, 0x6f, 0xc4, 0xc8, 0x3d, 0xeb,
    0x4d, 0x93, 0x3d, 0x77, 0x5f, 0x93, 0xbd, 0x78, 0x2b, 0x89, 0x3a, 0xd8, 0x66,
    0x85, 0x3c, 0xc3, 0x0c, 0x29, 0x3d, 0x5f, 0x22, 0x58, 0x3d, 0xaf, 0xdf, 0x12,
    0x3d, 0xb9, 0x1e, 0xc7, 0x3d, 0xdb, 0xfd, 0x7b, 0x3d, 0x7c, 0x6e, 0x10, 0xbd,
    0xe7, 0xfc, 0x4d, 0x3c, 0x5c, 0x8f, 0xd1, 0x3c, 0x1d, 0x8d, 0x0e, 0x3d, 0xd6,
    0x96, 0x8f, 0x3d, 0xe1, 0x14, 0x68, 0x3d, 0xf0, 0xc7, 0xd0, 0x3d, 0xa4, 0xb9,
    0x6d, 0x3d, 0xfe, 0x02, 0x3c, 0xbc, 0x3d, 0xf7, 0xbd, 0x3c, 0x67, 0xcf, 0x5c,
    0x3a, 0xa6, 0x63, 0x03, 0x3d, 0x04, 0xfb, 0xac, 0x3d, 0xbe, 0xa9, 0x0f, 0x3d,
    0x6e, 0x04, 0xc4, 0x3d, 0x22, 0xa9, 0x95, 0x3d, 0x76, 0x4a, 0xa2, 0xbd, 0xd3,
    0x2f, 0xa9, 0x3b, 0xdd, 0x23, 0xa9, 0x3c, 0xdd, 0xf7, 0x0a, 0xbc, 0x61, 0x30,
    0x9f, 0x3b, 0x15, 0xe6, 0xa6, 0x3c, 0x49, 0xd5, 0x8b, 0xbc, 0x2f, 0xdb, 0x5f,
    0xbc, 0x40, 0xe5, 0x1b, 0x3d, 0x4b, 0x97, 0x25, 0x3b, 0x50, 0xbd, 0xb5, 0x3c,
    0x0d, 0x7e, 0x45, 0xbc, 0xe6, 0x9a, 0x26, 0x3c, 0xc6, 0x56, 0x93, 0x3c, 0xa9,
    0x3d, 0x81, 0xbc, 0xe6, 0x1f, 0x89, 0xbc, 0x4a, 0x37, 0x23, 0x3d, 0xe4, 0xeb,
    0x6e, 0x3b, 0x4c, 0xa3, 0xac, 0x3c, 0xfa, 0xb1, 0x43, 0xbc, 0xb9, 0xa5, 0x19,
    0x3c, 0x81, 0x86, 0x71, 0x3c, 0xb0, 0x45, 0x88, 0xbc, 0xbf, 0x11, 0x5c, 0xbc,
    0x16, 0xe0, 0x0f, 0x3d, 0x41, 0xa7, 0xac, 0x3b, 0xfe, 0x51, 0x97, 0x3c, 0xda,
    0x89, 0x40, 0xbc, 0x49, 0x79, 0x5a, 0x3c, 0xe3, 0xe1, 0x96, 0x3c, 0x83, 0x0e,
    0x62, 0xbc, 0x16, 0x06, 0x7a, 0xbc, 0xbc, 0x3e, 0x0e, 0x3d, 0xea, 0x22, 0xe9,
    0x3b, 0x98, 0x8c, 0xb8, 0x3c, 0x51, 0x5a, 0xc6, 0xbb, 0x85, 0xde, 0x15, 0x3c,
    0xf9, 0xcf, 0x5f, 0x3c, 0x1a, 0xdb, 0xa0, 0xbc, 0xe0, 0x71, 0x1c, 0xbb, 0x0f,
    0x19, 0x25, 0x3d, 0x9b, 0xe6, 0xe9, 0x3b, 0x83, 0x73, 0xa3, 0x3c, 0xc0, 0x03,
    0xbe, 0x3a, 0x63, 0xeb, 0x1c, 0x3c, 0x9d, 0xe0, 0x7b, 0x3c, 0xff, 0xa5, 0xbb,
    0xbc, 0x74, 0x28, 0x54, 0xbc, 0xec, 0x78, 0x24, 0x3d, 0x02, 0xa1, 0x9e, 0x3b,
    0x2f, 0x3e, 0x82, 0x3c, 0xaf, 0x79, 0x29, 0xb9, 0xb7, 0x35, 0x90, 0x3c, 0x1a,
    0xd5, 0xce, 0x3c, 0x21, 0x3b, 0x63, 0xbc, 0xc7, 0x04, 0x91, 0xbc, 0x3c, 0x89,
    0x26, 0x3d, 0xf9, 0x63, 0x08, 0xbb, 0xb2, 0x14, 0x98, 0x3c, 0x57, 0xe3, 0x6a,
    0xbb, 0x7b, 0x77, 0x89, 0x3c, 0xbf, 0x49, 0x2c, 0x3c, 0x50, 0x24, 0x40, 0xbc,
    0x91, 0x30, 0xb3, 0xbc, 0xef, 0x97, 0x12, 0x3d, 0x8c, 0x08, 0x17, 0xbb, 0x07,
    0x2c, 0x94, 0x3c, 0x2f, 0xae, 0xa4, 0xbb, 0x74, 0x58, 0x92, 0x3c, 0x7e, 0x95,
    0x91, 0x3c, 0x19, 0x08, 0x1c, 0xbc, 0x1c, 0x68, 0xb8, 0xbc, 0x2c, 0xe1, 0x15,
    0x3d, 0x1c, 0x95, 0x36, 0xba, 0x2b, 0x41, 0x89, 0x3c, 0x81, 0x76, 0x0d, 0xbc,
    0xa9, 0x85, 0x9f, 0x3c, 0xc2, 0x11, 0x81, 0x3c, 0x2a, 0x4a, 0x84, 0xbb, 0xd4,
    0xf3, 0xae, 0xbc, 0x31, 0x99, 0x0d, 0x3d, 0xe1, 0x4c, 0xf7, 0xb8, 0x1b, 0x49,
    0xb5, 0x3c, 0x87, 0xbf, 0x1b, 0xbc, 0xc8, 0x48, 0x5f, 0x3c, 0x87, 0xe0, 0x9d,
    0x3c, 0xaa, 0xb7, 0xeb, 0xbb, 0x2a, 0x5c, 0x90, 0xbc, 0xd6, 0x17, 0x17, 0x3d,
    0x9c, 0x44, 0xcf, 0x3b, 0x32, 0x5f, 0xdc, 0x3c, 0x7a, 0xa7, 0xec, 0xbb, 0xa0,
    0xa9, 0x46, 0x3c, 0x23, 0xbb, 0x5d, 0x3c, 0x76, 0x41, 0x73, 0xbc, 0xbc, 0x7e,
    0x5b, 0xbc, 0xf4, 0x5e, 0x15, 0x3d, 0x75, 0x72, 0x61, 0x3c, 0x35, 0xb8, 0xba,
    0x3c, 0xdd, 0x65, 0xb4, 0xb9, 0x8c, 0x6a, 0xe0, 0x3b, 0x7e, 0x8b, 0xb9, 0x3c,
    0x8d, 0xe8, 0x5a, 0xbc, 0x74, 0x85, 0x0c, 0xbc, 0xd5, 0xda, 0x34, 0x3d, 0xc0,
    0xc3, 0x7a, 0x3c, 0x52, 0xed, 0xd1, 0x3c, 0xbf, 0x7c, 0x76, 0x3b, 0x1a, 0x14,
    0x23, 0x3c, 0x72, 0xc1, 0xb2, 0x3c, 0xfb, 0x71, 0x14, 0xbc, 0xbb, 0xcd, 0x61,
    0xbc, 0x14, 0xb6, 0x30, 0x3d, 0x6f, 0x04, 0x88, 0x3c, 0xf1, 0x84, 0x9c, 0x3c,
    0x1e, 0xce, 0x19, 0x3c, 0xe2, 0x16, 0x4d, 0x3c, 0x0d, 0x7c, 0xf0, 0x3c, 0x65,
    0xc8, 0x7b, 0xbc, 0x53, 0x3a, 0x60, 0xbc, 0x7e, 0x29, 0x3a, 0x3d, 0x97, 0x61,
    0xe4, 0xbc, 0x3a, 0x71, 0x80, 0xbc, 0x45, 0x46, 0x04, 0x3c, 0x73, 0xdb, 0x5e,
    0x3c, 0xe7, 0x5a, 0x78, 0x3a, 0x53, 0xd5, 0xfc, 0x3c, 0xd0, 0x2d, 0x0c, 0x3d,
    0xaa, 0xd9, 0x34, 0xbc, 0x9f, 0x52, 0xe9, 0xbc, 0x6d, 0xef, 0x3a, 0xbc, 0x0f,
    0xa8, 0x3f, 0x3c, 0xf4, 0xbd, 0x3a, 0x3c, 0x8c, 0x1f, 0xa0, 0xba, 0x4a, 0x6e,
    0x0a, 0x3d, 0xb9, 0xaa, 0x03, 0x3d, 0x1c, 0x44, 0x35, 0xbc, 0xb7, 0xfb, 0x0c,
    0xbd, 0x72, 0xf9, 0x75, 0xbc, 0x70, 0x4d, 0x6b, 0x3c, 0xfb, 0x46, 0x49, 0x3c,
    0x8f, 0x99, 0xbb, 0xb9, 0x72, 0x4d, 0x1e, 0x3d, 0x0e, 0x66, 0x02, 0x3d, 0xa0,
    0x55, 0x1f, 0xbc, 0x12, 0xf3, 0x06, 0xbd, 0xe9, 0xf4, 0x32, 0xbc, 0xed, 0xdb,
    0x85, 0x3c, 0x6a, 0xfd, 0x3d, 0x3c, 0x37, 0xd2, 0x35, 0xbb, 0x5c, 0x2f, 0x2a,
    0x3d, 0xa1, 0x2e, 0xf9, 0x3c, 0x2d, 0x33, 0xf5, 0xbb, 0xb8, 0xe6, 0x10, 0xbd,
    0xee, 0x1f, 0xa1, 0xbc, 0x1f, 0xe1, 0x50, 0x3c, 0xe9, 0x65, 0x7f, 0x3c, 0x36,
    0xbc, 0xc2, 0x39, 0xb5, 0xa1, 0x57, 0x3d, 0xe1, 0x15, 0xba, 0x3c, 0x0c, 0xbc,
    0x17, 0xbc, 0xeb, 0xe3, 0x1d, 0xbd, 0x16, 0x9b, 0x6f, 0xbc, 0x5f, 0x48, 0x09,
    0x3c, 0xfe, 0xd3, 0x4b, 0x3c, 0xf2, 0xfe, 0x67, 0xbb, 0xb2, 0x8e, 0x5f, 0x3d,
    0x9d, 0x89, 0xcf, 0x3c, 0xc3, 0xec, 0x1b, 0xbc, 0x61, 0x12, 0x1e, 0xbd, 0xff,
    0x16, 0x98, 0xbc, 0xf0, 0x0c, 0x43, 0x3c, 0x36, 0x47, 0x00, 0x3c, 0x18, 0xc7,
    0xa6, 0xbb, 0x06, 0x8a, 0x23, 0x3d, 0x25, 0x84, 0x1d, 0x3d, 0xc0, 0x87, 0x0c,
    0xbc, 0x21, 0xd8, 0xc8, 0xbc, 0xb4, 0xcf, 0x6c, 0xbc, 0xc6, 0xc4, 0x4b, 0x3c,
    0xd0, 0x4d, 0xfa, 0x3b, 0xff, 0xd5, 0xd8, 0xbb, 0x67, 0xf8, 0x00, 0x3d, 0x29,
    0x1a, 0x23, 0x3d, 0xf6, 0xd7, 0x30, 0xbc, 0x33, 0x55, 0xcd, 0xbc, 0x23, 0x93,
    0x58, 0xbc, 0x4a, 0x1c, 0x27, 0x3c, 0xe8, 0x1a, 0xd9, 0x3b, 0x2b, 0x13, 0x03,
    0xbc, 0x87, 0x42, 0xd4, 0x3c, 0x0e, 0x4b, 0x3f, 0x3d, 0xbc, 0x9f, 0x22, 0xbc,
    0x6a, 0x5b, 0xbb, 0xbc, 0xdd, 0xf5, 0x38, 0xbc, 0x1d, 0xe8, 0x5c, 0x3c, 0x6f,
    0x84, 0xac, 0x3a, 0x71, 0x3a, 0x91, 0xbb, 0xc5, 0x3e, 0x7a, 0x3c, 0x9a, 0x30,
    0x3f, 0x3d, 0x63, 0x40, 0x14, 0xbc, 0x74, 0x26, 0xb9, 0xbc, 0xe8, 0x28, 0xb1,
    0xbc, 0xa2, 0x08, 0x38, 0x3c, 0x20, 0x59, 0xc5, 0x3b, 0x5b, 0x99, 0x87, 0xba,
    0xe6, 0x2a, 0xc1, 0x3c, 0x17, 0xff, 0x14, 0x3d, 0x1f, 0x85, 0x2d, 0xbc, 0x76,
    0x05, 0xd8, 0xbc, 0x5f, 0x07, 0x38, 0xbc, 0x4e, 0x16, 0x89, 0x3b, 0x10, 0x62,
    0x25, 0x3c, 0x18, 0x6a, 0xac, 0xbb, 0x1f, 0xca, 0x1f, 0x3d, 0xc7, 0xb1, 0xf5,
    0x3c, 0x36, 0xa0, 0xe1, 0xbb, 0x49, 0x87, 0x19, 0xbd, 0xe3, 0xb1, 0x99, 0xbc,
    0x75, 0x37, 0x9a, 0x3b, 0x1b, 0x75, 0x3e, 0x3c, 0x15, 0x0e, 0x09, 0xbc, 0x1c,
    0xf6, 0x0c, 0x3d, 0x83, 0x72, 0xcb, 0x3c, 0x20, 0x6e, 0x1c, 0xbc, 0xa6, 0xda,
    0x28, 0xbd, 0x76, 0xd7, 0xaa, 0xbc, 0xdc, 0xf3, 0xc1, 0x3b, 0x2b, 0x14, 0x3b,
    0x3c, 0x04, 0x02, 0x01, 0xbc, 0xea, 0xba, 0x04, 0x3d, 0x4a, 0x77, 0xe3, 0x3c,
    0x24, 0x89, 0x11, 0xbc, 0x4c, 0x1c, 0x2b, 0xbd, 0x1a, 0x7e, 0xa1, 0xbc, 0x90,
    0x86, 0xaf, 0xbb, 0x3c, 0x6d, 0x1e, 0x3c, 0xf3, 0xc0, 0x6e, 0xbc, 0xe1, 0x87,
    0x0c, 0x3d, 0x13, 0x29, 0xdd, 0x3c, 0xcb, 0x1c, 0x2b, 0xbc, 0xbe, 0x3f, 0xac,
    0xbd, 0xb4, 0xd3, 0x72, 0xbd, 0x13, 0xfc, 0x21, 0x3d, 0xb8, 0xb2, 0x3f, 0xbb,
    0xcf, 0x04, 0x1b, 0x3e, 0xe5, 0xb3, 0x96, 0x3e, 0x74, 0x9d, 0x1b, 0x3e, 0x38,
    0x0a, 0x5d, 0xbd, 0x88, 0x3e, 0x83, 0xbd, 0xc2, 0xba, 0x30, 0xbd, 0x46, 0x0f,
    0xe5, 0x3d, 0x7f, 0x99, 0x53, 0x3c, 0x38, 0xf9, 0xa1, 0x3d, 0xa3, 0x4b, 0x60,
    0x3e, 0x4b, 0x83, 0x1e, 0x3e, 0x1e, 0x62, 0xe3, 0x3b, 0x73, 0x69, 0xa9, 0xbd,
    0xcd, 0x6d, 0x88, 0xbb, 0xb1, 0xaa, 0x43, 0x3d, 0x89, 0xaf, 0x13, 0x3e, 0xa2,
    0xd0, 0x18, 0x3e, 0x43, 0x5d, 0x87, 0x3e, 0xa7, 0xb3, 0x68, 0x3e, 0x62, 0xa1,
    0x0c, 0xbd, 0x13, 0x57, 0xf3, 0xbd, 0xdc, 0x46, 0xb4, 0xbb, 0xd7, 0x67, 0xe1,
    0x3d, 0x0f, 0xe4, 0x3b, 0xbd, 0x55, 0x05, 0xf4, 0x3d, 0xa9, 0x05, 0x81, 0x3e,
    0x5f, 0x0e, 0x5d, 0x3e, 0x76, 0x24, 0x1e, 0xbe, 0x59, 0x81, 0xb5, 0xbd, 0xaa,
    0x4c, 0x69, 0xbd, 0xa6, 0x17, 0xbb, 0x3d, 0x87, 0x7f, 0x15, 0xbd, 0x9a, 0xd7,
    0xc7, 0x3d, 0x46, 0x69, 0x69, 0x3e, 0x7c, 0x75, 0x1b, 0x3e, 0x5c, 0x50, 0x4d,
    0x3d, 0x07, 0x29, 0xed, 0xbd, 0xb9, 0x9a, 0xcf, 0xbc, 0x0d, 0xd4, 0x49, 0x3d,
    0x03, 0x09, 0x00, 0x3e, 0x95, 0x27, 0xc1, 0x3d, 0xdc, 0xb0, 0x78, 0x3e, 0xe0,
    0xf8, 0x41, 0x3e, 0x9b, 0xd7, 0x8a, 0xbd, 0x0c, 0xea, 0xb4, 0xbd, 0xbf, 0xd6,
    0x33, 0xbd, 0x32, 0x1c, 0x6a, 0x3d, 0x1a, 0x2d, 0xbc, 0x3d, 0xc6, 0x15, 0x90,
    0x3d, 0xae, 0x7e, 0x81, 0x3e, 0xb9, 0x3b, 0x63, 0x3e, 0x26, 0x0d, 0xa6, 0xbc,
    0x3a, 0x86, 0x1e, 0xbd, 0xb9, 0x8c, 0x19, 0xbd, 0xf6, 0x65, 0x99, 0x3d, 0xa6,
    0x2c, 0x3f, 0x3c, 0x1c, 0x60, 0x94, 0x3d, 0xd4, 0xf5, 0x9c, 0x3e, 0xcc, 0xce,
    0x4f, 0x3e, 0xba, 0xaa, 0xca, 0xbc, 0x82, 0xe0, 0x1f, 0xbd, 0xb9, 0x4f, 0x9e,
    0xbc, 0xa2, 0xc9, 0xb0, 0x3d, 0xf5, 0xfe, 0xad, 0xbd, 0xc1, 0x88, 0xd8, 0x3d,
    0x29, 0xf5, 0x99, 0x3e, 0xf4, 0xce, 0x28, 0x3e, 0x85, 0x82, 0x00, 0xbe, 0x39,
    0xce, 0x08, 0xbd, 0xea, 0xc6, 0xe4, 0xbc, 0x9a, 0xbc, 0xe4, 0x3d, 0x66, 0xc0,
    0xb4, 0xbd, 0x55, 0x69, 0x71, 0x3d, 0xdd, 0x17, 0x69, 0x3e, 0x49, 0xa5, 0x2d,
    0x3e, 0x3c, 0xc8, 0x71, 0xbd, 0x6e, 0x83, 0xfe, 0xbc, 0x5d, 0x09, 0x06, 0xbc,
    0x58, 0xcf, 0xe7, 0x3d, 0x25, 0x02, 0xc9, 0x3d, 0x2d, 0xe1, 0x32, 0x3e, 0x18,
    0x99, 0x66, 0x3e, 0x72, 0x8c, 0x26, 0x3e, 0x59, 0x91, 0xbd, 0x39, 0xec, 0x6e,
    0xaf, 0xbd, 0xb3, 0xbd, 0x3c, 0xbd, 0xea, 0xbe, 0x11, 0x3d, 0xe8, 0xb2, 0xbb,
    0xbd, 0x14, 0x8d, 0x7f, 0x3d, 0xb5, 0x76, 0x94, 0x3e, 0x45, 0xc1, 0x3b, 0x3e,
    0x5b, 0xc6, 0x7a, 0x3d, 0xad, 0xa0, 0xff, 0xbd, 0x84, 0x85, 0x41, 0xbd, 0x16,
    0x23, 0xbd, 0x3d, 0x39, 0xb3, 0xc5, 0x3d, 0xe6, 0x31, 0x05, 0x3e, 0x37, 0xe5,
    0x80, 0x3e, 0xbb, 0x7b, 0x3c, 0x3e, 0x22, 0xa3, 0x16, 0x3c, 0x3c, 0xa4, 0x05,
    0xbe, 0xed, 0x84, 0x05, 0xbd, 0x39, 0x3c, 0xfd, 0x3c, 0x7e, 0x3d, 0x33, 0x3e,
    0x83, 0xd4, 0x0b, 0x3e, 0xac, 0xee, 0x46, 0x3e, 0xe2, 0x5c, 0x1f, 0x3e, 0xe4,
    0x8c, 0x51, 0x3d, 0x4a, 0x55, 0xdf, 0xbd, 0x14, 0x4f, 0x5b, 0xbd, 0x2a, 0xb5,
    0x23, 0x3d, 0x7d, 0x45, 0xff, 0x3c, 0xa1, 0x90, 0x88, 0x3d, 0x93, 0x10, 0x81,
    0x3e, 0xfd, 0x96, 0x2b, 0x3e, 0x24, 0x96, 0x89, 0xbd, 0xce, 0x26, 0x5f, 0x3e,
    0xf4, 0x2c, 0x4c, 0x3e, 0xcd, 0x63, 0x4d, 0x3e, 0xe2, 0x0c, 0x7c, 0xbc, 0x9c,
    0xcb, 0x3d, 0x3e, 0x49, 0xfa, 0x23, 0x3e, 0xa7, 0x3b, 0x9c, 0x3c, 0xe8, 0x37,
    0x49, 0xbd, 0x43, 0xfa, 0x72, 0x3e, 0x09, 0x01, 0x4d, 0x3e, 0x16, 0xdf, 0xc5,
    0x3d, 0x65, 0xbb, 0x82, 0xbd, 0xdf, 0x32, 0x8b, 0x3d, 0x83, 0xb1, 0x49, 0x3d,
    0x9f, 0xbb, 0x86, 0x3d, 0xb2, 0x35, 0xf7, 0x3c, 0x5a, 0xf9, 0xf8, 0x3d, 0xeb,
    0x4b, 0x5e, 0x3e, 0x46, 0x0d, 0x1e, 0x3e, 0x92, 0x05, 0x2d, 0x3d, 0xa5, 0x84,
    0x86, 0x3d, 0x21, 0xd5, 0x0b, 0x3d, 0x2f, 0xa1, 0x0f, 0x3e, 0x2a, 0xc4, 0x63,
    0x3d, 0x26, 0x4c, 0x4c, 0x3e, 0xc5, 0x54, 0x3f, 0x3e, 0xe1, 0x8f, 0x7b, 0x3d,
    0x8e, 0xf4, 0x9e, 0xbd, 0x59, 0x49, 0x1c, 0x3e, 0x8f, 0xef, 0x63, 0x3d, 0x06,
    0x8d, 0x29, 0x3d, 0xca, 0xbe, 0xe7, 0xbd, 0x56, 0x8e, 0x16, 0x3e, 0x2a, 0x92,
    0xca, 0x3d, 0x4b, 0xc3, 0xe4, 0x3d, 0xbf, 0xf8, 0x03, 0xbe, 0xbf, 0x80, 0xd7,
    0x3d, 0x61, 0xaa, 0xca, 0x3d, 0x77, 0xcf, 0xd4, 0x3c, 0x77, 0x33, 0xb4, 0xbd,
    0x91, 0x1f, 0x5b, 0x3e, 0xff, 0x1c, 0xe5, 0x3d, 0xce, 0x21, 0x85, 0x3d, 0x1a,
    0x81, 0x19, 0xbe, 0x34, 0xdd, 0x2d, 0x3e, 0xe3, 0xec, 0xe6, 0x3c, 0xb0, 0x8e,
    0x44, 0x3d, 0x87, 0x66, 0xa1, 0xbc, 0x2f, 0x2c, 0x10, 0x3e, 0x81, 0x2f, 0x31,
    0x3e, 0xf4, 0xa3, 0xd8, 0x3d, 0x7d, 0xa6, 0x45, 0xbe, 0xaf, 0x94, 0x1e, 0x3e,
    0x7f, 0xb0, 0x8c, 0x3d, 0x10, 0x24, 0x81, 0x3c, 0xba, 0x4b, 0xc4, 0x3d, 0x15,
    0x87, 0x4e, 0x3e, 0x77, 0x5c, 0x22, 0x3e, 0x04, 0x04, 0x90, 0x3d, 0x6a, 0x9c,
    0x27, 0x3d, 0xeb, 0x0f, 0x9a, 0x3d, 0x76, 0xcc, 0xd7, 0x3d, 0x0e, 0xdf, 0xa1,
    0x3d, 0x82, 0x2c, 0x51, 0xbd, 0xb2, 0x10, 0xdf, 0x3d, 0x56, 0x18, 0xb4, 0x3d,
    0x53, 0x55, 0xca, 0x3d, 0x58, 0x16, 0x3e, 0xbe, 0xf5, 0x06, 0x10, 0x3e, 0x16,
    0x1e, 0x01, 0x3d, 0xdb, 0xb8, 0x8e, 0x3c, 0xd3, 0x9f, 0x88, 0xbd, 0xe9, 0x32,
    0x1a, 0x3e, 0xc0, 0x9f, 0x20, 0x3e, 0x16, 0x49, 0x08, 0x3e, 0xa5, 0x44, 0xaa,
    0xbd, 0x56, 0xac, 0x50, 0x3d, 0x98, 0x1e, 0xd5, 0x3d, 0xc2, 0xfe, 0xa5, 0x3d,
    0xc5, 0x22, 0xb3, 0xbd, 0x8d, 0xfd, 0x14, 0x3e, 0xd2, 0x06, 0x08, 0x3e, 0x8a,
    0xcb, 0x31, 0x3e, 0x7b, 0xe5, 0x0a, 0xbe, 0xd7, 0x4d, 0x09, 0x3e, 0x68, 0x83,
    0x3e, 0x3d, 0x34, 0xf5, 0xcf, 0x3d, 0xdf, 0x55, 0x23, 0xbd, 0xec, 0x2c, 0x28,
    0x3e, 0x50, 0x69, 0x00, 0x3e, 0x3a, 0x6e, 0xef, 0x3d, 0x2f, 0xe6, 0x25, 0xbe,
    0x5d, 0x1c, 0xc2, 0x3d, 0xe4, 0x29, 0xb6, 0x3d, 0xe0, 0xc8, 0x80, 0x3d, 0x7e,
    0xfb, 0xf5, 0x3c, 0xcd, 0x3b, 0x4c, 0x3e, 0x29, 0x26, 0x47, 0x3e, 0xdf, 0x5c,
    0x00, 0x3e, 0x85, 0xd1, 0x0f, 0xbe, 0x97, 0x58, 0x5c, 0x3d, 0x31, 0xaa, 0x67,
    0x3d, 0x8e, 0xac, 0xfa, 0x3d, 0xf6, 0xd8, 0x8b, 0xbd, 0x38, 0xef, 0xde, 0x3d,
    0x66, 0x51, 0x9d, 0x3d, 0x34, 0x61, 0x83, 0x3d, 0x49, 0x02, 0x31, 0xbe, 0xbf,
    0x4c, 0xb1, 0x3d, 0xcf, 0x21, 0x00, 0x3e, 0xf7, 0xb6, 0x19, 0x3e, 0xe6, 0xbf,
    0xb7, 0xbc, 0x6d, 0x9c, 0x61, 0x3e, 0x8e, 0xda, 0xe9, 0x3d, 0x0e, 0x2c, 0x21,
    0x3e, 0x4d, 0x66, 0x29, 0xbd, 0xfb, 0x32, 0x0d, 0x3e, 0xfb, 0x86, 0xae, 0x3d,
    0x6b, 0x32, 0x63, 0x3d, 0x6a, 0xb0, 0xe5, 0xbd, 0x14, 0xaf, 0x9e, 0x3c, 0x0a,
    0x96, 0x30, 0x3d, 0xb6, 0x4d, 0x88, 0x3d, 0xe4, 0x4c, 0x8a, 0x3d, 0x4e, 0xa2,
    0xbc, 0x3d, 0x63, 0xcf, 0xb9, 0x3d, 0xea, 0x59, 0x71, 0x3d, 0x2a, 0x01, 0x3c,
    0xbd, 0x3e, 0x48, 0xae, 0x3c, 0x2d, 0xdd, 0x3a, 0x3d, 0xce, 0xd6, 0x7a, 0x3d,
    0xf0, 0x74, 0xdf, 0xbc, 0x6e, 0x61, 0xb7, 0x3d, 0xb9, 0xbb, 0xb5, 0x3d, 0xf7,
    0x75, 0x68, 0x3d, 0x16, 0xbc, 0x97, 0xbc, 0x87, 0x8f, 0x62, 0x3c, 0xc3, 0xb8,
    0x3d, 0x3d, 0x2c, 0x6c, 0x88, 0x3d, 0xed, 0x06, 0xf6, 0xba, 0x75, 0x43, 0xba,
    0x3d, 0x5a, 0x3b, 0xb8, 0x3d, 0x70, 0x9e, 0x7b, 0x3d, 0x66, 0xb0, 0x2c, 0x3b,
    0x57, 0x0d, 0x80, 0x3c, 0x5b, 0xf6, 0x2c, 0x3d, 0xd0, 0x31, 0x83, 0x3d, 0x7c,
    0xeb, 0xd4, 0x3a, 0xa8, 0x72, 0x88, 0x3d, 0x34, 0xbb, 0xcc, 0x3d, 0x4d, 0xcd,
    0x60, 0x3d, 0xde, 0x38, 0x34, 0x3d, 0xc4, 0xdb, 0x70, 0x3c, 0xc3, 0x15, 0x26,
    0x3d, 0x1f, 0x63, 0x52, 0x3d, 0xd7, 0xf0, 0x81, 0x3d, 0xb1, 0x7b, 0x9a, 0x3d,
    0x2e, 0xbe, 0xc1, 0x3d, 0x82, 0xb8, 0x55, 0x3d, 0x14, 0xfb, 0xa4, 0x3c, 0x19,
    0x8e, 0x67, 0x3c, 0x58, 0x6a, 0x21, 0x3d, 0xb6, 0x95, 0x40, 0x3d, 0x16, 0xd5,
    0x98, 0xbb, 0x17, 0xa3, 0x81, 0x3d, 0xd6, 0xbb, 0xbf, 0x3d, 0x78, 0xed, 0x59,
    0x3d, 0x50, 0x31, 0x9b, 0x3c, 0x4a, 0x4e, 0x84, 0x3c, 0xe7, 0xea, 0x32, 0x3d,
    0x6c, 0x57, 0x3b, 0x3d, 0x90, 0x9f, 0x55, 0xbd, 0x01, 0xe6, 0x87, 0x3d, 0x6e,
    0x0f, 0xc4, 0x3d, 0xa4, 0x6e, 0x6a, 0x3d, 0x28, 0xb8, 0x4d, 0xbd, 0x0c, 0x2d,
    0x9f, 0x3c, 0x89, 0xd6, 0x37, 0x3d, 0x4f, 0x8a, 0x59, 0x3d, 0x9d, 0xd0, 0xbf,
    0xbc, 0x98, 0x36, 0xa3, 0x3d, 0x9c, 0x3f, 0xbc, 0x3d, 0xb1, 0xcd, 0x6b, 0x3d,
    0x2c, 0x37, 0x10, 0xbd, 0x5a, 0x77, 0x92, 0x3c, 0xd2, 0x4d, 0x3e, 0x3d, 0xd6,
    0x96, 0x78, 0x3d, 0x98, 0x67, 0x37, 0x3d, 0xd4, 0x08, 0xad, 0x3d, 0xae, 0x46,
    0xbe, 0x3d, 0x12, 0xa4, 0x7a, 0x3d, 0x44, 0x01, 0x27, 0x3c, 0x62, 0x15, 0x9c,
    0x3c, 0xe2, 0xc5, 0x3c, 0x3d, 0x48, 0x7a, 0x70, 0x3d, 0xfb, 0xc2, 0x91, 0x3c,
    0x1d, 0x85, 0x99, 0x3d, 0xbc, 0x4f, 0xb2, 0x3d, 0x3b, 0x17, 0x5f, 0x3d, 0xd5,
    0xf8, 0x22, 0xbd, 0x3e, 0xc9, 0x93, 0x3c, 0xa8, 0x07, 0x36, 0x3d, 0x57, 0x4b,
    0x78, 0x3d, 0xee, 0x21, 0x8a, 0x3c, 0x64, 0xbd, 0x9d, 0x3d, 0xc4, 0x18, 0xaa,
    0x3d, 0xd4, 0xc3, 0x7b, 0x3d, 0x9d, 0xb3, 0xaa, 0x3b, 0x9f, 0xac, 0x91, 0x3c,
    0x7d, 0x47, 0x41, 0x3d, 0xcb, 0x06, 0x82, 0x3d, 0x28, 0xed, 0x91, 0x3d, 0xaf,
    0x6e, 0x9a, 0x3d, 0x8d, 0xa7, 0xc9, 0x3d, 0x3c, 0x02, 0x61, 0x3d, 0x4d, 0xc8,
    0x32, 0x3d, 0x87, 0xbb, 0x86, 0x3c, 0x11, 0xf2, 0x30, 0x3d, 0xbb, 0x81, 0x4a,
    0x3d, 0xea, 0x9e, 0x8d, 0x3c, 0x39, 0x25, 0x90, 0x3d, 0xe7, 0xe0, 0xc8, 0x3d,
    0x7f, 0x3b, 0x60, 0x3d, 0x38, 0x0b, 0x5d, 0xbd, 0x0a, 0x9b, 0x46, 0x3c, 0xf7,
    0x67, 0x35, 0x3d, 0x60, 0x89, 0x45, 0x3d, 0x2a, 0x2c, 0x11, 0x3d, 0x33, 0xd7,
    0x83, 0x3d, 0xb9, 0xda, 0xc5, 0x3d, 0x4b, 0x03, 0x59, 0x3d, 0x7b, 0x61, 0x03,
    0xbd, 0xa6, 0x80, 0x29, 0x3c, 0x42, 0x9f, 0x1f, 0x3d, 0x92, 0x62, 0x40, 0x3d,
    0x02, 0x1c, 0x8f, 0x3c, 0xad, 0x29, 0x6c, 0x3d, 0xe4, 0xfb, 0xcc, 0x3d, 0x73,
    0xf3, 0x59, 0x3d, 0x1d, 0x27, 0x3a, 0xbd, 0xef, 0x72, 0xc9, 0x3d, 0x83, 0xd1,
    0x21, 0x3e, 0xad, 0xd2, 0x0a, 0x3e, 0xe4, 0x98, 0x6d, 0xbd, 0xea, 0x88, 0x44,
    0x3e, 0xaf, 0xfd, 0x92, 0x3d, 0xdc, 0xeb, 0x43, 0x3d, 0x95, 0x2e, 0x9f, 0x3d,
    0x7b, 0xef, 0xa0, 0x3d, 0xae, 0x36, 0x4e, 0x3e, 0xa5, 0xd3, 0x7b, 0x3d, 0x31,
    0x73, 0x99, 0xbc, 0x72, 0x0d, 0x44, 0x3e, 0x89, 0xc9, 0x15, 0x3e, 0xaf, 0xe1,
    0xab, 0x3d, 0xa8, 0xc7, 0xec, 0x3d, 0xfc, 0x96, 0xdd, 0x3d, 0xe1, 0xa5, 0x05,
    0x3e, 0x60, 0x45, 0x68, 0x3d, 0x73, 0x45, 0xe9, 0xbd, 0xce, 0xaf, 0x40, 0x3e,
    0x5e, 0x08, 0x86, 0x3d, 0xc1, 0xc1, 0x28, 0x3d, 0x37, 0x21, 0x32, 0x3e, 0x0b,
    0x98, 0xdd, 0x3d, 0x9d, 0x3c, 0xef, 0x3d, 0xcf, 0xf7, 0x88, 0x3d, 0x4b, 0xaf,
    0xe0, 0xbd, 0x28, 0x0f, 0x1b, 0x3e, 0x59, 0xbf, 0xc9, 0x3d, 0x47, 0x90, 0xec,
    0x3c, 0xd6, 0x47, 0x0a, 0x3e, 0x94, 0x49, 0xc2, 0x3d, 0x49, 0xf2, 0x2f, 0x3e,
    0x81, 0x51, 0xa3, 0x3d, 0xac, 0x34, 0x23, 0xbd, 0xf4, 0x94, 0x39, 0x3e, 0x81,
    0x8b, 0x82, 0x3d, 0x19, 0x7b, 0x8c, 0x3d, 0xd6, 0x11, 0xc3, 0xbb, 0x56, 0x13,
    0xb2, 0x3d, 0x56, 0xa7, 0x24, 0x3e, 0xb1, 0x04, 0x92, 0x3d, 0xf5, 0x9b, 0xa8,
    0xbd, 0x63, 0x05, 0x40, 0x3e, 0x4b, 0xdf, 0x99, 0x3d, 0xe9, 0xf1, 0xce, 0x3d,
    0x49, 0xf7, 0x51, 0xba, 0x61, 0x7e, 0xdd, 0x3d, 0xe1, 0xbf, 0xff, 0x3d, 0xa1,
    0x53, 0xb0, 0x3d, 0x66, 0x24, 0xea, 0xbd, 0x15, 0xc3, 0x56, 0x3e, 0xd9, 0x0e,
    0xf9, 0x3d, 0x8b, 0x98, 0x67, 0x3c, 0x52, 0xd9, 0xaf, 0x3d, 0xa9, 0xe9, 0x8f,
    0x3d, 0x73, 0x08, 0xf9, 0x3d, 0x92, 0x8d, 0xb4, 0x3d, 0x68, 0xe0, 0x11, 0xbe,
    0x79, 0x2a, 0x5f, 0x3e, 0x41, 0x5d, 0xbc, 0x3d, 0xdc, 0x79, 0x1b, 0x3d, 0xdf,
    0xc4, 0x49, 0x3e, 0x4a, 0x96, 0xa0, 0x3d, 0xc3, 0x59, 0xf3, 0x3d, 0x0d, 0x98,
    0x04, 0x3e, 0xf3, 0x7c, 0xcd, 0xbd, 0xae, 0xbb, 0x6c, 0x3e, 0x94, 0x9e, 0x06,
    0x3e, 0xad, 0xd7, 0x1e, 0x3d, 0x10, 0x09, 0x30, 0x3c, 0x23, 0x6d, 0x76, 0x3d,
    0x25, 0x58, 0x1c, 0x3e, 0x92, 0xae, 0xc1, 0x3d, 0x16, 0x90, 0x17, 0xbe, 0xf0,
    0x1a, 0x77, 0x3e, 0xaf, 0x87, 0x45, 0x3e, 0x74, 0x7d, 0x29, 0x3d, 0xbb, 0x02,
    0x9e, 0x3d, 0x64, 0xd4, 0x02, 0x3d, 0x34, 0x48, 0x5c, 0x3e, 0x9a, 0xe9, 0xe8,
    0x3d, 0x22, 0xbb, 0xad, 0xbd, 0x6c, 0xe7, 0x72, 0x3e, 0xda, 0x9e, 0x33, 0x3e,
    0xe1, 0x21, 0xae, 0x3d, 0xed, 0xa7, 0xad, 0x3d, 0x36, 0x31, 0xba, 0x3d, 0x78,
    0xdd, 0x18, 0x3e, 0x50, 0xa8, 0x11, 0x3e, 0xb2, 0x54, 0x2b, 0xbe, 0xf8, 0x32,
    0x23, 0x3e, 0x07, 0x51, 0x17, 0x3e, 0x5d, 0x54, 0x19, 0x3d, 0xdc, 0x1a, 0xb8,
    0x3d, 0x7c, 0x0d, 0xa5, 0x3d, 0x92, 0x65, 0x39, 0x3e, 0x3c, 0x82, 0xdc, 0x3d,
    0xf0, 0xb4, 0x9e, 0xbd, 0x44, 0x9d, 0x67, 0x3e, 0xd0, 0x81, 0xb0, 0x3d, 0xe4,
    0x87, 0x8c, 0x3d, 0x9d, 0x68, 0x0c, 0x3e, 0x0f, 0x8e, 0xa5, 0x3d, 0x3a, 0xe1,
    0x07, 0x3e, 0x16, 0xc2, 0xfe, 0x3d, 0xff, 0x36, 0x2f, 0xbe, 0x57, 0xfc, 0x7e,
    0x3e, 0xf6, 0xb3, 0x20, 0x3e, 0x79, 0x1a, 0xd0, 0x3d, 0x08, 0xb5, 0xc3, 0x3d,
    0xa4, 0xc9, 0xb0, 0x3d, 0xf9, 0x5f, 0x44, 0x3e, 0x0f, 0x05, 0x07, 0x3e, 0xb7,
    0x53, 0xe4, 0xbd, 0x04, 0x11, 0x50, 0x3e, 0x9f, 0xe6, 0x19, 0x3e, 0x5e, 0x11,
    0x02, 0x3d, 0x27, 0x4c, 0xe1, 0x3d, 0x75, 0x6a, 0xcd, 0xbd, 0xe3, 0x1d, 0x78,
    0xbc, 0xbe, 0x24, 0xd5, 0xbb, 0xcd, 0x55, 0xc0, 0x3d, 0x6c, 0x0a, 0x2e, 0x3d,
    0x0c, 0x22, 0xb9, 0xbd, 0x31, 0x38, 0xc0, 0xbd, 0xff, 0x81, 0x2b, 0x3e, 0x9d,
    0x54, 0xee, 0xbd, 0x76, 0xb5, 0x46, 0xba, 0x4d, 0x35, 0x57, 0xbd, 0x62, 0xcf,
    0x80, 0x3d, 0xf2, 0xd3, 0x9f, 0xbb, 0xb3, 0x5e, 0x11, 0xbe, 0x36, 0x4a, 0x02,
    0xbd, 0x85, 0xe8, 0x55, 0x3d, 0xa9, 0x71, 0x73, 0xbb, 0x3e, 0x25, 0x96, 0x3c,
    0xe3, 0x8e, 0xc3, 0xbd, 0x8d, 0xb4, 0x00, 0x3e, 0xea, 0x0c, 0x36, 0x3d, 0xe1,
    0x03, 0xbb, 0xbd, 0xd4, 0x8a, 0x06, 0xbd, 0xd3, 0x7b, 0x14, 0x3e, 0x60, 0x66,
    0x1e, 0xbd, 0x49, 0x53, 0xbb, 0x3b, 0xba, 0x75, 0xc8, 0xbb, 0xc1, 0xb5, 0x43,
    0x3d, 0xdd, 0x8b, 0x80, 0xba, 0x79, 0x57, 0xe2, 0xbc, 0x76, 0x6c, 0xa3, 0xbc,
    0xdb, 0x98, 0x3d, 0x3e, 0x27, 0xb8, 0xd0, 0xbd, 0xe6, 0x22, 0x8b, 0x3a, 0xb8,
    0x15, 0xef, 0xbc, 0xf4, 0x63, 0x9b, 0x3d, 0x8f, 0x76, 0x02, 0x3c, 0x84, 0x5b,
    0xbe, 0xbc, 0xd7, 0x2d, 0x63, 0xbd, 0x7a, 0x15, 0xda, 0x3d, 0x1c, 0x7b, 0xc0,
    0x3b, 0x38, 0xfe, 0xb5, 0xbc, 0x7a, 0x30, 0xc7, 0xba, 0xc3, 0xf4, 0xb7, 0x3c,
    0x3b, 0x25, 0xb2, 0x3c, 0x40, 0xa1, 0x1b, 0xbe, 0x57, 0x1c, 0xb3, 0xbd, 0xaf,
    0x8c, 0xfc, 0x3d, 0x33, 0xae, 0x9a, 0x3c, 0x07, 0x0b, 0xc1, 0x3c, 0x73, 0xd6,
    0xbe, 0xbc, 0x99, 0xd3, 0xe7, 0x3d, 0x89, 0x45, 0x1f, 0x3d, 0xac, 0xef, 0xbf,
    0xbc, 0x07, 0x5f, 0x70, 0xbd, 0x56, 0x17, 0x2d, 0x3e, 0xb6, 0xdc, 0xc5, 0xbd,
    0x57, 0x8e, 0x3b, 0x3d, 0xdb, 0x00, 0x09, 0xbd, 0xee, 0xb0, 0x06, 0x3e, 0x43,
    0x86, 0xb5, 0x3c, 0x94, 0xc9, 0xb0, 0xbd, 0x0c, 0xd9, 0xe6, 0xbc, 0xad, 0xcb,
    0xa4, 0x3d, 0xed, 0xd4, 0x94, 0x3c, 0x0c, 0x31, 0xb3, 0xbc, 0xa3, 0x62, 0xdf,
    0xbc, 0x63, 0x31, 0x4f, 0x3d, 0xa8, 0x0a, 0x05, 0xbd, 0xbb, 0x7a, 0xf2, 0xbd,
    0xdb, 0xb8, 0x5b, 0xbd, 0x12, 0xca, 0xf6, 0x3d, 0x70, 0x64, 0x48, 0xbc, 0xe1,
    0x15, 0xbc, 0x3c, 0xdf, 0xd4, 0x0a, 0xbd, 0x3e, 0xc1, 0xe3, 0x3d, 0xe1, 0xce,
    0x31, 0xbc, 0x84, 0xac, 0x9c, 0xba, 0x3c, 0x0e, 0xa5, 0xbc, 0xe4, 0xa3, 0x14,
    0x3e, 0x95, 0x44, 0xc1, 0xbd, 0xe9, 0x6e, 0x0f, 0x3c, 0x28, 0x62, 0x9d, 0xbd,
    0x43, 0xf9, 0xb1, 0x3b, 0x73, 0xc0, 0x47, 0xbd, 0x88, 0xa7, 0x95, 0xbc, 0xc0,
    0xff, 0xa7, 0xbd, 0xf8, 0x9e, 0x0c, 0x3e, 0x6c, 0x21, 0xf5, 0x3c, 0x5a, 0x6f,
    0x43, 0x3d, 0x96, 0x35, 0x6a, 0xbc, 0xf7, 0xe8, 0x28, 0x3c, 0xa8, 0x45, 0x87,
    0x3b, 0x9f, 0xff, 0x26, 0xbd, 0xe3, 0xec, 0x62, 0xbc, 0x3b, 0x79, 0x30, 0x3e,
    0x20, 0x97, 0x4d, 0xbb, 0xd2, 0x66, 0x19, 0x3d, 0xf4, 0x97, 0xb3, 0xbb, 0xf6,
    0xa1, 0xab, 0x3d, 0xfc, 0x90, 0xfc, 0x3c, 0x73, 0xba, 0x84, 0xbd, 0x90, 0x54,
    0xa8, 0xbd, 0x92, 0x51, 0x6f, 0x3d, 0xc8, 0x66, 0xbe, 0xbb, 0xb8, 0xef, 0xa9,
    0x3c, 0xcd, 0x24, 0x71, 0xbc, 0xac, 0x8a, 0x3d, 0x3d, 0x56, 0xf7, 0x9e, 0x3c,
    0x72, 0x4d, 0xbb, 0xbd, 0x56, 0x96, 0x4c, 0xbd, 0xbd, 0xe8, 0x2e, 0x3e, 0x86,
    0x41, 0x06, 0xbd, 0x77, 0x98, 0x82, 0x3d, 0x9b, 0x1b, 0x40, 0xbc, 0xeb, 0x96,
    0xc5, 0x3d, 0x3a, 0xeb, 0xd7, 0x3c, 0x9c, 0xd1, 0x5a, 0xbd, 0x56, 0x68, 0x1d,
    0xbd, 0xbe, 0x09, 0x1f, 0x3e, 0xa3, 0x54, 0x80, 0xbd, 0xe2, 0xb5, 0x39, 0xbd,
    0x95, 0x85, 0x16, 0xbc, 0x54, 0xb4, 0x66, 0x3d, 0x9f, 0x0d, 0xfc, 0xbc, 0xcd,
    0xb3, 0x85, 0x3c, 0x79, 0x4a, 0x16, 0x3d, 0x4c, 0x0a, 0x8e, 0x3b, 0x99, 0x41,
    0x85, 0xbd, 0x92, 0xb1, 0x10, 0xbd, 0x51, 0x6e, 0x48, 0x3a, 0xe3, 0x81, 0x67,
    0x3d, 0xb9, 0x26, 0xd8, 0xbc, 0x17, 0x06, 0x03, 0x3d, 0xaf, 0xc0, 0xe4, 0x3c,
    0xe7, 0x4a, 0xf0, 0x3b, 0x1d, 0x66, 0x84, 0xbd, 0xb8, 0x15, 0x3a, 0xbd, 0xef,
    0x2c, 0x40, 0x3b, 0xba, 0xa1, 0x78, 0x3d, 0xf8, 0x57, 0xa4, 0xbc, 0x4c, 0x6d,
    0x1e, 0x3d, 0x3d, 0xc2, 0xdc, 0x3c, 0xc6, 0x0b, 0x38, 0x3c, 0x83, 0xff, 0x87,
    0xbd, 0xe6, 0xbb, 0x09, 0xbd, 0xcd, 0x55, 0xbd, 0x3b, 0xd9, 0xf4, 0x71, 0x3d,
    0xc8, 0x4a, 0xd9, 0xbc, 0xcd, 0xe8, 0x4e, 0x3d, 0x4e, 0xcc, 0xcf, 0x3c, 0x16,
    0x8f, 0x8a, 0x3c, 0x02, 0xe9, 0xa3, 0xbd, 0x05, 0xce, 0x37, 0xbd, 0x4a, 0xf1,
    0xff, 0x3b, 0xbd, 0x73, 0x95, 0x3d, 0xb1, 0x32, 0xbe, 0xbc, 0xf7, 0xe3, 0x9a,
    0x3d, 0xf0, 0xbf, 0xff, 0x3b, 0x70, 0x0f, 0x4f, 0x3c, 0x20, 0xa1, 0xa5, 0xbd,
    0x0f, 0x7f, 0x03, 0xbd, 0xfb, 0x17, 0xe5, 0xbb, 0x77, 0xbe, 0x84, 0x3d, 0x43,
    0xc6, 0xbe, 0xbc, 0xb2, 0x97, 0x9e, 0x3d, 0xb7, 0x9e, 0x8b, 0x3c, 0x66, 0xe6,
    0x7d, 0x3c, 0xbd, 0xb8, 0xab, 0xbd, 0x18, 0xfe, 0x31, 0xbd, 0x69, 0x20, 0x94,
    0x3b, 0x6e, 0x69, 0x3d, 0x3d, 0x2e, 0x27, 0x0d, 0xbd, 0x4e, 0x87, 0x0a, 0x3d,
    0x40, 0xa7, 0x3e, 0x3d, 0xe4, 0xd4, 0x5a, 0x3c, 0x33, 0xa8, 0x49, 0xbd, 0x2f,
    0x6a, 0x40, 0xbd, 0x2f, 0x00, 0x20, 0xba, 0x25, 0x4b, 0x41, 0x3d, 0x00, 0x1b,
    0x15, 0xbd, 0x1c, 0x15, 0xdf, 0x3c, 0xd0, 0x63, 0x40, 0x3d, 0x50, 0x3b, 0xfe,
    0x3b, 0xc8, 0x63, 0x51, 0xbd, 0x6f, 0xab, 0x22, 0xbd, 0x5e, 0x58, 0x63, 0xbc,
    0xfc, 0x03, 0x41, 0x3d, 0x72, 0xc5, 0x25, 0xbd, 0xc8, 0x81, 0xbe, 0x3c, 0xd2,
    0x5d, 0x63, 0x3d, 0x1b, 0x94, 0x25, 0x3c, 0x28, 0xfb, 0x39, 0xbd, 0x36, 0xb9,
    0x04, 0xbd, 0x03, 0x7f, 0xad, 0xbb, 0x2f, 0xc1, 0xfb, 0x3c, 0xd9, 0xa4, 0x14,
    0xbd, 0x0f, 0xdb, 0x01, 0xbc, 0x1d, 0xf6, 0x86, 0x3d, 0x7c, 0xd9, 0x2b, 0x3c,
    0xfd, 0x3b, 0x42, 0xbd, 0xaf, 0xac, 0x7a, 0xbd, 0x03, 0xcd, 0x03, 0xbc, 0x28,
    0x25, 0x31, 0x3d, 0xc4, 0x30, 0xe5, 0xbc, 0xd7, 0x17, 0x71, 0x3b, 0x8b, 0x99,
    0x0f, 0x3d, 0x05, 0x3c, 0x0d, 0x3c, 0x4d, 0x93, 0x77, 0xbd, 0xd2, 0x69, 0x1e,
    0xbd, 0xbf, 0x99, 0x9f, 0xbc, 0xbe, 0x59, 0x59, 0x3d, 0xc8, 0x9d, 0x0c, 0xbd,
    0xee, 0xd2, 0x1b, 0x3d, 0x20, 0xb3, 0xe4, 0x3c, 0x9e, 0xc1, 0x94, 0x3c, 0xb1,
    0xf6, 0xa6, 0xbd, 0x57, 0xde, 0x5c, 0xbd, 0xd5, 0x9b, 0xb7, 0xbc, 0x11, 0xe0,
    0x73, 0x3d, 0x6e, 0x9b, 0x27, 0xbd, 0xba, 0x37, 0xd3, 0x3c, 0x99, 0xee, 0x73,
    0x3c, 0x7f, 0xc0, 0x61, 0x3c, 0xd3, 0xe3, 0xb4, 0xbd, 0x75, 0x56, 0x68, 0xbd,
    0xf0, 0xab, 0x99, 0xbc, 0x52, 0x89, 0x75, 0x3d, 0xcb, 0xe8, 0x29, 0xbd, 0x26,
    0x0e, 0xfd, 0x3c, 0x04, 0x6d, 0x94, 0x3c, 0xd8, 0x1c, 0x61, 0x3c, 0xef, 0x8e,
    0xc4, 0xbd, 0x03, 0x79, 0x44, 0xbd, 0x19, 0xc6, 0x16, 0xbd, 0x0a, 0x87, 0x72,
    0x3d, 0x2b, 0xa9, 0x69, 0xbd, 0x78, 0x3b, 0xf5, 0x3c, 0x11, 0xf6, 0x8c, 0x3c,
    0x9c, 0x9a, 0xfc, 0x3b, 0x49, 0x77, 0x96, 0xbd, 0xbe, 0x89, 0x00, 0x3e, 0x49,
    0x3e, 0xee, 0xbd, 0x81, 0xb6, 0x43, 0xbd, 0xa9, 0x48, 0x1b, 0x3e, 0xf7, 0x70,
    0xe3, 0x3c, 0x61, 0x79, 0x68, 0xbd, 0xf0, 0xbc, 0x78, 0x3d, 0x9f, 0xb9, 0x97,
    0xbd, 0x60, 0x33, 0xe5, 0x3d, 0x2e, 0x0d, 0xcc, 0xbc, 0xfc, 0x83, 0x4f, 0x3c,
    0x33, 0x83, 0xb4, 0x3d, 0x44, 0x98, 0x4b, 0x3d, 0x23, 0x12, 0xb6, 0x3c, 0xd2,
    0x1f, 0xb8, 0x3a, 0x6f, 0x45, 0xb4, 0xbd, 0xae, 0x96, 0x06, 0x3e, 0x09, 0xc8,
    0x4e, 0x3d, 0x88, 0xc1, 0xc1, 0xbd, 0x62, 0xbf, 0x9a, 0x3c, 0xc8, 0xb9, 0x32,
    0x3d, 0xf2, 0x00, 0x21, 0x3d, 0xf1, 0x05, 0x46, 0x3e, 0x4d, 0x87, 0x2a, 0xbe,
    0xf8, 0x2a, 0x57, 0x3c, 0x3a, 0xc5, 0x87, 0xbd, 0x1f, 0x66, 0xdd, 0x3d, 0xe0,
    0xa2, 0xe6, 0x3d, 0xe3, 0x2c, 0x3a, 0xbd, 0x37, 0xfe, 0x90, 0x3c, 0xc5, 0xee,
    0x00, 0x3e, 0x82, 0xe3, 0xed, 0xbd, 0x0b, 0x39, 0x57, 0xbd, 0x85, 0xd0, 0x34,
    0x3c, 0x57, 0xdd, 0x3e, 0xbd, 0x44, 0xb3, 0x3c, 0x3d, 0xc4, 0x88, 0x9e, 0xbd,
    0x45, 0xba, 0x81, 0xbd, 0x81, 0x98, 0x1b, 0x3e, 0xd6, 0x44, 0x37, 0x3d, 0xcb,
    0x9e, 0x0f, 0xbd, 0x41, 0x29, 0xfb, 0xbc, 0xb2, 0x56, 0xb4, 0x3d, 0x7b, 0x80,
    0xe3, 0x3d, 0xb4, 0xb9, 0x43, 0x3d, 0x2e, 0x2e, 0xee, 0x3c, 0x1c, 0x38, 0x08,
    0x3e, 0x1f, 0x0f, 0xa3, 0xbd, 0x50, 0xef, 0x83, 0x3d, 0x2b, 0xa9, 0xd7, 0x3c,
    0x30, 0x93, 0x56, 0xbc, 0x26, 0x80, 0x57, 0x3c, 0x75, 0xad, 0x35, 0xbd, 0xc4,
    0x46, 0xc1, 0xbc, 0xcf, 0x9e, 0x17, 0x3e, 0x02, 0xfc, 0xe7, 0x3c, 0x14, 0xfc,
    0xd0, 0x3c, 0xf7, 0xf2, 0xf7, 0xbc, 0xda, 0x3f, 0x93, 0x3d, 0x1d, 0x5a, 0x7f,
    0x3d, 0x8c, 0xa5, 0xc1, 0xbc, 0x73, 0xbf, 0xde, 0xbd, 0xd0, 0x6b, 0x78, 0x3b,
    0x5b, 0x39, 0xf2, 0x3b, 0x79, 0xd9, 0xee, 0x3d, 0xef, 0x5f, 0x20, 0x3d, 0x16,
    0x04, 0x91, 0x3d, 0x51, 0xf1, 0x0a, 0xba, 0x76, 0x49, 0x29, 0x3d, 0xed, 0x28,
    0xf8, 0xbb, 0xc8, 0xe8, 0x43, 0x3d, 0xc6, 0x51, 0xb8, 0xbd, 0xdb, 0x17, 0xff,
    0x3d, 0x7a, 0x2f, 0x35, 0x3d, 0x2e, 0x27, 0x8d, 0x3d, 0x8f, 0x62, 0xf7, 0xbb,
    0x54, 0x70, 0x9f, 0xbd, 0x1d, 0xe9, 0xea, 0xbc, 0xd4, 0x5f, 0x29, 0x3e, 0x14,
    0xb7, 0xd2, 0xbd, 0x36, 0x38, 0x33, 0xbd, 0x43, 0xd0, 0x6c, 0xbd, 0xc3, 0xb8,
    0x85, 0x3d, 0x17, 0x38, 0xb8, 0x3d, 0x2f, 0x7a, 0x5a, 0xbd, 0xe1, 0x15, 0xe2,
    0xbd, 0x75, 0x63, 0x06, 0x3e, 0xd8, 0xfa, 0x96, 0xbd, 0xe5, 0x08, 0xb5, 0xbc,
    0xc7, 0x8e, 0x43, 0xbd, 0x5c, 0x60, 0x6b, 0xbd, 0x74, 0x7f, 0xfb, 0x3d, 0x9c,
    0xb6, 0xc8, 0xbd, 0xb4, 0xcd, 0x53, 0xbd, 0x91, 0xd6, 0x1a, 0x3e, 0x4e, 0x0f,
    0x9f, 0xbd, 0xf6, 0x25, 0xd9, 0x3b, 0xe1, 0xb3, 0xdf, 0xbc, 0x57, 0x7b, 0x3d,
    0xba, 0x0b, 0x11, 0x9b, 0x3d, 0x5a, 0x16, 0x75, 0x3d, 0x3b, 0xf9, 0x36, 0xbd,
    0x42, 0xf9, 0x1c, 0x3e, 0x76, 0x76, 0x06, 0xbe, 0x72, 0x62, 0xba, 0x3d, 0xa6,
    0xf7, 0x24, 0xbd, 0x95, 0xb6, 0x11, 0x3d, 0x06, 0xee, 0x6e, 0x3d, 0xd8, 0xda,
    0xa8, 0xbd, 0x4e, 0x18, 0x9d, 0xbd, 0x27, 0xa2, 0x6b, 0x3d, 0x28, 0x45, 0x12,
    0xbd, 0xac, 0xe8, 0x5f, 0x3c, 0xe1, 0xee, 0x29, 0xbd, 0xf5, 0x41, 0x6c, 0xbc,
    0xa3, 0xd6, 0xe0, 0x3d, 0xe5, 0x99, 0x97, 0x3c, 0x9f, 0xda, 0xb5, 0xbc, 0x8c,
    0xd9, 0xd0, 0x3d, 0x71, 0xb6, 0x0b, 0xbb, 0x72, 0xc2, 0xdc, 0x3c, 0x10, 0xe2,
    0x2a, 0x3c, 0xb0, 0x87, 0x80, 0xbc, 0x84, 0x69, 0x4b, 0x3d, 0x14, 0x65, 0x1e,
    0x3c, 0x9e, 0x17, 0x81, 0x3a, 0x9c, 0x86, 0x17, 0x3c, 0x38, 0xa5, 0x69, 0xbb,
    0x48, 0x37, 0xff, 0x3c, 0x5d, 0x63, 0x41, 0x3c, 0x2a, 0x86, 0x22, 0xbc, 0xe9,
    0xca, 0x36, 0x3d, 0x5f, 0x25, 0x72, 0x3c, 0x9e, 0xf0, 0x7e, 0xb8, 0x44, 0xe6,
    0x41, 0x3c, 0xe3, 0x97, 0x15, 0xbc, 0x84, 0xa6, 0x00, 0x3d, 0x40, 0x1f, 0x08,
    0x3c, 0xab, 0x35, 0x50, 0xbc, 0x99, 0xae, 0x19, 0x3d, 0x5d, 0xe2, 0x73, 0x3c,
    0x9e, 0x9e, 0x00, 0x3c, 0x56, 0x23, 0x01, 0x3c, 0x82, 0x6d, 0x9a, 0xbb, 0x29,
    0xe9, 0xd5, 0x3c, 0xf2, 0x98, 0x42, 0x3c, 0x0c, 0x10, 0x03, 0xbc, 0x05, 0x51,
    0x22, 0x3d, 0xae, 0x44, 0xba, 0x3c, 0xf3, 0x65, 0x09, 0xbb, 0xf4, 0x26, 0xec,
    0x3b, 0x88, 0xa4, 0x8c, 0x39, 0xc7, 0xf3, 0xcf, 0x3c, 0x28, 0x35, 0x6a, 0x3c,
    0x5d, 0x4e, 0x36, 0xbc, 0x9e, 0x6f, 0x21, 0x3d, 0xf3, 0xae, 0x4d, 0x3c, 0xc1,
    0xa6, 0x86, 0x3c, 0x55, 0xe9, 0x39, 0x3c, 0x18, 0x7a, 0xe4, 0xba, 0x8e, 0x4f,
    0xd8, 0x3c, 0xad, 0x8c, 0x90, 0x3c, 0xf0, 0x97, 0x57, 0xbc, 0x8e, 0xf5, 0x0b,
    0x3d, 0x61, 0x1e, 0xa9, 0x3b, 0x27, 0x8d, 0x4c, 0xb9, 0xa3, 0xa7, 0x29, 0x3c,
    0x0c, 0x61, 0x4e, 0x36, 0xa9, 0xb3, 0xbd, 0x3c, 0xbd, 0x77, 0x87, 0x3c, 0xf9,
    0x45, 0xbf, 0xbb, 0xaa, 0xe8, 0x48, 0x3d, 0x7c, 0xeb, 0xaf, 0x3c, 0xd8, 0xa2,
    0xe7, 0xba, 0x0a, 0x8d, 0x5e, 0x3c, 0xc3, 0x95, 0x0a, 0xbc, 0x96, 0xd9, 0xe9,
    0x3c, 0x77, 0xee, 0x7d, 0x3c, 0x75, 0x7c, 0xaf, 0xbb, 0x36, 0xfd, 0xf9, 0x3c,
    0xe0, 0xab, 0x8a, 0x3c, 0x8c, 0x28, 0x65, 0xbb, 0xa7, 0x8b, 0x0e, 0x3c, 0x64,
    0x3d, 0xa6, 0xbb, 0xb0, 0x55, 0xf1, 0x3c, 0x88, 0xfa, 0x81, 0x3c, 0x47, 0x76,
    0xcd, 0xbb, 0x3a, 0x1b, 0x37, 0x3d, 0xf8, 0xba, 0x82, 0x3c, 0xf2, 0xb7, 0x58,
    0xbb, 0xee, 0x54, 0x17, 0x3c, 0x07, 0xc4, 0x5a, 0xbb, 0x6e, 0xe5, 0xf1, 0x3c,
    0x26, 0x4f, 0x30, 0x3c, 0x63, 0x9e, 0xbe, 0xbb, 0x33, 0x47, 0x1a, 0x3d, 0xe9,
    0xb1, 0xac, 0x3c, 0x00, 0x36, 0x20, 0xbb, 0x92, 0xf7, 0xf1, 0x3b, 0x76, 0x65,
    0x1d, 0xbb, 0xfe, 0xdd, 0x05, 0x3d, 0xaf, 0x43, 0x24, 0x3c, 0x8b, 0xef, 0x25,
    0xbc, 0x0f, 0xa3, 0x34, 0x3d, 0xef, 0x65, 0x98, 0x3c, 0x15, 0xef, 0xf5, 0x3a,
    0x44, 0x2f, 0x04, 0x3c, 0xd6, 0xa6, 0xd8, 0x3a, 0x5b, 0x77, 0x2c, 0x3d, 0x38,
    0x65, 0x2f, 0x3c, 0xf0, 0x3a, 0x13, 0xbc, 0x0c, 0x3b, 0x15, 0x3d, 0x97, 0xa9,
    0x88, 0x3c, 0xc6, 0xf8, 0x17, 0x3b, 0x2c, 0xae, 0x14, 0x3c, 0x82, 0x56, 0xed,
    0x3b, 0x86, 0xb7, 0x0e, 0x3d, 0xec, 0x59, 0xa0, 0x3c, 0xb7, 0xcb, 0x6f, 0xbc,
    0x52, 0xe7, 0x35, 0x3d, 0x7a, 0x6d, 0x83, 0x3c, 0xe5, 0xf6, 0xfd, 0x3b, 0xf9,
    0x12, 0x77, 0x3c, 0x00, 0xc3, 0xd4, 0x3b, 0x5b, 0x2f, 0x15, 0x3d, 0x4e, 0xf4,
    0xcb, 0x3c, 0x20, 0x8d, 0x3a, 0xbc, 0x81, 0x10, 0x27, 0x3d, 0x05, 0xaa, 0xa2,
    0x3c, 0x66, 0x29, 0x3f, 0x3b, 0x3d, 0xea, 0x78, 0x3c, 0xf9, 0x5e, 0x02, 0x3c,
    0x6c, 0x53, 0xc5, 0x3c, 0xca, 0x25, 0xd4, 0x3c, 0xe5, 0x27, 0x3b, 0xbc, 0x56,
    0xf5, 0x3c, 0x3d, 0xe4, 0x71, 0x22, 0x3c, 0x84, 0x5e, 0x03, 0x3b, 0xc5, 0xb4,
    0x86, 0x3c, 0x1a, 0x18, 0x21, 0xbe, 0x8f, 0xa0, 0x7a, 0xbe, 0xe7, 0x3b, 0x3e,
    0xbe, 0x4f, 0xd0, 0xc8, 0x3e, 0x83, 0x52, 0x93, 0xbe, 0xe3, 0x6c, 0xb0, 0xbd,
    0xb7, 0x46, 0xa9, 0xbd, 0x01, 0x24, 0x88, 0x3e, 0x58, 0x29, 0x2b, 0xbe, 0x70,
    0x03, 0x26, 0xbe, 0x8b, 0xda, 0xe0, 0xbd, 0x8a, 0x51, 0xad, 0x3e, 0x84, 0xb2,
    0x61, 0xbe, 0x74, 0x70, 0x3c, 0xbd, 0xfd, 0xd3, 0xb9, 0xbd, 0xc2, 0xca, 0x68,
    0x3e, 0xe1, 0x21, 0x34, 0xbe, 0x7e, 0x44, 0x5b, 0xbe, 0x03, 0xc9, 0xb9, 0xbd,
    0xda, 0x14, 0xb3, 0x3e, 0x0f, 0xd1, 0x83, 0xbe, 0x35, 0x16, 0xfe, 0xbd, 0x09,
    0x1b, 0x51, 0xbd, 0x96, 0x94, 0xa9, 0x3e, 0x01, 0x40, 0x08, 0xbe, 0xc1, 0x1f,
    0x80, 0xbe, 0x0f, 0xa2, 0xb7, 0xbd, 0x57, 0x04, 0xc0, 0x3e, 0x65, 0x21, 0x37,
    0xbe, 0x83, 0x38, 0xee, 0xbd, 0x36, 0x18, 0x84, 0xbc, 0xf3, 0x62, 0xac, 0x3e,
    0x54, 0x45, 0x1e, 0xbe, 0xf7, 0x4a, 0x5c, 0xbe, 0x0c, 0x77, 0x06, 0xbe, 0x39,
    0xd4, 0xc9, 0x3e, 0x9d, 0xe9, 0x1a, 0xbe, 0xb7, 0x3e, 0x81, 0xbd, 0xdd, 0xc6,
    0xa6, 0xbc, 0x00, 0xcb, 0x53, 0x3e, 0x7d, 0x5b, 0x45, 0xbe, 0x3e, 0x38, 0x60,
    0xbe, 0x24, 0x1a, 0xc8, 0xbd, 0xe9, 0xb2, 0xb9, 0x3e, 0x15, 0x93, 0x4f, 0xbe,
    0xd2, 0x76, 0x88, 0xbd, 0x26, 0x2a, 0xe2, 0xbd, 0xd2, 0xcc, 0x74, 0x3e, 0x8d,
    0xa2, 0x39, 0xbe, 0xc0, 0x3d, 0x42, 0xbe, 0x48, 0xc1, 0xdd, 0xbd, 0x61, 0xad,
    0x66, 0x3e, 0xbb, 0x3e, 0x85, 0xbe, 0x95, 0x37, 0xae, 0xbd, 0xfe, 0x8f, 0x9f,
    0xbc, 0x18, 0xf8, 0x4f, 0x3e, 0x6d, 0xaf, 0xc9, 0xbd, 0xbb, 0xb0, 0x3c, 0xbe,
    0x22, 0x8b, 0x09, 0xbe, 0x4e, 0x67, 0xed, 0x3e, 0xdc, 0xd3, 0x5a, 0xbe, 0xd0,
    0xcd, 0x81, 0xbd, 0x0b, 0x16, 0x76, 0xbd, 0x91, 0x2c, 0x88, 0x3e, 0xcb, 0xef,
    0xc0, 0xbd, 0x8c, 0x3c, 0x52, 0xbe, 0x5a, 0x7b, 0x2c, 0xbe, 0xff, 0xbd, 0x7c,
    0x3e, 0x30, 0x0d, 0x74, 0xbe, 0x84, 0x4a, 0x00, 0xbe, 0xf3, 0xdb, 0x94, 0x3b,
    0x1a, 0xe5, 0x85, 0x3e, 0x3d, 0x1c, 0xa6, 0xbd, 0xee, 0xeb, 0x31, 0xbe, 0x3f,
    0x70, 0x26, 0xbe, 0x5a, 0x56, 0xe3, 0x3e, 0xfe, 0x79, 0x39, 0xbe, 0x36, 0x4e,
    0xcf, 0xbd, 0xe8, 0x55, 0xca, 0x3c, 0xa3, 0x33, 0x45, 0x3e, 0xce, 0xc2, 0xa0,
    0xbd, 0xc8, 0xd1, 0x40, 0xbe, 0xdf, 0x4d, 0xc0, 0xbd, 0x3f, 0x17, 0x62, 0x3e,
    0x4d, 0xc6, 0x52, 0xbe, 0xc9, 0xe9, 0x0d, 0xbe, 0x05, 0xd1, 0xb2, 0xbb, 0xfd,
    0xf8, 0x6b, 0x3e, 0x81, 0xb7, 0x14, 0xbe, 0xe5, 0xae, 0x67, 0xbe, 0xb9, 0x3b,
    0x1b, 0xbe, 0x9e, 0xd3, 0x98, 0x3e, 0xb1, 0xd7, 0x8b, 0xbe, 0xca, 0x38, 0xf4,
    0xbd, 0x15, 0xd0, 0x8f, 0xbd, 0x36, 0x65, 0x83, 0x3e, 0x89, 0x4b, 0x43, 0xbe,
    0xb2, 0x76, 0x4f, 0xbe, 0xd9, 0xeb, 0x05, 0xbe, 0x95, 0x70, 0xbc, 0x3e, 0x55,
    0xaa, 0x67, 0xbe, 0xf7, 0x1c, 0xb5, 0xbd, 0x34, 0x7f, 0x97, 0xbd, 0xf0, 0x9c,
    0xa2, 0x3d, 0x94, 0xba, 0x57, 0xbe, 0x39, 0xdf, 0x85, 0xbe, 0xb4, 0x56, 0x3d,
    0xbe, 0xe5, 0xba, 0x86, 0x3e, 0x94, 0x82, 0x8b, 0xbe, 0xdd, 0xf5, 0x83, 0xbd,
    0x71, 0xb6, 0xe1, 0xbd, 0xf2, 0xae, 0xe6, 0x3d, 0xa7, 0x50, 0x3d, 0xbe, 0x50,
    0xb2, 0x5e, 0xbe, 0x6a, 0xcd, 0x1a, 0xbe, 0xea, 0xa7, 0xcb, 0x3e, 0x17, 0x32,
    0x5c, 0xbe, 0xa2, 0xbc, 0x14, 0xbe, 0xa0, 0xab, 0x79, 0xbd, 0x5a, 0x67, 0x4a,
    0x3e, 0xa5, 0xc3, 0xb2, 0x8c, 0x99, 0x5c, 0xd0, 0x8c, 0xd6, 0x2e, 0xa5, 0x8c,
    0xb9, 0x72, 0xd1, 0x8c, 0x3c, 0x4e, 0x35, 0x8b, 0x49, 0x6c, 0xcf, 0x8c, 0x6c,
    0x06, 0xd8, 0x8b, 0xed, 0x1e, 0xd9, 0x8c, 0x64, 0x91, 0xe5, 0x0c, 0x29, 0x52,
    0x2a, 0x8c, 0x73, 0xad, 0xb3, 0x8c, 0xe8, 0x7a, 0xcd, 0x8c, 0x9d, 0x0c, 0xc6,
    0x8c, 0x13, 0xc1, 0xbe, 0x8c, 0xc2, 0x40, 0x99, 0x0c, 0x9e, 0xee, 0xd2, 0x8c,
    0xdf, 0x0a, 0xa6, 0x8c, 0x2f, 0x8b, 0xd0, 0x8c, 0x1b, 0x33, 0xb9, 0x8c, 0x84,
    0x78, 0xd5, 0x8c, 0x51, 0xca, 0x84, 0x8c, 0x68, 0xf0, 0xbc, 0x8c, 0x7b, 0xf4,
    0x2b, 0x8c, 0x62, 0x2b, 0xd8, 0x8c, 0x9b, 0x92, 0x99, 0x8c, 0x55, 0x44, 0xd5,
    0x8c, 0x22, 0x9d, 0xa6, 0x8c, 0xcf, 0x7b, 0xd4, 0x8c, 0x99, 0x2c, 0xc7, 0x8c,
    0x0e, 0xac, 0x93, 0x8c, 0xa9, 0x38, 0xe3, 0x0c, 0xf0, 0x2f, 0xd9, 0x8c, 0xb4,
    0xf7, 0xb3, 0x8c, 0xa3, 0xfd, 0xca, 0x8c, 0x66, 0x29, 0x40, 0x8c, 0x88, 0x0c,
    0xd0, 0x8c, 0x0e, 0xf0, 0xc8, 0x8c, 0x41, 0x2d, 0xc5, 0x8c, 0xe7, 0xe7, 0x21,
    0x8c, 0x90, 0x1b, 0xd8, 0x8c, 0x80, 0x19, 0x82, 0x8c, 0xba, 0xd4, 0xb7, 0x8c,
    0xae, 0x48, 0x9d, 0x8c, 0xb8, 0x0d, 0xd3, 0x8c, 0xb2, 0x46, 0xca, 0x8c, 0x5c,
    0xce, 0xb7, 0x8c, 0x95, 0xf7, 0x76, 0x8c, 0xa7, 0xbf, 0xd3, 0x8c, 0xef, 0x47,
    0x94, 0x8c, 0x1e, 0xfd, 0x01, 0x0d, 0x45, 0x98, 0xbd, 0x8c, 0xb4, 0xcf, 0xd6,
    0x8c, 0x50, 0xc2, 0x9a, 0x8c, 0x3d, 0x62, 0x96, 0x8c, 0xcc, 0xba, 0xd1, 0x0c,
    0x35, 0x8e, 0xda, 0x8c, 0x33, 0x99, 0x3c, 0x0c, 0x18, 0xef, 0xce, 0x8c, 0x81,
    0x00, 0x9f, 0x8c, 0x13, 0x1d, 0xd0, 0x8c, 0xff, 0xe6, 0xc7, 0x8c, 0x82, 0xcb,
    0xcf, 0x8c, 0x65, 0x79, 0x56, 0x8c, 0x0c, 0xeb, 0xd7, 0x8c, 0x51, 0xd8, 0x7e,
    0x8c, 0xdb, 0xf3, 0xce, 0x8c, 0x23, 0x0a, 0x9c, 0x8c, 0xd2, 0x0a, 0xd8, 0x8c,
    0xef, 0xbf, 0xc2, 0x8c, 0x06, 0xe9, 0xcb, 0x8c, 0x1b, 0xde, 0x04, 0x8c, 0x99,
    0x55, 0xdd, 0x8c, 0xa5, 0x5f, 0xa9, 0x0c, 0x97, 0x57, 0xb7, 0x8c, 0xdc, 0xb1,
    0x8e, 0x8c, 0xd8, 0x85, 0xd5, 0x8c, 0x95, 0xd8, 0xc3, 0x8c, 0x88, 0x68, 0x6e,
    0x8c, 0x66, 0x16, 0x49, 0x8c, 0x07, 0xab, 0xd2, 0x8c, 0x08, 0x5b, 0xb3, 0x8c,
    0xab, 0x67, 0xd6, 0x8c, 0xc3, 0xae, 0xab, 0x8c, 0x69, 0x54, 0xcc, 0x8c, 0x96,
    0x04, 0xca, 0x8c, 0x2d, 0xef, 0xca, 0x8c, 0x9c, 0x00, 0xcb, 0x8b, 0x96, 0x4c,
    0xd8, 0x8c, 0xdf, 0xac, 0xa4, 0x8c, 0xf8, 0xd0, 0x45, 0x8a, 0x04, 0x2f, 0xb6,
    0x8c, 0x0a, 0xbd, 0xd6, 0x8c, 0xdb, 0xf7, 0xbb, 0x8c, 0x5a, 0x32, 0xad, 0x8c,
    0x92, 0x4f, 0x0e, 0x8c, 0x46, 0x16, 0xd2, 0x8c, 0x4a, 0x8b, 0x8c, 0x0c, 0x4a,
    0xf2, 0xb3, 0x8c, 0xf6, 0x16, 0x1c, 0x0d, 0x71, 0x08, 0xd3, 0x8c, 0xde, 0xb9,
    0xc2, 0x8c, 0x7e, 0xd4, 0xb8, 0x8c, 0xb4, 0x48, 0x08, 0x8c, 0xd7, 0xf5, 0xe1,
    0x8c, 0xb5, 0x26, 0xb6, 0x8c, 0x78, 0x07, 0xd2, 0x8c, 0xde, 0x93, 0xb0, 0x8c,
    0x37, 0xbd, 0xd2, 0x8c, 0xdc, 0x6d, 0xc8, 0x8c, 0xbb, 0xaa, 0xc6, 0x8c, 0xd5,
    0x11, 0x8a, 0x0c, 0x2d, 0xd3, 0xdf, 0x8c, 0x38, 0x96, 0xb8, 0x8c, 0xcb, 0x31,
    0x94, 0x8c, 0xae, 0xfc, 0xb6, 0x8c, 0xc0, 0xb6, 0xcf, 0x8c, 0xb3, 0x91, 0xc4,
    0x8c, 0x62, 0x81, 0x62, 0x8c, 0x7e, 0xc8, 0x22, 0x0d, 0x44, 0x25, 0xd4, 0x8c,
    0x5d, 0xa5, 0x49, 0xbc, 0xc1, 0xd0, 0xb5, 0x3d, 0xa5, 0xaa, 0xd2, 0xbc, 0x7d,
    0x80, 0x7c, 0xbd, 0x3c, 0x0b, 0x43, 0x3d, 0x3f, 0x07, 0x0e, 0xbd, 0x92, 0x93,
    0x40, 0xbd, 0xee, 0xa1, 0xbd, 0x3d, 0x8a, 0xb2, 0x2a, 0xbb, 0x0d, 0x95, 0xb7,
    0x3c, 0xb9, 0xe0, 0x1b, 0xbc, 0xb6, 0xb3, 0x18, 0xbd, 0x32, 0x72, 0x7a, 0x3d,
    0x86, 0x6a, 0xee, 0xbc, 0xb2, 0x18, 0x4b, 0xbd, 0xd7, 0x80, 0x08, 0x3e, 0xd4,
    0xc4, 0x2b, 0x3d, 0x5c, 0x53, 0xd0, 0x3c, 0xa9, 0xca, 0xa8, 0xbc, 0x15, 0xa0,
    0x3e, 0xbd, 0x27, 0xf0, 0x1c, 0x3d, 0xb2, 0xaa, 0x66, 0xbd, 0x09, 0xd3, 0x47,
    0xbd, 0xaa, 0x02, 0x4e, 0x3d, 0x0a, 0x73, 0xad, 0x3c, 0xe9, 0x00, 0xd5, 0x3c,
    0xe5, 0xa8, 0x9a, 0xbb, 0x5b, 0xa4, 0x07, 0xbd, 0x30, 0x81, 0x69, 0x3d, 0x16,
    0x66, 0x80, 0xbd, 0xd5, 0x16, 0x40, 0xbd, 0x2e, 0x32, 0xb7, 0x3d, 0x95, 0x1c,
    0x75, 0x3d, 0xc9, 0x4d, 0x4a, 0x3d, 0x55, 0x90, 0xba, 0x3b, 0xab, 0xe9, 0x34,
    0xbd, 0x0e, 0x40, 0x28, 0x3d, 0xcd, 0xc8, 0x85, 0xbd, 0xed, 0x6e, 0xbb, 0xbc,
    0xf0, 0xfa, 0xe5, 0x3d, 0x1f, 0x80, 0x7a, 0x3d, 0x3d, 0xc0, 0xa3, 0x3c, 0x7d,
    0x38, 0x9a, 0x3b, 0x71, 0xbe, 0xb3, 0xbc, 0x5d, 0x65, 0x0d, 0x3d, 0x00, 0xc3,
    0xa0, 0xbd, 0xe2, 0x0a, 0x70, 0xbd, 0xe8, 0xe3, 0x08, 0x3d, 0x12, 0xb2, 0x2b,
    0x3d, 0xc2, 0x63, 0x8d, 0x3d, 0xd7, 0xd2, 0x7a, 0x3b, 0xb5, 0x34, 0xb1, 0xbc,
    0x83, 0x56, 0x80, 0x3d, 0xa3, 0x42, 0x4b, 0xbd, 0x19, 0x37, 0x60, 0xbd, 0xa0,
    0xc4, 0x95, 0x3d, 0x51, 0xac, 0xa6, 0x3c, 0xe5, 0x69, 0xaf, 0x3d, 0x47, 0x23,
    0xa7, 0xb9, 0x51, 0x1b, 0x5c, 0xbc, 0x6f, 0x8e, 0x39, 0x3d, 0x26, 0x6c, 0xb1,
    0xbc, 0x0a, 0x67, 0x73, 0xbd, 0x9e, 0xf2, 0xdf, 0x3d, 0xec, 0x90, 0x53, 0xbc,
    0x37, 0x4f, 0x8c, 0x3c, 0x3f, 0xb2, 0xaf, 0x39, 0x0c, 0x23, 0x14, 0xbd, 0xa3,
    0x42, 0x8d, 0x3d, 0x43, 0xbc, 0xae, 0xbc, 0xf9, 0x44, 0x8e, 0xbd, 0x9a, 0xb0,
    0x9c, 0x3d, 0x3f, 0x73, 0x87, 0x3c, 0xe3, 0xbf, 0x2a, 0x3d, 0x32, 0x3f, 0xb2,
    0x3b, 0x2e, 0xa5, 0x79, 0xbc, 0xec, 0x6a, 0x74, 0x3d, 0x5d, 0x82, 0x13, 0xbc,
    0xff, 0x5a, 0x93, 0xbd, 0x24, 0x6a, 0xe9, 0x3d, 0x5a, 0xbf, 0x09, 0x3c, 0x0a,
    0x6c, 0x88, 0x3d, 0xbd, 0xbc, 0x75, 0xbc, 0x24, 0x7f, 0xa2, 0xbc, 0x0a, 0x4a,
    0x5c, 0x3d, 0xf5, 0xeb, 0xa2, 0x3b, 0xfb, 0x87, 0x66, 0xbd, 0xfd, 0x20, 0xfa,
    0x3c, 0xd5, 0xd0, 0x0a, 0x3d, 0x74, 0x66, 0xa6, 0x3d, 0xe8, 0x36, 0x6b, 0x3c,
    0xb6, 0x0a, 0x2e, 0xbd, 0xbf, 0xbe, 0x04, 0x3d, 0xea, 0x0e, 0x08, 0xbd, 0xd4,
    0x78, 0x15, 0xbd, 0xd7, 0xf9, 0x9b, 0x3c, 0x0d, 0x73, 0xd5, 0x3c, 0x06, 0x23,
    0x78, 0x3d, 0xe2, 0x79, 0x65, 0x3c, 0xd1, 0x87, 0x84, 0xbd, 0x8d, 0xd0, 0x45,
    0x3d, 0x97, 0x2b, 0xae, 0xbc, 0x9b, 0x90, 0x03, 0xbd, 0xd9, 0x81, 0xf9, 0x3d,
    0x86, 0x43, 0xa3, 0x3d, 0xd5, 0x40, 0x33, 0x3d, 0xe6, 0xc1, 0x73, 0x3c, 0xf0,
    0x31, 0x26, 0xbc, 0x6e, 0x17, 0x9a, 0x3d, 0x87, 0x61, 0x2a, 0xbd, 0x83, 0xbc,
    0x0a, 0xbd, 0x3d, 0x63, 0x83, 0x3c, 0x67, 0xad, 0x8d, 0x3d, 0x14, 0xaf, 0x2d,
    0x3d, 0x9c, 0x72, 0x15, 0x3d, 0x2b, 0xc5, 0x82, 0xbd, 0x14, 0x4f, 0x9b, 0x3d,
    0x76, 0x1b, 0x76, 0xbd, 0x18, 0x1e, 0x20, 0xbd, 0xef, 0x7c, 0x9a, 0x3d, 0xb6,
    0xe8, 0xd7, 0x3b, 0x23, 0x1d, 0x03, 0x3d, 0xf9, 0x92, 0x75, 0x3c, 0x3e, 0x66,
    0x8e, 0xbc, 0x68, 0xd2, 0x3e, 0x3d, 0x29, 0x3c, 0x04, 0x3c, 0x3a, 0xa8, 0x62,
    0x3b, 0x78, 0x8d, 0x46, 0x3c, 0xa0, 0x4f, 0xe0, 0x3b, 0x86, 0x7d, 0x01, 0x3d,
    0xba, 0xad, 0x51, 0x3c, 0xd4, 0x72, 0x71, 0xbc, 0xb3, 0x4c, 0x2d, 0x3d, 0xb8,
    0x02, 0x08, 0x3c, 0xfc, 0xf2, 0x4b, 0x3b, 0x6c, 0x46, 0x4d, 0x3c, 0x51, 0xad,
    0xcf, 0x3b, 0xba, 0x9b, 0x08, 0x3d, 0x7e, 0x17, 0x4c, 0x3c, 0x1e, 0xa0, 0x76,
    0xbc, 0xcf, 0x80, 0x1c, 0x3d, 0x8a, 0x55, 0x32, 0x3c, 0xea, 0x79, 0xf2, 0x3b,
    0x9c, 0xbc, 0x1e, 0x3c, 0xb0, 0xbe, 0x1e, 0x3c, 0x55, 0x26, 0xf2, 0x3c, 0xd2,
    0xc5, 0x59, 0x3c, 0x4b, 0x27, 0x55, 0xbc, 0x55, 0x25, 0x20, 0x3d, 0x10, 0xad,
    0x5b, 0x3c, 0x7f, 0x1f, 0xe0, 0x3a, 0x7e, 0xd4, 0x09, 0x3c, 0x05, 0xc1, 0x2e,
    0x3c, 0xf1, 0x53, 0x03, 0x3d, 0x72, 0xae, 0x6e, 0x3c, 0xd8, 0x6f, 0x89, 0xbc,
    0x1b, 0x56, 0x1c, 0x3d, 0x1b, 0x49, 0xe0, 0x3b, 0x1b, 0x39, 0x6d, 0x3c, 0xaa,
    0x1d, 0x41, 0x3c, 0x21, 0x5d, 0x43, 0x3c, 0xc6, 0xf8, 0xe2, 0x3c, 0x9f, 0x5a,
    0x8b, 0x3c, 0x95, 0xad, 0x86, 0xbc, 0x9a, 0xc0, 0x0b, 0x3d, 0xbe, 0x45, 0xdc,
    0x3a, 0x7d, 0x25, 0x97, 0x3b, 0x0a, 0xce, 0x25, 0x3c, 0xb8, 0xab, 0x32, 0x3c,
    0x51, 0xef, 0xe3, 0x3c, 0xef, 0x53, 0x68, 0x3c, 0xd8, 0x08, 0x16, 0xbc, 0x96,
    0xc3, 0x30, 0x3d, 0xf9, 0xc4, 0x3a, 0x3c, 0xd8, 0x85, 0x2a, 0xbb, 0x6c, 0x66,
    0x41, 0x3c, 0x01, 0x78, 0x7b, 0x3b, 0x1e, 0x1b, 0x13, 0x3d, 0xe1, 0x0c, 0x61,
    0x3c, 0x2f, 0xc5, 0xfc, 0xbb, 0x27, 0x09, 0x14, 0x3d, 0x0a, 0x5a, 0x76, 0x3c,
    0x52, 0x3e, 0x2e, 0xbb, 0xe4, 0xca, 0x35, 0x3c, 0x9e, 0x36, 0xc3, 0x3b, 0xf3,
    0xab, 0x06, 0x3d, 0xb6, 0x86, 0x89, 0x3c, 0x4e, 0x24, 0x10, 0xbc, 0xd2, 0xae,
    0x34, 0x3d, 0x67, 0x46, 0x7e, 0x3c, 0x84, 0x09, 0xa8, 0xbb, 0xb0, 0x23, 0x2e,
    0x3c, 0xba, 0x09, 0xe2, 0x3b, 0x80, 0x5b, 0x09, 0x3d, 0xd6, 0x56, 0x43, 0x3c,
    0x85, 0xb9, 0x89, 0xbb, 0xc4, 0xf6, 0x23, 0x3d, 0x5c, 0x58, 0xbd, 0x3c, 0x58,
    0x61, 0xc7, 0xbb, 0xce, 0x0e, 0x06, 0x3c, 0x8d, 0xf7, 0xe1, 0x3b, 0xdd, 0x01,
    0x24, 0x3d, 0xe8, 0x20, 0x5a, 0x3c, 0xf0, 0xfb, 0x2d, 0xbc, 0x1f, 0xe2, 0x28,
    0x3d, 0x92, 0x18, 0x76, 0x3c, 0x4d, 0xac, 0xaf, 0x3a, 0x7f, 0xcd, 0x32, 0x3c,
    0xbd, 0x50, 0x4b, 0x3c, 0x83, 0x29, 0x29, 0x3d, 0xa0, 0x5b, 0x82, 0x3c, 0x65,
    0xfc, 0x40, 0xbc, 0x3b, 0x1a, 0x1c, 0x3d, 0x97, 0xdf, 0x17, 0x3c, 0xbc, 0x44,
    0x8e, 0x3b, 0xc2, 0x05, 0x17, 0x3c, 0x82, 0xf6, 0x97, 0x3c, 0x0c, 0xee, 0x20,
    0x3d, 0xb6, 0xb8, 0xb0, 0x3c, 0x58, 0x95, 0x81, 0xbc, 0x6f, 0xbd, 0x3b, 0x3d,
    0x64, 0x3a, 0x52, 0x3c, 0xd2, 0x7f, 0x24, 0x3c, 0x12, 0xf8, 0x59, 0x3c, 0x48,
    0xba, 0x9b, 0x3c, 0x28, 0x77, 0x25, 0x3d, 0xbe, 0xb8, 0xc9, 0x3c, 0x42, 0x18,
    0x75, 0xbc, 0x4b, 0x42, 0x2a, 0x3d, 0xa0, 0x2a, 0x71, 0x3c, 0x1a, 0x16, 0x98,
    0x3b, 0x54, 0x9f, 0x51, 0x3c, 0x9d, 0x22, 0xa8, 0x3c, 0x73, 0xe1, 0x01, 0x3d,
    0x7c, 0x1c, 0xfe, 0x3c, 0x7f, 0xc5, 0x50, 0xbc, 0xc6, 0x36, 0x43, 0x3d, 0xf5,
    0xc8, 0x35, 0x3c, 0x7a, 0x4d, 0xd4, 0x3a, 0xc0, 0x15, 0x81, 0x3c, 0x6e, 0xfe,
    0xff, 0xff, 0x10, 0x00, 0x00, 0x00, 0x06, 0x00, 0x00, 0x00, 0x14, 0x00, 0x00,
    0x00, 0x30, 0x00, 0x00, 0x00, 0x02, 0x00, 0x00, 0x00, 0x10, 0x00, 0x00, 0x00,
    0x78, 0x00, 0x00, 0x00, 0x1b, 0x00, 0x00, 0x00, 0x73, 0x65, 0x71, 0x75, 0x65,
    0x6e, 0x74, 0x69, 0x61, 0x6c, 0x5f, 0x31, 0x2f, 0x64, 0x65, 0x6e, 0x73, 0x65,
    0x5f, 0x33, 0x2f, 0x4d, 0x61, 0x74, 0x4d, 0x75, 0x6c, 0x00, 0x60, 0xfd, 0xff,
    0xff, 0x42, 0xfe, 0xff, 0xff, 0x04, 0x00, 0x00, 0x00, 0x20, 0x00, 0x00, 0x00,
    0xd2, 0x08, 0x48, 0xbe, 0xd9, 0x1a, 0x8e, 0xbd, 0x04, 0x3e, 0x64, 0xbd, 0x98,
    0xc0, 0x2e, 0x3f, 0xc1, 0xe3, 0x3b, 0xbd, 0xf0, 0x1c, 0x49, 0xbd, 0x9e, 0xfc,
    0x4b, 0xbd, 0x4d, 0xe9, 0x41, 0x3f, 0xde, 0xfe, 0xff, 0xff, 0x10, 0x00, 0x00,
    0x00, 0x05, 0x00, 0x00, 0x00, 0x10, 0x00, 0x00, 0x00, 0x48, 0x00, 0x00, 0x00,
    0x01, 0x00, 0x00, 0x00, 0x08, 0x00, 0x00, 0x00, 0x35, 0x00, 0x00, 0x00, 0x73,
    0x65, 0x71, 0x75, 0x65, 0x6e, 0x74, 0x69, 0x61, 0x6c, 0x5f, 0x31, 0x2f, 0x63,
    0x6f, 0x6e, 0x76, 0x32, 0x64, 0x5f, 0x32, 0x2f, 0x42, 0x69, 0x61, 0x73, 0x41,
    0x64, 0x64, 0x2f, 0x52, 0x65, 0x61, 0x64, 0x56, 0x61, 0x72, 0x69, 0x61, 0x62,
    0x6c, 0x65, 0x4f, 0x70, 0x2f, 0x72, 0x65, 0x73, 0x6f, 0x75, 0x72, 0x63, 0x65,
    0x00, 0x00, 0x00, 0xe8, 0xfd, 0xff, 0xff, 0xca, 0xfe, 0xff, 0xff, 0x04, 0x00,
    0x00, 0x00, 0x40, 0x00, 0x00, 0x00, 0x25, 0xcf, 0xde, 0xbd, 0x36, 0x62, 0xd3,
    0xbd, 0xab, 0x85, 0x59, 0x3d, 0x70, 0x58, 0x5c, 0xbc, 0x56, 0x0d, 0x1d, 0xbe,
    0xd3, 0xdf, 0x6c, 0xbe, 0x27, 0xf1, 0xfd, 0xbd, 0xa4, 0x22, 0x15, 0xbe, 0x0d,
    0x51, 0x38, 0x3e, 0x04, 0x86, 0xaa, 0x3c, 0xf9, 0xde, 0xdd, 0x3d, 0xd5, 0x55,
    0x44, 0xbb, 0x40, 0x16, 0xb8, 0x3e, 0x1c, 0x9c, 0xd7, 0x8c, 0x57, 0x9c, 0x8e,
    0x3d, 0x8e, 0x3c, 0x4c, 0xbb, 0x86, 0xff, 0xff, 0xff, 0x10, 0x00, 0x00, 0x00,
    0x04, 0x00, 0x00, 0x00, 0x10, 0x00, 0x00, 0x00, 0x48, 0x00, 0x00, 0x00, 0x01,
    0x00, 0x00, 0x00, 0x10, 0x00, 0x00, 0x00, 0x34, 0x00, 0x00, 0x00, 0x73, 0x65,
    0x71, 0x75, 0x65, 0x6e, 0x74, 0x69, 0x61, 0x6c, 0x5f, 0x31, 0x2f, 0x64, 0x65,
    0x6e, 0x73, 0x65, 0x5f, 0x33, 0x2f, 0x42, 0x69, 0x61, 0x73, 0x41, 0x64, 0x64,
    0x2f, 0x52, 0x65, 0x61, 0x64, 0x56, 0x61, 0x72, 0x69, 0x61, 0x62, 0x6c, 0x65,
    0x4f, 0x70, 0x2f, 0x72, 0x65, 0x73, 0x6f, 0x75, 0x72, 0x63, 0x65, 0x00, 0x00,
    0x00, 0x00, 0x90, 0xfe, 0xff, 0xff, 0x72, 0xff, 0xff, 0xff, 0x04, 0x00, 0x00,
    0x00, 0x10, 0x00, 0x00, 0x00, 0x33, 0x57, 0x87, 0xbd, 0x43, 0xfb, 0xf2, 0xbe,
    0x90, 0x11, 0x05, 0x3f, 0xaa, 0x2e, 0x8a, 0xbd, 0x00, 0x00, 0x0e, 0x00, 0x14,
    0x00, 0x04, 0x00, 0x00, 0x00, 0x08, 0x00, 0x0c, 0x00, 0x10, 0x00, 0x0e, 0x00,
    0x00, 0x00, 0x10, 0x00, 0x00, 0x00, 0x03, 0x00, 0x00, 0x00, 0x10, 0x00, 0x00,
    0x00, 0x4c, 0x00, 0x00, 0x00, 0x01, 0x00, 0x00, 0x00, 0x04, 0x00, 0x00, 0x00,
    0x34, 0x00, 0x00, 0x00, 0x73, 0x65, 0x71, 0x75, 0x65, 0x6e, 0x74, 0x69, 0x61,
    0x6c, 0x5f, 0x31, 0x2f, 0x64, 0x65, 0x6e, 0x73, 0x65, 0x5f, 0x34, 0x2f, 0x42,
    0x69, 0x61, 0x73, 0x41, 0x64, 0x64, 0x2f, 0x52, 0x65, 0x61, 0x64, 0x56, 0x61,
    0x72, 0x69, 0x61, 0x62, 0x6c, 0x65, 0x4f, 0x70, 0x2f, 0x72, 0x65, 0x73, 0x6f,
    0x75, 0x72, 0x63, 0x65, 0x00, 0x00, 0x00, 0x00, 0x04, 0x00, 0x06, 0x00, 0x04,
    0x00, 0x00, 0x00, 0x00, 0x00, 0x06, 0x00, 0x08, 0x00, 0x04, 0x00, 0x06, 0x00,
    0x00, 0x00, 0x04, 0x00, 0x00, 0x00, 0x08, 0x00, 0x00, 0x00, 0xff, 0xff, 0xff,
    0xff, 0x78, 0x00, 0x00, 0x00, 0x00, 0x00, 0x0e, 0x00, 0x18, 0x00, 0x08, 0x00,
    0x07, 0x00, 0x0c, 0x00, 0x10, 0x00, 0x14, 0x00, 0x0e, 0x00, 0x00, 0x00, 0x00,
    0x00, 0x00, 0x02, 0x10, 0x00, 0x00, 0x00, 0x02, 0x00, 0x00, 0x00, 0x10, 0x00,
    0x00, 0x00, 0x30, 0x00, 0x00, 0x00, 0x01, 0x00, 0x00, 0x00, 0x02, 0x00, 0x00,
    0x00, 0x1c, 0x00, 0x00, 0x00, 0x73, 0x65, 0x71, 0x75, 0x65, 0x6e, 0x74, 0x69,
    0x61, 0x6c, 0x5f, 0x31, 0x2f, 0x66, 0x6c, 0x61, 0x74, 0x74, 0x65, 0x6e, 0x5f,
    0x31, 0x2f, 0x43, 0x6f, 0x6e, 0x73, 0x74, 0x00, 0x00, 0x00, 0x00, 0x90, 0xff,
    0xff, 0xff, 0x14, 0x00, 0x18, 0x00, 0x04, 0x00, 0x00, 0x00, 0x08, 0x00, 0x0c,
    0x00, 0x10, 0x00, 0x00, 0x00, 0x00, 0x00, 0x14, 0x00, 0x14, 0x00, 0x00, 0x00,
    0x14, 0x00, 0x00, 0x00, 0x01, 0x00, 0x00, 0x00, 0x34, 0x00, 0x00, 0x00, 0x44,
    0x00, 0x00, 0x00, 0x18, 0x00, 0x00, 0x00, 0x04, 0x00, 0x00, 0x00, 0x01, 0x00,
    0x00, 0x00, 0x80, 0x00, 0x00, 0x00, 0x01, 0x00, 0x00, 0x00, 0x03, 0x00, 0x00,
    0x00, 0x04, 0x00, 0x00, 0x00, 0xff, 0xff, 0xff, 0xff, 0x80, 0x00, 0x00, 0x00,
    0x01, 0x00, 0x00, 0x00, 0x03, 0x00, 0x00, 0x00, 0x0c, 0x00, 0x00, 0x00, 0x61,
    0x63, 0x63, 0x65, 0x6c, 0x65, 0x72, 0x61, 0x74, 0x69, 0x6f, 0x6e, 0x00, 0x00,
    0x00, 0x00, 0xfc, 0xff, 0xff, 0xff, 0x04, 0x00, 0x04, 0x00, 0x04, 0x00, 0x00,
    0x00,
};
const int tensorflow_model_lcnn_len = 10908;
